{
  "version": "1.0",
  "truncation": null,
  "padding": null,
  "added_tokens": [
    {
      "id": 0,
      "content": "[CLS]",
      "single_word": false,
      "lstrip": false,
      "rstrip": false,
      "normalized": false,
      "special": true
    },
    {
      "id": 1,
      "content": "[SEP]",
      "single_word": false,
      "lstrip": false,
      "rstrip": false,
      "normalized": false,
      "special": true
    },
    {
      "id": 2,
      "content": "[PAD]",
      "single_word": false,
      "lstrip": false,
      "rstrip": false,
      "normalized": false,
      "special": true
    },
    {
      "id": 3,
      "content": "[UNK]",
      "single_word": false,
      "lstrip": false,
      "rstrip": false,
      "normalized": false,
      "special": true
    },
    {
      "id": 4,
      "content": "[MASK]",
      "single_word": false,
      "lstrip": false,
      "rstrip": false,
      "normalized": false,
      "special": true
    }
  ],
  "normalizer": {
    "type": "BertNormalizer",
    "clean_text": true,
    "handle_chinese_chars": true,
    "strip_accents": null,
    "lowercase": false
  },
  "pre_tokenizer": {
    "type": "BertPreTokenizer"
  },
  "post_processor": null,
  "decoder": {
    "type": "WordPiece",
    "prefix": "##",
    "cleanup": true
  },
  "model": {
    "type": "WordPiece",
    "unk_token": "[UNK]",
    "continuing_subword_prefix": "##",
    "max_input_chars_per_word": 100,
    "vocab": {
      "[CLS]": 0,
      "[SEP]": 1,
      "[PAD]": 2,
      "[UNK]": 3,
      "[MASK]": 4,
      "!": 5,
      "$": 6,
      "%": 7,
      "(": 8,
      ")": 9,
      ",": 10,
      "-": 11,
      ".": 12,
      "/": 13,
      "0": 14,
      "1": 15,
      "2": 16,
      "3": 17,
      "4": 18,
      "5": 19,
      "6": 20,
      "7": 21,
      "8": 22,
      "9": 23,
      ":": 24,
      "=": 25,
      "?": 26,
      "@": 27,
      "A": 28,
      "B": 29,
      "C": 30,
      "D": 31,
      "E": 32,
      "F": 33,
      "G": 34,
      "H": 35,
      "I": 36,
      "J": 37,
      "K": 38,
      "L": 39,
      "M": 40,
      "N": 41,
      "O": 42,
      "P": 43,
      "R": 44,
      "S": 45,
      "T": 46,
      "U": 47,
      "V": 48,
      "W": 49,
      "X": 50,
      "Y": 51,
      "Z": 52,
      "[": 53,
      "]": 54,
      "_": 55,
      "a": 56,
      "b": 57,
      "c": 58,
      "d": 59,
      "e": 60,
      "f": 61,
      "g": 62,
      "h": 63,
      "i": 64,
      "j": 65,
      "k": 66,
      "l": 67,
      "m": 68,
      "n": 69,
      "o": 70,
      "p": 71,
      "q": 72,
      "r": 73,
      "s": 74,
      "t": 75,
      "u": 76,
      "v": 77,
      "w": 78,
      "x": 79,
      "y": 80,
      "z": 81,
      "«": 82,
      "»": 83,
      "É": 84,
      "à": 85,
      "â": 86,
      "ç": 87,
      "è": 88,
      "é": 89,
      "î": 90,
      "؟": 91,
      "إ": 92,
      "ا": 93,
      "ب": 94,
      "ة": 95,
      "ت": 96,
      "ج": 97,
      "ح": 98,
      "د": 99,
      "ذ": 100,
      "ر": 101,
      "س": 102,
      "ش": 103,
      "ض": 104,
      "ط": 105,
      "ع": 106,
      "غ": 107,
      "ف": 108,
      "ق": 109,
      "ك": 110,
      "ل": 111,
      "م": 112,
      "ن": 113,
      "ه": 114,
      "و": 115,
      "ى": 116,
      "ي": 117,
      "–": 118,
      "‘": 119,
      "’": 120,
      "“": 121,
      "”": 122,
      "•": 123,
      "…": 124,
      "⁏": 125,
      "€": 126,
      "⏰": 127,
      "⹁": 128,
      "𝗮": 129,
      "𝗯": 130,
      "𝗰": 131,
      "𝗱": 132,
      "𝗲": 133,
      "𝗴": 134,
      "𝗶": 135,
      "𝗷": 136,
      "𝗹": 137,
      "𝗺": 138,
      "𝗻": 139,
      "𝗼": 140,
      "𝗿": 141,
      "𝘁": 142,
      "𝘄": 143,
      "𝘼": 144,
      "𝙏": 145,
      "𝙖": 146,
      "𝙗": 147,
      "𝙘": 148,
      "𝙙": 149,
      "𝙚": 150,
      "𝙞": 151,
      "𝙡": 152,
      "𝙢": 153,
      "𝙣": 154,
      "𝙤": 155,
      "𝙧": 156,
      "𝙨": 157,
      "𝙩": 158,
      "𝙪": 159,
      "𝙫": 160,
      "𞤀": 161,
      "𞤁": 162,
      "𞤂": 163,
      "𞤃": 164,
      "𞤄": 165,
      "𞤅": 166,
      "𞤆": 167,
      "𞤇": 168,
      "𞤈": 169,
      "𞤉": 170,
      "𞤊": 171,
      "𞤋": 172,
      "𞤌": 173,
      "𞤍": 174,
      "𞤎": 175,
      "𞤏": 176,
      "𞤐": 177,
      "𞤑": 178,
      "𞤒": 179,
      "𞤓": 180,
      "𞤔": 181,
      "𞤕": 182,
      "𞤖": 183,
      "𞤗": 184,
      "𞤘": 185,
      "𞤙": 186,
      "𞤚": 187,
      "𞤛": 188,
      "𞤜": 189,
      "𞤝": 190,
      "𞤟": 191,
      "𞤡": 192,
      "𞤢": 193,
      "𞤣": 194,
      "𞤤": 195,
      "𞤥": 196,
      "𞤦": 197,
      "𞤧": 198,
      "𞤨": 199,
      "𞤩": 200,
      "𞤪": 201,
      "𞤫": 202,
      "𞤬": 203,
      "𞤭": 204,
      "𞤮": 205,
      "𞤯": 206,
      "𞤰": 207,
      "𞤱": 208,
      "𞤲": 209,
      "𞤳": 210,
      "𞤴": 211,
      "𞤵": 212,
      "𞤶": 213,
      "𞤷": 214,
      "𞤸": 215,
      "𞤹": 216,
      "𞤺": 217,
      "𞤻": 218,
      "𞤼": 219,
      "𞤽": 220,
      "𞤾": 221,
      "𞤿": 222,
      "𞥀": 223,
      "𞥁": 224,
      "𞥃": 225,
      "𞥄": 226,
      "𞥅": 227,
      "𞥆": 228,
      "𞥇": 229,
      "𞥊": 230,
      "𞥋": 231,
      "𞥐": 232,
      "𞥑": 233,
      "𞥒": 234,
      "𞥓": 235,
      "𞥔": 236,
      "𞥕": 237,
      "𞥖": 238,
      "𞥗": 239,
      "𞥘": 240,
      "𞥙": 241,
      "𞥟": 242,
      "🇦": 243,
      "🇧": 244,
      "🇨": 245,
      "🇩": 246,
      "🇪": 247,
      "🇫": 248,
      "🇬": 249,
      "🇭": 250,
      "🇮": 251,
      "🇯": 252,
      "🇰": 253,
      "🇱": 254,
      "🇲": 255,
      "🇳": 256,
      "🇴": 257,
      "🇵": 258,
      "🇶": 259,
      "🇷": 260,
      "🇸": 261,
      "🇹": 262,
      "🇺": 263,
      "🇻": 264,
      "🇽": 265,
      "🇾": 266,
      "🇿": 267,
      "🎂": 268,
      "🎈": 269,
      "🎉": 270,
      "🏴": 271,
      "🏿": 272,
      "💐": 273,
      "🖐": 274,
      "##𞤮": 275,
      "##𞤯": 276,
      "##𞥆": 277,
      "##𞤭": 278,
      "##𞤲": 279,
      "##𞤺": 280,
      "##𞤤": 281,
      "##𞤪": 282,
      "##𞤢": 283,
      "##𞤱": 284,
      "##𞤫": 285,
      "##𞤣": 286,
      "##𞥅": 287,
      "##𞤧": 288,
      "##𞤥": 289,
      "##𞤦": 290,
      "##𞤩": 291,
      "##𞥄": 292,
      "##𞤴": 293,
      "##𞤵": 294,
      "##𞤄": 295,
      "##𞤶": 296,
      "##𞤼": 297,
      "##𞤈": 298,
      "##𞤁": 299,
      "##𞤌": 300,
      "##𞤏": 301,
      "##𞤀": 302,
      "##𞤐": 303,
      "##𞤳": 304,
      "##𞤋": 305,
      "##𞤊": 306,
      "##𞤨": 307,
      "##𞤰": 308,
      "##𞥋": 309,
      "##𞤉": 310,
      "##𞤬": 311,
      "##𞥓": 312,
      "##𞤅": 313,
      "##𞤃": 314,
      "##𞤷": 315,
      "##𞤂": 316,
      "##𞤑": 317,
      "##🇱": 318,
      "##𞥐": 319,
      "##d": 320,
      "##u": 321,
      "##c": 322,
      "##a": 323,
      "##t": 324,
      "##i": 325,
      "##o": 326,
      "##n": 327,
      "##l": 328,
      "##e": 329,
      "##r": 330,
      "##𞤽": 331,
      "##P": 332,
      "##R": 333,
      "##𞥙": 334,
      "##é": 335,
      "##s": 336,
      "##𞥔": 337,
      "##𞥘": 338,
      "##G": 339,
      "##T": 340,
      "##𞤒": 341,
      "##𞤓": 342,
      "##p": 343,
      "##m": 344,
      "##b": 345,
      "##𞤸": 346,
      "##𞤘": 347,
      "##⏰": 348,
      "##𝙖": 349,
      "##𝙗": 350,
      "##𝙡": 351,
      "##𝙙": 352,
      "##𝙚": 353,
      "##w": 354,
      "##h": 355,
      "##j": 356,
      "##g": 357,
      "##N": 358,
      "##U": 359,
      "##𞤾": 360,
      "##🇺": 361,
      "##𝙤": 362,
      "##𝙢": 363,
      "##𞤚": 364,
      "##𞥑": 365,
      "##D": 366,
      "##3": 367,
      "##5": 368,
      "##𞥗": 369,
      "##𞥖": 370,
      "##𞤟": 371,
      "##𞤻": 372,
      "##ل": 373,
      "##م": 374,
      "##ش": 375,
      "##ا": 376,
      "##ر": 377,
      "##ك": 378,
      "##ة": 379,
      "##ض": 380,
      "##غ": 381,
      "##ط": 382,
      "##𞥃": 383,
      "##𞤛": 384,
      "##v": 385,
      "##🇦": 386,
      "##𞤆": 387,
      "##𞥕": 388,
      "##f": 389,
      "##🇹": 390,
      "##q": 391,
      "##k": 392,
      "##𞤡": 393,
      "##𞤜": 394,
      "##𞤹": 395,
      "##𞥒": 396,
      "##è": 397,
      "##C": 398,
      "##I": 399,
      "##𞤗": 400,
      "##𞤔": 401,
      "##M": 402,
      "##𞤇": 403,
      "##𞥊": 404,
      "##H": 405,
      "##O": 406,
      "##🇾": 407,
      "##ه": 408,
      "##𝗶": 409,
      "##𝗻": 410,
      "##𝗱": 411,
      "##𝗲": 412,
      "##𝗷": 413,
      "##𝗮": 414,
      "##𝗴": 415,
      "##𞥁": 416,
      "##🇸": 417,
      "##y": 418,
      "##E": 419,
      "##A": 420,
      "##ي": 421,
      "##x": 422,
      "##𞤙": 423,
      "##𞤖": 424,
      "##î": 425,
      "##𞤍": 426,
      "##𞥇": 427,
      "##F": 428,
      "##𞤕": 429,
      "##2": 430,
      "##𝗼": 431,
      "##𝗺": 432,
      "##🇷": 433,
      "##🇪": 434,
      "##0": 435,
      "##𞥀": 436,
      "##🎂": 437,
      "##𝗿": 438,
      "##S": 439,
      "##🇰": 440,
      "##𞤿": 441,
      "##L": 442,
      "##B": 443,
      "##𝙫": 444,
      "##𝙞": 445,
      "##𝙨": 446,
      "##🇬": 447,
      "##🇳": 448,
      "##🇩": 449,
      "##ق": 450,
      "##و": 451,
      "##ç": 452,
      "##z": 453,
      "##ت": 454,
      "##𝙘": 455,
      "##𝙧": 456,
      "##𝙪": 457,
      "##𝙩": 458,
      "##𝙣": 459,
      "##ن": 460,
      "##ح": 461,
      "##🇻": 462,
      "##6": 463,
      "##🇶": 464,
      "##K": 465,
      "##ع": 466,
      "##ج": 467,
      "##ب": 468,
      "##8": 469,
      "##1": 470,
      "##🇲": 471,
      "##X": 472,
      "##س": 473,
      "##🇨": 474,
      "##V": 475,
      "##🇽": 476,
      "##7": 477,
      "##🇧": 478,
      "##🇫": 479,
      "##🇮": 480,
      "##4": 481,
      "##🖐": 482,
      "##🏿": 483,
      "##🇭": 484,
      "##🇯": 485,
      "##🇵": 486,
      "##🇴": 487,
      "##W": 488,
      "##𝗯": 489,
      "##𝗹": 490,
      "##🎈": 491,
      "##💐": 492,
      "##ف": 493,
      "##ذ": 494,
      "##â": 495,
      "##ى": 496,
      "##د": 497,
      "##𞤢𞥄": 498,
      "##𞤣𞤫": 499,
      "##𞤮𞥅": 500,
      "##𞤢𞤤": 501,
      "##𞤢𞤲": 502,
      "##𞤭𞥅": 503,
      "##𞤮𞤲": 504,
      "##𞤭𞤲": 505,
      "##𞤵𞤲": 506,
      "##𞤫𞤲": 507,
      "##𞤫𞥅": 508,
      "##𞤮𞤤": 509,
      "##𞤣𞤭": 510,
      "##𞤩𞤫": 511,
      "𞤳𞤢": 512,
      "##𞤢𞤪": 513,
      "##𞤵𞥅": 514,
      "##𞤪𞤫": 515,
      "𞤲𞤺": 516,
      "𞤳𞤮": 517,
      "##𞤢𞤱": 518,
      "##𞤭𞤪": 519,
      "𞤲𞤣𞤫": 520,
      "##𞤢𞤴": 521,
      "𞤱𞤮𞤲": 522,
      "##𞤺𞤮𞤤": 523,
      "##𞤮𞤪": 524,
      "##𞥆𞤫": 525,
      "𞤲𞤮": 526,
      "##𞤭𞤼": 527,
      "𞤩𞤫": 528,
      "##𞤳𞥆": 529,
      "##𞤯𞤫": 530,
      "𞤑𞤮": 531,
      "##𞤲𞤣𞤫": 532,
      "𞤩𞤫𞤲": 533,
      "𞤤𞤫": 534,
      "##𞤵𞤥": 535,
      "##𞤢𞤼": 536,
      "##𞤪𞤭": 537,
      "##𞤯𞤭": 538,
      "𞤥𞤢": 539,
      "##𞤢𞤥": 540,
      "##𞤢𞥄𞤥": 541,
      "##𞤯𞤮": 542,
      "##𞤶𞤮": 543,
      "##𞤭𞤥": 544,
      "𞤮𞤲": 545,
      "##𞤣𞤵": 546,
      "##𞤮𞤼": 547,
      "𞤬𞤫": 548,
      "##𞤢𞥄𞤤": 549,
      "𞤸𞤮𞥅": 550,
      "##𞥆𞤵": 551,
      "##𞤢𞥄𞤱": 552,
      "𞤲𞤣": 553,
      "𞤳𞤢𞤣𞤭": 554,
      "𞤲𞤺𞤢𞤤": 555,
      "##𞤼𞤭": 556,
      "𞤱𞤢": 557,
      "##𞤢𞤦": 558,
      "##𞤼𞤭𞤲": 559,
      "##𞥆𞤭": 560,
      "𞤥𞤮": 561,
      "𞤯𞤫𞤲": 562,
      "##𞤭𞤴": 563,
      "𞤬𞤭𞥅": 564,
      "𞤼𞤢𞤱": 565,
      "𞤤𞤫𞤴": 566,
      "𞤲𞤣𞤫𞤲": 567,
      "##𞤵𞤺𞤮𞤤": 568,
      "##𞤳𞥆𞤮": 569,
      "##𞤢𞥄𞤲": 570,
      "##𞤮𞤲𞤮": 571,
      "##𞤵𞤪": 572,
      "𞤸𞤫": 573,
      "##𞤭𞤤": 574,
      "##𞤵𞤤": 575,
      "𞥒𞥐": 576,
      "##𞥆𞤢": 577,
      "𞤤𞤢𞥄𞤥": 578,
      "##𞤺𞤢𞤤": 579,
      "##𞥆𞤭𞤲": 580,
      "##𞥆𞤮": 581,
      "##𞤢𞤲𞤳": 582,
      "𞤱𞤮𞤲𞤭": 583,
      "##𞤢𞥄𞤳": 584,
      "##𞤢𞤲𞤣𞤫": 585,
      "𞤻𞤢𞤤": 586,
      "𞤯𞤵𞤥": 587,
      "##𞥆𞤭𞤼": 588,
      "𞤸𞤢": 589,
      "##𞤵𞤣𞤫": 590,
      "##𞤵𞤲𞤮𞥅": 591,
      "𞤲𞤣𞤫𞤪": 592,
      "𞤯𞤭": 593,
      "𞤥𞤢𞤳𞥆𞤮": 594,
      "##𞤼𞤫": 595,
      "##𞤭𞤥𞤩𞤫": 596,
      "##𞤵𞤩": 597,
      "##𞤺𞤮": 598,
      "##𞤼𞤮": 599,
      "##𞤢𞤪𞤭": 600,
      "##𞤩𞥆𞤫": 601,
      "𞤱𞤮𞤲𞤣𞤫": 602,
      "𞤲𞤺𞤵𞤲": 603,
      "##𞤭𞤲𞤫": 604,
      "𞤴𞤭𞤥𞤩𞤫": 605,
      "##𞤤𞤫": 606,
      "𞤻𞤢𞤤𞤲𞤣𞤫": 607,
      "##𞤥𞤢": 608,
      "##𞤶𞤭": 609,
      "##𞤶𞤫": 610,
      "##𞤪𞤫𞥅": 611,
      "##𞤣𞤮": 612,
      "##𞤩𞤭": 613,
      "𞤴𞤮": 614,
      "𞤲𞤣𞤭𞤲": 615,
      "𞤤𞤫𞤴𞤣𞤭": 616,
      "𞤑𞤮𞤲𞤮": 617,
      "##𞤢𞥄𞤪𞤫": 618,
      "𞤘𞤭𞤲𞤫": 619,
      "##𞤪𞤭𞤳": 620,
      "##𞤮𞥅𞤩𞤫": 621,
      "𞤥𞤢𞤩𞥆𞤫": 622,
      "##𞤢𞥄𞤤𞤭": 623,
      "##𞤢𞤲𞤺": 624,
      "##𞤢𞥄𞤩𞤫": 625,
      "##𞤢𞤤𞤢": 626,
      "𞤱𞤢𞤯": 627,
      "𞤢𞤪": 628,
      "##𞤮𞤱": 629,
      "##𞥆𞤭𞥅": 630,
      "##𞤢𞤩": 631,
      "##𞤫𞤱": 632,
      "##𞤢𞥄𞤲𞤣𞤫": 633,
      "##𞤢𞤸": 634,
      "##𞤫𞤼": 635,
      "𞤲𞤺𞤮𞤲": 636,
      "𞤸𞤮𞥅𞤪𞤫": 637,
      "𞤧𞤢𞤦": 638,
      "𞤸𞤮𞤤": 639,
      "𞤸𞤢𞥄": 640,
      "##𞤫𞤤": 641,
      "##𞤵𞤯": 642,
      "𞤸𞤮": 643,
      "𞤤𞤢𞥄𞤥𞤵": 644,
      "𞤸𞤮𞥅𞤪𞤫𞥅": 645,
      "##𞤢𞥄𞤺": 646,
      "##𞤼𞤢": 647,
      "𞤺𞤮𞥅": 648,
      "##𞤣𞤭𞥅": 649,
      "𞤯𞤭𞤲": 650,
      "##𞤮𞥅𞤪": 651,
      "##𞤵𞥅𞤯": 652,
      "𞤧𞤭": 653,
      "𞤥𞤢𞥄": 654,
      "##𞤭𞤪𞤭": 655,
      "##𞤢𞤲𞤭": 656,
      "𞤳𞤢𞤤𞤢": 657,
      "##𞤮𞥅𞤤": 658,
      "𞤱𞤮𞥅": 659,
      "𞥒𞥐𞥒": 660,
      "𞤱𞤮𞤲𞤣𞤫𞤥𞤢": 661,
      "𞤣𞤵𞥅": 662,
      "##𞤢𞤨": 663,
      "##𞤼𞤭𞥅": 664,
      "𞤢𞤲": 665,
      "##𞥆𞤢𞤲": 666,
      "##𞤵𞤩𞤫": 667,
      "##𞤢𞤤𞤭": 668,
      "##𞤵𞤲𞤮": 669,
      "##𞤧𞤭": 670,
      "##𞤢𞥄𞤺𞤮𞤪": 671,
      "##𞤢𞥄𞤣𞤫": 672,
      "##𞤢𞤯": 673,
      "𞤀𞤤": 674,
      "𞤬𞤮": 675,
      "##𞤢𞤪𞤢𞤲": 676,
      "##𞤢𞥄𞤱𞤮": 677,
      "##𞤫𞥅𞤣𞤫": 678,
      "𞤳𞤮𞤲": 679,
      "##𞤭𞤦": 680,
      "##𞤫𞤴": 681,
      "𞤴𞤢𞤤": 682,
      "##𞤢𞤤𞥆𞤢": 683,
      "##𞤮𞥅𞤪𞤫": 684,
      "𞤧𞤢𞤦𞤵": 685,
      "𞤣𞤵𞥅𞤩𞤭": 686,
      "𞤤𞤢𞥄": 687,
      "𞤳𞤵𞥅": 688,
      "𞤥𞤭": 689,
      "##𞤮𞥅𞤲": 690,
      "##𞤬𞤪𞤭𞤳": 691,
      "##𞤪𞤵": 692,
      "𞤸𞤭𞤼": 693,
      "##𞤮𞤺": 694,
      "##𞤥𞤫": 695,
      "𞥑𞥙": 696,
      "##𞤳𞤢": 697,
      "##𞤣𞤭𞤪": 698,
      "𞤶𞤢𞥄𞤺𞤮𞤪": 699,
      "𞤬𞤭": 700,
      "##𞤥𞤮": 701,
      "𞤶𞤫𞥅": 702,
      "𞤲𞤮𞤲": 703,
      "𞤼𞤢𞤼": 704,
      "𞤸𞤮𞥅𞤪𞤫𞥅𞤶𞤮": 705,
      "##𞤼𞤫𞤪𞤫": 706,
      "##𞤫𞤪": 707,
      "𞤀𞤬𞤪𞤭𞤳": 708,
      "𞤥𞤢𞤱": 709,
      "##𞤀𞥄": 710,
      "##𞤳𞤫": 711,
      "𞤣𞤫": 712,
      "𞤼𞤮": 713,
      "##𞥆𞤫𞤪𞤫": 714,
      "##𞤭𞤴𞤢": 715,
      "𞤧𞤮": 716,
      "𞤧𞤵𞤩": 717,
      "##𞤢𞤲𞤮𞥅": 718,
      "##𞤻𞤵𞤲": 719,
      "##𞤵𞤲𞥋": 720,
      "##𞤮𞤼𞤢": 721,
      "𞤸𞤢𞤲𞤣𞤫": 722,
      "𞤳𞤢𞤻𞤵𞤲": 723,
      "𞤣𞤢𞤪": 724,
      "##𞤢𞤲𞤮": 725,
      "##𞤭𞥅𞤩𞤫": 726,
      "𞤬𞤫𞤰": 727,
      "𞤥𞤢𞤤𞥆𞤢": 728,
      "𞤯𞤵𞥅𞤯": 729,
      "##𞤭𞥅𞤤": 730,
      "##𞤭𞤤𞤢": 731,
      "##𞤵𞤼": 732,
      "##𞤢𞤴𞤲": 733,
      "##𞤀𞤈": 734,
      "𞤸𞤭𞤼𞤢𞥄𞤲𞤣𞤫": 735,
      "𞤯𞤫": 736,
      "##𞤭𞤧": 737,
      "##𞤢𞤳": 738,
      "𞤸𞤫𞤩": 739,
      "𞤱𞤭": 740,
      "𞤸𞤢𞤪𞤭": 741,
      "𞤲𞤣𞤵𞤲": 742,
      "##𞥆𞤢𞤤": 743,
      "##𞤱𞤮": 744,
      "𞤱𞤢𞤯𞤭": 745,
      "𞤯𞤭𞤯𞤭": 746,
      "𞤊𞤢𞤪𞤢𞤲": 747,
      "𞤐𞤣𞤫": 748,
      "##𞤣𞤭𞤲": 749,
      "##𞤀𞤐": 750,
      "𞤸𞤭": 751,
      "𞤶𞤢𞤲𞤺": 752,
      "𞤥𞤵": 753,
      "𞤼𞤭𞤥": 754,
      "𞤸𞤵𞥅": 755,
      "##𞤢𞤲𞤳𞤮": 756,
      "𞤬𞤵𞤯": 757,
      "𞤬𞤮𞥅𞤤": 758,
      "##𞤺𞤭": 759,
      "##𞤼𞤢𞤤": 760,
      "##𞤫𞤪𞤫": 761,
      "##𞤫𞥅𞤯": 762,
      "𞤐𞤮": 763,
      "##𞤢𞤺𞤮𞤤": 764,
      "𞤃𞤢𞤤𞤭": 765,
      "𞤲𞤢𞥄": 766,
      "𞤸𞤢𞤴": 767,
      "𞤤𞤫𞤴𞤯𞤫": 768,
      "𞤑𞤮𞤲": 769,
      "𞤩𞤢𞥄𞤱𞤮": 770,
      "##𞥆𞤢𞥄": 771,
      "##𞤵𞤥𞤦": 772,
      "𞤸𞤢𞤳𞥆": 773,
      "##𞤮𞤪𞤣𞤫": 774,
      "##𞤧𞤮": 775,
      "𞤤𞤫𞤧": 776,
      "##𞤣𞥆𞤫": 777,
      "##𞤀𞤂": 778,
      "##𞤢𞥄𞤥𞤢": 779,
      "𞤯𞤮𞤲": 780,
      "##𞤪𞤮": 781,
      "𞤳𞤮𞤲𞤮": 782,
      "𞤬𞤮𞤨": 783,
      "##𞤳𞤮": 784,
      "##𞤱𞤲": 785,
      "𞤩𞤫𞤴": 786,
      "##𞤢𞤼𞤢": 787,
      "𞤻𞤢𞤱": 788,
      "##𞤼𞤢𞤲": 789,
      "##𞤫𞤲𞤫": 790,
      "𞤱𞤢𞥄𞤱": 791,
      "##𞤢𞤧": 792,
      "𞥒𞥐𞥑": 793,
      "##𞤺𞤵": 794,
      "##𞤥𞤦": 795,
      "𞤱𞤮𞤲𞤢𞥄": 796,
      "##𞤢𞥄𞤯𞤮": 797,
      "##𞤼𞤭𞤺𞤭": 798,
      "##𞤶𞤮𞤥": 799,
      "##𞤮𞥅𞤲𞤭": 800,
      "##𞤲𞤺𞤮": 801,
      "##𞤵𞤪𞤭": 802,
      "𞤥𞤢𞥄𞤴": 803,
      "##𞤢𞤼𞤢𞥄": 804,
      "𞤧𞤵𞤩𞤮": 805,
      "##𞤢𞥄𞤪": 806,
      "𞤬𞤫𞤣𞥆𞤫": 807,
      "𞤺𞤮𞤤": 808,
      "𞤤𞤢𞤲": 809,
      "𞤣𞤵": 810,
      "##𞤵𞤲𞥋𞤣𞤫": 811,
      "𞤫𞤲": 812,
      "𞤯𞤮𞥅": 813,
      "𞤲𞤶": 814,
      "𞤳𞤢𞤲𞤳𞤮": 815,
      "##𞤮𞥅𞤪𞤭𞥅𞤩𞤫": 816,
      "##𞤼𞤫𞥅": 817,
      "𞤩𞤵𞤪𞤭": 818,
      "𞤊𞤢𞤪𞤢𞤲𞤧𞤭": 819,
      "𞤥𞤵𞤵𞤲": 820,
      "##𞤴𞤢": 821,
      "##𞥆𞤢𞤲𞤯𞤫": 822,
      "𞤼𞤢𞤼𞤭": 823,
      "##𞤢𞤺": 824,
      "##𞤭𞤪𞤣𞤫": 825,
      "𞤮𞤲𞤼𞤭𞤺𞤭": 826,
      "𞤷𞤢𞤨": 827,
      "##𞤀𞤃": 828,
      "##𞤬𞤢𞥄": 829,
      "##𞤮𞤲𞥋": 830,
      "##𞤤𞤢𞤤": 831,
      "𞤴𞤢𞤸": 832,
      "𞤧𞤢𞤪": 833,
      "𞤶𞤢𞥄𞤺𞤮𞤪𞤢𞤤": 834,
      "𞤶𞤵𞥅": 835,
      "##𞤭𞤣": 836,
      "𞤅𞤫𞤲𞤫": 837,
      "𞤥𞤵𞤲": 838,
      "𞤤𞤫𞤧𞤣𞤭": 839,
      "𞤇𞤫": 840,
      "𞤧𞤢𞥄": 841,
      "𞤸𞤢𞤪": 842,
      "##𞤮𞥅𞤱𞤮": 843,
      "𞤸𞤮𞤶𞤮𞤥": 844,
      "𞤷𞤢𞤨𞥆𞤢𞤲𞤯𞤫": 845,
      "𞤬𞤮𞤼𞤢": 846,
      "𞤱𞤢𞤪": 847,
      "𞤲𞤣𞤫𞥅": 848,
      "𞤴𞤫𞥅": 849,
      "##𞤭𞤪𞤢": 850,
      "##𞤢𞥄𞤳𞤵": 851,
      "𞤧𞤮𞥅𞤪𞤭𞥅𞤩𞤫": 852,
      "𞤲𞤦": 853,
      "𞤲𞤢𞤴": 854,
      "##𞤮𞤮": 855,
      "𞤮𞤥𞤮": 856,
      "##𞤵𞤲𞤫": 857,
      "##𞤢𞥄𞤳𞤢": 858,
      "𞤢𞤤": 859,
      "##𞤫𞤯": 860,
      "##𞥆𞤵𞤣𞤫": 861,
      "##𞤥𞤫𞤪𞤭𞤳": 862,
      "𞤻𞤢𞤱𞤵": 863,
      "𞤶𞤫𞤴": 864,
      "𞤼𞤭": 865,
      "##𞤮𞤪𞤭": 866,
      "𞤶𞤮𞤺": 867,
      "𞤢𞤣": 868,
      "##𞤢𞤬": 869,
      "##𞤼𞤵": 870,
      "𞤰𞤫𞤼": 871,
      "𞤸𞤢𞥄𞤲": 872,
      "##𞤮𞥅𞤯": 873,
      "##𞤢𞤲𞤳𞤭": 874,
      "𞤣𞤭𞤪": 875,
      "##𞤭𞤯": 876,
      "𞤲𞤺𞤮𞤤": 877,
      "𞤳𞤵𞥅𞤤𞤢𞤤": 878,
      "𞤬𞤫𞤱𞤲": 879,
      "𞤑𞤢𞤥": 880,
      "𞤅𞤫𞤲𞤫𞤺𞤢𞤤": 881,
      "𞤅𞤭": 882,
      "𞤶𞤢𞤲": 883,
      "𞤺𞤮𞥅𞤼𞤮": 884,
      "𞤩𞤢𞤤": 885,
      "##𞤫𞤬": 886,
      "##𞥆𞤵𞤺𞤮𞤤": 887,
      "##𞤈𞤋": 888,
      "##𞤢𞥄𞤦": 889,
      "𞤭𞤼": 890,
      "𞤺𞤭𞤤𞤢": 891,
      "𞤀𞤥𞤫𞤪𞤭𞤳": 892,
      "𞤥𞤵𞤪": 893,
      "𞤲𞤣𞤭": 894,
      "𞤸𞤮𞤶𞤮𞤥𞤢𞥄𞤪𞤫": 895,
      "##𞤵𞤤𞥆𞤫𞤪𞤫": 896,
      "##𞤮𞤲𞥋𞤣𞤭𞤪": 897,
      "##𞤵𞤯𞤫": 898,
      "##𞤲𞤢": 899,
      "𞤴𞤢𞤤𞤼𞤭𞤲": 900,
      "𞤬𞤭𞤶": 901,
      "𞤧𞤢𞤨": 902,
      "𞤱𞤢𞤴": 903,
      "##𞤮𞤴": 904,
      "##𞤺𞤫": 905,
      "##𞤮𞤼𞤭𞤪": 906,
      "𞤼𞤢𞤱𞤢𞥄": 907,
      "##𞤢𞤣𞤭": 908,
      "𞤀𞥄": 909,
      "𞤑𞤌": 910,
      "𞤭𞤲": 911,
      "𞤼𞤢𞤱𞤵𞤲𞤮𞥅": 912,
      "𞤍𞤵𞤥": 913,
      "##𞤳𞤭𞤲": 914,
      "##𞤼𞤢𞤲𞤫": 915,
      "##𞤫𞤼𞤫𞥅": 916,
      "##𞤢𞤯𞤼𞤢𞤲𞤫": 917,
      "𞤲𞤢𞤲𞤺": 918,
      "##𞤲𞤣𞤵": 919,
      "##𞤉𞤐": 920,
      "##𞥐𞥐": 921,
      "𞤀𞤤𞤬𞤢𞥄": 922,
      "𞤨𞤭𞤴": 923,
      "𞤑𞤮𞤲𞤣𞤫": 924,
      "##𞤵𞥅𞤣𞤵": 925,
      "𞤳𞤵𞥅𞤤𞤫": 926,
      "𞤧𞤢𞤨𞥆𞤮": 927,
      "𞤳𞤢𞤲": 928,
      "##𞤧𞤤": 929,
      "𞤴𞤫𞤱": 930,
      "𞤸𞤢𞤲𞤳𞤭": 931,
      "𞤼𞤢𞤸": 932,
      "##𞤋𞤐": 933,
      "##𞤢𞥄𞤲𞤮": 934,
      "𞤼𞤢𞤸𞤮": 935,
      "𞤼𞤫𞥅": 936,
      "𞤩𞤵𞤪": 937,
      "##𞤮𞤧": 938,
      "##𞥆𞤮𞥅": 939,
      "##𞤫𞥅𞤪": 940,
      "𞤱𞤭𞤴": 941,
      "##𞤭𞤼𞤭𞥅": 942,
      "𞤸𞤮𞤤𞥆𞤭𞥅": 943,
      "𞤬𞤮𞥅𞤤𞤮𞤼𞤭𞤪": 944,
      "𞤯𞤵𞤲": 945,
      "𞤶𞤮": 946,
      "##𞤺𞤢": 947,
      "𞤊𞤭𞥅": 948,
      "𞤐𞤦": 949,
      "##𞤵𞤴": 950,
      "##𞤵𞤸": 951,
      "##𞤼𞤵𞤺𞤮𞤤": 952,
      "##𞤓𞥅": 953,
      "𞤘𞤭𞤤𞤢": 954,
      "𞤭𞤥": 955,
      "𞤻𞤢𞥄𞤱": 956,
      "##𞤭𞤲𞤭": 957,
      "𞤸𞤭𞤳𞥆": 958,
      "𞤯𞤫𞥅": 959,
      "𞤱𞤭𞤲": 960,
      "𞤲𞤺𞤵𞥅": 961,
      "𞤸𞤵𞥅𞤱": 962,
      "𞤥𞤫𞥅𞤯": 963,
      "𞤱𞤢𞤲𞤮": 964,
      "##𞤢𞤳𞥆": 965,
      "##𞤵𞤲𞤢": 966,
      "𞤻𞤢𞥄𞤥": 967,
      "##𞤲𞤮𞥅": 968,
      "𞤬𞤢𞥄𞤤": 969,
      "##𞤫𞤣": 970,
      "##𞤼𞤵𞤥": 971,
      "##𞤋𞥅": 972,
      "𞤬𞤮𞤤": 973,
      "𞤴𞤢𞤥": 974,
      "##𞤵𞤳": 975,
      "##𞤭𞤨": 976,
      "##𞤲𞤮": 977,
      "##𞤼𞤮𞤪": 978,
      "𞤲𞤺𞤵": 979,
      "𞤸𞤢𞤨": 980,
      "𞤱𞤢𞤴𞤤": 981,
      "𞤢𞥄": 982,
      "𞤢𞤷": 983,
      "##𞤣𞤢": 984,
      "##𞤭𞥅𞤧": 985,
      "##𞤭𞤲𞤮𞥅": 986,
      "𞤩𞤫𞥅": 987,
      "𞤸𞤮𞥅𞤪𞤫𞥅𞤩𞤫": 988,
      "𞤤𞤢𞥄𞤼𞤭𞤲": 989,
      "𞤃𞤮𞤪": 990,
      "𞤬𞤮𞤼": 991,
      "𞤱𞤢𞤤": 992,
      "𞤸𞤢𞥄𞤤": 993,
      "𞤼𞤢𞤦": 994,
      "##𞥆𞤭𞤪": 995,
      "##𞤵𞤱": 996,
      "##𞤮𞤤𞤼𞤮": 997,
      "##𞤢𞤼𞤢𞤪": 998,
      "𞤬𞤵𞤯𞥆𞤭": 999,
      "𞤘𞤫𞤲": 1000,
      "𞤭𞤲𞤣𞤫": 1001,
      "𞤶𞤮𞤱": 1002,
      "##𞤶𞤵𞤲𞤫": 1003,
      "𞤯𞤭𞤯𞤮": 1004,
      "𞤸𞤮𞤤𞥆𞤭𞤼": 1005,
      "𞤤𞤢𞤼": 1006,
      "𞤭𞤱": 1007,
      "##𞤣𞤵𞤣𞤫": 1008,
      "##𞥆𞤭𞤲𞤭": 1009,
      "𞤼𞤮𞤯": 1010,
      "##𞤥𞤵": 1011,
      "##𞤅𞤋": 1012,
      "𞤥𞤮𞤰": 1013,
      "𞤯𞤭𞤯": 1014,
      "𞤅𞤭𞥅𞤤": 1015,
      "𞤖𞤢𞤪𞤭": 1016,
      "𞤳𞤫": 1017,
      "𞤶𞤢𞤩": 1018,
      "##𞤮𞥅𞤶𞤫": 1019,
      "##𞤭𞤦𞤭": 1020,
      "𞤥𞤫𞥅𞤯𞤫𞤲": 1021,
      "𞤃𞤢𞤱": 1022,
      "𞤯𞤮𞤮": 1023,
      "##𞤒𞤀": 1024,
      "𞤸𞤢𞤳𞥆𞤵𞤲𞥋𞤣𞤫": 1025,
      "𞤬𞤫𞤱𞤲𞤣𞤮": 1026,
      "𞤕𞤮𞤤𞤼𞤮": 1027,
      "𞤼𞤢𞤥": 1028,
      "##𞤫𞥅𞤪𞤭": 1029,
      "𞤥𞤫𞤲": 1030,
      "𞤶𞤮𞥅𞤯": 1031,
      "𞤼𞤵𞤲": 1032,
      "##𞤣𞥆𞤭𞤼": 1033,
      "##𞤦𞤭𞤪": 1034,
      "𞤲𞤺𞤮𞥅": 1035,
      "𞤧𞤮𞥅": 1036,
      "##𞤮𞥅𞤴": 1037,
      "##𞤢𞤤𞥆𞤮": 1038,
      "##𞤫𞥅𞤪𞤫": 1039,
      "𞤼𞤫𞥅𞤥𞤫": 1040,
      "##𞤼𞤵𞤥𞤢": 1041,
      "𞤤𞤮𞤲": 1042,
      "##𞤮𞤥": 1043,
      "##er": 1044,
      "##𞤭𞤲𞤼𞤭𞤲": 1045,
      "##𞤫𞥅𞤱": 1046,
      "##𞤢𞤥𞤦": 1047,
      "##𞤢𞥄𞤳𞤭": 1048,
      "𞤧𞤮𞤳": 1049,
      "𞤀𞤦": 1050,
      "##𞤣𞤢𞥄": 1051,
      "##𞤼𞤢𞥄": 1052,
      "##𞤵𞥅𞤪𞤫": 1053,
      "##𞤵𞥅𞤶𞤭": 1054,
      "##𞤵𞤩𞥆𞤵": 1055,
      "##𞤦𞤭𞤪𞥆𞤫": 1056,
      "𞤲𞤫𞤯": 1057,
      "𞤴𞤢𞤱": 1058,
      "𞤶𞤮𞥅𞤲𞤭": 1059,
      "𞤶𞤭": 1060,
      "##𞤢𞥄𞤸": 1061,
      "𞤤𞤫𞤱": 1062,
      "##𞤢𞤥𞥆𞤢": 1063,
      "𞤦𞤭𞤲": 1064,
      "##𞤢𞤲𞤭𞥅": 1065,
      "𞤔𞤮𞥅𞤲𞤭": 1066,
      "##𞤫𞥅𞤩": 1067,
      "𞤬𞤫𞤤": 1068,
      "##𞤮𞤧𞤼𞤫𞤪𞤫": 1069,
      "𞤼𞤮𞤲": 1070,
      "##𞤲𞤭": 1071,
      "##𞤼𞤢𞤼": 1072,
      "##𞤵𞥅𞤥": 1073,
      "𞤉𞤲": 1074,
      "𞤖𞤢𞤴": 1075,
      "𞤥𞤵𞤤𞥆𞤫𞤪𞤫": 1076,
      "𞤧𞤵𞥅𞤣𞤵": 1077,
      "𞤪𞤵𞤼": 1078,
      "𞤱𞤮𞤼𞤢": 1079,
      "##𞤢𞥄𞤧": 1080,
      "𞤯𞤵𞥅𞤯𞤵𞤯𞤫": 1081,
      "𞤸𞤢𞤳𞥆𞤵𞤲": 1082,
      "𞤑𞤢𞤥𞤢𞤪": 1083,
      "##𞤢𞥄𞤪𞤭": 1084,
      "##𞤢𞥄𞤯𞤭": 1085,
      "##𞤢𞥄𞤶𞤫": 1086,
      "𞤲𞤺𞤢𞤥": 1087,
      "𞤯𞤫𞤲𞤯𞤫": 1088,
      "𞤸𞤫𞤣": 1089,
      "##𞤺𞤮𞤮": 1090,
      "𞤶𞤮𞤱𞤭": 1091,
      "𞤌𞤲": 1092,
      "𞤤𞤢𞥄𞤱": 1093,
      "𞤦𞤮𞤲": 1094,
      "𞤩𞤢": 1095,
      "##𞤧𞤭𞥅": 1096,
      "##on": 1097,
      "##𞤮𞥅𞤯𞤮": 1098,
      "𞤼𞤢𞤱𞤭𞥅": 1099,
      "𞤳𞤮𞤲𞤵": 1100,
      "𞤄𞤵𞤪": 1101,
      "𞤐𞤺": 1102,
      "𞤥𞤢𞤪𞤭": 1103,
      "𞤧𞤫": 1104,
      "𞤲𞤢𞤱": 1105,
      "##𞤢𞥄𞤶𞤭": 1106,
      "##𞤫𞥅𞤲": 1107,
      "𞤤𞤢𞥄𞤥𞤮𞤪𞤣𞤫": 1108,
      "𞤃𞤭": 1109,
      "𞤤𞤵𞤥𞤦": 1110,
      "𞤸𞤵𞤥": 1111,
      "##𞤲𞤺𞤢𞤤": 1112,
      "##𞤱𞤢𞤤": 1113,
      "##𞤢𞥄𞤩": 1114,
      "##𞤫𞥅𞤩𞤫": 1115,
      "𞤑𞤮𞤼": 1116,
      "𞤸𞤫𞤱": 1117,
      "𞤸𞤢𞤩": 1118,
      "##𞤼𞤵𞤣𞤫": 1119,
      "##es": 1120,
      "𞥒𞥐𞥒𞥐": 1121,
      "𞤢𞤤𞤢𞥄": 1122,
      "𞤬𞤮𞥅𞤤𞤮𞤼𞤭𞤪𞤮": 1123,
      "𞤑𞤮𞤼𞤣𞤭": 1124,
      "𞤃𞤵𞤸": 1125,
      "𞤊𞤵𞤤": 1126,
      "𞤣𞤫𞤲": 1127,
      "𞤴𞤭": 1128,
      "##an": 1129,
      "##𞤭𞥅𞤶𞤮": 1130,
      "##𞤮𞥅𞤪𞤳𞤢": 1131,
      "𞤱𞤭𞤭": 1132,
      "𞤅𞤭𞥅𞤤𞤮": 1133,
      "𞤦𞤢𞤯𞤼𞤢𞤲𞤫": 1134,
      "𞤬𞤢𞤱": 1135,
      "##𞤯𞥆𞤫": 1136,
      "##𞤫𞤥": 1137,
      "##𞤉𞤈": 1138,
      "##ri": 1139,
      "##𞤢𞥄𞤴": 1140,
      "𞤀𞤬𞤪𞤭𞤳𞤢𞥄": 1141,
      "𞤯𞤵𞥅𞤯𞤵𞤩𞤫": 1142,
      "##𞤮𞤲𞥋𞤣𞤭𞤪𞤢𞤤": 1143,
      "𞤴𞤢𞤥𞤭𞤪": 1144,
      "𞤆𞤵𞤤": 1145,
      "𞤑𞤢": 1146,
      "𞤱𞤫𞤤": 1147,
      "𞤼𞤵𞤥𞤦": 1148,
      "##𞤯𞤫𞤲": 1149,
      "##𞤤𞤢": 1150,
      "##en": 1151,
      "##𞤓𞤐": 1152,
      "𞤢𞤪𞤢𞤲": 1153,
      "𞤧𞤢𞤦𞤵𞤲𞤢": 1154,
      "𞤄𞤵𞤪𞤳𞤭𞤲": 1155,
      "𞤲𞤫𞤱": 1156,
      "##𞤼𞤢𞤺𞤮𞤤": 1157,
      "𞤶𞤫𞥅𞤺𞤮𞤮": 1158,
      "𞤼𞤢𞤲": 1159,
      "𞤼𞤭𞥅": 1160,
      "##𞤦𞤭": 1161,
      "##𞤦𞤢𞥄": 1162,
      "##𞤭𞤲𞤮": 1163,
      "##𞤭𞤼𞤭": 1164,
      "𞤴𞤢𞤱𞤼𞤭": 1165,
      "𞤲𞤢𞤲": 1166,
      "##𞤲𞤣": 1167,
      "##𞤫𞤸": 1168,
      "##𞤭𞤲𞤢𞥄": 1169,
      "##𞤢𞤩𞤢𞤤": 1170,
      "𞤄𞤵𞤪𞤳𞤭𞤲𞤢": 1171,
      "##𞥆𞤢𞤲𞤣𞤫": 1172,
      "##𞤵𞥅𞤯𞤭": 1173,
      "𞤸𞤮𞤤𞥆𞤭": 1174,
      "𞥒𞥐𞥒𞥔": 1175,
      "𞥒𞥐𞥒𞥑": 1176,
      "𞤬𞤭𞤶𞤮": 1177,
      "𞤲𞤢𞤴𞤭": 1178,
      "في": 1179,
      "𞤑𞤵𞤤": 1180,
      "𞤥𞤢𞤴": 1181,
      "𞤲𞤢𞤩": 1182,
      "𞤵𞤶𞤵𞤲𞤫": 1183,
      "##𞤣𞤢𞤤": 1184,
      "##𞤼𞤮𞥅": 1185,
      "##in": 1186,
      "##𞤭𞥅𞤩": 1187,
      "##𞤵𞥅𞤧": 1188,
      "##𞤼𞤭𞤲𞤭𞥅": 1189,
      "𞥒𞥐𞥐": 1190,
      "𞤺𞤮𞤤𞥆𞤫": 1191,
      "𞤸𞤢𞥄𞤲𞤭": 1192,
      "𞤤𞤫𞤱𞤪𞤵": 1193,
      "𞤃𞤵𞤸𞤢𞤥𞥆𞤢": 1194,
      "##𞤤𞤭": 1195,
      "##𞤼𞤭𞤪": 1196,
      "##𞤳𞤭": 1197,
      "##𞤭𞤲𞤷": 1198,
      "##𞤮𞤼𞤮": 1199,
      "𞤬𞤫𞤼": 1200,
      "𞥑𞥙𞥙": 1201,
      "𞤶𞤫𞥅𞤼𞤢𞤼": 1202,
      "𞤼𞤮𞤽": 1203,
      "𞤼𞤭𞤥𞥆𞤭𞤲": 1204,
      "𞤲𞤫𞤯𞥆𞤮": 1205,
      "𞤀𞤸": 1206,
      "𞤫𞤩": 1207,
      "𞤯𞤭𞥅": 1208,
      "##𞤲𞤭𞥅": 1209,
      "##𞤴𞤢𞤲𞤳": 1210,
      "##𞤵𞤯𞤭": 1211,
      "##𞤀𞤁": 1212,
      "##𞥆𞤫𞤼𞤫𞥅": 1213,
      "𞤧𞤭𞤲𞤷": 1214,
      "𞤨𞤫𞤼": 1215,
      "##𞤉𞥅": 1216,
      "𞤶𞤫𞥅𞤯𞤭": 1217,
      "𞤥𞤵𞥅𞤯": 1218,
      "##𞤫𞥅𞤤𞤫": 1219,
      "##𞤢𞤴𞤼𞤭": 1220,
      "𞤬𞤫𞤷": 1221,
      "##𞤢𞥄𞤲𞤺𞤫": 1222,
      "𞥒𞥐𞥒𞥒": 1223,
      "𞤬𞤫𞤰𞥆𞤭𞤲": 1224,
      "##𞤢𞤳𞤢𞤪": 1225,
      "𞤇𞤢𞥄𞤱𞤮": 1226,
      "𞤧𞤫𞤲": 1227,
      "##𞤥𞤩𞤫": 1228,
      "##𞤢𞤲𞤢𞥄": 1229,
      "𞤲𞤺𞤮": 1230,
      "𞤮𞤲𞤼𞤵𞤥𞤢": 1231,
      "𞤩𞤢𞤤𞤲𞤣𞤵": 1232,
      "𞤼𞤢𞤦𞤭𞤲𞤼𞤭𞤲": 1233,
      "𞤀𞤣𞤮": 1234,
      "𞤃𞤮": 1235,
      "𞤣𞤢𞤱": 1236,
      "𞤥𞤮𞥅": 1237,
      "𞤧𞤢𞤤": 1238,
      "𞤮𞥅": 1239,
      "𞤱𞤵𞤪": 1240,
      "𞤱𞤵𞤤": 1241,
      "##𞥆𞤮𞤤": 1242,
      "𞤳𞤢𞤥𞤩𞤫": 1243,
      "##𞤵𞥅𞤦": 1244,
      "##𞤮𞤪𞤢": 1245,
      "##𞥆𞤭𞤼𞤢𞤤": 1246,
      "𞤐𞤢": 1247,
      "##𞤥𞤨": 1248,
      "##𞤼𞤢𞥄𞤣𞤫": 1249,
      "##𞤀𞤑": 1250,
      "##𞤀𞤚": 1251,
      "##𞤨𞤭𞤼": 1252,
      "##𞤘𞤀𞤂": 1253,
      "##𞤢𞤲𞤢": 1254,
      "##𞤭𞤪𞤲𞤢": 1255,
      "𞤸𞤢𞤨𞥆𞤵": 1256,
      "𞤃𞤮𞤪𞤧𞤮": 1257,
      "𞤥𞤵𞥅𞤯𞤵𞤲": 1258,
      "جد": 1259,
      "عل": 1260,
      "فت": 1261,
      "نا": 1262,
      "𞤪𞤫𞤬": 1263,
      "##𞤵𞤯𞤮": 1264,
      "##𞤌𞤐": 1265,
      "##شا": 1266,
      "##رك": 1267,
      "##يد": 1268,
      "##فذ": 1269,
      "##𞤭𞥅𞤶𞤫": 1270,
      "##𞤳𞥆𞤭": 1271,
      "𞤯𞤫𞤲𞤺𞤢𞤤": 1272,
      "𞤭𞤲𞥆𞤫𞤼𞤫𞥅": 1273,
      "𞤊𞤵𞤤𞤩𞤫": 1274,
      "جديد": 1275,
      "على": 1276,
      "فتح": 1277,
      "نافذ": 1278,
      "##شارك": 1279,
      "جديدة": 1280,
      "نافذة": 1281,
      "𞤅𞤮": 1282,
      "##𞥆𞤵𞤲𞤮𞥅": 1283,
      "##𞤮𞥅𞤶𞤭": 1284,
      "##𞤢𞤪𞤮": 1285,
      "𞤺𞤮𞥅𞤼𞤢𞤤": 1286,
      "𞤴𞤫𞥅𞤴": 1287,
      "##𞤮𞥅𞤴𞤮": 1288,
      "𞤼𞤫𞥅𞤥𞤫𞤯𞥆𞤫": 1289,
      "𞤢𞤣𞤮": 1290,
      "𞤲𞤮𞥅": 1291,
      "𞤲𞤢𞤬": 1292,
      "𞤵𞤣𞥆𞤭𞤼": 1293,
      "𞤸𞤫𞤲": 1294,
      "##ou": 1295,
      "𞤴𞤢𞤤𞤼": 1296,
      "##𞤢𞤴𞤲𞤮𞥅": 1297,
      "𞤸𞤭𞤱": 1298,
      "𞤴𞤫𞤱𞤼𞤫𞤪𞤫": 1299,
      "𞤃𞤢𞤳": 1300,
      "𞤖𞤮𞥅𞤪𞤫": 1301,
      "𞤪𞤫𞤲": 1302,
      "##𞤫𞥅𞤶𞤭": 1303,
      "##𞤭𞤪𞤯𞤫": 1304,
      "𞤸𞤫𞤩𞤭": 1305,
      "𞤴𞤮𞤺𞤢": 1306,
      "##𞤢𞤯𞤫𞥅𞤤𞤫": 1307,
      "𞤣𞤵𞤦": 1308,
      "𞤼𞤭𞤶": 1309,
      "𞤸𞤭𞤳𞥆𞤢": 1310,
      "𞤑𞤢𞤥𞤢𞤪𞤵𞤲": 1311,
      "𞤁𞤫": 1312,
      "𞤄𞤭𞤧": 1313,
      "𞤏𞤢𞤼𞤢𞤪": 1314,
      "𞤶𞤭𞤦": 1315,
      "𞤷𞤢𞤯𞤫𞥅𞤤𞤫": 1316,
      "𞤸𞤢𞤱": 1317,
      "𞤺𞤭𞤦𞤭": 1318,
      "##𞤲𞤣𞤭": 1319,
      "##𞤮𞥅𞤱": 1320,
      "##𞤵𞥅𞤪": 1321,
      "##𞤵𞥅𞤪𞤭": 1322,
      "𞤣𞤭𞤪𞤢𞤤": 1323,
      "𞤲𞤢𞤱𞤲": 1324,
      "𞤄𞤀𞥄": 1325,
      "𞤖𞤮𞥅": 1326,
      "𞤪𞤫𞤱": 1327,
      "𞤳𞤭𞤧": 1328,
      "𞤴𞤭𞥅𞤤": 1329,
      "𞤸𞤫𞥅𞤱": 1330,
      "##𞤳𞤢𞤪": 1331,
      "##𞤣𞤵𞤺𞤮𞤤": 1332,
      "𞤬𞤫𞤰𞥆": 1333,
      "𞤩𞤫𞤴𞤣𞤭": 1334,
      "𞤶𞤫𞥅𞤯𞤭𞤯𞤭": 1335,
      "𞤁𞤵𞥅": 1336,
      "𞤅𞤫𞥅𞤯": 1337,
      "𞤑𞤮𞤪": 1338,
      "𞤺𞤢𞤤": 1339,
      "##𞤲𞤵𞤺𞤮𞤤": 1340,
      "##at": 1341,
      "##𞤾𞤭𞤣": 1342,
      "##𞤖𞤀": 1343,
      "##𞤮𞤪𞤯𞤫": 1344,
      "𞤲𞤮𞤳𞥆": 1345,
      "##𞤭𞤦𞤢𞤤𞤭": 1346,
      "𞤑𞤮𞤼𞤣𞤭𞤾": 1347,
      "𞤑𞤵𞤤𞤭𞤦𞤢𞤤𞤭": 1348,
      "𞤅𞤫𞥅𞤯𞤼𞤮": 1349,
      "𞤂𞤢𞥄𞤥": 1350,
      "𞤉𞤪𞤮": 1351,
      "𞤚𞤪𞤮": 1352,
      "𞤳𞤭𞤨": 1353,
      "𞤼𞤢": 1354,
      "𞤼𞤫𞤲": 1355,
      "𞤼𞤫𞤣": 1356,
      "##𞤁𞤉": 1357,
      "##𞤩𞤫𞤪𞤫": 1358,
      "##𞤢𞤱𞤮": 1359,
      "##𞤭𞤪𞤢𞥄": 1360,
      "##𞤢𞤴𞤲𞤢": 1361,
      "𞤶𞤵𞥅𞤤": 1362,
      "𞤢𞤣𞤵𞤲": 1363,
      "𞤤𞤢𞤼𞤮": 1364,
      "##𞤵𞤩𞥆𞤵𞤣𞤭": 1365,
      "𞤬𞤫𞤷𞥆𞤫𞤪𞤫": 1366,
      "𞤅𞤢𞤣𞤭": 1367,
      "𞤴𞤭𞥅": 1368,
      "𞤸𞤵𞤩": 1369,
      "##لم": 1370,
      "##𞤭𞤲𞥋": 1371,
      "##𞤵𞤲𞤣𞤫": 1372,
      "𞤸𞤮𞥅𞤪": 1373,
      "𞤶𞤵𞥅𞤯𞤫": 1374,
      "𞤥𞤵𞤪𞤢𞥄𞤯𞤭": 1375,
      "𞤣𞤫𞤲𞤼𞤢𞤤": 1376,
      "##𞤭𞥅𞤶𞤫𞤪": 1377,
      "##شاركة": 1378,
      "𞤖𞤮𞥅𞤪𞤫𞥅": 1379,
      "𞤋𞤦": 1380,
      "𞤐𞤭𞥅𞤶𞤫𞤪": 1381,
      "𞤤𞤭𞤣": 1382,
      "𞤧𞤫𞥅": 1383,
      "##𞤫𞤧": 1384,
      "##𞤴𞤲": 1385,
      "𞤱𞤮𞤲𞤵𞤲𞤮𞥅": 1386,
      "𞤼𞤢𞤱𞤭": 1387,
      "##𞤮𞥅𞤪𞤵": 1388,
      "𞤼𞤢𞤼𞤮": 1389,
      "𞤥𞤢𞤱𞤲𞤣𞤫": 1390,
      "𞤸𞤵𞥅𞤩": 1391,
      "𞤭𞤥𞥆": 1392,
      "##𞤵𞤳𞤢𞥄𞤩𞤫": 1393,
      "𞤆𞤵𞤤𞤢𞤪": 1394,
      "𞤚𞤪𞤮𞤥𞤨": 1395,
      "𞤅𞤭𞤤": 1396,
      "𞤧𞤢𞤳𞥆": 1397,
      "𞤪𞤢𞥄𞤩": 1398,
      "##𞤣𞤢𞤲": 1399,
      "##𞤴𞤢𞥄": 1400,
      "##ar": 1401,
      "##𞤢𞤲𞤯𞤫": 1402,
      "##𞤮𞤲𞤢𞤤": 1403,
      "##𞤶𞤫𞤪𞤭": 1404,
      "##𞤥𞤮𞤳𞤢𞤪": 1405,
      "𞤐𞤣𞤫𞤲": 1406,
      "𞤸𞤢𞤪𞤢": 1407,
      "𞤅𞤮𞥅": 1408,
      "𞤣𞤮𞥅": 1409,
      "𞤫𞤩𞤫": 1410,
      "𞤸𞤢𞤤": 1411,
      "##𞤁𞤋": 1412,
      "##𞤋𞤒𞤀": 1413,
      "𞤑𞤮𞤾𞤭𞤣": 1414,
      "𞤤𞤢𞥄𞤩": 1415,
      "𞤶𞤢𞥄𞤺𞤮𞤪𞤢𞥄𞤯𞤮": 1416,
      "𞤱𞤭𞤫𞤼𞤫𞥅": 1417,
      "𞤶𞤢𞤲𞤢𞤲": 1418,
      "𞤄𞤢𞥄": 1419,
      "𞤏𞤮𞤲": 1420,
      "𞤩𞤢𞤲𞤺": 1421,
      "𞤬𞤫𞥅": 1422,
      "##𞤘𞤖𞤀": 1423,
      "##𞥃𞤢": 1424,
      "##𞤭𞥅𞤥𞤢": 1425,
      "##𞤮𞤤𞤮": 1426,
      "##𞤭𞤪𞤣𞤵": 1427,
      "𞤱𞤮𞥅𞤼𞤫𞤪𞤫": 1428,
      "##𞤢𞤴𞤲𞤮": 1429,
      "𞤀𞤥𞤫𞤪𞤭𞤳𞤢𞥄": 1430,
      "𞤉𞤪𞤮𞤨": 1431,
      "𞤀𞤁": 1432,
      "𞤥𞤢𞤪": 1433,
      "##𞥆𞤢𞤴": 1434,
      "##𞤲𞤢𞥄𞤩𞤫": 1435,
      "##𞤲𞤢𞥄𞤲𞤺𞤫": 1436,
      "##𞤺𞤢𞤴": 1437,
      "##𞤣𞤵𞤲𞤮": 1438,
      "##𞤦𞥆𞤭": 1439,
      "##𞤳𞤭𞥅": 1440,
      "𞤬𞤫𞤱": 1441,
      "𞤻𞤢𞤤𞤢𞥄𞤲𞤣𞤫": 1442,
      "##𞤥𞤢𞤣𞤵": 1443,
      "𞤢𞤲𞤣𞤭𞤪": 1444,
      "##𞤧𞤤𞤢𞥄𞤪𞤫": 1445,
      "𞤸𞤫𞤣𞥆𞤭𞥅": 1446,
      "𞤀𞤪": 1447,
      "𞤓𞤥": 1448,
      "𞤖𞤢𞤲𞤣𞤫": 1449,
      "𞤺𞤮𞤮": 1450,
      "𞤺𞤮𞤥": 1451,
      "𞥐𞥐": 1452,
      "##𞥆𞤢𞥄𞤤𞤭": 1453,
      "##𞤲𞤭𞤼": 1454,
      "##𞤦𞥆𞤮": 1455,
      "##𞤦𞤢𞥄𞤪𞤫": 1456,
      "##𞤌𞤂": 1457,
      "𞤳𞤢𞤴": 1458,
      "𞤱𞤮𞤲𞤣𞤭": 1459,
      "##𞤢𞥄𞤱𞤼𞤭": 1460,
      "##𞥆𞤢𞤺𞤮𞤤": 1461,
      "𞤱𞤢𞤯𞤵𞤣𞤫": 1462,
      "𞤢𞤲𞤣𞤭𞤲": 1463,
      "𞤲𞤢𞥄𞤣𞤭": 1464,
      "𞤤𞤫𞤧𞤯𞤫": 1465,
      "𞤐𞤢𞤶𞤫𞤪𞤭": 1466,
      "𞤀𞤴": 1467,
      "𞤲𞤫𞥅𞤩": 1468,
      "𞤶𞤢𞤥": 1469,
      "##𞥆𞤵𞤲𞤮": 1470,
      "##𞤢𞥄𞤶𞤮": 1471,
      "##𞤢𞤼𞤫𞥅𞤪𞤭": 1472,
      "##𞤶𞤮𞤦": 1473,
      "##𞤮𞤼𞥆𞤢𞤤": 1474,
      "𞤸𞤢𞤯": 1475,
      "𞤧𞤢𞥄𞤼𞤭𞤲": 1476,
      "𞤼𞤭𞥅𞤯": 1477,
      "##𞤫𞤸𞤫": 1478,
      "𞤀𞤁𞤂": 1479,
      "للم": 1480,
      "𞤀𞤂": 1481,
      "𞤣𞤢𞤯": 1482,
      "𞤶𞤵𞤲": 1483,
      "𞤶𞤢𞤱": 1484,
      "##𞤼𞤵𞤩𞤫": 1485,
      "##is": 1486,
      "##𞤢𞤱𞤵": 1487,
      "##𞤵𞤪𞤵": 1488,
      "##𞤵𞤪𞤭𞤲": 1489,
      "##𞥆𞤭𞤼𞤭𞥅": 1490,
      "𞤢𞤲𞤣": 1491,
      "𞤩𞤫𞤴𞤣": 1492,
      "𞤋𞤦𞤪": 1493,
      "للمشاركة": 1494,
      "𞤐𞤄": 1495,
      "𞤣𞤮𞤧𞤼𞤫𞤪𞤫": 1496,
      "𞤧𞤵𞤳𞤢𞥄𞤩𞤫": 1497,
      "𞤳𞤭𞥅": 1498,
      "𞤴𞤢𞥄": 1499,
      "𞤴𞤮𞤲": 1500,
      "𞤺𞤫𞤲": 1501,
      "𞥑𞥘": 1502,
      "##𞥆𞤵𞤯𞤭": 1503,
      "##𞤼𞤭𞤲𞤺𞤮𞤤": 1504,
      "𞤥𞤢𞤱𞤯𞤮": 1505,
      "𞤱𞤢𞥄𞤱𞤢𞤼𞤢𞥄": 1506,
      "𞤧𞤢𞥄𞤼𞤭𞥅": 1507,
      "##𞤢𞥄𞤸𞤭𞥅𞤥𞤢": 1508,
      "𞤦𞤭𞤲𞤣𞤭": 1509,
      "𞤥𞤮𞥅𞤩": 1510,
      "th": 1511,
      "𞤏𞤵𞤪𞤭𞤲": 1512,
      "𞤑𞤫𞤴": 1513,
      "𞤘𞤋𞤐": 1514,
      "𞤤𞤭𞤥": 1515,
      "##𞤲𞤺𞤵": 1516,
      "##𞤳𞤵": 1517,
      "##it": 1518,
      "##𞤭𞥅𞤪": 1519,
      "##𞤭𞤲𞤣𞤫": 1520,
      "##𞤫𞥅𞤶𞤮": 1521,
      "𞤱𞤮𞤲𞤢𞤲𞤣𞤫": 1522,
      "𞤺𞤮𞥅𞤼": 1523,
      "𞤣𞤫𞤬": 1524,
      "𞤰𞤫𞤼𞥆𞤭": 1525,
      "𞤼𞤢𞤥𞤨": 1526,
      "𞤲𞤮𞥅𞤺𞤢𞤴": 1527,
      "𞤅𞤢𞤣𞤭𞤦𞤢𞥄": 1528,
      "𞤘𞤋𞤐𞤉": 1529,
      "𞤅𞤫𞥅": 1530,
      "𞤩𞤭𞤯": 1531,
      "𞤷𞤮𞤺": 1532,
      "𞤻𞤭𞥅𞤩": 1533,
      "##𞤀𞤅𞤋": 1534,
      "##𞤢𞥄𞤪𞤵": 1535,
      "##𞤭𞥅𞤶𞤭": 1536,
      "##𞤭𞤤𞤭𞤴": 1537,
      "##𞤶𞤫𞤧𞤤𞤢𞥄𞤪𞤫": 1538,
      "##𞤮𞤱𞤢𞤤": 1539,
      "𞤸𞤮𞤯𞤮": 1540,
      "𞤱𞤢𞥄𞤱𞤭": 1541,
      "𞤐𞤦𞤮𞥅𞤴𞤮": 1542,
      "𞤀𞤸𞤥𞤢𞤣𞤵": 1543,
      "𞤂𞤢𞤦": 1544,
      "𞤥𞤭𞥅𞤶𞤮": 1545,
      "𞤬𞤢𞥄": 1546,
      "𞤬𞤮𞤱": 1547,
      "𞤱𞤮": 1548,
      "𞤲𞤵𞤲": 1549,
      "𞤶𞤮𞤲": 1550,
      "𞤼𞤮𞥅": 1551,
      "𞤼𞤮𞤪": 1552,
      "𞥑𞥗": 1553,
      "##𞤲𞤢𞤴": 1554,
      "##𞤢𞤃": 1555,
      "##𞤦𞤢": 1556,
      "##𞤭𞤲𞤢𞤤": 1557,
      "𞤤𞤫𞤦𞥆𞤭": 1558,
      "##𞤮𞤼𞤮𞥅": 1559,
      "##𞤮𞤱𞤢𞤲𞤭": 1560,
      "##𞤢𞤩𞤮": 1561,
      "𞤣𞤫𞤦𞥆𞤮": 1562,
      "##𞤵𞥅𞤦𞤢𞤳𞤢𞤪": 1563,
      "𞤣𞤵𞤦𞤵𞤲𞤫": 1564,
      "##𞤶𞤮𞤦𞤫𞤪𞤫": 1565,
      "𞤀𞤁𞤂𞤢𞤃": 1566,
      "𞤋𞤦𞤪𞤢𞥄𞤸𞤭𞥅𞤥𞤢": 1567,
      "𞤄𞤢𞤯𞤼𞤢𞤲𞤫": 1568,
      "𞤐𞤶": 1569,
      "𞤔𞤢𞥄𞤺𞤮𞤪": 1570,
      "𞤣𞤭𞥅": 1571,
      "𞤣𞤵𞤯": 1572,
      "𞤧𞤵": 1573,
      "𞤧𞤫𞥅𞤯": 1574,
      "𞤸𞤭𞤲": 1575,
      "##𞥆𞤢𞤼𞤢": 1576,
      "##𞤪𞤢𞤲": 1577,
      "##𞤵𞤧": 1578,
      "##ion": 1579,
      "##𞤢𞤪𞤢𞤤": 1580,
      "𞤢𞤪𞤣": 1581,
      "𞤢𞤪𞤣𞤮": 1582,
      "##𞤮𞤱𞤼𞤮": 1583,
      "𞤼𞤮𞤩𞥆𞤫": 1584,
      "𞤐𞤣𞤫𞥅": 1585,
      "𞥒𞥐𞥑𞥙": 1586,
      "𞤥𞤢𞥄𞤴𞤣𞤫": 1587,
      "𞤸𞤢𞤪𞤢𞤴": 1588,
      "𞤶𞤮𞤳𞥆": 1589,
      "𞤀𞤦𞤣𞤵": 1590,
      "𞤃𞤀𞤈": 1591,
      "𞤄𞤮𞤱𞤼𞤮": 1592,
      "𞤖𞤮": 1593,
      "𞤤𞤵𞤼": 1594,
      "𞤥𞤫": 1595,
      "𞤲𞤣𞤵": 1596,
      "𞤼𞤭𞤲": 1597,
      "##𞤼𞤮𞤲": 1598,
      "##𞤵𞥅𞤩": 1599,
      "##𞤫𞤤𞥆𞤢𞤤": 1600,
      "𞤴𞤢𞤸𞤭": 1601,
      "𞤸𞤮𞤤𞥆𞤭𞤼𞤭": 1602,
      "𞤀𞤴𞥃𞤢": 1603,
      "𞤑𞤫𞤴𞤼𞤢": 1604,
      "𞤘𞤢𞤥𞤦": 1605,
      "𞤦𞤵𞤴": 1606,
      "𞤨𞤫𞤸𞤫": 1607,
      "𞤬𞤭𞤪": 1608,
      "𞤯𞤢𞤩": 1609,
      "𞤴𞤫": 1610,
      "𞤼𞤵": 1611,
      "𞥒𞥑": 1612,
      "##𞤢𞤣": 1613,
      "##𞤦𞤮": 1614,
      "##nd": 1615,
      "##𞤢𞤼𞤵": 1616,
      "##𞥆𞤭𞤲𞤺𞤮𞤤": 1617,
      "##𞤢𞥄𞤳𞤭𞤪𞤭": 1618,
      "𞤢𞤪𞤣𞤭𞤲": 1619,
      "##𞤫𞤤𞥆𞤵": 1620,
      "𞥒𞥐𞥒𞥓": 1621,
      "𞤴𞤫𞥅𞤧𞤮": 1622,
      "𞤶𞤫𞤴𞤢𞥄": 1623,
      "𞤼𞤫𞤲𞤼𞤭𞤲𞤭𞥅": 1624,
      "𞤁𞤫𞤲": 1625,
      "𞤁𞤮𞤧𞤼𞤫𞤪𞤫": 1626,
      "𞤅𞤢𞤪": 1627,
      "𞤅𞤢𞤦": 1628,
      "𞤑𞤢𞤼𞤢𞤪": 1629,
      "𞤥𞤵𞥅": 1630,
      "𞤦𞤢𞤪": 1631,
      "𞤱𞤢𞤤𞥆𞤢": 1632,
      "𞤲𞤶𞤮": 1633,
      "𞤳𞤵𞤩": 1634,
      "𞤳𞤮𞥅𞤪𞤳𞤢": 1635,
      "##𞥆𞤮𞥅𞤩𞤫": 1636,
      "##ضغ": 1637,
      "##𞤣𞤫𞤪𞤫": 1638,
      "##𞤢𞤲𞤮𞥅𞤩𞤫": 1639,
      "##𞤫𞥅𞤰": 1640,
      "𞤩𞤫𞤪": 1641,
      "𞤱𞤢𞤯𞤭𞥅": 1642,
      "##𞤵𞤯𞤮𞤤": 1643,
      "𞤱𞤮𞥅𞤱": 1644,
      "𞤣𞤵𞤽": 1645,
      "##𞤢𞤺𞥆𞤢𞤤": 1646,
      "##𞤀𞤃𞤄": 1647,
      "𞤶𞤢𞤲𞤢𞤲𞤭": 1648,
      "𞤑𞤌𞤈": 1649,
      "𞤣𞤢𞤱𞤪𞤮": 1650,
      "𞤏𞤮𞤲𞤢𞥄": 1651,
      "𞤐𞤢𞤶𞤫𞤪𞤭𞤴𞤢": 1652,
      "##ضغط": 1653,
      "𞤀𞤲": 1654,
      "𞤀𞤊": 1655,
      "𞤈𞤫𞤬": 1656,
      "𞤊𞤮𞤼": 1657,
      "𞤑𞤮𞥅𞤪𞤳𞤢": 1658,
      "𞤒𞤮": 1659,
      "𞤕𞤢𞤴𞤲𞤢": 1660,
      "𞤘𞤮𞥅": 1661,
      "𞤦𞤫𞥅": 1662,
      "𞤷𞤵": 1663,
      "##𞤯𞤢": 1664,
      "##𞤤𞤵": 1665,
      "##𞤪𞤢": 1666,
      "##𞤣𞤵𞤲𞤮𞥅": 1667,
      "##𞤧𞤥": 1668,
      "##𞤶𞥆𞤭": 1669,
      "##𞤬𞤢": 1670,
      "##𞤅𞤚": 1671,
      "##𞤓𞤂": 1672,
      "##𞤭𞤲𞤭𞥅": 1673,
      "##𞤢𞤴𞤩𞤫": 1674,
      "##𞤢𞤴𞤵𞥅𞤶𞤭": 1675,
      "𞤥𞤮𞤶𞤮𞤦𞤫𞤪𞤫": 1676,
      "𞤱𞤢𞤯𞤵𞤲𞤮𞥅": 1677,
      "𞤀𞤤𞤤𞤢": 1678,
      "𞤬𞤵𞤯𞥆": 1679,
      "𞤥𞤢𞥄𞤴𞤭": 1680,
      "𞤲𞤦𞤵𞥅𞤯𞤭": 1681,
      "𞤧𞤫𞤨": 1682,
      "𞤃𞤵𞤸𞤢𞤥𞥆𞤢𞤣": 1683,
      "𞤶𞤫𞥅𞤼𞤢𞤼𞤭": 1684,
      "𞤪𞤫𞤱𞤩𞤫": 1685,
      "𞤓𞤥𞤢𞤪": 1686,
      "𞤷𞤮𞤺𞥆𞤵": 1687,
      "𞤘𞤢𞤥𞤦𞤭𞤴𞤢": 1688,
      "𞤲𞤭𞥅": 1689,
      "𞤳𞤭𞤯": 1690,
      "𞤴𞤢𞤲": 1691,
      "𞤶𞤢𞥄𞤤": 1692,
      "𞤶𞤵𞤤𞥆𞤫𞤪𞤫": 1693,
      "𞥑𞥕": 1694,
      "##𞤢𞥄𞤩𞤭": 1695,
      "##𞤣𞤫𞤲": 1696,
      "##𞤭𞤲𞤢": 1697,
      "##𞤣𞤭𞤪𞤭": 1698,
      "##𞤢𞤪𞤳𞤮": 1699,
      "##𞤵𞥅𞤶𞤫": 1700,
      "𞤲𞤮𞤣": 1701,
      "##𞤢𞥄𞤤𞤫": 1702,
      "𞤼𞤢𞤱𞤢𞤲𞤮𞥅": 1703,
      "##𞥆𞤭𞤲𞤢𞥄": 1704,
      "𞤧𞤭𞤳𞥆": 1705,
      "𞥑𞥙𞥘": 1706,
      "##𞤉𞤐𞤉": 1707,
      "𞤳𞤫𞤧": 1708,
      "𞤃𞤢𞤳𞤭": 1709,
      "𞤳𞤭𞤨𞥆𞤮𞤤": 1710,
      "𞤣𞤮𞥅𞤤𞤫": 1711,
      "𞤀𞤥": 1712,
      "𞤅𞤌": 1713,
      "𞤅𞤢𞤤": 1714,
      "𞤇𞤢𞤴𞤼𞤭": 1715,
      "𞤑𞤀𞤃": 1716,
      "𞤔𞤢𞤤𞥆𞤮": 1717,
      "##𞥆𞤌": 1718,
      "##𞥆𞤫𞥅": 1719,
      "##𞤴𞤢𞤲": 1720,
      "##𞤵𞤦": 1721,
      "##𞤵𞤳𞤮": 1722,
      "##𞤌𞤑": 1723,
      "##𞤬𞤭𞤲": 1724,
      "##𞤘𞤌": 1725,
      "##𞤢𞤤𞤫𞤲": 1726,
      "##𞤢𞥄𞤤𞤯𞤫": 1727,
      "##𞤢𞥄𞤲𞤣𞤭": 1728,
      "𞤸𞤫𞤩𞤭𞥅": 1729,
      "𞤑𞤮𞤲𞤢𞥄𞤳𞤭𞤪𞤭": 1730,
      "##𞤥𞤦𞤫𞤪𞤫": 1731,
      "𞤑𞤌𞤐": 1732,
      "𞤘𞤫𞤲𞤯𞤭": 1733,
      "𞤸𞤮𞤤𞥆𞤭𞤼𞤭𞥅": 1734,
      "𞤤𞤢𞥄𞤱𞤮𞤤": 1735,
      "𞤸𞤢𞤩𞤵𞤺𞤮𞤤": 1736,
      "𞤏𞤢𞤼𞤢𞤪𞤢": 1737,
      "𞤖𞤮𞥅𞤪𞤫𞥅𞤶𞤮": 1738,
      "de": 1739,
      "𞤄𞤢𞤴": 1740,
      "𞤅𞤀𞤂": 1741,
      "𞤊𞤫𞤱": 1742,
      "𞤍𞤫𞤲": 1743,
      "𞤔𞤮𞤤𞤮": 1744,
      "𞤣𞤮𞤱": 1745,
      "𞤥𞤢𞤲𞤳": 1746,
      "𞤦𞤢𞤤": 1747,
      "𞤦𞤢𞥄𞤤𞤯𞤫": 1748,
      "𞤪𞤮𞤲": 1749,
      "𞤫𞤥𞤦𞤫𞤪𞤫": 1750,
      "𞤯𞤮𞤱": 1751,
      "𞤴𞤢𞥄𞤳": 1752,
      "𞤺𞤢𞤧": 1753,
      "##𞤧𞤭𞤲": 1754,
      "##𞤈𞤓": 1755,
      "##𞤋𞤅": 1756,
      "##𞤉𞤂": 1757,
      "##le": 1758,
      "##re": 1759,
      "##𞤮𞥅𞤸": 1760,
      "##𞤭𞤲𞤮𞥅𞤩𞤫": 1761,
      "𞤱𞤮𞤲𞤵": 1762,
      "##𞤳𞥆𞤭𞤤": 1763,
      "𞤱𞤢𞤳𞥆𞤮": 1764,
      "##𞥆𞤭𞤳𞤫": 1765,
      "𞤼𞤢𞤱𞤼𞤭": 1766,
      "##𞤭𞤤𞥆𞤢𞤲𞤣𞤫": 1767,
      "𞤸𞤢𞤳𞥆𞤮": 1768,
      "𞤢𞤪𞤣𞤭𞥅": 1769,
      "𞤢𞤲𞤣𞤭": 1770,
      "##𞥆𞤢𞤲𞤮𞥅": 1771,
      "##𞤢𞤬𞤪": 1772,
      "##𞤢𞥄𞤦𞤢": 1773,
      "𞤤𞤢𞥄𞤼𞤭𞤲𞤮𞥅": 1774,
      "𞤱𞤢𞤤𞥆𞤭𞤼": 1775,
      "𞤪𞤫𞤲𞤣𞤮": 1776,
      "𞤶𞤭𞤦𞤭𞤲𞤢𞥄": 1777,
      "𞤼𞤢𞤰": 1778,
      "𞤸𞤭𞤲𞤤𞤫": 1779,
      "𞤀𞤦𞤣𞤵𞤤": 1780,
      "𞤃𞤀𞤈𞤌𞤑": 1781,
      "𞤅𞤮𞤲": 1782,
      "𞤅𞤫𞤤𞥆𞤵": 1783,
      "𞤏𞤓𞥅": 1784,
      "𞤥𞤫𞥅": 1785,
      "𞤧𞤮𞤪": 1786,
      "𞤱𞤢𞤪𞤭": 1787,
      "𞤸𞤭𞤪𞤲𞤢": 1788,
      "𞥐𞥐𞥐": 1789,
      "𞥓𞥐": 1790,
      "##𞤢𞤻": 1791,
      "##𞤢𞤩𞤫𞤪𞤫": 1792,
      "##𞤀𞤒": 1793,
      "##ul": 1794,
      "##𞤓𞤏": 1795,
      "##𞤭𞤲𞤺𞤮𞤤": 1796,
      "##𞤢𞤱𞤮𞥅": 1797,
      "##𞤮𞤼𞤮𞥅𞤯𞤮": 1798,
      "𞤲𞤣𞤢𞥄𞤪": 1799,
      "𞤱𞤢𞤳𞥆𞤭𞤤": 1800,
      "𞤤𞤢𞥄𞤥𞤩𞤫": 1801,
      "𞤸𞤮𞤥𞤦": 1802,
      "##𞤢𞥄𞤺𞤵": 1803,
      "𞤱𞤮𞥅𞤼": 1804,
      "𞤴𞤢𞤤𞤼𞤭": 1805,
      "##𞤵𞤲𞥋𞤺𞤢𞤤": 1806,
      "##𞤭𞥅𞤤𞤢": 1807,
      "𞤭𞤼𞥆𞤭": 1808,
      "𞤱𞤭𞤴𞤭": 1809,
      "𞤻𞤢𞥄𞤱𞤮𞥅𞤪𞤫": 1810,
      "𞤧𞤮𞥅𞤪𞤭": 1811,
      "##𞤀𞤑𞤋": 1812,
      "𞤳𞤭𞤧𞤢𞤤": 1813,
      "𞤑𞤮𞤼𞤣𞤭𞤾𞤢𞥄𞤪": 1814,
      "𞤣𞤵𞤯𞤢𞤤": 1815,
      "𞤧𞤫𞥅𞤯𞤢": 1816,
      "𞤥𞤫𞤫𞤲": 1817,
      "𞤃𞤢𞤲": 1818,
      "𞤆𞤮𞤼𞥆𞤢𞤤": 1819,
      "𞤘𞤭𞤦𞤭": 1820,
      "𞤧𞤵𞤥": 1821,
      "𞤧𞤫𞤪": 1822,
      "𞤪𞤮𞤱𞤢𞤲𞤭": 1823,
      "𞤫𞤯𞤫𞤲": 1824,
      "𞤯𞤮": 1825,
      "𞤷𞤫𞤤𞥆𞤢𞤤": 1826,
      "𞥑𞥓": 1827,
      "##𞤽𞥆𞤫": 1828,
      "𞤲𞤺𞤢𞥄𞤤": 1829,
      "##𞤢𞤥𞤢": 1830,
      "##𞤼𞤭𞤲𞤮": 1831,
      "##𞤵𞤩𞤢𞤤": 1832,
      "𞤴𞤮𞤱": 1833,
      "𞤣𞤫𞤥𞤮𞤳𞤢𞤪": 1834,
      "𞤲𞤢𞥄𞤣": 1835,
      "𞤀𞥄𞤩": 1836,
      "##𞤧𞤤𞤢𞥄𞤥": 1837,
      "𞤸𞤵𞥅𞤱𞤼𞤮𞤪": 1838,
      "##ent": 1839,
      "𞤁𞤵𞥅𞤶𞤮": 1840,
      "𞤶𞤵𞤲𞥆𞤭𞤼𞤢𞤤": 1841,
      "the": 1842,
      "𞤏𞤓𞥅𞤈𞤋": 1843,
      "𞤃𞤌": 1844,
      "𞤄𞤵𞥅𞤦𞤢𞤳𞤢𞤪": 1845,
      "𞤑𞤢𞤤𞤢": 1846,
      "𞤒𞤭𞤥𞤩𞤫": 1847,
      "𞤤𞤢𞤱": 1848,
      "𞤥𞤭𞤤𞤭𞤴": 1849,
      "𞤧𞤢𞤯": 1850,
      "𞤫𞤤": 1851,
      "𞤺𞤢𞤴𞤲": 1852,
      "𞤻𞤢𞤥": 1853,
      "𞥒𞥕": 1854,
      "##𞥆𞤮𞥅𞤪𞤫": 1855,
      "##𞤭𞤻": 1856,
      "##𞤲𞤣𞤮": 1857,
      "##𞤼𞤮𞤤": 1858,
      "##𞤳𞤵𞤲": 1859,
      "##or": 1860,
      "##FD": 1861,
      "##𞤢𞥄𞤣": 1862,
      "##𞤣𞤭𞤴": 1863,
      "##𞤮𞤼𞥆𞤭𞤲": 1864,
      "𞤲𞤣𞤵𞥅": 1865,
      "𞤸𞤫𞤪": 1866,
      "𞤸𞤫𞤧": 1867,
      "𞤱𞤮𞥅𞤣𞤭": 1868,
      "𞤤𞤢𞥄𞤦𞤭": 1869,
      "𞤶𞤫𞥅𞤲𞤢𞤴": 1870,
      "𞤶𞤢𞤲𞤺𞤵𞤣𞤫": 1871,
      "𞤧𞤢𞤪𞤴": 1872,
      "𞤑𞤌𞤚": 1873,
      "𞤢𞥄𞤩": 1874,
      "𞤢𞤷𞥆𞤭𞤼": 1875,
      "𞤩𞤢𞤣": 1876,
      "𞤩𞤢𞤣𞤭𞥅": 1877,
      "𞤸𞤵𞤥𞤨𞤭𞤼": 1878,
      "𞤃𞤵𞤸𞤢𞤥𞥆𞤢𞤣𞤵": 1879,
      "𞤪𞤫𞤬𞤼𞤭": 1880,
      "𞤄𞤭𞤧𞤢𞤱𞤮𞥅": 1881,
      "𞤢𞤣𞤵𞤲𞤢𞥄𞤪𞤵": 1882,
      "𞤺𞤮𞤥𞤲": 1883,
      "𞤊𞤫𞤱𞤲𞤣𞤮": 1884,
      "اضغط": 1885,
      "𞤃𞤢": 1886,
      "𞤅𞤉𞤐𞤉": 1887,
      "𞤇𞤢𞥄𞤱𞤼𞤭": 1888,
      "𞤌𞤥𞤮": 1889,
      "𞤔𞤵𞤳𞤮": 1890,
      "𞤖𞤮𞤤": 1891,
      "𞤙𞤢𞤤": 1892,
      "𞤢𞤥": 1893,
      "𞤥𞤮𞤲": 1894,
      "𞤧𞤢𞤬𞤪": 1895,
      "𞤨𞤭𞥅𞤶𞤭": 1896,
      "𞤬𞤢𞥄𞤦": 1897,
      "𞤴𞤭𞤯": 1898,
      "𞤸𞤢𞤦": 1899,
      "𞤼𞤵𞥅𞤥": 1900,
      "##𞤫𞤥𞤦": 1901,
      "##𞤶𞤢𞤲": 1902,
      "##ue": 1903,
      "##ab": 1904,
      "##𞤭𞥅𞤲": 1905,
      "𞤱𞤮𞤲𞤣𞤵𞤣𞤫": 1906,
      "##𞤮𞤪𞤣𞤵": 1907,
      "##𞤭𞤼𞤮𞤪": 1908,
      "𞤢𞤪𞤢𞤲𞤮": 1909,
      "𞤀𞤤𞤸": 1910,
      "𞥑𞥙𞥖": 1911,
      "𞤶𞤢𞥄𞤺𞤮𞤪𞤯𞤮": 1912,
      "𞤶𞤢𞤲𞤺𞤣𞤫": 1913,
      "##𞤵𞤥𞤦𞤵": 1914,
      "𞤲𞤢𞤴𞤮": 1915,
      "##𞤢𞤪𞤮𞤳": 1916,
      "𞤑𞤌𞤚𞤁𞤋": 1917,
      "𞤅𞤉𞤐𞤉𞤘𞤀𞤂": 1918,
      "UFD": 1919,
      "𞤃𞤀𞤑𞤋": 1920,
      "𞤉𞤪": 1921,
      "𞤐𞤘": 1922,
      "𞤚𞤵𞥅𞤪𞤫": 1923,
      "𞤣𞤮𞤺": 1924,
      "𞤤𞤢𞤦": 1925,
      "𞤦𞤢": 1926,
      "𞤦𞤢𞤲": 1927,
      "𞤧𞤢": 1928,
      "𞤬𞤢𞤪𞤢𞤲": 1929,
      "𞤸𞤵𞤤": 1930,
      "𞤺𞤫𞥅𞤰": 1931,
      "𞤽𞤢𞤤": 1932,
      "##𞥆𞤫𞥅𞤣𞤫": 1933,
      "##𞤭𞤳": 1934,
      "##𞤼𞤢𞥄𞤪𞤫": 1935,
      "##𞤀𞤆": 1936,
      "##𞤸𞤭": 1937,
      "𞤥𞤢𞤧𞤭𞥅": 1938,
      "𞤸𞤮𞥅𞤤": 1939,
      "𞤲𞤶𞤫𞥅": 1940,
      "𞤴𞤢𞤤𞤼𞤭𞤲𞤭": 1941,
      "##𞤺𞤫𞤤𞤫": 1942,
      "𞤱𞤭𞤴𞤫𞤼𞤫𞥅": 1943,
      "𞤐𞤦𞤢𞤤𞥆𞤮": 1944,
      "𞤤𞤢𞥄𞤼𞤭𞤲𞤮𞥅𞤯𞤮": 1945,
      "𞤥𞤮𞤰𞥆𞤭𞤲": 1946,
      "𞤼𞤢𞤥𞤰": 1947,
      "##ing": 1948,
      "𞤷𞤵𞤳𞥆𞤮": 1949,
      "𞤙𞤢𞤤𞤲𞤣𞤫": 1950,
      "𞤁𞤵𞤥𞤦𞤵": 1951,
      "𞤃𞤢𞤪𞤮𞤳": 1952,
      "𞤆𞤮𞤤": 1953,
      "𞤋𞤪𞤢𞤲": 1954,
      "𞤖𞤭𞤪𞤲𞤢": 1955,
      "𞤤𞤮𞥅𞤱": 1956,
      "𞤧𞤢𞥄𞤪𞤫": 1957,
      "𞤩𞤢𞤴𞤼𞤭": 1958,
      "𞤭𞥅": 1959,
      "𞤱𞤫𞥅": 1960,
      "𞤳𞤢𞥄𞤤𞤭": 1961,
      "𞤸𞤮𞤪": 1962,
      "##𞤯𞤢𞥄": 1963,
      "##𞤈𞤀": 1964,
      "##𞤌𞤈": 1965,
      "##𞤌𞤏": 1966,
      "##al": 1967,
      "##ter": 1968,
      "##𞤢𞥄𞤯𞤫": 1969,
      "𞤲𞤺𞤫𞤲": 1970,
      "##𞤢𞤴𞤫𞥅": 1971,
      "##𞤭𞤼𞤢𞤲𞤭": 1972,
      "𞤼𞤢𞤱𞤲𞤮𞥅": 1973,
      "𞤸𞤢𞤶": 1974,
      "𞤬𞤮𞤬": 1975,
      "𞤥𞤭𞤯𞤮": 1976,
      "𞤥𞤢𞤱𞤯𞤫": 1977,
      "𞤧𞤵𞤩𞤭𞥅": 1978,
      "##𞤀𞤐𞤀": 1979,
      "##𞤀𞤃𞥆": 1980,
      "𞤬𞤮𞥅𞤤𞤮𞤼𞤭𞤪𞤢𞤤": 1981,
      "𞤃𞤢𞤱𞤦𞤢𞥄𞤪𞤫": 1982,
      "𞤤𞤢𞥄𞤱𞤭": 1983,
      "𞤲𞤫𞤱𞤲": 1984,
      "𞤸𞤵𞤩𞤫𞥅𞤪𞤫": 1985,
      "𞤐𞤶𞤵𞤩𞥆𞤵𞤣𞤭": 1986,
      "𞤲𞤶𞤮𞤱𞤮": 1987,
      "𞤓𞤥𞤢𞤪𞤵": 1988,
      "𞤺𞤫𞥅𞤰𞤭": 1989,
      "𞤁𞤵𞤥𞤦𞤵𞤴𞤢": 1990,
      "UN": 1991,
      "𞤒𞤢𞤪𞤳𞤮": 1992,
      "𞤣𞤢𞤤𞤢": 1993,
      "𞤫𞤱𞤲": 1994,
      "𞤱𞤫𞥅𞤩": 1995,
      "𞤶𞤮𞥅": 1996,
      "𞤼𞤮𞥅𞤤": 1997,
      "𞥑𞥐": 1998,
      "𞥑𞥒": 1999,
      "##𞤭𞤺": 2000,
      "##𞤣𞤢𞥄𞤪𞤫": 2001,
      "##𞤃𞤀": 2002,
      "##CO": 2003,
      "##𞤢𞤲𞤣𞤢": 2004,
      "##𞤭𞤲𞤫𞤲": 2005,
      "##𞤵𞤲𞤣": 2006,
      "##𞥆𞤭𞤬": 2007,
      "##𞤢𞥄𞤲𞤭": 2008,
      "𞤸𞤫𞤦": 2009,
      "𞤻𞤢𞤤𞥆𞤢𞤤": 2010,
      "##𞤢𞤸𞤪𞤫": 2011,
      "𞤢𞤲𞤣𞤢𞥄": 2012,
      "𞤬𞤭𞤩": 2013,
      "##𞤫𞤪𞤵𞤲": 2014,
      "𞤯𞤵𞥅𞤯𞤵𞤯𞤭": 2015,
      "𞥒𞥐𞥑𞥐": 2016,
      "𞤑𞤢𞤥𞤫𞤪𞤵𞤲": 2017,
      "##𞤋𞤐𞤀": 2018,
      "𞤘𞤫𞤲𞤮": 2019,
      "𞤃𞤢𞤱𞤲𞤣𞤫": 2020,
      "𞤼𞤭𞤥𞥆𞤭𞤲𞤭𞥅": 2021,
      "𞤱𞤵𞤤𞥆𞤭𞤼": 2022,
      "𞤲𞤢𞤬𞤮𞥅𞤶𞤫": 2023,
      "𞤶𞤢𞤱𞤤𞤫": 2024,
      "𞤣𞤭𞥅𞤱𞤢𞤤": 2025,
      "𞤄𞤢𞤴𞤣𞤫𞤲": 2026,
      "𞤁𞤉𞤐": 2027,
      "𞤁𞤮𞤲𞤢𞤤": 2028,
      "𞤙𞤢𞥄𞤱": 2029,
      "𞤢𞤣𞤭𞥅": 2030,
      "𞤦𞤮𞥅": 2031,
      "𞤪𞤫𞥅𞤲": 2032,
      "𞤬𞤢𞤲": 2033,
      "𞤳𞤵𞤲": 2034,
      "𞤳𞤮𞤤": 2035,
      "𞤴𞤵𞤪": 2036,
      "𞤷𞤵𞤩𞤢𞤤": 2037,
      "𞤸𞤵𞤲": 2038,
      "𞥒𞥒": 2039,
      "##𞥆𞤢𞤥": 2040,
      "##ed": 2041,
      "##𞤽𞤫": 2042,
      "##𞤣𞤫𞥅": 2043,
      "##𞤢𞤲𞤧": 2044,
      "##𞤢𞤲𞤣𞤢𞤤": 2045,
      "##𞤢𞤪𞤫": 2046,
      "𞤳𞤮𞤴": 2047,
      "##𞤢𞤱𞤭": 2048,
      "##𞤭𞤪𞤺𞤢𞤤": 2049,
      "𞤱𞤮𞤲𞤵𞤺𞤮𞤤": 2050,
      "##𞤵𞤥𞤨𞤭𞤼": 2051,
      "𞤥𞤢𞤺": 2052,
      "##𞥆𞤵𞤩𞤫": 2053,
      "##𞥆𞤵𞤯𞤫": 2054,
      "##𞤵𞤤𞥆𞤫": 2055,
      "##𞤢𞥄𞤳𞤮": 2056,
      "𞤱𞤮𞥅𞤨": 2057,
      "𞤳𞤮𞤲𞤺𞤮𞤤": 2058,
      "𞤥𞤢𞤱𞤩𞤫": 2059,
      "𞤣𞤢𞤪𞤢𞤺𞤮𞤤": 2060,
      "𞤯𞤫𞤥": 2061,
      "𞤸𞤭𞤩𞤫": 2062,
      "𞤬𞤮𞥅𞤤𞤭": 2063,
      "##𞥆𞤢𞥄𞤶𞤮": 2064,
      "##𞥆𞤢𞥄𞤸𞤭": 2065,
      "𞤭𞤼𞥆": 2066,
      "𞤥𞤢𞤴𞤪𞤵": 2067,
      "𞤪𞤫𞤬𞤦𞤭𞤪𞥆𞤫": 2068,
      "𞤁𞤫𞤐": 2069,
      "𞤂𞤢𞥄𞤥𞤵": 2070,
      "𞤘𞤮𞥅𞤥𞤵": 2071,
      "𞤦𞤢𞤤𞤯𞤫": 2072,
      "𞤣𞤫𞤥𞤮𞤳𞤢𞤪𞤢𞥄𞤳𞤵": 2073,
      "UFDG": 2074,
      "𞤥𞤢𞤧𞤭𞥅𞤦𞤮": 2075,
      "𞤁𞤢𞤤𞤫𞤲": 2076,
      "𞤃𞤭𞤧": 2077,
      "𞤄𞤫𞤲": 2078,
      "𞤅𞤢": 2079,
      "𞤌𞥅": 2080,
      "𞤍𞤵𞥅𞤯": 2081,
      "𞤐𞤺𞤢𞤤": 2082,
      "𞤓𞤧𞤥": 2083,
      "𞤘𞤢𞤲𞤢": 2084,
      "𞤢𞤴": 2085,
      "𞤤𞤢𞤥": 2086,
      "𞤩𞤢𞤥": 2087,
      "𞤰𞤫𞤱": 2088,
      "𞤱𞤫𞤪": 2089,
      "𞤲𞤶𞤫𞤧𞤤𞤢𞥄𞤪𞤫": 2090,
      "𞤴𞤢𞤲𞤭": 2091,
      "𞤸𞤢𞤼": 2092,
      "𞤺𞤭𞤲𞤫": 2093,
      "𞥑𞥑": 2094,
      "𞥒𞥓": 2095,
      "##𞤯𞤭𞤲": 2096,
      "##𞤩𞤢𞤤": 2097,
      "##il": 2098,
      "##AS": 2099,
      "##𞤭𞥅𞤯𞤮": 2100,
      "##𞤢𞤥𞤢𞤣𞤭": 2101,
      "##𞤭𞤥𞤦𞤭": 2102,
      "##𞤢𞥄𞤲𞤺𞤮": 2103,
      "##𞤼𞤮𞤴": 2104,
      "##𞤫𞤤𞥆𞤫": 2105,
      "##𞤫𞤴𞤢": 2106,
      "##𞤮𞥅𞤲𞤢": 2107,
      "##𞤀𞤂𞥆𞤌": 2108,
      "𞤉𞤲𞤺𞤫𞤤𞤫": 2109,
      "##𞤀𞤁𞤓": 2110,
      "𞤭𞤲𞥆𞤫𞤼𞤫𞥅𞤯𞤮": 2111,
      "𞤲𞤢𞤱𞤲𞤢𞥄𞤪𞤫": 2112,
      "𞤑𞤮𞤪𞤧𞤮": 2113,
      "𞤳𞤢𞤴𞤣𞤭": 2114,
      "𞤂𞤢𞤦𞤭𞤪": 2115,
      "𞤦𞤢𞤪𞤥": 2116,
      "𞤩𞤫𞤪𞤲𞤣𞤫": 2117,
      "𞤑𞤀𞤃𞤀𞤈": 2118,
      "𞤅𞤮𞤲𞤳𞤮": 2119,
      "𞤯𞤮𞤶": 2120,
      "𞤍𞤵𞥅𞤯𞤵𞤩𞤫": 2121,
      "𞤀𞤈": 2122,
      "𞤃𞤓": 2123,
      "𞤃𞤢𞤥𞤢𞤣𞤭": 2124,
      "𞤋𞤧𞤤𞤢𞥄𞤥": 2125,
      "𞤑𞤵𞥅𞤩": 2126,
      "𞤔𞤭𞤦": 2127,
      "𞤖𞤭": 2128,
      "𞤘𞤀𞤐𞤀": 2129,
      "𞤢𞤧": 2130,
      "𞤤𞤢𞤪𞤢𞤤": 2131,
      "𞤴𞤭𞤴": 2132,
      "𞤵𞤧": 2133,
      "𞤶𞤢𞥄𞤦": 2134,
      "𞤶𞤫𞤥": 2135,
      "𞤸𞤭𞤤": 2136,
      "𞤼𞤵𞥅": 2137,
      "##𞤯𞤮𞤲": 2138,
      "##𞤱𞤢": 2139,
      "##𞤵𞤺": 2140,
      "##𞤵𞤬": 2141,
      "##𞤶𞤵𞤲": 2142,
      "##𞤳𞥆𞤫": 2143,
      "##𞤋𞤘𞤀𞤂": 2144,
      "##قر": 2145,
      "##𞤢𞤲𞤣": 2146,
      "##𞤭𞤲𞤺": 2147,
      "##𞤮𞤪𞤮": 2148,
      "𞤲𞤮𞤣𞥆𞤭𞤼": 2149,
      "𞤤𞤫𞤳𞥆𞤭": 2150,
      "##𞤼𞤭𞤲𞤣𞤫": 2151,
      "##𞤭𞤴𞤢𞥄": 2152,
      "##𞤢𞥄𞤲𞤺𞤢𞤤": 2153,
      "##𞤫𞤱𞤢𞤤": 2154,
      "##𞤶𞤮𞤥𞤢𞥄𞤶𞤫": 2155,
      "𞤲𞤶𞤵𞤩𞥆𞤵": 2156,
      "𞤶𞤮𞤺𞤭𞥅": 2157,
      "𞤲𞤣𞤭𞤥𞤵": 2158,
      "𞤲𞤺𞤵𞥅𞤪": 2159,
      "𞤤𞤢𞥄𞤼𞤭𞤲𞤮": 2160,
      "𞤸𞤢𞥄𞤤𞤢": 2161,
      "𞤐𞤺𞤵𞥅": 2162,
      "𞤶𞤫𞥅𞤼𞤢𞤼𞤢𞤩𞤢𞤤": 2163,
      "𞤫𞤩𞥆𞤮𞥅𞤪𞤫": 2164,
      "##𞤭𞤲𞥋𞤣": 2165,
      "𞤅𞤭𞤤𞤼𞤮": 2166,
      "𞤱𞤭𞤫𞤼𞤫𞥅𞤲𞤣𞤫": 2167,
      "𞤬𞤫𞥅𞤻": 2168,
      "𞤈𞤫𞤬𞤦𞤭𞤪𞥆𞤫": 2169,
      "𞤳𞤭𞤯𞥆𞤮": 2170,
      "𞤦𞤢𞤽𞥆𞤫": 2171,
      "ECO": 2172,
      "𞤃𞤢𞤪": 2173,
      "𞤄𞤢𞤪": 2174,
      "𞤅𞤵": 2175,
      "𞤅𞤢𞤱𞤵": 2176,
      "𞤍𞤵𞤲": 2177,
      "𞤑𞤢𞤲𞤳𞤮": 2178,
      "𞤦𞤢𞤯": 2179,
      "𞤩𞤭": 2180,
      "𞤷𞤫𞤪": 2181,
      "𞤺𞤮": 2182,
      "𞤽𞤭𞤻": 2183,
      "##𞤭𞤳𞤫": 2184,
      "##𞤣𞤤": 2185,
      "##𞤋𞤂": 2186,
      "##DE": 2187,
      "##WAS": 2188,
      "##𞤢𞤲𞤺𞤮𞤤": 2189,
      "##𞤫𞥅𞤶𞤫": 2190,
      "##𞤢𞤴𞤢𞤲𞤳": 2191,
      "𞤲𞤣𞤭𞥅": 2192,
      "𞤤𞤢𞥄𞤥𞤭𞥅": 2193,
      "##𞥆𞤭𞥅𞤩𞤫": 2194,
      "𞤬𞤫𞤰𞥆𞤭𞤲𞤭": 2195,
      "𞤸𞤫𞤩𞥆𞤭𞤼": 2196,
      "𞤶𞤢𞤲𞤺𞤵𞤺𞤮𞤤": 2197,
      "𞤼𞤭𞤥𞥆𞤭": 2198,
      "𞤲𞤶𞤢𞤥": 2199,
      "##𞥆𞤮𞥅𞤣𞤫": 2200,
      "𞤃𞤭𞤯𞤮": 2201,
      "𞤼𞤵𞤥𞤦𞤮𞤲": 2202,
      "##𞤀𞤚𞤀𞤈": 2203,
      "##𞤢𞤱𞤮𞤪𞤫": 2204,
      "##𞤳𞤭𞥅𞤯𞤫": 2205,
      "𞤣𞤫𞤬𞤼𞤫𞤪𞤫": 2206,
      "𞤩𞤭𞤯𞤩𞤫": 2207,
      "𞤊𞤮𞤼𞥆𞤵𞤯𞤭": 2208,
      "𞤉𞤪𞤣𞤮": 2209,
      "##𞤌𞤏𞤀𞤅𞤋": 2210,
      "𞤶𞤫𞤥𞥆𞤢": 2211,
      "ECOWAS": 2212,
      "CE": 2213,
      "and": 2214,
      "et": 2215,
      "ان": 2216,
      "𞤅𞤢𞥄𞤤": 2217,
      "𞤈𞤵𞤱": 2218,
      "𞤉𞤳": 2219,
      "𞤊𞤵𞥅": 2220,
      "𞤔𞤮𞥅": 2221,
      "𞤚𞤵𞥅": 2222,
      "𞤣𞤢𞥄𞤳": 2223,
      "𞤤𞤮𞤤": 2224,
      "𞤥𞤭𞥅": 2225,
      "𞤥𞤫𞤼": 2226,
      "𞤧𞤢𞤸𞤪𞤫": 2227,
      "𞤪𞤫𞥅": 2228,
      "𞤬𞤭𞤤": 2229,
      "𞤱𞤵": 2230,
      "𞤱𞤵𞥅𞤪": 2231,
      "𞤶𞤭𞥅𞤩": 2232,
      "𞤼𞤫": 2233,
      "𞤼𞤢𞤧": 2234,
      "𞥒𞥔": 2235,
      "𞥒𞥗": 2236,
      "##𞥆𞤢𞥄𞤣𞤫": 2237,
      "##𞤼𞤢𞤲𞤭": 2238,
      "##𞤼𞤮𞥅𞤱𞤮": 2239,
      "##𞤋𞤑": 2240,
      "##𞤊𞤀𞥄": 2241,
      "##𞤰𞥆𞤭": 2242,
      "##id": 2243,
      "##et": 2244,
      "##𞤔𞤀𞤐": 2245,
      "##𞤭𞥅𞤪𞤵": 2246,
      "##𞤣𞤭𞤴𞤢𞤲𞤳": 2247,
      "##𞤢𞤪𞤤𞤫": 2248,
      "𞤱𞤮𞤲𞥆𞤮𞥅": 2249,
      "##𞤢𞤼𞤭𞤪𞤣𞤵": 2250,
      "𞤥𞤢𞤩": 2251,
      "##𞤮𞤼𞤮𞥅𞤩𞤫": 2252,
      "##𞤼𞤭𞤲𞤭": 2253,
      "𞤼𞤢𞤱𞤫": 2254,
      "𞤼𞤢𞤱𞤣𞤫": 2255,
      "##𞤢𞥄𞤲𞤢": 2256,
      "𞤸𞤫𞤤": 2257,
      "𞤱𞤢𞤯𞤢𞥄": 2258,
      "𞤼𞤢𞤼𞤢𞤩": 2259,
      "##𞤢𞤲𞤮𞥅𞤱𞤮": 2260,
      "##𞤀𞤐𞤁": 2261,
      "𞤸𞤵𞥅𞤤": 2262,
      "𞤩𞤫𞤴𞤲𞤺𞤵": 2263,
      "𞤣𞤵𞤶𞤵𞤲𞤫": 2264,
      "𞤧𞤢𞤪𞤭𞤴𞤢": 2265,
      "##𞤈𞤋𞤑": 2266,
      "𞤱𞤭𞤲𞤣𞤭": 2267,
      "𞤻𞤢𞥄𞤥𞤣𞤵": 2268,
      "𞤯𞤭𞤯𞤥": 2269,
      "𞤯𞤭𞤯𞤢𞤩𞤫𞤪𞤫": 2270,
      "𞤶𞤢𞤩𞤢𞥄𞤤𞤭": 2271,
      "𞤌𞤲𞤼𞤵𞤥𞤢": 2272,
      "𞤢𞤪𞤢𞤲𞤫𞤪𞤫": 2273,
      "𞤺𞤢𞤤𞥆𞤫": 2274,
      "𞤲𞤮𞤳𞥆𞤵𞥅𞤪𞤫": 2275,
      "𞤴𞤭𞥅𞤼𞤫": 2276,
      "𞤧𞤫𞥅𞤣𞤭": 2277,
      "𞤢𞤲𞤣𞤢𞥄𞤳𞤢": 2278,
      "𞤧𞤢𞥄𞤼𞤭𞥅𞤲𞤺𞤮": 2279,
      "𞤑𞤌𞤈𞤌𞤏𞤀𞤅𞤋": 2280,
      "𞤁𞤉𞤐𞤘𞤖𞤀": 2281,
      "𞤁𞤫𞤐𞤘𞤖𞤀": 2282,
      "𞤂𞤢𞤦𞤭𞤪𞤭𞤴𞤢": 2283,
      "𞤀𞤈𞤔𞤀𞤐": 2284,
      "انقر": 2285,
      "𞤀𞤈𞤔𞤀𞤐𞤚": 2286,
      "un": 2287,
      "𞤀𞤄": 2288,
      "𞤂𞤫𞤴": 2289,
      "𞤃𞤢𞤴": 2290,
      "𞤅𞤉": 2291,
      "𞤅𞤭𞥅𞤧": 2292,
      "𞤆𞤢𞤪𞤭": 2293,
      "𞤇𞤫𞤲": 2294,
      "𞤢𞤪𞤭": 2295,
      "𞤳𞤵𞤥𞤨𞤭𞤼": 2296,
      "𞤴𞤢𞥄𞤱": 2297,
      "𞤴𞤭𞤤": 2298,
      "𞤷𞤢𞤺𞥆𞤢𞤤": 2299,
      "𞤸𞤢𞤲": 2300,
      "𞤸𞤫𞥅𞤪": 2301,
      "𞥒𞥙": 2302,
      "𞥒𞥘": 2303,
      "##𞤯𞤭𞤲𞤭": 2304,
      "##𞤱𞤢𞤲": 2305,
      "##𞤵𞤳𞥆": 2306,
      "##𞤼𞤭𞤼": 2307,
      "##st": 2308,
      "##𞤢𞤤𞤣𞤫": 2309,
      "##𞤮𞤲𞤺𞤮": 2310,
      "##𞤼𞤭𞤲𞤢": 2311,
      "##𞤼𞤫𞤣": 2312,
      "𞤤𞤢𞥄𞤼𞤭𞥅": 2313,
      "##𞤀𞥄𞤈": 2314,
      "##𞤀𞥄𞤐": 2315,
      "𞤣𞤢𞤪𞤲𞤣𞤫": 2316,
      "𞤬𞤫𞤰𞥆𞤭": 2317,
      "𞤸𞤢𞤪𞤫": 2318,
      "𞤲𞤣𞤭𞤴𞤢𞤲": 2319,
      "𞤨𞤭𞤴𞤭": 2320,
      "𞤶𞤮𞤯": 2321,
      "##𞤢𞤳𞥆𞤢": 2322,
      "𞤼𞤫𞥅𞤥𞤫𞤣𞤫𞤪𞤫": 2323,
      "𞤪𞤵𞤼𞥆𞤢𞤺𞤮𞤤": 2324,
      "𞤲𞤢𞤩𞤢𞥄": 2325,
      "##our": 2326,
      "𞤏𞤢𞤼𞤢𞤪𞤢𞥄": 2327,
      "𞤴𞤭𞥅𞤤𞤭𞤪𞤣𞤫": 2328,
      "𞤶𞤵𞥅𞤤𞤩𞤫": 2329,
      "𞤸𞤢𞤤𞤬𞤭𞤲": 2330,
      "𞤬𞤫𞤱𞤶": 2331,
      "𞤀𞤂𞤊𞤀𞥄": 2332,
      "𞤳𞤭𞥅𞤳𞤭𞥅𞤯𞤫": 2333,
      "𞤲𞤵𞤲𞤯": 2334,
      "𞤥𞤢𞤲𞤳𞤭𞤪𞤯𞤫": 2335,
      "𞤃𞤭𞤧𞤪𞤢": 2336,
      "𞤓𞤧𞤥𞤢𞥄𞤲": 2337,
      "𞤥𞤭𞥅𞤶": 2338,
      "𞤀𞤈𞤔𞤀𞤐𞤚𞤋𞤐𞤀": 2339,
      "𞤃𞤢𞤳𞥆𞤢": 2340,
      "𞤅𞤵𞥅𞤣𞤵": 2341,
      "𞤈𞤫𞤲": 2342,
      "𞤔𞤮𞤲": 2343,
      "𞤚𞤵𞤪": 2344,
      "𞤧𞤫𞥅𞤪": 2345,
      "𞤨𞤮𞤤": 2346,
      "𞤨𞤮𞥅𞤤": 2347,
      "𞤬𞤢𞥄𞤣𞤫": 2348,
      "𞤲𞤢": 2349,
      "𞤳𞤵𞤯𞤮𞤤": 2350,
      "𞤳𞤮𞥅𞤸": 2351,
      "𞤶𞤢𞤪𞤭": 2352,
      "𞥒𞥖": 2353,
      "##𞥆𞤮𞤪": 2354,
      "##𞤢𞤳𞤢": 2355,
      "##𞤌𞥅": 2356,
      "##𞤀𞤅": 2357,
      "##𞤬𞤵𞤤": 2358,
      "##am": 2359,
      "##om": 2360,
      "##NU": 2361,
      "##AO": 2362,
      "##𞤖𞤀𞤃𞥆": 2363,
      "##𞤮𞥅𞤣𞤫": 2364,
      "##𞤭𞥅𞤪𞤫": 2365,
      "𞤳𞤢𞤱": 2366,
      "##𞤢𞤴𞤮": 2367,
      "##𞤭𞤼𞤢𞤺𞤮𞤤": 2368,
      "##𞤢𞥄𞤲𞤣𞤢𞥄𞤪𞤫": 2369,
      "𞤺𞤮𞥅𞤲": 2370,
      "𞥑𞥙𞥗": 2371,
      "𞤬𞤫𞤰𞥆𞤵𞤣𞤫": 2372,
      "##𞤢𞤺𞥆𞤵": 2373,
      "𞤸𞤮𞤶𞤮𞤥𞤢𞥄𞤶𞤫": 2374,
      "𞤱𞤢𞤪𞤢𞥄": 2375,
      "𞤶𞤮𞤺𞤲": 2376,
      "𞤴𞤢𞤤𞤼𞤭𞤲𞤺𞤮𞤤": 2377,
      "𞤀𞥄𞤣": 2378,
      "𞤲𞤢𞤲𞤺𞤭": 2379,
      "𞤨𞤭𞤴𞤵𞤲𞤮": 2380,
      "𞤬𞤢𞥄𞤤𞤫": 2381,
      "𞤯𞤭𞤯𞤢𞤩𞤮": 2382,
      "𞤬𞤫𞤤𞤲𞤺𞤮": 2383,
      "𞤌𞤲𞤼𞤭𞤺𞤭": 2384,
      "𞤑𞤮𞤼𞤣𞤭𞤱": 2385,
      "𞤳𞤭𞤧𞤢𞤲": 2386,
      "𞤑𞤮𞤼𞤣𞤭𞤾𞤢𞤪": 2387,
      "𞤅𞤫𞥅𞤳𞤵": 2388,
      "𞤳𞤫𞤧𞤢𞤤": 2389,
      "𞤥𞤭𞤤𞤭𞤴𞤮𞤲": 2390,
      "##𞤌𞤈𞤚": 2391,
      "##𞤭𞤲𞤫𞤲𞤢𞥄𞤩𞤫": 2392,
      "𞤅𞤢𞤱𞤵𞤣𞤭𞥅": 2393,
      "M5": 2394,
      "ONU": 2395,
      "𞤀𞤃": 2396,
      "𞤃𞤢𞤤": 2397,
      "𞤄𞤭𞤲": 2398,
      "𞤄𞤢𞤥": 2399,
      "𞤄𞤀𞤈": 2400,
      "𞤆𞤌𞤈𞤚": 2401,
      "𞤈𞤮𞤲𞤢𞤤": 2402,
      "𞤉𞤩𞤫": 2403,
      "𞤑𞤀𞤚𞤀𞤈": 2404,
      "𞤣𞤢𞤪𞤢𞤲": 2405,
      "𞤤𞤮": 2406,
      "𞤤𞤭": 2407,
      "𞤦𞤭𞤥𞤦𞤭": 2408,
      "𞤨𞤭𞤲𞤫": 2409,
      "𞤬𞤮𞥅": 2410,
      "𞤴𞤫𞤤": 2411,
      "𞤴𞤫𞤯": 2412,
      "𞤸𞤮𞤲": 2413,
      "##𞤮𞤬": 2414,
      "##𞥆𞤢𞥄𞤥𞤢": 2415,
      "##𞤪𞤢𞤦": 2416,
      "##𞤫𞤣𞤭𞤴": 2417,
      "##𞤣𞤮𞥅𞤪𞤫": 2418,
      "##𞤼𞤫𞤲": 2419,
      "##𞤼𞤮𞤼": 2420,
      "##𞤼𞤵𞤲𞤮": 2421,
      "##𞤸𞤪𞤫": 2422,
      "##𞤣𞤭𞤪𞤫": 2423,
      "##𞤢𞤪𞤢": 2424,
      "##𞤭𞤪𞤢𞥄𞤩𞤫": 2425,
      "##𞤭𞤪𞤼𞤢": 2426,
      "𞤤𞤫𞤼": 2427,
      "𞤥𞤢𞤶": 2428,
      "𞤬𞤫𞤧": 2429,
      "##𞥆𞤭𞤲𞤮𞥅": 2430,
      "##𞤢𞥄𞤳𞤫": 2431,
      "##𞤼𞤭𞥅𞤶𞤭": 2432,
      "𞤀𞤤𞤥": 2433,
      "##𞤮𞥅𞤲𞤮": 2434,
      "##𞤀𞤈𞤀𞤐": 2435,
      "𞤥𞤵𞤧𞤭": 2436,
      "##𞤥𞤦𞤮": 2437,
      "𞤤𞤢𞤲𞤣": 2438,
      "##𞤮𞤪𞤭𞤳𞤫": 2439,
      "𞤶𞤢𞤲𞤺𞤮": 2440,
      "𞤩𞤢𞤤𞤫𞥅𞤶𞤮": 2441,
      "𞤴𞤢𞤥𞤭𞤪𞤭": 2442,
      "𞤢𞤪𞤢𞤲𞤢𞤤": 2443,
      "##ation": 2444,
      "𞤢𞤣𞤵𞤲𞤢𞤴𞤢𞤲𞤳": 2445,
      "𞤶𞤢𞤲𞤢𞤲𞤭𞤪𞤭": 2446,
      "𞤺𞤮𞥅𞤼𞤯𞤮": 2447,
      "𞤱𞤮𞤯": 2448,
      "𞤧𞤵𞤳𞤢": 2449,
      "𞤁𞤫𞤲𞤼𞤢𞤤": 2450,
      "𞤳𞤵𞤩𞥆𞤢𞤲": 2451,
      "##𞤀𞤃𞤄𞤋𞤒𞤀": 2452,
      "𞤴𞤢𞥄𞤳𞤮𞤪": 2453,
      "𞤴𞤮𞤱𞤭𞤼𞤭𞥅": 2454,
      "𞤲𞤢𞥄𞤣𞤢𞤲𞤭": 2455,
      "##𞤮𞤼𞥆𞤭𞤲𞤢𞤲𞤣𞤫": 2456,
      "𞤐𞤘𞤌𞤐": 2457,
      "𞤦𞤢𞤲𞤽𞤫": 2458,
      "𞤩𞤭𞤩𞥆𞤫": 2459,
      "##DEAO": 2460,
      "CEDEAO": 2461,
      "re": 2462,
      "𞤃𞤢𞤸": 2463,
      "𞤄𞤫𞤣𞤭𞤴": 2464,
      "𞤅𞤵𞤩": 2465,
      "𞤇𞤫𞥅": 2466,
      "𞤉𞤐": 2467,
      "𞤊𞤀𞤈𞤀𞤐": 2468,
      "𞤐𞤔": 2469,
      "𞤐𞤺𞤵": 2470,
      "𞤑𞤢𞤤": 2471,
      "𞤚𞤢𞤪": 2472,
      "𞤣𞤮𞥅𞤤": 2473,
      "𞤤𞤵𞤪": 2474,
      "𞤥𞤢𞥄𞤲𞤣𞤫": 2475,
      "𞤧𞤵𞥅𞤯": 2476,
      "𞤧𞤮𞤺": 2477,
      "𞤩𞤢𞤼": 2478,
      "𞤩𞤮𞥅𞤴": 2479,
      "𞤫𞤺": 2480,
      "𞤬𞤢𞤥": 2481,
      "𞤱𞤵𞥅𞤪𞤭": 2482,
      "𞤲𞤭𞤤": 2483,
      "𞤳𞤫𞥅𞤪": 2484,
      "𞤵𞤳𞥆": 2485,
      "##𞤮𞤳": 2486,
      "##𞤯𞤵𞤲": 2487,
      "##𞥆𞤢𞤲𞤭": 2488,
      "##𞤭𞤶": 2489,
      "##𞤧𞤢": 2490,
      "##𞤄𞤓": 2491,
      "##𞤼𞤢𞥄𞤤𞤭": 2492,
      "##𞤼𞤮𞤪𞤣𞤫": 2493,
      "##𞤼𞤭𞤪𞤣𞤫": 2494,
      "##𞤋𞤒": 2495,
      "##ic": 2496,
      "##eu": 2497,
      "##𞤓𞤃": 2498,
      "##que": 2499,
      "##𞤭𞤲𞤢𞤲": 2500,
      "##𞤵𞤲𞤢𞤴": 2501,
      "##𞤢𞤪𞤭𞥅": 2502,
      "##𞤭𞤪𞤺𞤮𞤤": 2503,
      "##𞥆𞤵𞤯𞤮": 2504,
      "𞥑𞥙𞥕": 2505,
      "𞤥𞤢𞤱𞤦𞤢𞥄𞤪𞤫": 2506,
      "##𞤵𞤲𞥋𞤺𞤮": 2507,
      "𞤸𞤵𞥅𞤲𞤣𞤫": 2508,
      "𞥒𞥐𞥑𞥕": 2509,
      "𞤺𞤮𞤤𞥆𞤮𞥅𞤩𞤫": 2510,
      "𞤲𞤶𞤵𞤩𞥆𞤵𞤣𞤭": 2511,
      "𞤧𞤢𞤪𞤼𞤭𞥅𞤶𞤭": 2512,
      "𞤲𞤦𞤢𞤪𞤤𞤫": 2513,
      "𞤬𞤢𞥄𞤤𞤢𞥄": 2514,
      "𞤬𞤮𞤼𞥆𞤭": 2515,
      "𞤼𞤮𞤯𞥆𞤭𞥅": 2516,
      "𞤶𞤭𞤸": 2517,
      "𞤴𞤢𞤥𞤭𞤪𞤭𞥅": 2518,
      "𞤁𞤫𞤥𞤮𞤳𞤢𞤪": 2519,
      "𞤶𞤭𞤦𞤭𞤲": 2520,
      "𞤸𞤢𞤱𞤪𞤭": 2521,
      "𞤁𞤵𞥅𞤩𞤭": 2522,
      "𞤴𞤢𞥄𞤬": 2523,
      "𞤴𞤮𞤲𞤼𞤫𞤪𞤫": 2524,
      "𞤼𞤢𞤥𞤨𞤫𞤪𞤫": 2525,
      "𞤼𞤭𞤲𞤼𞤵": 2526,
      "𞤑𞤌𞤐𞤁𞤉": 2527,
      "𞤤𞤮𞥅𞤱𞤢𞤲𞤯𞤫": 2528,
      "𞤸𞤢𞤶𞥆𞤵": 2529,
      "𞤅𞤵𞤣𞤢𞤲": 2530,
      "𞤈𞤵𞤱𞤢𞤲𞤣𞤢": 2531,
      "𞤊𞤵𞥅𞤼𞤢": 2532,
      "𞤳𞤮𞥅𞤸𞤮𞥅𞤩𞤫": 2533,
      "𞤄𞤢𞤥𞤢𞤳": 2534,
      "##𞤵𞤲𞤢𞤴𞤼𞤫𞤣": 2535,
      "AD": 2536,
      "𞤁𞤭": 2537,
      "𞤁𞤉": 2538,
      "𞤁𞤢𞤳𞤢𞤪": 2539,
      "𞤄𞤢𞤪𞤮": 2540,
      "𞤅𞤫𞤲": 2541,
      "𞤉𞤯𞤫𞤲": 2542,
      "𞤋𞤥": 2543,
      "𞤏𞤮𞤼𞤢": 2544,
      "𞤏𞤵𞥅𞤪𞤭": 2545,
      "𞤐𞤢𞤲": 2546,
      "𞤐𞤢𞥄𞤧": 2547,
      "𞤒𞤵𞤲𞤢𞤴𞤼𞤫𞤣": 2548,
      "𞤔𞤮": 2549,
      "𞤤𞤵𞥅": 2550,
      "𞤱𞤢𞤪𞤢𞤲": 2551,
      "𞤲𞤵𞤤": 2552,
      "𞤻𞤫𞤥": 2553,
      "𞤼𞤮𞤪𞤭𞤳𞤫": 2554,
      "𞥑𞥔": 2555,
      "##𞥆𞤀": 2556,
      "##𞥆𞤭𞤪𞤭": 2557,
      "##𞤲𞤵𞤣𞤫": 2558,
      "##𞤺𞤫𞤤": 2559,
      "##𞤧𞤭𞤴𞤢": 2560,
      "##𞤁𞤓": 2561,
      "##𞤉𞤒𞤀": 2562,
      "##𞤷𞥆𞤫": 2563,
      "##lp": 2564,
      "##hab": 2565,
      "##fri": 2566,
      "##𞤇𞤉": 2567,
      "##𞤮𞥅𞤶𞤮": 2568,
      "##𞤮𞤲𞤶": 2569,
      "𞤲𞤺𞤢𞤴𞤵𞥅𞤶𞤭": 2570,
      "##𞤢𞤱𞤢𞤤": 2571,
      "##𞤭𞤼𞤫": 2572,
      "##𞤣𞤵𞤳𞤮": 2573,
      "##𞤮𞤼𞤫": 2574,
      "##𞥆𞤵𞤪𞤵": 2575,
      "𞤼𞤢𞤱𞤵𞤣𞤫": 2576,
      "##𞤢𞤲𞤳𞤫": 2577,
      "𞤱𞤢𞤯𞤢": 2578,
      "𞤱𞤢𞤯𞤵𞤺𞤮𞤤": 2579,
      "##𞤮𞤱𞤪𞤫": 2580,
      "𞤸𞤢𞥄𞤯": 2581,
      "##𞤵𞤯𞤢𞤲": 2582,
      "𞤺𞤮𞥅𞤥𞤵": 2583,
      "##𞤣𞤭𞤪𞤢𞤤": 2584,
      "𞤯𞤵𞥅𞤯𞤵𞤣𞤫": 2585,
      "𞤸𞤫𞤩𞤵𞤣𞤫": 2586,
      "𞤊𞤢𞤪𞤢𞤲𞤧": 2587,
      "𞤬𞤵𞤯𞥆𞤭𞤼": 2588,
      "𞤲𞤢𞥄𞤣𞤵𞤣𞤫": 2589,
      "𞤑𞤮𞤲𞤺𞤮": 2590,
      "𞤻𞤢𞤱𞤲𞤣": 2591,
      "𞥒𞥐𞥑𞥔": 2592,
      "𞤥𞤢𞥄𞤴𞤭𞥅": 2593,
      "𞤧𞤢𞤪𞤯": 2594,
      "𞤱𞤢𞤪𞤭𞥅": 2595,
      "𞤼𞤭𞤨": 2596,
      "𞤼𞤭𞤺𞤭": 2597,
      "𞤩𞤢𞤤𞤫𞥅𞤩𞤫": 2598,
      "##𞤮𞤴𞤭𞥅": 2599,
      "##𞤮𞤴𞤼𞤢": 2600,
      "𞤭𞤥𞥆𞤭𞤲": 2601,
      "𞤲𞤫𞤯𞥆": 2602,
      "𞤐𞤺𞤮𞥅": 2603,
      "𞤥𞤢𞤴𞤪𞤫": 2604,
      "𞤥𞤢𞤴𞤪𞤭": 2605,
      "𞤧𞤫𞤲𞤺𞤮": 2606,
      "𞤄𞤭𞤧𞤢𞤱𞤮": 2607,
      "𞤸𞤢𞤱𞤪": 2608,
      "𞤸𞤫𞥅𞤱𞤭": 2609,
      "𞤶𞤢𞤲𞤢𞤲𞤫": 2610,
      "##𞤀𞤅𞤋𞤂": 2611,
      "𞤼𞤮𞤪𞤭𞥅": 2612,
      "𞤅𞤢𞤦𞤵𞤲𞤢": 2613,
      "𞤀𞤦𞤣𞤵𞤤𞥆𞤢𞥄𞤸𞤭": 2614,
      "##ular": 2615,
      "𞤸𞤫𞤧𞤪𞤫": 2616,
      "𞤩𞤢𞤣𞤲𞤭": 2617,
      "𞤭𞥅𞤤𞤢": 2618,
      "𞤸𞤮𞤪𞤦𞤭𞤪𞥆𞤫": 2619,
      "𞤰𞤫𞤱𞤤𞤵": 2620,
      "𞤃𞤓𞤖𞤀𞤃𞥆": 2621,
      "𞤉𞤳𞤱": 2622,
      "𞤊𞤀𞤈𞤀𞤐𞤅𞤋": 2623,
      "𞤄𞤢𞤥𞤢𞤳𞤮": 2624,
      "ADL": 2625,
      "##lphab": 2626,
      "##lphabet": 2627,
      "Pular": 2628,
      "su": 2629,
      "𞤁𞤢𞤪": 2630,
      "𞤃𞤫𞤲": 2631,
      "𞤃𞤵𞥅𞤧": 2632,
      "𞤄𞤪": 2633,
      "𞤅𞤮𞥅𞤪𞤭𞥅𞤩𞤫": 2634,
      "𞤌𞤧": 2635,
      "𞤐𞤁": 2636,
      "𞤐𞤶𞤫𞤧𞤤𞤢𞥄𞤪𞤫": 2637,
      "𞤑𞤵𞤯𞤮𞤤": 2638,
      "𞤒𞤵𞥅𞤧": 2639,
      "𞤓𞤈𞤓": 2640,
      "𞤚𞤢𞤦": 2641,
      "𞤢𞤴𞤲": 2642,
      "𞤣𞤭𞤤𞥆𞤢𞤲𞤣𞤫": 2643,
      "𞤧𞤮𞥅𞤲𞤮": 2644,
      "𞤨𞤫": 2645,
      "𞤨𞤢𞤴": 2646,
      "𞤨𞤫𞤣": 2647,
      "𞤩𞤢𞤲": 2648,
      "𞤩𞤢𞥄𞤱𞤼𞤭": 2649,
      "𞤪𞤮": 2650,
      "𞤯𞤵𞥅𞤯𞤭": 2651,
      "𞤱𞤫𞥅𞤪": 2652,
      "𞤲𞤫": 2653,
      "𞤺𞤢𞤲𞤣𞤢𞤤": 2654,
      "##𞤩𞤭𞥅": 2655,
      "##𞤼𞤢𞤴": 2656,
      "##𞤼𞤵𞤲𞤮𞥅": 2657,
      "##𞤀𞤏": 2658,
      "##𞤀𞤙": 2659,
      "##𞤋𞤃": 2660,
      "##𞤉𞤆": 2661,
      "##as": 2662,
      "##aM": 2663,
      "##iv": 2664,
      "##ran": 2665,
      "##𞤾𞤭𞤪": 2666,
      "##𞤭𞥅𞤲𞤮": 2667,
      "##𞤭𞤲𞤢𞤴": 2668,
      "𞤳𞤢𞤪": 2669,
      "𞤳𞤢𞤬": 2670,
      "##𞤭𞤪𞤫𞥅": 2671,
      "𞤱𞤮𞤲𞤵𞤩𞤫": 2672,
      "𞤤𞤫𞤰𞥆𞤭": 2673,
      "𞤬𞤫𞤸𞤪𞤫": 2674,
      "𞤴𞤮𞤩": 2675,
      "𞤸𞤢𞥄𞤶": 2676,
      "##𞥆𞤢𞤲𞤢𞥄": 2677,
      "𞤴𞤢𞤤𞤼𞤵𞤺𞤮𞤤": 2678,
      "𞤥𞤢𞤱𞤲𞤺𞤮": 2679,
      "𞤥𞤢𞤱𞤲𞤺𞤢𞤤": 2680,
      "𞤧𞤵𞤩𞤲𞤺𞤮": 2681,
      "𞤼𞤭𞤥𞥆𞤮𞥅𞤣𞤫": 2682,
      "𞤤𞤢𞤲𞤷": 2683,
      "𞤤𞤢𞤲𞤣𞤭": 2684,
      "𞤤𞤢𞤲𞤣𞤭𞥅": 2685,
      "##𞤮𞤲𞥋𞤣𞤭𞤪𞤫": 2686,
      "𞤧𞤢𞥄𞤦": 2687,
      "𞤬𞤫𞤱𞤲𞤣𞤭𞥅": 2688,
      "𞤭𞤲𞤯𞤫": 2689,
      "𞤧𞤢𞤨𞥆𞤮𞤴": 2690,
      "𞤸𞤭𞤳𞥆𞤭𞥅": 2691,
      "##𞤲𞤮𞥅𞤶𞤮": 2692,
      "𞤳𞤫𞤧𞤭": 2693,
      "𞤤𞤮𞤲𞤼𞤮𞥅": 2694,
      "𞤧𞤮𞤳𞤢𞥄": 2695,
      "𞤦𞤭𞤲𞤣": 2696,
      "##𞤵𞥅𞤥𞤢𞤴𞤫𞥅": 2697,
      "𞤧𞤫𞤥𞤦": 2698,
      "##𞤢𞥄𞤴𞤼𞤭": 2699,
      "𞤴𞤢𞤥𞤭𞤪𞤮𞥅𞤪𞤫": 2700,
      "𞤼𞤭𞥅𞤯𞤭": 2701,
      "##𞤭𞤼𞤭𞤳𞤫": 2702,
      "𞤧𞤭𞤲𞤷𞤭": 2703,
      "𞤵𞤣𞥆𞤭𞤼𞤭": 2704,
      "𞤼𞤭𞤶𞥆𞤢𞤲𞤮𞥅": 2705,
      "𞤬𞤫𞤰𞥆𞤵𞤲𞥋𞤣𞤫": 2706,
      "𞤑𞤮𞤪𞤮𞥅𞤲𞤢": 2707,
      "𞤲𞤮𞤳𞥆𞤵": 2708,
      "𞤼𞤫𞤣𞥆": 2709,
      "𞤖𞤮𞥅𞤪𞤫𞥅𞤩𞤫": 2710,
      "𞤔𞤢𞥄𞤺𞤮𞤪𞤯𞤮": 2711,
      "𞤖𞤮𞤶𞤮𞤥𞤢𞥄𞤶𞤫": 2712,
      "𞤅𞤢𞤦𞤵": 2713,
      "𞤥𞤵𞥅𞤲": 2714,
      "##𞤢𞥄𞤣𞤮𞥅𞤩𞤫": 2715,
      "𞤑𞤌𞤚𞤁𞤋𞤏": 2716,
      "𞤳𞤮𞤤𞥆𞤭𞤼𞤢𞤤": 2717,
      "𞤴𞤵𞤪𞤥": 2718,
      "𞤸𞤵𞤲𞤣𞤵𞤳𞤮": 2719,
      "##𞤢𞤲𞤧𞤢𞤲": 2720,
      "𞤸𞤢𞤼𞤮𞤲𞤶": 2721,
      "𞤯𞤮𞤶𞥆𞤢": 2722,
      "𞤲𞤵𞤲𞤯𞤢𞤤": 2723,
      "𞤈𞤫𞤲𞤣𞤮": 2724,
      "𞤆𞤌𞤈𞤚𞤋𞤘𞤀𞤂": 2725,
      "𞤚𞤢𞤪𞤢𞤱𞤮𞤪𞤫": 2726,
      "𞤩𞤢𞤼𞤢𞥄𞤳": 2727,
      "𞤶𞤭𞤸𞤢𞥄𞤣𞤮𞥅𞤩𞤫": 2728,
      "ADLaM": 2729,
      "𞤒𞤵𞥅𞤧𞤵𞤬": 2730,
      "𞤓𞤈𞤓𞤘𞤌": 2731,
      "Afri": 2732,
      "to": 2733,
      "𞤄𞤵𞤸": 2734,
      "𞤅𞤢𞥄𞤶𞤮": 2735,
      "𞤅𞤓𞤏": 2736,
      "𞤊𞤢𞥄": 2737,
      "𞤒𞤢𞤸": 2738,
      "𞤒𞤮𞤺": 2739,
      "𞤒𞤮𞤼𞥆𞤭𞤲𞤢𞤲𞤣𞤫": 2740,
      "𞤔𞤮𞤪": 2741,
      "𞤚𞤭𞤥": 2742,
      "𞤢𞤬𞤪𞤭𞤳": 2743,
      "𞤣𞤭": 2744,
      "𞤣𞤢𞤻": 2745,
      "𞤤𞤮𞥅": 2746,
      "𞤤𞤮𞤱𞤪𞤫": 2747,
      "𞤥𞤫𞤸": 2748,
      "𞤦𞤢𞤥𞤦": 2749,
      "𞤧𞤮𞤲": 2750,
      "𞤨𞤢𞤱": 2751,
      "𞤨𞤮𞤪": 2752,
      "𞤲𞤫𞤤": 2753,
      "𞤳𞤫𞤲𞤫": 2754,
      "𞤳𞤫𞥅𞤪𞤭": 2755,
      "𞤸𞤭𞤪": 2756,
      "##𞤯𞤢𞤲": 2757,
      "##𞥆𞤉": 2758,
      "##𞤭𞤱": 2759,
      "##𞤺𞤢𞥄𞤤": 2760,
      "##𞤵𞤪𞤫": 2761,
      "##𞤅𞤌": 2762,
      "##ci": 2763,
      "##ari": 2764,
      "##pp": 2765,
      "##𞤻𞤮𞤤": 2766,
      "##𞤭𞥅𞤳𞤢": 2767,
      "##𞤵𞤲𞤳": 2768,
      "##𞤫𞤲𞤧": 2769,
      "𞤲𞤺𞤭𞤤": 2770,
      "𞤲𞤺𞤢𞥄𞤲𞤣𞤭": 2771,
      "##𞤭𞤪𞤤𞤫": 2772,
      "##𞤮𞤪𞤩𞤫": 2773,
      "𞤥𞤢𞤶𞥆𞤭": 2774,
      "##𞤢𞤥𞥆𞤫": 2775,
      "##𞤼𞤭𞤳𞤫": 2776,
      "𞤤𞤢𞥄𞤥𞤯𞤮": 2777,
      "##𞤢𞤲𞤳𞤮𞥅𞤩𞤫": 2778,
      "##𞤼𞤫𞤪": 2779,
      "##𞤶𞤭𞤨": 2780,
      "𞤢𞤪𞤣𞤵": 2781,
      "𞤢𞤲𞤼𞤵𞤩𞤫": 2782,
      "𞤳𞤮𞤲𞤺𞤵": 2783,
      "𞤴𞤢𞤤𞤼𞤭𞥅": 2784,
      "𞤤𞤢𞥄𞤼𞤮𞥅": 2785,
      "##𞤀𞥄𞤒": 2786,
      "##𞤵𞤼𞤵𞤺𞤮𞤤": 2787,
      "𞤱𞤭𞤳𞥆": 2788,
      "𞤶𞤢𞤲𞤺𞤭𞤲": 2789,
      "𞤼𞤭𞤥𞥆𞤭𞥅": 2790,
      "𞤲𞤢𞥄𞤧": 2791,
      "𞤲𞤶𞤢𞤺𞥆𞤵": 2792,
      "𞤅𞤫𞤲𞤫𞤺𞤢𞥄𞤤": 2793,
      "𞤱𞤢𞤪𞤢𞥄𞤩𞤫": 2794,
      "𞤬𞤭𞤶𞤢𞤲𞤣𞤫": 2795,
      "𞤸𞤵𞥅𞤱𞤮𞤲": 2796,
      "𞤬𞤢𞥄𞤤𞤢": 2797,
      "𞤅𞤭𞥅𞤤𞤼𞤮": 2798,
      "𞤤𞤮𞤲𞤼𞤭𞤲": 2799,
      "𞤧𞤮𞤳𞤫𞥅𞤣𞤫": 2800,
      "𞤐𞤺𞤢𞤴𞤵𞥅𞤶𞤭": 2801,
      "𞤸𞤢𞤩𞤪𞤫": 2802,
      "##𞤉𞤈𞤐": 2803,
      "𞤆𞤵𞤤𞥆𞤮": 2804,
      "𞤬𞤫𞤼𞤤": 2805,
      "𞤧𞤢𞤤𞤲𞤣𞤵": 2806,
      "𞤴𞤢𞤤𞤼𞤢𞤴": 2807,
      "𞤼𞤭𞤶𞥆𞤢𞥄": 2808,
      "𞤲𞤢𞤱𞤲𞤵𞤣𞤫": 2809,
      "𞤭𞤥𞥆𞤮𞤪𞤣𞤫": 2810,
      "𞤧𞤢𞤳𞥆𞤭𞤼": 2811,
      "𞤧𞤢𞤳𞥆𞤭𞤼𞤭𞥅": 2812,
      "𞤩𞤢𞤲𞤺𞤭𞤲": 2813,
      "𞤼𞤮𞥅𞤳𞤫": 2814,
      "𞤔𞤢𞥄𞤺𞤮𞤪𞤢𞤤": 2815,
      "𞤴𞤫𞤶": 2816,
      "𞤧𞤫𞤨𞥆𞤮": 2817,
      "𞤥𞤫𞥅𞤥𞤵": 2818,
      "𞤺𞤮𞤥𞤲𞤢𞤼𞤫𞥅𞤪𞤭": 2819,
      "##𞤫𞤥𞤦𞤫": 2820,
      "𞤀𞤤𞤸𞤢𞤧": 2821,
      "𞤤𞤢𞤦𞤵𞤼": 2822,
      "𞤋𞤧𞤤𞤢𞥄𞤥𞤵": 2823,
      "𞤷𞤫𞤪𞤲𞤮𞥅𞤶𞤮": 2824,
      "𞤉𞤪𞤣𞤮𞤱𞤢𞤲": 2825,
      "𞤱𞤵𞤶": 2826,
      "𞤅𞤭𞥅𞤧𞤫": 2827,
      "𞤺𞤮𞥅𞤲𞤺𞤢": 2828,
      "𞤈𞤮𞤲𞤢𞤤𞤣𞤮": 2829,
      "𞤅𞤵𞤩𞤮": 2830,
      "𞤉𞤳𞤱𞤢𞤼𞤫𞥅𞤪𞤭": 2831,
      "##𞤾𞤭𞤪𞤭𞥅𞤧": 2832,
      "𞤓𞤈𞤓𞤘𞤌𞤒": 2833,
      "𞤳𞤮𞤲𞤺𞤵𞤯𞤭": 2834,
      "for": 2835,
      "𞤁𞤭𞤤𞥆𞤢𞤲𞤣𞤫": 2836,
      "𞤄𞤢𞥄𞤦𞤢": 2837,
      "𞤅𞤵𞤱": 2838,
      "𞤆𞤢𞤳": 2839,
      "𞤊𞤵𞤯": 2840,
      "𞤋𞤄": 2841,
      "𞤋𞤲𞤣𞤭": 2842,
      "𞤍𞤫𞥅": 2843,
      "𞤍𞤉𞤐": 2844,
      "𞤒𞤉𞥅": 2845,
      "𞤔𞤓𞥅": 2846,
      "𞤔𞤀𞤂𞥆𞤌": 2847,
      "𞤕𞤢𞤺𞥆𞤢𞤤": 2848,
      "𞤖𞤮𞥅𞤪": 2849,
      "𞤖𞤢𞤲𞤳𞤭": 2850,
      "𞤚𞤉𞤆": 2851,
      "𞤚𞤢𞤲𞤧𞤢𞤲": 2852,
      "𞤥𞤢𞤲": 2853,
      "𞤥𞤵𞤤": 2854,
      "𞤦𞤢𞥄𞤦𞤢": 2855,
      "𞤧𞤵𞤲𞤮": 2856,
      "𞤧𞤮𞥅𞤯": 2857,
      "𞤨𞤫𞤤𞥆𞤫": 2858,
      "𞤩𞤭𞥅": 2859,
      "𞤪𞤢𞥄𞤩𞤭": 2860,
      "𞤬𞤢𞤴𞤩𞤫": 2861,
      "𞤯𞤵𞤴": 2862,
      "𞤱𞤫𞤲": 2863,
      "𞤶𞤵𞤳": 2864,
      "𞤶𞤢𞥄𞤩𞤭": 2865,
      "𞤷𞤢": 2866,
      "𞤺𞤮𞤪": 2867,
      "𞤼𞤵𞤤": 2868,
      "𞤼𞤫𞤬": 2869,
      "𞥓𞥑": 2870,
      "##𞥆𞤭𞤪𞤣𞤫": 2871,
      "##𞥆𞤓𞤐": 2872,
      "##𞤲𞤺": 2873,
      "##𞤤𞤮𞤲": 2874,
      "##𞤤𞥆𞤫𞤪𞤫": 2875,
      "##𞤢𞤶𞥆𞤭": 2876,
      "##𞤦𞤭𞤴𞤢": 2877,
      "##𞤴𞤼𞤢": 2878,
      "##𞤵𞤣𞤭𞥅": 2879,
      "##𞤼𞤢𞤲𞤣𞤫": 2880,
      "##𞤼𞤮𞤪𞤭": 2881,
      "##𞤋𞤍": 2882,
      "##𞤅𞤃": 2883,
      "##𞤷𞥆𞤭": 2884,
      "##us": 2885,
      "##𞤇𞥆𞤓𞤐": 2886,
      "##𞤍𞤉": 2887,
      "##عج": 2888,
      "##𞤮𞥅𞤣𞤭": 2889,
      "##𞤭𞥅𞤦": 2890,
      "##𞤮𞤤𞤣𞤵": 2891,
      "##𞤵𞥅𞤤": 2892,
      "##𞤵𞥅𞤩𞤫": 2893,
      "𞤳𞤮𞤯": 2894,
      "##𞤢𞤴𞤯𞤫": 2895,
      "##𞤭𞤼𞤭𞤪": 2896,
      "##𞤪𞤭𞤧": 2897,
      "𞤲𞤣𞤢𞤴": 2898,
      "##𞤢𞥄𞤲𞤫": 2899,
      "𞤸𞤫𞤧𞤤": 2900,
      "𞤱𞤢𞤯𞤢𞥄𞤤𞤭": 2901,
      "𞤸𞤮𞤤𞥆𞤵𞤺𞤮𞤤": 2902,
      "𞤀𞤤𞤭𞥅": 2903,
      "𞤬𞤭𞤩𞤭": 2904,
      "𞤶𞤫𞥅𞤺": 2905,
      "##𞤵𞤼𞤵": 2906,
      "##𞤭𞤧𞤼𞤢𞤲": 2907,
      "##𞤣𞤭𞤲𞤮": 2908,
      "𞤼𞤭𞤥𞥆𞤢𞥄𞤤𞤭": 2909,
      "##𞤀𞤂𞤋": 2910,
      "𞤱𞤢𞥄𞤱𞤢𞥄𞤤𞤭": 2911,
      "𞥒𞥐𞥑𞥖": 2912,
      "##𞤢𞤺𞥆𞤫": 2913,
      "𞤱𞤢𞤪𞤲𞤺𞤮": 2914,
      "𞤲𞤦𞤢𞤼𞤭𞤪𞤣𞤵": 2915,
      "𞤲𞤢𞤴𞤢𞤩𞤢𞤤": 2916,
      "𞤶𞤮𞤺𞤭𞤲𞤮𞥅": 2917,
      "𞤣𞤭𞤪𞤮": 2918,
      "##𞥐𞥐𞥐": 2919,
      "𞤱𞤢𞤴𞤤𞤵𞤺𞤮𞤤": 2920,
      "𞤼𞤮𞤯𞥆𞤢𞥄": 2921,
      "𞤳𞤫𞤧𞤮": 2922,
      "𞤶𞤭𞤱𞤮": 2923,
      "##𞤫𞥅𞤲𞤣𞤭": 2924,
      "𞤸𞤵𞤥𞤨": 2925,
      "𞤣𞤫𞤲𞤼𞤫": 2926,
      "𞤬𞤢𞤱𞤭": 2927,
      "##𞤢𞥄𞤴𞤭𞥅𞤤𞤢": 2928,
      "𞤼𞤵𞤥𞤦𞤮𞤲𞥋𞤣𞤭𞤪𞤢𞤤": 2929,
      "𞤲𞤢𞤲𞤣𞤭": 2930,
      "𞤀𞤸𞤭𞥅𞤶𞤮": 2931,
      "##𞤉𞥅𞤐": 2932,
      "𞤼𞤢𞤦𞤭𞤲𞤼𞤭𞤲𞤭𞥅": 2933,
      "𞤣𞤢𞤱𞤪": 2934,
      "𞤴𞤢𞤤𞤼𞤵𞤲𞤮": 2935,
      "𞤼𞤢𞤳𞥆𞤮": 2936,
      "𞤤𞤢𞥄𞤩𞤵𞤯𞤢𞤲": 2937,
      "𞤀𞤪𞤣𞤮": 2938,
      "𞤶𞤢𞤱𞤣𞤭": 2939,
      "𞤤𞤭𞤥𞤮𞥅𞤪𞤫": 2940,
      "𞤑𞤌𞤈𞤉𞤒𞤀": 2941,
      "𞤅𞤌𞤋𞥅": 2942,
      "𞤅𞤌𞤇𞥆𞤓𞤐": 2943,
      "𞤢𞤪𞤣𞤭𞥅𞤩𞤫": 2944,
      "𞤢𞤪𞤣𞤭𞥅𞤯𞤮": 2945,
      "𞤶𞤫𞥅𞤲𞤢𞤴𞤭": 2946,
      "𞤬𞤢𞤪𞤢𞤲𞤧": 2947,
      "𞤸𞤫𞤦𞤤": 2948,
      "##𞥆𞤢𞤥𞤢𞥄": 2949,
      "##ill": 2950,
      "𞤲𞤺𞤵𞥅𞤪𞤲𞤣": 2951,
      "𞤲𞤶𞤢𞤥𞤣𞤭": 2952,
      "𞤪𞤫𞥅𞤣𞤵": 2953,
      "𞤶𞤭𞥅𞤩𞤮𞤤𞤣𞤵": 2954,
      "𞤳𞤵𞤥𞤨𞤭𞤼𞤢𞤤": 2955,
      "𞤀𞥄𞤣𞤢𞤥𞤢": 2956,
      "𞤐𞤢𞥄𞤧𞤢𞥄𞤲𞤣𞤫": 2957,
      "𞤧𞤢𞥄𞤦𞤵𞤲𞤣𞤫": 2958,
      "𞤑𞤌𞤚𞤁𞤋𞤏𞤀𞤈": 2959,
      "𞤄𞤵𞤸𞤢𞥄𞤪𞤭": 2960,
      "𞤒𞤮𞤺𞤢": 2961,
      "𞤔𞤮𞤪𞤶": 2962,
      "𞤤𞤮𞥅𞤼𞤢": 2963,
      "𞤆𞤢𞤳𞤭𞤧𞤼𞤢𞤲": 2964,
      "𞤋𞤲𞤣𞤭𞤴𞤢": 2965,
      "𞤒𞤉𞥅𞤅𞤌": 2966,
      "𞤔𞤓𞥅𞤍𞤉": 2967,
      "𞤚𞤉𞤆𞥆𞤉": 2968,
      "Pari": 2969,
      "𞤀𞤖": 2970,
      "𞤁𞤢𞤥": 2971,
      "𞤂𞤭𞤦": 2972,
      "𞤃𞤵𞤪": 2973,
      "𞤄𞤮𞤲𞤺𞤮": 2974,
      "𞤆𞤮𞤪": 2975,
      "𞤈𞤵𞥅𞤧": 2976,
      "𞤊𞤓𞤂": 2977,
      "𞤑𞤵𞤲": 2978,
      "𞤔𞤢𞤤": 2979,
      "𞤚𞤵𞤲": 2980,
      "𞤦𞤮": 2981,
      "𞤧𞤫𞤤": 2982,
      "𞤨𞤮𞥅𞤯": 2983,
      "𞤨𞤮𞤼𞥆𞤢𞤤": 2984,
      "𞤩𞤮𞤤": 2985,
      "𞤬𞤵𞤧": 2986,
      "𞤲𞤫𞥅": 2987,
      "𞤳𞤭𞤲𞤢𞤤": 2988,
      "𞤶𞤭𞤲": 2989,
      "𞤷𞤵𞥅𞤯𞤭": 2990,
      "𞤺𞤫": 2991,
      "𞥑𞥖": 2992,
      "𞥖𞥑": 2993,
      "##𞥆𞤢𞤼𞤢𞥄": 2994,
      "##𞤢𞥁": 2995,
      "##𞤥𞤢𞤤": 2996,
      "##𞤄𞤀": 2997,
      "##𞤼𞤮𞥅𞤩𞤫": 2998,
      "##𞤼𞤭𞤪𞤭": 2999,
      "##𞤼𞤭𞤪𞤢": 3000,
      "##𞤉𞤅": 3001,
      "##de": 3002,
      "##ir": 3003,
      "##ge": 3004,
      "##𞤾𞤫𞤲": 3005,
      "##𞤾𞤫𞤪": 3006,
      "##DC": 3007,
      "##𞤆𞤀𞤙": 3008,
      "##𞤢𞤲𞤣𞤮": 3009,
      "##𞤢𞤲𞤢𞥄𞤤𞤭": 3010,
      "##𞤢𞤲𞤼𞤢": 3011,
      "##𞤢𞤲𞥆𞤮𞥅": 3012,
      "##𞤭𞤼𞤢": 3013,
      "##𞤳𞥆𞤵": 3014,
      "𞤤𞤫𞤻𞤮𞤤": 3015,
      "##𞤢𞤥𞤩𞤫": 3016,
      "𞤼𞤢𞤱𞤫𞥅𞤣𞤫": 3017,
      "𞤤𞤢𞥄𞤥𞤮𞤪𞤣𞤵": 3018,
      "##𞤺𞤢𞤤𞥆𞤮": 3019,
      "𞤸𞤮𞤤𞥆𞤵𞤲𞤮": 3020,
      "##𞤵𞤯𞤮𞤲": 3021,
      "##𞤢𞤨𞤢𞤲": 3022,
      "𞤬𞤮𞤣𞤭": 3023,
      "𞤬𞤮𞤣𞤮𞥅𞤪𞤫": 3024,
      "𞤶𞤢𞥄𞤺𞤮𞤪𞤩𞤫": 3025,
      "𞤣𞤢𞤪𞤼𞤢𞤺𞤮𞤤": 3026,
      "𞤊𞤢𞤪𞤢𞤲𞤶𞤭": 3027,
      "𞤸𞤢𞤳𞥆𞤭𞤤": 3028,
      "𞥒𞥐𞥑𞥘": 3029,
      "𞤴𞤢𞤸𞤣𞤵": 3030,
      "𞤴𞤢𞤸𞤵𞤺𞤮𞤤": 3031,
      "𞤼𞤭𞤺": 3032,
      "𞤼𞤭𞤳𞥆": 3033,
      "𞤸𞤢𞥄𞤲𞤢𞥄": 3034,
      "𞤭𞤼𞥆𞤵𞤺𞤮𞤤": 3035,
      "𞤬𞤭𞤶𞤭𞤪𞤣𞤫": 3036,
      "𞤬𞤭𞤶𞤢𞤲𞤮𞥅𞤱𞤮": 3037,
      "𞤀𞥄𞤪𞤢𞤦": 3038,
      "𞤩𞤵𞤪𞤲𞤭𞥅": 3039,
      "𞤸𞤵𞥅𞤱𞤮𞤲𞥋𞤣𞤭𞤪𞤢𞤤": 3040,
      "##𞤭𞥅𞤧𞤢𞥄𞤩𞤫": 3041,
      "𞤬𞤮𞤼𞤭": 3042,
      "𞤃𞤢𞤱𞤯𞤮": 3043,
      "𞤤𞤮𞤲𞤼𞤭𞥅": 3044,
      "𞤑𞤢𞤥𞤢𞤪𞤢": 3045,
      "𞤤𞤵𞤥𞤦𞤭𞤲𞤢𞤤": 3046,
      "𞤸𞤫𞤱𞤼𞤭𞥅": 3047,
      "##est": 3048,
      "𞤴𞤭𞤯𞤭": 3049,
      "𞤬𞤢𞤱𞤢𞥄": 3050,
      "𞥒𞥐𞥐𞥗": 3051,
      "𞥑𞥙𞥙𞥙": 3052,
      "𞤲𞤢𞤬𞤮𞥅𞤪𞤫": 3053,
      "𞤸𞤭𞤱𞤵𞤺𞤮𞤤": 3054,
      "𞤸𞤭𞤱𞤮𞥅𞤱𞤮": 3055,
      "𞤳𞤭𞤨𞥆𞤭": 3056,
      "𞤤𞤭𞤣𞥆𞤵": 3057,
      "𞤤𞤭𞤣𞥆𞤭𞥅𞤩𞤫": 3058,
      "𞤪𞤢𞥄𞤩𞤭𞥅": 3059,
      "𞤸𞤫𞤣𞥆𞤭𞥅𞤩𞤫": 3060,
      "𞤢𞤪𞤣𞤢𞥄𞤳𞤵": 3061,
      "𞤀𞤊𞤪𞤭𞤳": 3062,
      "𞤶𞤢𞥄𞤤𞤢𞥄𞤣𞤫": 3063,
      "𞤧𞤫𞤪𞤢": 3064,
      "𞤧𞤢𞤪𞤴𞤭𞤲𞤮𞥅𞤩𞤫": 3065,
      "𞤢𞥄𞤩𞤵𞤲𞥋𞤣𞤫": 3066,
      "𞤢𞤥𞤫𞤲": 3067,
      "𞤀𞤤𞤸𞤢𞤶𞥆𞤭": 3068,
      "𞤼𞤢𞤥𞤰𞤭𞤲": 3069,
      "𞤳𞤢𞥄𞤤𞤭𞤧𞤭": 3070,
      "𞤅𞤢𞤵𞤣𞤭𞥅": 3071,
      "𞤼𞤢𞤱𞤫𞤺𞤮𞤤": 3072,
      "𞤴𞤢𞥄𞤱𞤭𞤪𞤭": 3073,
      "𞤨𞤮𞥅𞤤𞤺𞤢𞤤": 3074,
      "𞤑𞤮𞤼𞤣𞤭𞤱𞤢𞤪": 3075,
      "𞤄𞤭𞤲𞤣𞤮": 3076,
      "𞤲𞤭𞤤𞥆𞤢𞥄𞤶𞤮": 3077,
      "𞤐𞤢𞤲𞤣𞤭": 3078,
      "𞤤𞤵𞥅𞤥𞤮": 3079,
      "𞤲𞤫𞤯𞥆𞤢𞤲𞤳𞤫": 3080,
      "𞤚𞤢𞤦𞤢𞤤𞤣𞤫": 3081,
      "𞤨𞤢𞤴𞤳𞤵𞤲": 3082,
      "𞤨𞤫𞤣𞤤𞤫": 3083,
      "𞤦𞤭𞤲𞤣𞤮𞤤": 3084,
      "𞤅𞤓𞤏𞤋𞤅": 3085,
      "𞤲𞤢𞥄𞤧𞤢𞥄𞤲𞤣𞤫": 3086,
      "𞤷𞤢𞤫": 3087,
      "𞤈𞤵𞥅𞤧𞤭𞤴𞤢": 3088,
      "alphabet": 3089,
      "in": 3090,
      "la": 3091,
      "𞤁𞤢𞤤𞤢": 3092,
      "𞤁𞤵𞤦": 3093,
      "𞤃𞤫": 3094,
      "𞤄𞤢𞤳": 3095,
      "𞤅𞤢𞤥": 3096,
      "𞤆𞤌𞤂": 3097,
      "𞤉𞤑": 3098,
      "𞤉𞤶𞤭𞤨": 3099,
      "𞤊𞤢𞥄𞤲𞤣𞤢𞥄𞤪𞤫": 3100,
      "𞤋𞤧": 3101,
      "𞤏𞤢𞤲𞤮": 3102,
      "𞤑𞤀𞤆": 3103,
      "𞤖𞤢𞤲": 3104,
      "𞤖𞤢𞤪": 3105,
      "𞤘𞤋𞤍": 3106,
      "𞤙𞤮𞤺": 3107,
      "𞤚𞤵𞤥": 3108,
      "𞤢𞤥𞤫𞤪𞤭𞤳": 3109,
      "𞤢𞤯𞤢": 3110,
      "𞤤𞤢𞤪𞤫": 3111,
      "𞤥𞤢𞤤": 3112,
      "𞤦𞤮𞤼𞤫": 3113,
      "𞤨𞤭𞤴𞤢": 3114,
      "𞤨𞤭𞤺": 3115,
      "𞤰𞤢𞤱𞤭": 3116,
      "𞤳𞤫𞥅𞤱": 3117,
      "𞤴𞤢𞤪": 3118,
      "𞤶𞤭𞤨": 3119,
      "𞤷𞤫𞤲": 3120,
      "𞤸𞤭𞥅": 3121,
      "𞤼𞤢𞥄𞤪": 3122,
      "##𞥆𞤢𞥄𞤩𞤫": 3123,
      "##𞥆𞤫𞥅𞤶𞤭": 3124,
      "##𞤲𞤺𞤮𞤤": 3125,
      "##𞤪𞤫𞤲": 3126,
      "##𞤢𞤶": 3127,
      "##𞤴𞤭": 3128,
      "##𞤳𞤮𞤱𞤢𞤤": 3129,
      "##𞥋𞤁𞤓": 3130,
      "##𞤉𞤑": 3131,
      "##𞤅𞤆𞤀𞤙": 3132,
      "##𞤃𞤀𞤁𞤓": 3133,
      "##ch": 3134,
      "##ro": 3135,
      "##𞤮𞥅𞤥": 3136,
      "##𞤢𞤤𞤯𞤭": 3137,
      "##𞤭𞥅𞤰": 3138,
      "##𞤫𞤲𞤫𞤲": 3139,
      "##𞤮𞤤𞤢𞥄𞤳𞤵": 3140,
      "##𞤣𞤭𞤺𞤢𞤤": 3141,
      "𞤲𞤺𞤢𞤴": 3142,
      "##𞤢𞤴𞤪𞤫": 3143,
      "𞤱𞤮𞤲𞤣𞤵𞤲𞤮𞥅": 3144,
      "##𞤭𞤼𞤢𞥄𞤣𞤫": 3145,
      "##𞤵𞤥𞥆𞤢": 3146,
      "##𞤢𞤼𞤢𞥄𞤲𞤮": 3147,
      "##𞤢𞥄𞤱𞤢𞤤": 3148,
      "𞤥𞤮𞤬": 3149,
      "𞤼𞤢𞤱𞤢𞤴": 3150,
      "𞤼𞤢𞤱𞤼𞤭𞥅": 3151,
      "𞤸𞤫𞤴": 3152,
      "##𞤭𞤤𞤢𞥄𞤩𞤫": 3153,
      "##𞤵𞤲𞤮𞥅𞤩𞤫": 3154,
      "𞤱𞤢𞤯𞤵𞤲": 3155,
      "𞤢𞤪𞤼𞤭𞤪": 3156,
      "##𞤢𞤩𞥆𞤭𞤲": 3157,
      "𞤥𞤢𞥄𞤯𞤢": 3158,
      "##𞤧𞤭𞤳": 3159,
      "𞤀𞤤𞤶": 3160,
      "##𞤭𞤦𞤢": 3161,
      "𞤤𞤢𞥄𞤼𞤢𞤺𞤮𞤤": 3162,
      "##𞤮𞥅𞤲𞤺𞤮": 3163,
      "##𞤥𞤫𞤪𞤫": 3164,
      "##𞤀𞥄𞤈𞤋": 3165,
      "𞤣𞤢𞤪𞤭𞥅": 3166,
      "##𞤣𞤭𞤲𞤮𞥅": 3167,
      "##𞤀𞤐𞤑": 3168,
      "𞤶𞤢𞤲𞤺𞤭": 3169,
      "𞤶𞤢𞤲𞤺𞤲": 3170,
      "𞤬𞤵𞤯𞥆𞤭𞥅": 3171,
      "𞤬𞤵𞤯𞤲𞤢𞥄𞤲𞤺𞤫": 3172,
      "##𞥆𞤢𞥄𞤪𞤭": 3173,
      "𞥒𞥐𞥑𞥑": 3174,
      "𞤸𞤢𞤪𞤮": 3175,
      "𞤴𞤫𞥅𞤦": 3176,
      "𞤅𞤭𞤣𞤭": 3177,
      "𞤥𞤵𞤪𞤼𞤵𞤩𞤫": 3178,
      "𞤲𞤢𞤲𞤺𞤢𞥄": 3179,
      "𞤲𞤢𞤲𞤺𞤫𞥅𞤣𞤫": 3180,
      "𞤸𞤭𞤳𞥆𞤮𞤪": 3181,
      "𞤱𞤭𞤲𞤣𞤭𞤪": 3182,
      "##𞤋𞥅𞤅": 3183,
      "##𞤼𞤮𞤪𞤼𞤢": 3184,
      "𞤢𞥄𞤤": 3185,
      "𞤱𞤢𞤤𞥆𞤢𞤴": 3186,
      "𞤼𞤢𞤦𞤭𞤼𞤭𞥅": 3187,
      "𞤭𞤱𞤣𞤭": 3188,
      "𞤼𞤮𞤯𞥆𞤭𞤳𞤫": 3189,
      "𞤬𞤫𞤤𞤺𞤮": 3190,
      "##𞤢𞥄𞤧𞤭𞤥": 3191,
      "𞤩𞤢𞤽": 3192,
      "##𞤧𞤭𞥅𞤶𞤭": 3193,
      "##rit": 3194,
      "𞤧𞤫𞤲𞤣𞤭": 3195,
      "𞤥𞤮𞥅𞤣𞤭": 3196,
      "𞤐𞤢𞤶": 3197,
      "𞤸𞤮𞥅𞤪𞤢𞥄𞤺𞤵": 3198,
      "𞤧𞤢𞤳𞥆𞤭𞤼𞤮𞤪": 3199,
      "𞤤𞤢𞥄𞤩𞤢𞥄": 3200,
      "𞤳𞤢𞤴𞤣𞤭𞥅": 3201,
      "𞤢𞤲𞤣𞤭𞤲𞤼𞤭𞤲𞤣𞤫": 3202,
      "𞤅𞤫𞥅𞤬𞤢𞥄": 3203,
      "𞤂𞤢𞤦𞤫": 3204,
      "𞤶𞤮𞤲𞤼𞤫": 3205,
      "𞤼𞤮𞤩𞥆𞤫𞤪𞤫": 3206,
      "𞤅𞤢𞤪𞤤𞤮𞤲": 3207,
      "𞤀𞤊𞤈𞤋𞤑": 3208,
      "𞤱𞤢𞤯𞤵𞤲𞤮𞥅𞤲𞤺𞤮": 3209,
      "𞤸𞤮𞤥𞤦𞤮": 3210,
      "𞤧𞤵𞤥𞤮": 3211,
      "𞤸𞤵𞤥𞤨𞤭𞤼𞤵𞤺𞤮𞤤": 3212,
      "𞤬𞤢𞥄𞤦𞤼𞤭𞤲": 3213,
      "𞤑𞤌𞤚𞤁𞤋𞤜": 3214,
      "𞤣𞤮𞤺𞤭": 3215,
      "##𞤀𞤆𞤀𞤐": 3216,
      "𞤳𞤮𞤴𞤯𞤫": 3217,
      "𞤯𞤫𞤥𞤯𞤫": 3218,
      "𞤯𞤫𞤥𞤺𞤢𞤤": 3219,
      "𞤑𞤀𞤃𞤀𞤈𞤓𞤐": 3220,
      "𞤼𞤵𞥅𞤺": 3221,
      "##𞤶𞤵𞤲𞤫𞤪𞤫": 3222,
      "𞤸𞤫𞤤𞥆𞤭𞤬": 3223,
      "𞤌𞤧𞤼": 3224,
      "𞤩𞤢𞤼𞤢𞥄𞤳𞤵𞤪𞤵": 3225,
      "𞤒𞤢𞤸𞤴𞤢𞥄": 3226,
      "𞤅𞤌𞤇𞥆𞤓𞤐𞥋𞤁𞤓": 3227,
      "𞤊𞤓𞤂𞤇𞤉": 3228,
      "𞤘𞤋𞤍𞤌": 3229,
      "𞤙𞤮𞤺𞥆𞤢𞤲𞤣𞤫": 3230,
      "𞤨𞤭𞤺𞥆𞤢𞤤": 3231,
      "li": 3232,
      "𞤀𞤬": 3233,
      "𞤀𞤱𞤢": 3234,
      "𞤀𞤣𞤤": 3235,
      "𞤂𞤫": 3236,
      "𞤄𞤫𞤤": 3237,
      "𞤄𞤵𞤴": 3238,
      "𞤅𞤫𞤪": 3239,
      "𞤇𞤢𞥄𞤴𞤼𞤭": 3240,
      "𞤉𞤧": 3241,
      "𞤉𞤅𞤆𞤀𞤙": 3242,
      "𞤊𞤫𞤤": 3243,
      "𞤏𞤮𞥅": 3244,
      "𞤑𞤢𞤪": 3245,
      "𞤑𞤢𞤲𞤳": 3246,
      "𞤓𞤳": 3247,
      "𞤔𞤢𞥄𞤥": 3248,
      "𞤔𞤀𞤆𞤀𞤐": 3249,
      "𞤖𞤢𞥄": 3250,
      "𞤖𞤮𞤪": 3251,
      "𞤗𞤵𞤪": 3252,
      "𞤘𞤮𞤲": 3253,
      "𞤘𞤮𞤤": 3254,
      "𞤘𞤢𞤦": 3255,
      "𞤚𞤢𞤥": 3256,
      "𞤚𞤢𞤱𞤭": 3257,
      "𞤣𞤮𞤲": 3258,
      "𞤧𞤫𞤲𞤫": 3259,
      "𞤩𞤵𞤩": 3260,
      "𞤩𞤵𞥅𞤩": 3261,
      "𞤫𞤼𞤭𞥅": 3262,
      "𞤬𞤵𞤪": 3263,
      "𞤯𞤵𞤯": 3264,
      "𞤯𞤫𞤴𞤢": 3265,
      "𞤱𞤢𞥄𞤧": 3266,
      "𞤳𞤵𞤤𞥆𞤫": 3267,
      "𞤶𞤢𞤤": 3268,
      "𞤷𞤫𞥅": 3269,
      "𞤷𞤫𞤥𞤦𞤫": 3270,
      "𞤹𞤭𞤪": 3271,
      "𞤺𞤫𞤪": 3272,
      "𞤺𞤵𞤲𞤣": 3273,
      "𞤼𞤮𞥅𞤱": 3274,
      "𞥗𞥐": 3275,
      "##𞤧𞤵": 3276,
      "##𞤼𞤮𞤲𞥋𞤣𞤭𞤪𞤢𞤤": 3277,
      "##𞤁𞤓𞤂": 3278,
      "##𞤐𞤀𞥄𞤈𞤋": 3279,
      "##𞤳𞤮𞤤": 3280,
      "##𞤉𞤁": 3281,
      "##𞤬𞤵𞥅𞤪": 3282,
      "##𞤃𞤀𞤈": 3283,
      "##𞤑𞤌": 3284,
      "##um": 3285,
      "##ce": 3286,
      "##age": 3287,
      "##𞤵𞤲𞤣𞤭𞥅": 3288,
      "##𞤢𞤪𞤣": 3289,
      "𞤲𞤺𞤫𞥅": 3290,
      "##𞤢𞤱𞤼𞤭": 3291,
      "##𞤮𞤪𞤺𞤢𞤤": 3292,
      "𞤩𞤫𞤤𞥆𞤫𞤪𞤫": 3293,
      "##𞤳𞥆𞤢": 3294,
      "##𞤣𞤵𞤯𞤮": 3295,
      "##𞤮𞤼𞤢𞥄𞤳𞤮": 3296,
      "𞤬𞤫𞤪": 3297,
      "##𞥆𞤵𞤼𞤵𞤺𞤮𞤤": 3298,
      "𞤲𞤣𞤢𞤪": 3299,
      "𞤲𞤺𞤢𞤤𞤵": 3300,
      "##𞤼𞤭𞤲𞤮𞥅": 3301,
      "𞤥𞤮𞤩": 3302,
      "##𞤭𞤴𞤫": 3303,
      "##𞥆𞤭𞤲𞤢𞥄𞤯𞤮": 3304,
      "𞤸𞤢𞤳": 3305,
      "##𞤢𞤸𞤫": 3306,
      "𞤸𞤮𞤴": 3307,
      "𞤥𞤢𞥄𞤨": 3308,
      "𞤥𞤢𞥄𞤪𞤮": 3309,
      "𞤣𞤵𞥅𞤥": 3310,
      "##𞥆𞤢𞤲𞤺𞤮": 3311,
      "𞤳𞤵𞥅𞤩𞤢𞤤": 3312,
      "𞤧𞤮𞤥𞤦𞤮": 3313,
      "##𞤢𞤲𞤮𞥅𞤯𞤮": 3314,
      "##𞤢𞤲𞤮𞥅𞤥𞤢": 3315,
      "##𞤢𞤳𞥆𞤫": 3316,
      "𞤸𞤫𞤩𞤵𞤲𞤮": 3317,
      "𞤼𞤭𞤥𞥆𞤢𞤼𞤢": 3318,
      "𞤲𞤢𞥄𞤼𞤭𞥅": 3319,
      "𞥒𞥐𞥑𞥓": 3320,
      "𞥒𞥐𞥑𞥗": 3321,
      "##𞤮𞤲𞥋𞤣𞤭𞤪𞤭": 3322,
      "𞤴𞤢𞤸𞤵𞤲𞤮": 3323,
      "𞤧𞤢𞤪𞤭𞤴": 3324,
      "𞤧𞤢𞥄𞤴𞤲": 3325,
      "𞤱𞤢𞤪𞤢𞥄𞤥𞤢": 3326,
      "𞤲𞤦𞤢𞤼𞤵": 3327,
      "𞤶𞤫𞤴𞤭": 3328,
      "𞤶𞤮𞤺𞤲𞤭𞤼": 3329,
      "𞤸𞤢𞥄𞤲𞤵𞤲𞤮𞥅": 3330,
      "𞤨𞤭𞤴𞤵𞤣𞤫": 3331,
      "𞤩𞤵𞤪𞤵𞤩𞤫": 3332,
      "##𞥆𞤮𞥅𞤶𞤫": 3333,
      "𞤻𞤢𞥄𞤱𞤮𞥅𞤶𞤫": 3334,
      "𞤱𞤭𞤲𞤣𞤭𞥅": 3335,
      "𞤬𞤮𞤤𞥆𞤮": 3336,
      "𞤬𞤮𞤤𞥆𞤢𞥄": 3337,
      "𞤱𞤢𞤴𞤤𞤭𞤼": 3338,
      "𞤬𞤵𞤯𞥆𞤭𞤳𞤫": 3339,
      "##𞤢𞤥𞤦𞤭𞤲": 3340,
      "##𞤢𞥄𞤸𞤭𞤲": 3341,
      "𞤦𞤭𞤲𞥆𞤢𞤥𞤢𞥄": 3342,
      "𞤪𞤵𞤼𞥆𞤭𞥅": 3343,
      "𞤧𞤫𞤩": 3344,
      "𞤲𞤢𞤱𞤴": 3345,
      "𞤸𞤵𞤥𞤢𞤥𞤦𞤭𞤲": 3346,
      "##ant": 3347,
      "##ang": 3348,
      "𞤼𞤵𞤥𞤦𞤮": 3349,
      "𞤢𞤪𞤢𞤲𞤵𞤲": 3350,
      "𞤫𞤩𞥆𞤮𞥅𞤶𞤫": 3351,
      "##𞤴𞤢𞤲𞤳𞤮𞥅𞤪𞤵": 3352,
      "𞤬𞤫𞤰𞥆𞤭𞤲𞤭𞥅": 3353,
      "𞤬𞤫𞤰𞥆𞤭𞤲𞤭𞤪𞤭": 3354,
      "𞤧𞤢𞤤𞤭𞥅": 3355,
      "𞤂𞤢𞥄𞤥𞤯𞤮": 3356,
      "𞤸𞤮𞥅𞤪𞤵𞤺𞤮𞤤": 3357,
      "𞤸𞤵𞥅𞤩𞤲": 3358,
      "𞤲𞤫𞥅𞤩𞤲𞤭𞤼": 3359,
      "𞤸𞤢𞤯𞤢𞥄𞤤𞤭": 3360,
      "𞤺𞤫𞤲𞤣𞤭": 3361,
      "𞤣𞤫𞤬𞤼𞤫": 3362,
      "𞤻𞤭𞥅𞤩𞤲𞤵𞤺𞤮𞤤": 3363,
      "𞤶𞤮𞤲𞤣𞤫": 3364,
      "𞤩𞤫𞤪𞤯𞤫": 3365,
      "𞤀𞤲𞤺𞤮𞤤": 3366,
      "𞥑𞥙𞥘𞥔": 3367,
      "𞤲𞤣𞤢𞥄𞤪𞤵𞤺𞤮𞤤": 3368,
      "𞤱𞤮𞥅𞤼𞤩𞤫": 3369,
      "𞤀𞥄𞤩𞤵𞤲𞥋𞤣𞤫": 3370,
      "𞤻𞤢𞤥𞤣𞤵": 3371,
      "𞤺𞤮𞤥𞤲𞤢𞥄𞤳𞤵": 3372,
      "𞤴𞤭𞤯𞤢𞥄": 3373,
      "𞥑𞥙𞥖𞥐": 3374,
      "𞤧𞤢𞤺𞤮": 3375,
      "𞤽𞤢𞤤𞤯𞤭𞤲𞤭": 3376,
      "𞤱𞤫𞥅𞤴": 3377,
      "𞤑𞤵𞥅𞤩𞤢𞤤": 3378,
      "𞤑𞤵𞥅𞤩𞤢𞤤𞥆𞤮": 3379,
      "𞤔𞤭𞤦𞤭𞤪": 3380,
      "𞤲𞤶𞤵𞤩𞥆𞤵𞤤𞤫": 3381,
      "𞤲𞤶𞤵𞤩𞥆𞤵𞤤𞤭": 3382,
      "𞤬𞤫𞥅𞤻𞤭": 3383,
      "𞤀𞤄𞤁𞤓𞤂": 3384,
      "𞤬𞤮𞥅𞤬": 3385,
      "𞤥𞤵𞤧𞤭𞤣𞤢𞤤": 3386,
      "𞤑𞤢𞤤𞤵𞤥": 3387,
      "𞤋𞤥𞥆𞤭𞤲𞤢𞥄𞤯𞤮": 3388,
      "𞤳𞤢𞤪𞤢𞤸": 3389,
      "𞤨𞤢𞤱𞤫": 3390,
      "𞤷𞤫𞤲𞤯𞤫": 3391,
      "𞤀𞤣𞤤𞤢𞤥": 3392,
      "𞤉𞤧𞤨": 3393,
      "𞤓𞤳𞤪": 3394,
      "𞤧𞤫𞤲𞤫𞤺𞤢𞤤": 3395,
      "FN": 3396,
      "en": 3397,
      "or": 3398,
      "par": 3399,
      "pour": 3400,
      "𞤀𞤲𞤣": 3401,
      "𞤃𞤵": 3402,
      "𞤃𞤢𞤲𞤳": 3403,
      "𞤃𞤮𞥅𞤣𞤭": 3404,
      "𞤄𞤭𞤴𞤢": 3405,
      "𞤄𞤵𞤱": 3406,
      "𞤅𞤫": 3407,
      "𞤅𞤭𞥅": 3408,
      "𞤈𞤭": 3409,
      "𞤉𞤤": 3410,
      "𞤋𞤼": 3411,
      "𞤋𞤣𞤭": 3412,
      "𞤏𞤢𞤺": 3413,
      "𞤐𞤀": 3414,
      "𞤑𞤢𞤦": 3415,
      "𞤑𞤀𞤐": 3416,
      "𞤑𞤢𞤣𞤭": 3417,
      "𞤔𞤢𞤲𞤺": 3418,
      "𞤔𞤵𞥅𞤤": 3419,
      "𞤕𞤫𞤪": 3420,
      "𞤗𞤢𞤪𞤣": 3421,
      "𞤘𞤮𞤥": 3422,
      "𞤘𞤀𞤃𞤄𞤋𞤒𞤀": 3423,
      "𞤘𞤮𞤴𞤼𞤢": 3424,
      "𞤚𞤋𞤃": 3425,
      "𞤣𞤢𞤪𞤭": 3426,
      "𞤤𞤢": 3427,
      "𞤨𞤢𞤣": 3428,
      "𞤩𞤢𞤴": 3429,
      "𞤫𞤳𞥆": 3430,
      "𞤬𞤵𞤳𞥆": 3431,
      "𞤳𞤵𞤤": 3432,
      "𞤳𞤭𞤦": 3433,
      "𞤴𞤫𞤼": 3434,
      "𞤷𞤮": 3435,
      "𞤸𞤭𞤥": 3436,
      "𞤺𞤭𞤥": 3437,
      "𞤺𞤵𞤤": 3438,
      "𞤺𞤭𞤲𞤫𞤲𞤢𞥄𞤩𞤫": 3439,
      "𞤼𞤫𞤤": 3440,
      "𞥕𞥕": 3441,
      "##𞥆𞤢𞥄𞤳𞤭": 3442,
      "##𞤲𞤢𞥄𞤪𞤭": 3443,
      "##𞤲𞤢𞥄𞤶𞤮": 3444,
      "##𞤱𞤵": 3445,
      "##𞤣𞤵𞤲": 3446,
      "##𞥅𞤶𞤭": 3447,
      "##𞤄𞤋𞤒𞤀": 3448,
      "##𞤼𞤫𞥅𞤣𞤫": 3449,
      "##𞤼𞤢𞥄𞤳𞤫": 3450,
      "##𞤳𞤢𞥄": 3451,
      "##𞤰𞥆𞤮𞤤": 3452,
      "##𞤅𞤀𞥄": 3453,
      "##𞤃𞤓": 3454,
      "##𞤂𞤀": 3455,
      "##𞤑𞤅": 3456,
      "##im": 3457,
      "##ne": 3458,
      "##RD": 3459,
      "##𞤸𞤵": 3460,
      "##𞤢𞤲𞤫𞥅": 3461,
      "##𞤢𞤲𞤩𞤫": 3462,
      "##𞤮𞤲𞤮𞥅": 3463,
      "##𞤭𞤲𞤭𞤪": 3464,
      "##𞤭𞤲𞤫𞥅𞤣𞤫": 3465,
      "##𞤫𞥅𞤲𞤣𞤫": 3466,
      "𞤲𞤺𞤢𞤳𞥆": 3467,
      "##𞤭𞤪𞤢𞥄𞤱𞤮": 3468,
      "##𞤢𞤴𞤯𞤭": 3469,
      "𞤱𞤮𞤲𞤢𞤴": 3470,
      "𞤱𞤮𞤲𞤭𞤪𞤭": 3471,
      "##𞤮𞤪𞤮𞤲": 3472,
      "##𞤮𞤪𞤼𞤢": 3473,
      "##𞤢𞤼𞤫": 3474,
      "##𞤢𞤥𞤫": 3475,
      "##𞤢𞥄𞤥𞤭": 3476,
      "##𞤢𞥄𞤤𞤭𞥅": 3477,
      "𞤸𞤮𞥅𞤼𞤭": 3478,
      "##𞥆𞤵𞤤𞤫": 3479,
      "##𞤢𞤦𞤮𞤤𞤢𞥄𞤳𞤵": 3480,
      "##𞤢𞥄𞤲𞤺𞤮𞤤": 3481,
      "##𞤢𞥄𞤲𞤺𞤵": 3482,
      "𞤸𞤫𞤣𞥆𞤫": 3483,
      "𞤤𞤢𞥄𞤥𞤭𞤲𞤮𞥅": 3484,
      "##𞥆𞤭𞤲𞤮": 3485,
      "𞤸𞤢𞤧𞤭𞥅": 3486,
      "##𞤵𞤲𞤮𞥅𞤯𞤮": 3487,
      "𞤱𞤢𞤯𞤵𞤲𞤮": 3488,
      "𞤱𞤢𞤯𞤵𞤲𞥋𞤺𞤮": 3489,
      "##𞤢𞤩𞤭𞤪𞤭": 3490,
      "𞤸𞤮𞤤𞥆𞤵𞤣𞤫": 3491,
      "𞤸𞤮𞤥𞤮": 3492,
      "##𞤣𞤭𞥅𞤲𞤢": 3493,
      "𞤬𞤮𞤣𞤵𞤲𞤮": 3494,
      "𞤴𞤢𞤤𞤼𞤵𞤣𞤫": 3495,
      "𞥑𞥙𞥔": 3496,
      "𞤼𞤢𞤼𞤢𞤩𞤢𞤤": 3497,
      "##𞤢𞤲𞤮𞥅𞤳𞤢": 3498,
      "##𞤵𞤲𞥋𞤣𞤵": 3499,
      "𞤬𞤫𞤰𞥆𞤭𞥅": 3500,
      "𞤸𞤫𞤩𞤢𞥄𞤤𞤭": 3501,
      "𞤼𞤭𞤥𞥆𞤭𞤲𞤭": 3502,
      "𞤑𞤮𞤲𞤵": 3503,
      "𞤸𞤢𞤳𞥆𞤫𞥅𞤶𞤭": 3504,
      "𞤩𞤫𞤴𞤲𞤺": 3505,
      "##𞤺𞤵𞤬𞤵𞤤": 3506,
      "𞤥𞤢𞥄𞤴𞤮": 3507,
      "𞤥𞤢𞥄𞤴𞤵𞤩𞤫": 3508,
      "𞤺𞤮𞤤𞥆𞤭𞤪": 3509,
      "𞤢𞤣𞥆𞤭": 3510,
      "𞤰𞤫𞤼𞥆𞤭𞥅": 3511,
      "𞤰𞤫𞤼𞥆𞤵𞤺𞤮𞤤": 3512,
      "𞤰𞤫𞤼𞥆𞤵𞤲𞤮𞥅": 3513,
      "𞤑𞤢𞤥𞤩𞤫": 3514,
      "𞤭𞤲𞥆𞤭": 3515,
      "𞤴𞤫𞤱𞤼𞤭": 3516,
      "𞤩𞤵𞤪𞤭𞥅": 3517,
      "𞤩𞤵𞤪𞤵𞤲𞤮𞥅": 3518,
      "𞤶𞤮𞤳𞥆𞤭": 3519,
      "𞤬𞤮𞤤𞥆𞤵𞤺𞤮𞤤": 3520,
      "𞤱𞤢𞤤𞥆𞤭𞤬": 3521,
      "𞤭𞤱𞤭": 3522,
      "##𞤅𞤋𞤑": 3523,
      "##𞤫𞥅𞤪𞤭𞤴𞤢": 3524,
      "𞤶𞤮𞥅𞤯𞥆𞤭𞤲": 3525,
      "𞤤𞤫𞤱𞤻": 3526,
      "##𞤼𞤢𞤼𞤮": 3527,
      "𞤪𞤵𞤼𞥆𞤭𞤳𞤫": 3528,
      "𞤸𞤢𞤳𞥆𞤵𞤲𞤣𞤫": 3529,
      "𞤸𞤫𞤱𞤼𞤮𞤴": 3530,
      "##𞤉𞤈𞤁𞤉": 3531,
      "𞤲𞤢𞤲𞥆": 3532,
      "𞥒𞥐𞥒𞥔⏰": 3533,
      "𞥒𞥐𞥐𞥒": 3534,
      "𞤼𞤮𞤽𞤭": 3535,
      "𞤧𞤭𞤲𞤷𞤢𞥄": 3536,
      "𞤼𞤢𞤦𞤭𞤲𞤼𞤭𞤲𞤺𞤮𞤤": 3537,
      "##𞤀𞤑𞤀𞤈": 3538,
      "𞤭𞤲𞥆𞤫𞤼𞤫𞥅𞤲𞤣𞤫": 3539,
      "𞤴𞤫𞥅𞤴𞤵𞤺𞤮𞤤": 3540,
      "𞤸𞤫𞤲𞤣": 3541,
      "##ous": 3542,
      "𞤬𞤫𞤰𞥆𞤵𞤲": 3543,
      "𞤤𞤭𞤣𞥆𞤮": 3544,
      "𞤭𞤥𞥆𞤮𞤪": 3545,
      "𞤶𞤢𞤲𞤢𞤲𞤩𞤫": 3546,
      "𞤢𞤲𞤣𞤭𞤪𞤢𞥄𞤲𞤣𞤫": 3547,
      "𞤺𞤮𞥅𞤼𞤮𞤤": 3548,
      "𞤩𞤭𞤯𞥆𞤮": 3549,
      "𞤼𞤮𞥅𞤱𞤲": 3550,
      "𞤢𞤪𞤣𞤮𞥅": 3551,
      "𞤼𞤭𞤲𞤼𞤭": 3552,
      "𞤯𞤢𞤩𞥆𞤭𞤼": 3553,
      "𞤱𞤮𞥅𞤱𞤭": 3554,
      "##𞤀𞤃𞤄𞤋𞤑": 3555,
      "𞤯𞤮𞤱𞤤𞤭": 3556,
      "##𞤉𞤂𞤉": 3557,
      "𞤥𞤫𞥅𞤥": 3558,
      "𞤢𞥄𞤩𞤵𞤲": 3559,
      "𞤃𞤢𞤣𞤭𞥅𞤲𞤢": 3560,
      "𞤃𞤢𞤺𞤵𞤬𞤵𞤤": 3561,
      "𞤲𞤶𞤫𞥅𞤯𞤭": 3562,
      "𞤲𞤶𞤫𞥅𞤼𞤢𞤼𞤮": 3563,
      "𞤱𞤭𞤴𞤫𞤼𞤫𞥅𞤲𞤺𞤮": 3564,
      "𞤳𞤢𞥄𞤤𞤭𞤧𞤭𞥅𞤶𞤭": 3565,
      "𞤱𞤫𞤪𞤤": 3566,
      "𞤔𞤭𞤦𞤪": 3567,
      "𞤶𞤢𞥄𞤦𞤭𞥅": 3568,
      "##𞤭𞤲𞥋𞤣𞤮𞤼𞤮𞥅𞤯𞤮": 3569,
      "𞤥𞤫𞤼𞤢𞤦𞤮𞤤𞤢𞥄𞤳𞤵": 3570,
      "𞤂𞤫𞤴𞤣𞤭": 3571,
      "𞤚𞤵𞤪𞤳𞤭𞥅": 3572,
      "𞤄𞤀𞤈𞤀𞤅𞤋𞤂": 3573,
      "𞤄𞤫𞤣𞤭𞤴𞤫𞥅": 3574,
      "𞤤𞤵𞤪𞥆𞤫": 3575,
      "𞤼𞤭𞤲𞤼𞤵𞤣𞤵𞤲𞤮": 3576,
      "𞤱𞤢𞤪𞤢𞤲𞤮": 3577,
      "sur": 3578,
      "𞤁𞤢𞤪𞤬𞤵𞥅𞤪": 3579,
      "𞤐𞤁𞤓𞤐": 3580,
      "𞤒𞤵𞥅𞤧𞤵𞤬𞤵": 3581,
      "𞤀𞤤𞤸𞤢𞤧𞤢𞥄𞤲": 3582,
      "𞤤𞤢𞤦𞤵𞤼𞤢𞥄𞤲": 3583,
      "𞤊𞤵𞤯𞤲𞤢𞥄𞤲𞤺𞤫": 3584,
      "𞤋𞤄𞤑": 3585,
      "𞤚𞤢𞤲𞤧𞤢𞤲𞤭𞤴𞤢": 3586,
      "𞤧𞤮𞥅𞤯𞤮𞤪𞤢": 3587,
      "𞤲𞤺𞤵𞥅𞤪𞤲𞤣𞤢𞤥": 3588,
      "𞤀𞤖𞤃𞤀𞤁𞤓": 3589,
      "𞤁𞤢𞤥𞤭𞤦𞤢": 3590,
      "𞤚𞤵𞤲𞤭𞥅𞤧": 3591,
      "𞤋𞤧𞤪": 3592,
      "𞤢𞥄𞤤𞤢𞥄𞤶𞤭": 3593,
      "𞤬𞤢𞥄𞤦𞤼𞤭𞤲𞤮𞤴𞤭𞥅": 3594,
      "𞤅𞤫𞤪𞤦𞤭𞤴𞤢": 3595,
      "𞤔𞤢𞥄𞤥𞥆𞤫": 3596,
      "𞤩𞤵𞤩𞤼𞤵": 3597,
      "𞤲𞤢𞤱𞤴𞤭𞤪𞤼𞤢": 3598,
      "𞤳𞤢𞤪𞤢𞤸𞤢𞤲": 3599,
      "𞤓𞤳𞤪𞤢𞤴𞤲𞤢": 3600,
      "FNDC": 3601,
      "𞤨𞤢𞤣𞥆𞤵𞤤𞤫": 3602,
      "𞤲𞤺𞤢𞤳𞥆𞤭𞤤𞤢𞥄𞤩𞤫": 3603,
      "𞤩𞤫𞤴𞤲𞤺𞤵𞥅𞤪𞤫": 3604,
      "an": 3605,
      "com": 3606,
      "le": 3607,
      "𞤀𞤐": 3608,
      "𞤁𞤌": 3609,
      "𞤁𞤢𞤣𞤭": 3610,
      "𞤁𞤭𞤳": 3611,
      "𞤃𞤭𞤪": 3612,
      "𞤃𞤢𞥄𞤤𞤭": 3613,
      "𞤃𞤢𞥄𞤪": 3614,
      "𞤃𞤢𞤬": 3615,
      "𞤄𞤈": 3616,
      "𞤄𞤢𞤪𞤭": 3617,
      "𞤄𞤫𞤪": 3618,
      "𞤅𞤓𞥅": 3619,
      "𞤅𞤢𞥄𞤸": 3620,
      "𞤆𞤵": 3621,
      "𞤊𞤓𞥅": 3622,
      "𞤊𞤮𞤬": 3623,
      "𞤋𞤲": 3624,
      "𞤋𞤧𞤥": 3625,
      "𞤌𞤆": 3626,
      "𞤐𞤭𞤱": 3627,
      "𞤑𞤭𞤲": 3628,
      "𞤑𞤢𞤼": 3629,
      "𞤑𞤮𞥅𞤪𞤫": 3630,
      "𞤑𞤭𞤧": 3631,
      "𞤑𞤢𞥄𞤧": 3632,
      "𞤓𞤅𞤃": 3633,
      "𞤕𞤢𞥄𞤣": 3634,
      "𞤖𞤀": 3635,
      "𞤖𞤢𞤤": 3636,
      "𞤖𞤭𞤼": 3637,
      "𞤚𞤫𞤲": 3638,
      "𞤚𞤀𞤚": 3639,
      "𞤣𞤭𞤥": 3640,
      "𞤤𞤢𞤲𞤣𞤫": 3641,
      "𞤤𞤵𞤲𞤣𞤭𞥅": 3642,
      "𞤦𞤫𞤲": 3643,
      "𞤦𞤵𞤺": 3644,
      "𞤨𞤵𞤤": 3645,
      "𞤨𞤵𞤼": 3646,
      "𞤨𞤮𞥅𞤥": 3647,
      "𞤫𞤼𞤭𞤲𞤮": 3648,
      "𞤬𞤭𞤼": 3649,
      "𞤬𞤢𞥄𞤥": 3650,
      "𞤰𞤭𞥅𞤰": 3651,
      "𞤳𞤢𞥄": 3652,
      "𞤳𞤭𞤲": 3653,
      "𞤳𞤢𞥄𞤤": 3654,
      "𞤴𞤮𞥅𞤤": 3655,
      "𞤴𞤵𞤥𞥆𞤢": 3656,
      "𞤵𞤣": 3657,
      "𞤵𞤦": 3658,
      "𞤶𞤢𞤪": 3659,
      "𞤶𞤵𞤸": 3660,
      "𞤶𞤵𞤤𞥆𞤫": 3661,
      "𞤶𞤵𞤳𞥆": 3662,
      "𞤸𞤭𞤲𞤮": 3663,
      "𞤼𞤢𞤴𞤪𞤫": 3664,
      "𞥖𞥐": 3665,
      "##𞤭𞤶𞤢𞤲": 3666,
      "##𞤲𞤢𞥄": 3667,
      "##𞤢𞤣𞤭𞥅": 3668,
      "##𞤫𞤼𞤫": 3669,
      "##𞤣𞤢𞤥": 3670,
      "##𞤦𞤮𞥅𞤩𞤫": 3671,
      "##𞤳𞤮𞥅": 3672,
      "##𞥋𞤣𞤭𞤪": 3673,
      "##𞤉𞤒": 3674,
      "##𞤉𞤈𞤋": 3675,
      "##𞤬𞤭": 3676,
      "##ta": 3677,
      "##os": 3678,
      "##ré": 3679,
      "##𞤡𞤀": 3680,
      "##𞤢𞥄𞤣𞤭": 3681,
      "##𞤭𞥅𞤯𞤭": 3682,
      "##𞤭𞤲𞤢𞥄𞤩𞤫": 3683,
      "##𞤭𞤲𞤮𞥅𞤪𞤵": 3684,
      "##𞤢𞤪𞤢𞤲𞤳": 3685,
      "𞤲𞤺𞤫𞤴": 3686,
      "##𞤢𞤱𞤭𞥅": 3687,
      "##𞤢𞤱𞤮𞤤": 3688,
      "𞤱𞤮𞤲𞤢": 3689,
      "𞤱𞤮𞤲𞤭𞥅": 3690,
      "##𞤮𞤪𞤳": 3691,
      "##𞤮𞤪𞤢𞤲": 3692,
      "##𞤳𞥆𞤢𞤪": 3693,
      "𞤥𞤢𞤸": 3694,
      "##𞤭𞤴𞤮𞤤": 3695,
      "##𞤵𞤤𞤫": 3696,
      "𞥒𞥐𞥐𞥐": 3697,
      "𞤤𞤢𞥄𞤥𞤢𞥄𞤣𞤫": 3698,
      "𞤱𞤢𞤯𞤵": 3699,
      "𞤱𞤢𞤯𞤢𞤼𞤢": 3700,
      "𞤸𞤮𞤶𞤮": 3701,
      "𞤧𞤭𞤬𞤢": 3702,
      "##𞤼𞤭𞥅𞤩𞤫": 3703,
      "𞤢𞤲𞤺𞤢𞤤": 3704,
      "##𞥆𞤢𞤲𞤭𞥅": 3705,
      "𞤀𞤤𞤤": 3706,
      "𞤬𞤮𞤣𞤭𞥅": 3707,
      "##𞤫𞤴𞤲": 3708,
      "𞤶𞤢𞥄𞤺𞤮𞤪𞤢𞥄𞤩𞤫": 3709,
      "𞤼𞤢𞤼𞤢𞤩𞤮": 3710,
      "##𞤀𞥄𞤃": 3711,
      "##𞤀𞥄𞤖": 3712,
      "𞤧𞤮𞤰": 3713,
      "𞤣𞤢𞤪𞤮𞥅": 3714,
      "𞤱𞤭𞤯": 3715,
      "𞤶𞤢𞤲𞤺𞤢𞤲": 3716,
      "𞤩𞤫𞤴𞤣𞤭𞥅": 3717,
      "𞤻𞤢𞤱𞤲": 3718,
      "𞤥𞤢𞥄𞤴𞤵𞤣𞤫": 3719,
      "𞤣𞤵𞤯𞤫": 3720,
      "𞤲𞤶𞤫𞥅𞤲": 3721,
      "𞤧𞤢𞤪𞤮𞥅𞤩𞤫": 3722,
      "𞤶𞤵𞥅𞤪": 3723,
      "𞤶𞤫𞤴𞤢𞤤": 3724,
      "𞤥𞤵𞤪𞤼𞤢𞤤": 3725,
      "𞤲𞤣𞤭𞤥": 3726,
      "𞤨𞤭𞤴𞤭𞥅": 3727,
      "𞤨𞤭𞤴𞤭𞤪𞤭": 3728,
      "𞤭𞤥𞥆𞤭𞤲𞤭": 3729,
      "𞤻𞤢𞥄𞤥𞤵𞤺𞤮𞤤": 3730,
      "𞤬𞤢𞥄𞤤𞤢𞥄𞤩𞤫": 3731,
      "𞤬𞤮𞤤𞥆𞤵𞤪𞤵": 3732,
      "##𞤼𞤮𞤪𞤢": 3733,
      "𞤢𞥄𞤲𞤣𞤫": 3734,
      "##𞤵𞤱𞤫": 3735,
      "𞤘𞤫𞤲𞤯𞤫": 3736,
      "𞤤𞤢𞤼𞤫𞤪𞤫": 3737,
      "𞤭𞤱𞤪": 3738,
      "𞤀𞤦𞤭𞤶𞤢𞤲": 3739,
      "𞤪𞤵𞤼𞥆𞤢𞥄𞤣𞤫": 3740,
      "𞤱𞤫𞤤𞤧𞤭𞤲": 3741,
      "𞥒𞥐𞥐𞥘": 3742,
      "𞤬𞤫𞤼𞥆𞤭𞤲𞤭": 3743,
      "𞤬𞤫𞤼𞥆𞤢𞤲𞤺𞤮": 3744,
      "𞥑𞥙𞥙𞥑": 3745,
      "𞤫𞤩𞥆𞤵𞤲𞤮𞥅": 3746,
      "𞤧𞤢𞤤𞤢𞤤": 3747,
      "𞤱𞤵𞤪𞤭𞤲": 3748,
      "𞤃𞤢𞤳𞤮𞤪𞤮𞤲": 3749,
      "##𞤫𞤧𞤦": 3750,
      "##𞤲𞤭𞤼𞤮𞤪𞤯𞤫": 3751,
      "𞤧𞤢𞥄𞤼𞤭𞤲𞤭": 3752,
      "𞤣𞤢𞤯𞤲𞤭𞤼𞤮𞤪𞤯𞤫": 3753,
      "𞤐𞤄𞤢𞤼𞤵": 3754,
      "##𞤭𞥅𞤪𞤲𞤢": 3755,
      "𞤼𞤮𞥅𞤻": 3756,
      "𞤧𞤵𞤳𞥆𞤢𞤪": 3757,
      "𞤢𞤪𞤣𞤢𞤺𞤮𞤤": 3758,
      "𞤤𞤵𞤼𞥆𞤫𞥅": 3759,
      "𞤬𞤭𞤪𞤼𞤭": 3760,
      "𞤬𞤵𞤯𞥆𞤢𞥄𞤣𞤫": 3761,
      "𞤥𞤢𞤲𞤳𞤭𞤪𞤺𞤢𞤤": 3762,
      "𞤯𞤮𞤱𞤤𞤵": 3763,
      "𞤴𞤢𞥄𞤳𞤮𞤪𞤣𞤫": 3764,
      "𞤺𞤢𞤧𞤢": 3765,
      "𞤱𞤢𞤤𞥆𞤭𞤼𞤢𞤺𞤮𞤤": 3766,
      "𞤱𞤮𞥅𞤼𞤭𞤪𞤭": 3767,
      "𞤱𞤮𞥅𞤼𞤵𞤪𞤵": 3768,
      "𞤀𞥄𞤩𞤵𞤲": 3769,
      "𞤫𞤤𞤼𞤮𞥅𞤱𞤮": 3770,
      "𞤫𞤱𞤲𞤮𞤪𞤺𞤢𞤤": 3771,
      "𞤼𞤮𞥅𞤤𞤲": 3772,
      "𞤱𞤮𞥅𞤨𞤭": 3773,
      "𞤑𞤀𞤃𞤀𞤈𞤀": 3774,
      "𞤯𞤭𞤯𞤥𞤭𞤼𞤢𞤲𞤭": 3775,
      "une": 3776,
      "𞤃𞤢𞤴𞤺𞤢": 3777,
      "𞤥𞤭𞥅𞤶𞤮𞥅𞤶𞤭": 3778,
      "𞤧𞤫𞥅𞤪𞤼𞤭": 3779,
      "𞤨𞤮𞤤𞤭𞥅𞤧𞤢𞥄𞤩𞤫": 3780,
      "𞤲𞤵𞤤𞤢𞥄𞤯𞤮": 3781,
      "𞤸𞤢𞥄𞤯𞤼𞤭𞤪𞤣𞤫": 3782,
      "𞤨𞤫𞤰𞥆𞤮𞤤": 3783,
      "𞤸𞤢𞥄𞤶𞤵𞥅𞤶𞤭": 3784,
      "𞤼𞤫𞤣𞥆𞤵𞤲𞥋𞤺𞤢𞤤": 3785,
      "𞤚𞤭𞤥𞥆𞤭𞥅": 3786,
      "##𞤵𞤲𞤳𞤫𞤱𞤢𞤤": 3787,
      "𞤶𞤢𞤲𞤺𞤭𞤲𞤮𞥅𞤱𞤮": 3788,
      "𞤴𞤫𞤶𞥆𞤭𞤼": 3789,
      "𞤲𞤣𞤢𞤴𞤺𞤵": 3790,
      "𞤔𞤢𞤤𞤮𞥅": 3791,
      "𞤦𞤮𞤯𞤫": 3792,
      "##𞤾𞤫𞤪𞤨": 3793,
      "𞤖𞤢𞤲𞤪𞤭": 3794,
      "𞤚𞤵𞤥𞤢𞥄𞤲𞤭": 3795,
      "𞤳𞤫𞥅𞤱𞤵𞤯𞤭": 3796,
      "𞤳𞤢𞤴𞤣𞤭𞥅𞤪𞤭": 3797,
      "𞤑𞤌𞤚𞤁𞤋𞤜𞤀𞥄𞤈": 3798,
      "𞤌𞤧𞤼𞤢𞤪𞤢𞤤": 3799,
      "𞤏𞤮𞥅𞤣𞤭𞥅": 3800,
      "𞤗𞤵𞤪𞥇": 3801,
      "𞤀𞤲𞤺𞤮𞤤𞤢𞥄": 3802,
      "𞤔𞤭𞤦𞤭𞤪𞤭𞥅𞤤": 3803,
      "𞤉𞤧𞤨𞤢𞤻": 3804,
      "𞤺𞤵𞤤𞤵𞥅𞤶𞤫": 3805,
      "𞤃𞤢𞤺𞤵𞤬𞤵𞤤𞤭": 3806,
      "𞤁𞤭𞤳𞤧𞤭𞤲": 3807,
      "𞤃𞤭𞤪𞥆𞤢": 3808,
      "𞤃𞤢𞤬𞤢𞤲𞤳𞤮": 3809,
      "𞤅𞤓𞥅𞤃𞤀": 3810,
      "𞤆𞤵𞤼𞤭𞤲": 3811,
      "𞤊𞤓𞥅𞤚": 3812,
      "𞤊𞤮𞤬𞤢𞤲𞤢𞥄": 3813,
      "𞤓𞤅𞤃𞤀𞥄𞤐": 3814,
      "𞤚𞤀𞤚𞤋": 3815,
      "𞤲𞤶𞤫𞥅𞤲𞤢𞤴𞤮": 3816,
      "CN": 3817,
      "Fran": 3818,
      "Tim": 3819,
      "av": 3820,
      "con": 3821,
      "𞤀𞤼": 3822,
      "𞤁𞤵": 3823,
      "𞤃𞤮𞤲𞤮": 3824,
      "𞤃𞤢𞤥𞥆𞤢": 3825,
      "𞤃𞤢𞥄𞤲𞤫": 3826,
      "𞤄𞤵𞥅𞤦": 3827,
      "𞤄𞤈𞤓": 3828,
      "𞤇𞤵𞤪": 3829,
      "𞤈𞤮𞤱𞤢𞤲𞤭": 3830,
      "𞤉𞤊": 3831,
      "𞤊𞤭": 3832,
      "𞤊𞤫𞤧𞤦": 3833,
      "𞤋𞤅": 3834,
      "𞤍𞤮𞥅": 3835,
      "𞤐𞤺𞤫": 3836,
      "𞤑𞤀": 3837,
      "𞤑𞤀𞥄": 3838,
      "𞤔𞤵𞤲": 3839,
      "𞤔𞤢𞤥": 3840,
      "𞤔𞤫𞤪": 3841,
      "𞤔𞤢𞤳𞤢": 3842,
      "𞤔𞤢𞤨𞤢𞤲": 3843,
      "𞤖𞤢𞤳𞥆": 3844,
      "𞤘𞤓𞥅": 3845,
      "𞤘𞤭𞤲𞤫𞤲𞤢𞥄𞤩𞤫": 3846,
      "𞤙𞤢𞥄𞤥": 3847,
      "𞤙𞤀𞥄𞤃": 3848,
      "𞤚𞤮": 3849,
      "𞤚𞤮𞥅𞤱": 3850,
      "𞤝𞤢𞤣𞤭𞥅": 3851,
      "𞤣𞤢𞤥": 3852,
      "𞤣𞤭𞤪𞤭": 3853,
      "𞤣𞤢𞤣𞤭": 3854,
      "𞤣𞤭𞥅𞤧": 3855,
      "𞤤𞤢𞤴": 3856,
      "𞤥𞤵𞥅𞤧": 3857,
      "𞤦𞤮𞤪": 3858,
      "𞤧𞤭𞤥": 3859,
      "𞤧𞤮𞥅𞤪": 3860,
      "𞤧𞤵𞥅𞤥𞤢𞤴𞤫𞥅": 3861,
      "𞤩𞤮𞤪": 3862,
      "𞤪𞤫": 3863,
      "𞤪𞤢𞤲": 3864,
      "𞤬𞤭𞤲": 3865,
      "𞤬𞤫𞤲": 3866,
      "𞤬𞤫𞥅𞤪𞤫": 3867,
      "𞤰𞤢𞤥": 3868,
      "𞤰𞤫𞥅𞤱": 3869,
      "𞤲𞤢𞤲𞤮": 3870,
      "𞤳𞤢𞥄𞤱": 3871,
      "𞤴𞤫𞤣": 3872,
      "𞤺𞤵𞤪𞤭": 3873,
      "𞤼𞤵𞤥": 3874,
      "𞤼𞤮𞤼": 3875,
      "##𞥆𞤋": 3876,
      "##𞥆𞤭𞤪𞤢": 3877,
      "##𞤲𞤫": 3878,
      "##𞤲𞤮𞥅𞤩𞤫": 3879,
      "##𞤲𞤳𞤢": 3880,
      "##𞤢𞤯𞤭": 3881,
      "##𞤧𞤮𞤲": 3882,
      "##𞤧𞤭𞤴": 3883,
      "##𞤧𞤼𞤢": 3884,
      "##𞤥𞤵𞥅𞤣𞤵": 3885,
      "##𞤥𞤢𞤲𞤭𞥅": 3886,
      "##𞤴𞤢𞤥": 3887,
      "##𞤼𞤢𞥄𞤥𞤢": 3888,
      "##𞤼𞤢𞥄𞤳𞤭": 3889,
      "##𞤼𞤮𞤼𞤮𞥅": 3890,
      "##𞤌𞤙": 3891,
      "##𞤏𞤀𞤚": 3892,
      "##𞥓𞥐": 3893,
      "##ct": 3894,
      "##ot": 3895,
      "##ol": 3896,
      "##ok": 3897,
      "##ng": 3898,
      "##el": 3899,
      "##ele": 3900,
      "##res": 3901,
      "##وي": 3902,
      "##𞤢𞥄𞤨": 3903,
      "##𞤢𞥄𞤣𞤵": 3904,
      "##𞤢𞥄𞤼𞤫": 3905,
      "##𞤢𞤤𞤶𞤫": 3906,
      "##𞤭𞤲𞤢𞥄𞤤𞤭": 3907,
      "##𞤭𞤲𞤢𞤲𞤢𞥄": 3908,
      "##𞤮𞤤𞤢": 3909,
      "##𞤵𞥅𞤶𞤮": 3910,
      "##𞤵𞥅𞤤𞤭": 3911,
      "𞤳𞤮𞤪": 3912,
      "##𞤭𞤪𞤭𞥅": 3913,
      "##𞤭𞤪𞤢𞤲𞤭": 3914,
      "𞤤𞤫𞤯𞥆𞤫": 3915,
      "##𞤢𞤼𞤢𞤲": 3916,
      "##𞥆𞤵𞤪": 3917,
      "𞤥𞤮𞤺": 3918,
      "𞤼𞤢𞤱𞤢𞤼𞤢": 3919,
      "𞤸𞤫𞤯𞤢𞥄": 3920,
      "##𞤪𞤫𞥅𞤶𞤭": 3921,
      "##𞤢𞤸𞤥": 3922,
      "##𞤣𞤭𞥅𞤩𞤫": 3923,
      "##𞤣𞤭𞥅𞤯𞤮": 3924,
      "𞤱𞤮𞥅𞤲": 3925,
      "𞤳𞤮𞤲𞤭": 3926,
      "𞤴𞤢𞤤𞤼𞤢": 3927,
      "𞤴𞤢𞤤𞤼𞤵": 3928,
      "𞤀𞤬𞤪𞤭𞤳𞤲𞤢𞥄𞤩𞤫": 3929,
      "𞤧𞤮𞤬": 3930,
      "##𞤢𞤲𞤮𞥅𞤳𞤭": 3931,
      "𞤬𞤫𞤰𞥆𞤭𞤼": 3932,
      "##𞤵𞤼𞤵𞤣𞤫": 3933,
      "𞤸𞤫𞤩𞤼𞤭": 3934,
      "𞤸𞤫𞤩𞤵𞤺𞤮𞤤": 3935,
      "𞤱𞤭𞤵𞤩𞤫": 3936,
      "𞤥𞤵𞤴𞤲": 3937,
      "𞤬𞤮𞥅𞤤𞤮𞤲": 3938,
      "𞤱𞤢𞥄𞤱𞤢𞤴": 3939,
      "##𞤢𞤧𞤵": 3940,
      "##𞤢𞤧𞤭𞤤": 3941,
      "𞤸𞤢𞤪𞤢𞤴𞤲𞤮": 3942,
      "𞤲𞤦𞤮𞥅𞤴𞤮": 3943,
      "##𞤼𞤵𞤯𞤫": 3944,
      "𞤩𞤢𞤤𞥆𞤭": 3945,
      "##𞤮𞤲𞥋𞤣𞤭𞤪𞤺𞤮𞤤": 3946,
      "𞤀𞥄𞤧𞤭𞤴𞤢": 3947,
      "𞤼𞤫𞥅𞤱𞤵": 3948,
      "𞤱𞤭𞤴𞤢𞤴": 3949,
      "##𞤼𞤵𞤥𞤢𞤼𞤢": 3950,
      "##𞤋𞥅𞤂𞤀": 3951,
      "𞤸𞤢𞤨𞥆": 3952,
      "𞤱𞤢𞤴𞤤𞤭": 3953,
      "𞤼𞤢𞤦𞤭𞤼": 3954,
      "𞤥𞤮𞤰𞥆𞤢𞤲𞤢𞥄": 3955,
      "𞤯𞤭𞤯𞤢𞤩𞤢𞤤": 3956,
      "𞤃𞤢𞤱𞤯𞤭": 3957,
      "𞤤𞤮𞤲𞤼𞤮": 3958,
      "##ers": 3959,
      "𞤧𞤮𞤳𞤭": 3960,
      "𞤀𞤦𞤵𞥅𞤦𞤢𞤳𞤢𞤪": 3961,
      "𞤤𞤵𞤥𞤦𞤭𞥅": 3962,
      "##and": 3963,
      "𞤴𞤢𞤥𞤭𞤪𞤮𞥅𞤶𞤫": 3964,
      "𞤑𞤵𞤤𞤵𞤦": 3965,
      "𞤼𞤮𞤽𞤢𞤲": 3966,
      "𞤼𞤭𞤥𞥆𞤭𞤲𞤢𞥄𞤤𞤭": 3967,
      "𞤧𞤫𞤲𞤰": 3968,
      "𞤼𞤢𞤦𞤭𞤲𞤼𞤭𞤲𞤭": 3969,
      "𞤃𞤮𞤸": 3970,
      "𞤱𞤵𞤪𞤼𞤭": 3971,
      "𞤵𞤣𞥆𞤭𞤼𞤵𞤺𞤮𞤤": 3972,
      "𞤅𞤢𞤣𞤭𞤦𞤢": 3973,
      "𞤅𞤭𞤤𞤭𞥅": 3974,
      "𞤸𞤢𞤤𞤮𞤪": 3975,
      "𞤢𞤲𞤣𞤭𞤪𞤢𞥄": 3976,
      "𞤩𞤫𞤴𞤣𞤢𞥄𞤣𞤫": 3977,
      "𞤐𞤄𞤀𞤂": 3978,
      "𞤐𞤄𞤀𞤂𞥆𞤌": 3979,
      "𞤳𞤭𞥅𞤼𞤮𞤤": 3980,
      "𞤳𞤵𞤩𞥆𞤢𞤥": 3981,
      "𞤊𞤮𞤼𞥆𞤵𞤯𞤫": 3982,
      "##𞤅𞤚𞤀𞤈": 3983,
      "𞤀𞤥𞤭𞥅𞤲": 3984,
      "𞤑𞤀𞤃𞤉𞤈": 3985,
      "𞤑𞤌𞤐𞤘𞤌": 3986,
      "𞤣𞤮𞤱𞤪𞤭": 3987,
      "##𞤮𞥅𞤸𞤮": 3988,
      "𞤱𞤢𞤤𞥆𞤭𞤼𞤮𞥅": 3989,
      "𞤸𞤫𞤪𞤧𞤭𞤲": 3990,
      "𞤼𞤵𞥅𞤥𞤢𞥄": 3991,
      "𞤥𞤮𞤰𞥆𞤭𞤲𞤼𞤫𞥅": 3992,
      "𞤪𞤫𞥅𞤲𞤼𞤢𞥄𞤣𞤫": 3993,
      "𞤥𞤢𞤺𞥆𞤮": 3994,
      "𞤭𞤼𞥆𞤭𞤪𞤢": 3995,
      "𞤅𞤢𞤺𞤮": 3996,
      "𞤢𞤴𞤩𞤫": 3997,
      "𞤴𞤭𞤴𞤣𞤵𞤺𞤮𞤤": 3998,
      "𞤦𞤢𞤯𞤼𞤫": 3999,
      "𞤼𞤢𞤼𞤢𞤩𞤵𞤲": 4000,
      "𞤂𞤫𞤴𞤯𞤫": 4001,
      "𞤲𞤢𞤩𞤭": 4002,
      "##𞤢𞤴𞤮𞤳𞤮": 4003,
      "𞤤𞤭𞤩": 4004,
      "𞤤𞤭𞤩𞤭": 4005,
      "𞤴𞤢𞥄𞤳𞤮𞤪𞤢𞥄𞤩𞤫": 4006,
      "𞤃𞤢𞤸𞤥𞤵𞥅𞤣𞤵": 4007,
      "𞤃𞤵𞥅𞤧𞤢𞥄": 4008,
      "𞤤𞤢𞤲𞤣𞤭𞤳𞤫": 4009,
      "𞤼𞤭𞤶𞥆𞤢𞤲𞤮𞥅𞤳𞤭": 4010,
      "𞤑𞤮𞤪𞤮𞥅𞤲𞤢𞤾𞤭𞤪𞤭𞥅𞤧": 4011,
      "Afrique": 4012,
      "𞤊𞤢𞥄𞤼𞤵𞤥𞤢𞤼𞤢": 4013,
      "##𞤢𞤥𞥆𞤫𞤣": 4014,
      "##𞤀𞥄𞤒𞤋𞥅𞤂𞤀": 4015,
      "𞤣𞤢𞤱𞤪𞤮𞥅𞤩𞤫": 4016,
      "𞤄𞤢𞤳𞤢𞤴𞤮𞤳𞤮": 4017,
      "𞤆𞤌𞤂𞤌𞤙": 4018,
      "𞤉𞤑𞤏𞤀𞤚": 4019,
      "𞤖𞤮𞤪𞤦𞤭𞤪𞥆𞤫": 4020,
      "𞤩𞤵𞥅𞤩𞤼𞤵": 4021,
      "𞤑𞤵𞥅𞤩𞤢𞤤𞤶𞤮": 4022,
      "𞤀𞤲𞤣𞤢𞥄𞤳𞤢": 4023,
      "𞤐𞤀𞤔": 4024,
      "𞤑𞤀𞤐𞤀𞤁": 4025,
      "𞤣𞤢𞤪𞤭𞤳𞤫": 4026,
      "𞤔𞤭𞤦𞤪𞤭𞥅𞤤": 4027,
      "𞤁𞤢𞤣𞤭𞤧": 4028,
      "𞤑𞤢𞥄𞤧𞤮𞤪𞤭": 4029,
      "𞤖𞤭𞤼𞤢𞥄𞤲𞤣𞤫": 4030,
      "𞤚𞤫𞤲𞤼𞤭𞤲𞤭𞥅": 4031,
      "𞤨𞤮𞥅𞤥𞤢𞥄": 4032,
      "##𞤉𞤈𞤋𞤒𞤀": 4033,
      "𞤶𞤢𞤲𞤺𞤢𞤲𞤢𞥄𞤳": 4034,
      "𞤄𞤵𞥅𞤦𞤵": 4035,
      "𞤄𞤈𞤓𞤑𞤅": 4036,
      "𞤊𞤫𞤧𞤦𞤵𞤳": 4037,
      "𞤘𞤓𞥅𞤃𞤓": 4038,
      "𞤝𞤢𞤣𞤭𞥅𞤶": 4039,
      "𞤺𞤵𞤪𞤭𞤤": 4040,
      "𞤑𞤵𞤤𞤵𞤦𞤢𞤤𞤭": 4041,
      "BN": 4042,
      "des": 4043,
      "lang": 4044,
      "ou": 4045,
      "on": 4046,
      "éc": 4047,
      "𞤂𞤭": 4048,
      "𞤂𞤢𞤼": 4049,
      "𞤂𞤢𞤥": 4050,
      "𞤂𞤭𞤣": 4051,
      "𞤂𞤫𞤧": 4052,
      "𞤃𞤀𞤂𞤋": 4053,
      "𞤄𞤀": 4054,
      "𞤄𞤓": 4055,
      "𞤄𞤢𞤺": 4056,
      "𞤄𞤉𞤈𞤐": 4057,
      "𞤄𞤢𞥁": 4058,
      "𞤅𞤭𞤥": 4059,
      "𞤅𞤉𞤈": 4060,
      "𞤅𞤵𞥅𞤪𞤭": 4061,
      "𞤅𞤢𞤧𞤵": 4062,
      "𞤆𞤫𞤲𞤧": 4063,
      "𞤇𞤢𞤤": 4064,
      "𞤉𞤈": 4065,
      "𞤊𞤫": 4066,
      "𞤋𞤼𞤢𞤤": 4067,
      "𞤍𞤭𞤲": 4068,
      "𞤑𞤮𞤤": 4069,
      "𞤑𞤢𞤺": 4070,
      "𞤑𞤢𞤬": 4071,
      "𞤖𞤢𞤦": 4072,
      "𞤖𞤵𞤧": 4073,
      "𞤖𞤢𞤳𞥆𞤫": 4074,
      "𞤘𞤵": 4075,
      "𞤘𞤵𞤺𞤮𞤤": 4076,
      "𞤘𞤢𞤲𞤣𞤢𞤤": 4077,
      "𞤙𞤢𞤥": 4078,
      "𞤚𞤪𞤢𞤲": 4079,
      "𞤜𞤉𞤈𞤁𞤉": 4080,
      "𞤢𞤣𞤭𞤪": 4081,
      "𞤣𞤮": 4082,
      "𞤣𞤫𞥅𞤰": 4083,
      "𞤤𞤢𞤧": 4084,
      "𞤥𞤵𞥅𞤥": 4085,
      "𞤪𞤢𞤯": 4086,
      "𞤬𞤵𞤲": 4087,
      "𞤬𞤢𞥄𞤸𞤭𞤲": 4088,
      "𞤲𞤮𞥅𞤲": 4089,
      "𞤲𞤢𞤺𞥆𞤫": 4090,
      "𞤳𞤢𞥄𞤳": 4091,
      "𞤴𞤮𞤤": 4092,
      "𞤴𞤮𞤼𞥆𞤭𞤲": 4093,
      "𞤶𞤢𞥄𞤪": 4094,
      "𞤶𞤢𞤺": 4095,
      "𞤶𞤢𞥄𞤧": 4096,
      "𞤶𞤢𞥄𞤩": 4097,
      "𞤷𞤢𞤼": 4098,
      "𞤸𞤵": 4099,
      "𞤸𞤭𞥅𞤤𞤢": 4100,
      "𞤺𞤭𞤼𞤫": 4101,
      "𞤺𞤵𞤪𞤫": 4102,
      "𞤻𞤢𞤦": 4103,
      "𞤻𞤫𞤥𞤦": 4104,
      "𞤼𞤢𞤨": 4105,
      "𞤼𞤢𞤤𞤫𞤲": 4106,
      "𞥑𞥐𞥐": 4107,
      "𞥓𞥔": 4108,
      "𞥓𞥗": 4109,
      "𞥓𞥕": 4110,
      "𞥓𞥒": 4111,
      "𞥕𞥐": 4112,
      "##𞥆𞤵𞤲": 4113,
      "##𞥆𞤢𞥄𞤳𞤵": 4114,
      "##𞥆𞤫𞥅𞤪𞤫": 4115,
      "##𞤲𞤵": 4116,
      "##𞤲𞤢𞥄𞤪𞤫": 4117,
      "##𞤺𞤢𞤲": 4118,
      "##𞤺𞤭𞥅": 4119,
      "##𞤺𞤢𞥄𞤤𞤫": 4120,
      "##𞤪𞤮𞤲": 4121,
      "##𞤱𞤵𞤲": 4122,
      "##𞤧𞤤𞤫": 4123,
      "##𞤥𞤢𞤲": 4124,
      "##𞤥𞤢𞥄𞤩𞤫": 4125,
      "##𞤦𞤭𞤲𞤢𞥄": 4126,
      "##𞤄𞤀𞤑𞤀𞤈": 4127,
      "##𞤼𞤢𞥄𞤩𞤫": 4128,
      "##𞤼𞤢𞤼𞤢": 4129,
      "##𞤼𞤮𞤼𞤮": 4130,
      "##𞤁𞤘": 4131,
      "##𞤐𞤀": 4132,
      "##𞤳𞤧": 4133,
      "##𞤊𞤘": 4134,
      "##𞥋𞤣𞤫": 4135,
      "##𞤉𞤅𞤋": 4136,
      "##dit": 4137,
      "##li": 4138,
      "##ée": 4139,
      "##𞤻𞥆𞤭𞤲": 4140,
      "##حم": 4141,
      "##𞤢𞥄𞤻": 4142,
      "##𞤮𞥅𞤪𞤭": 4143,
      "##𞤭𞥅𞤬": 4144,
      "##𞤫𞥅𞤧": 4145,
      "##𞤫𞥅𞤻": 4146,
      "##𞤵𞥅𞤺𞤮𞤤": 4147,
      "##𞤭𞤪𞤯𞤭": 4148,
      "##𞤭𞤪𞤢𞥄𞤤𞤭": 4149,
      "𞤱𞤮𞤲𞤼𞤭": 4150,
      "##𞤭𞤼𞤮𞥅": 4151,
      "𞤑𞤮𞤧𞤼𞤢": 4152,
      "##𞤪𞤭𞤴𞤢": 4153,
      "##𞤮𞤼𞤮𞤲𞤮𞥅": 4154,
      "##𞥆𞤵𞤼𞤵": 4155,
      "𞤼𞤢𞤱𞤢𞥄𞤩𞤫": 4156,
      "##𞤢𞥄𞤲𞤣𞤵": 4157,
      "𞤤𞤢𞥄𞤥𞤮𞤪": 4158,
      "##𞤺𞤢𞤤𞤢𞤤": 4159,
      "##𞤢𞥄𞤳𞤵𞤼𞤵": 4160,
      "##𞥆𞤭𞤼𞤭": 4161,
      "𞤸𞤢𞤳𞤭𞤲": 4162,
      "𞤴𞤮𞤺": 4163,
      "𞤱𞤢𞤯𞥆𞤭𞤲": 4164,
      "𞤱𞤢𞤯𞤼𞤢𞤲": 4165,
      "𞤢𞤪𞤮𞥅𞤶𞤫": 4166,
      "𞤧𞤭𞤳𞥆𞤭": 4167,
      "𞤱𞤮𞥅𞤲𞤣": 4168,
      "##𞤼𞤭𞥅𞤯𞤮": 4169,
      "𞤳𞤵𞥅𞤩": 4170,
      "𞤀𞤬𞤪𞤭𞤳𞤲": 4171,
      "𞤥𞤢𞤱𞤯𞤭": 4172,
      "𞤧𞤮𞤩": 4173,
      "##𞤢𞤲𞤮𞥅𞤳𞤮": 4174,
      "𞤯𞤵𞥅𞤯𞤭𞥅": 4175,
      "##𞤢𞤴𞤲𞤺𞤵": 4176,
      "##𞤣𞤭𞤲𞤭": 4177,
      "##𞤣𞤭𞤲𞤢𞥄": 4178,
      "𞤲𞤢𞥄𞤼𞤭": 4179,
      "𞤩𞤫𞤴𞤢": 4180,
      "𞤱𞤢𞥄𞤱𞤵𞤲𞤮𞥅": 4181,
      "𞤱𞤢𞥄𞤱𞤢𞥄𞤲𞤮": 4182,
      "𞤺𞤮𞤤𞥆𞤢𞤲": 4183,
      "𞤫𞤲𞤫𞤲": 4184,
      "##𞤼𞤫𞥅𞤲𞤣𞤫": 4185,
      "##𞤼𞤫𞥅𞤯𞤮": 4186,
      "𞤧𞤢𞤪𞤮𞥅𞤱𞤮": 4187,
      "##𞤭𞤣𞤢𞥄": 4188,
      "𞤧𞤢𞥄𞤴": 4189,
      "𞤢𞤤𞤯": 4190,
      "𞤢𞤤𞤢𞤼": 4191,
      "𞤢𞤤𞤣𞤢𞥄": 4192,
      "𞤶𞤫𞤴𞤢𞤲𞤮𞥅": 4193,
      "𞤣𞤭𞤪𞤼𞤭𞤲": 4194,
      "##𞤮𞤲𞥋𞤣𞤭𞤪𞤣𞤫": 4195,
      "𞤱𞤭𞤴𞤵𞤺𞤮𞤤": 4196,
      "𞤶𞤮𞤶": 4197,
      "##𞤓𞥅𞤄𞤀𞤑𞤀𞤈": 4198,
      "𞤱𞤭𞤲𞤣": 4199,
      "𞤱𞤭𞤲𞤣𞤫𞤪𞤫": 4200,
      "𞤸𞤵𞥅𞤱𞤼𞤮𞤪𞤣𞤫": 4201,
      "𞤬𞤮𞤤𞥆𞤫𞥅𞤣𞤫": 4202,
      "𞤱𞤢𞤴𞤤𞤢𞤺𞤮𞤤": 4203,
      "𞤃𞤮𞤪𞤭𞤼𞤢𞤲𞤭": 4204,
      "𞤬𞤮𞤼𞥆𞤵𞤲𞤮": 4205,
      "##𞥆𞤭𞤪𞤯𞤫": 4206,
      "𞤯𞤭𞤯𞤢𞤩": 4207,
      "##𞤼𞤢𞥄𞤯𞤫": 4208,
      "𞤶𞤭𞤳𞥆𞤫": 4209,
      "𞤼𞤮𞤲𞤺": 4210,
      "𞤑𞤢𞤥𞤢𞤪𞤢𞥄": 4211,
      "𞤸𞤫𞤣𞥆": 4212,
      "##oni": 4213,
      "𞤸𞤫𞤱𞤼𞤭": 4214,
      "𞤊𞤵𞤤𞤬𞤵𞤤": 4215,
      "𞤬𞤢𞤱𞤢𞤲𞤮𞥅": 4216,
      "##rist": 4217,
      "𞤴𞤢𞤥𞤭𞤪𞤮𞥅𞤶𞤮": 4218,
      "𞤼𞤵𞤥𞤦𞤮𞤲𞥋𞤣𞤭𞤪𞤫": 4219,
      "##ink": 4220,
      "𞥒𞥐𞥐𞥓": 4221,
      "𞥒𞥐𞥐𞥙": 4222,
      "𞥑𞥙𞥙𞥐": 4223,
      "𞤼𞤭𞤶𞥆𞤮𞤪": 4224,
      "𞤸𞤫𞥅𞤱𞤵𞤣𞤫": 4225,
      "𞤸𞤫𞥅𞤱𞤵𞤩𞤫": 4226,
      "##ats": 4227,
      "𞤸𞤮𞥅𞤪𞤢𞥄𞤳𞤵": 4228,
      "𞤸𞤢𞤤𞤬": 4229,
      "𞤥𞤢𞤪𞤵𞤲𞤮𞥅": 4230,
      "𞤓𞤥𞥆𞤵": 4231,
      "##ist": 4232,
      "𞤴𞤢𞥄𞤶": 4233,
      "𞤺𞤫𞤲𞤣𞤭𞤴𞤢𞤲𞤳": 4234,
      "𞤥𞤮𞥅𞤩𞤼𞤮𞤲": 4235,
      "𞤱𞤮𞤨": 4236,
      "𞤴𞤫𞤪𞤵": 4237,
      "𞤼𞤵𞤬": 4238,
      "𞤼𞤵𞤺𞤢𞥄𞤤𞤫": 4239,
      "𞤼𞤵𞤺𞤢𞤤𞤢𞤤": 4240,
      "𞤈𞤫𞤬𞤼𞤭": 4241,
      "𞤶𞤢𞥄𞤤𞤭𞥅": 4242,
      "𞥐𞥐𞥐𞤊𞤘": 4243,
      "𞤸𞤵𞥅𞤱𞤼𞤮𞤪𞤺𞤮𞤤": 4244,
      "𞤧𞤢𞤬𞤪𞤮𞤪𞤣𞤫": 4245,
      "𞤸𞤢𞤦𞥆𞤭𞥅": 4246,
      "𞤱𞤫𞥅𞤼𞤵𞤣𞤫": 4247,
      "𞤲𞤺𞤫𞤲𞤣𞤭𞤴𞤢𞤲𞤳": 4248,
      "𞤫𞤱𞤲𞤮𞤪𞤯𞤫": 4249,
      "𞤼𞤮𞥅𞤤𞤲𞤭": 4250,
      "𞤸𞤫𞤦𞤭𞤤": 4251,
      "##𞤣𞤫𞥅𞤣𞤫": 4252,
      "##𞤣𞤫𞥅𞤪𞤫": 4253,
      "𞤥𞤢𞤺𞥆𞤵": 4254,
      "𞤵𞤧𞤼𞤮𞤪𞤼𞤢": 4255,
      "𞤸𞤭𞤤𞤲𞤭𞥅": 4256,
      "##𞤣𞤤𞤮𞤳": 4257,
      "𞤣𞤢𞥄𞤳𞤢𞥄𞤶𞤭": 4258,
      "𞤼𞤢𞤧𞤳": 4259,
      "𞤸𞤵𞥅𞤤𞤭𞤪𞤣𞤫": 4260,
      "𞤯𞤭𞤯𞤥𞤭𞤼𞤭": 4261,
      "𞤶𞤮𞤯𞥆𞤭𞤲": 4262,
      "𞤶𞤮𞤯𞥆𞤭𞤲𞤺𞤮𞤤": 4263,
      "𞤬𞤫𞤱𞤶𞤮𞥅𞤪𞤫": 4264,
      "𞤳𞤢𞤱𞤼𞤢𞤤": 4265,
      "𞤳𞤫𞥅𞤪𞤮𞤤": 4266,
      "𞤁𞤭𞤳𞥆𞤮": 4267,
      "𞤊𞤢𞤪𞤢𞤲𞤧𞤫𞥅𞤪𞤫": 4268,
      "𞤧𞤢𞤪𞤯𞤮𞥅𞤩𞤫": 4269,
      "𞤸𞤢𞤼𞤮𞤲𞤶𞤭𞤲𞤭": 4270,
      "𞤣𞤭𞤪𞤫": 4271,
      "𞤸𞤭𞤪𞤲𞤢𞥄𞤲𞤺𞤫": 4272,
      "𞤖𞤮𞥅𞤪𞤵𞤺𞤮𞤤": 4273,
      "𞤳𞤮𞤯𞤢𞤲𞤯𞤫": 4274,
      "𞤸𞤫𞤧𞤤𞤮𞥅𞤩𞤫": 4275,
      "𞤩𞤮𞤤𞤢𞤤": 4276,
      "𞤉𞤶𞤭𞤨𞤼𞤵": 4277,
      "𞤖𞤢𞤪𞤢𞤴": 4278,
      "𞤶𞤢𞤲𞤺𞤲𞤮𞥅𞤱𞤮": 4279,
      "𞤑𞤢𞤲𞤳𞤢𞤲": 4280,
      "𞤘𞤢𞤦𞤮𞤲": 4281,
      "𞤣𞤮𞤲𞤳𞤭𞤲": 4282,
      "𞤲𞤺𞤫𞥅𞤼𞤵": 4283,
      "𞤸𞤵𞤥𞤢𞤥𞤦𞤭𞤲𞥆𞤢𞥄𞤳𞤵": 4284,
      "𞤈𞤭𞤳𞤢": 4285,
      "𞤲𞤢𞤲𞥆𞤢𞥄𞤲𞤺𞤫": 4286,
      "𞤲𞤶𞤫𞥅𞤯𞤭𞤯𞤮": 4287,
      "𞤚𞤵𞤲𞤭𞥅𞤧𞤭𞤴𞤢": 4288,
      "𞤃𞤢𞥄𞤪𞤢": 4289,
      "𞤋𞤧𞤥𞤢𞥄𞤴𞤭𞥅𞤤𞤢": 4290,
      "𞤨𞤵𞤼𞥆𞤢𞤤": 4291,
      "##𞤾𞤫𞤪𞤨𞤵𞤤": 4292,
      "𞤌𞤧𞤼𞤢𞤪𞤢𞤤𞤭𞤴𞤢": 4293,
      "𞤊𞤓𞥅𞤚𞤀": 4294,
      "CNRD": 4295,
      "𞤀𞤼𞤤": 4296,
      "𞤐𞤺𞤫𞤧𞤮": 4297,
      "𞤐𞤄𞤀𞤂𞤁𞤉": 4298,
      "𞤑𞤀𞤃𞤉𞤈𞤓𞤐": 4299,
      "𞤐𞤀𞤔𞤉𞤈𞤋𞤒𞤀": 4300,
      "𞤑𞤀𞤐𞤀𞤁𞤀": 4301,
      "BNP": 4302,
      "𞤅𞤉𞤈𞤄𞤋𞤒𞤀": 4303,
      "𞤖𞤢𞤳𞥆𞤫𞤪𞤫𞤲": 4304,
      "𞤘𞤵𞤣𞤤𞤮𞤳": 4305,
      "𞤼𞤢𞤤𞤫𞤲𞤪𞤵": 4306,
      "##𞤦𞤭𞤲𞤢𞥄𞤶𞤮": 4307,
      "𞤊𞤵𞤤𞤬𞤵𞤤𞤣𞤫": 4308,
      "Jeu": 4309,
      "Link": 4310,
      "Ne": 4311,
      "Pin": 4312,
      "Red": 4313,
      "Tum": 4314,
      "Tele": 4315,
      "Wh": 4316,
      "إعج": 4317,
      "الم": 4318,
      "به": 4319,
      "توي": 4320,
      "تحم": 4321,
      "لم": 4322,
      "لت": 4323,
      "معج": 4324,
      "𞤁𞤓𞤃": 4325,
      "𞤃𞤢𞥄𞤥": 4326,
      "𞤃𞤢𞥄𞤴": 4327,
      "𞤃𞤋𞤅": 4328,
      "𞤃𞤉𞤅𞤋": 4329,
      "𞤄𞤉𞤂": 4330,
      "𞤅𞤀𞥄": 4331,
      "𞤅𞤵𞤳𞤢𞥄𞤩𞤫": 4332,
      "𞤅𞤀𞤏": 4333,
      "𞤅𞤵𞥅𞤥𞤢𞤴𞤫𞥅": 4334,
      "𞤅𞤢𞥄𞤳𞤵𞤼𞤵": 4335,
      "𞤆𞤮𞤼": 4336,
      "𞤆𞤢𞤧": 4337,
      "𞤈𞤫": 4338,
      "𞤈𞤀": 4339,
      "𞤈𞤮𞥅": 4340,
      "𞤈𞤀𞤒": 4341,
      "𞤊𞤮𞥅𞤤": 4342,
      "𞤌𞤅𞤚𞤀𞤈": 4343,
      "𞤏𞤢": 4344,
      "𞤐𞤢𞤦": 4345,
      "𞤐𞤀𞤐𞤁": 4346,
      "𞤐𞤉𞥅𞤐": 4347,
      "𞤑𞤢𞤲": 4348,
      "𞤑𞤵𞤴": 4349,
      "𞤑𞤢𞤲𞤢": 4350,
      "𞤑𞤋𞤘𞤀𞤂": 4351,
      "𞤒𞤢𞤤": 4352,
      "𞤒𞤢𞥄𞤳": 4353,
      "𞤒𞤭𞥅𞤤": 4354,
      "𞤔𞤢𞤲": 4355,
      "𞤔𞤫𞤥": 4356,
      "𞤕𞤫𞤤𞥆𞤢𞤤": 4357,
      "𞤖𞤢𞤱": 4358,
      "𞤖𞤢𞤥": 4359,
      "𞤖𞤢𞥄𞤤𞤭": 4360,
      "𞤖𞤌𞤂": 4361,
      "𞤖𞤢𞥄𞤧𞤭𞤥": 4362,
      "𞤚𞤵𞤥𞤦": 4363,
      "𞤚𞤓𞤐": 4364,
      "𞤝𞤀𞤃": 4365,
      "𞤟𞤀𞤃𞤄𞤋𞤒𞤀": 4366,
      "𞤣𞤫𞤱": 4367,
      "𞤣𞤫𞤱𞤢𞤤": 4368,
      "𞤣𞤢𞤯𞤭": 4369,
      "𞤥𞤭𞤲": 4370,
      "𞤥𞤮𞤼": 4371,
      "𞤦𞤫𞤯": 4372,
      "𞤦𞤭𞤴𞤮𞤤": 4373,
      "𞤨𞤫𞤲": 4374,
      "𞤩𞤢𞥄𞤱": 4375,
      "𞤪𞤭𞥅": 4376,
      "𞤪𞤮𞤼": 4377,
      "𞤫𞤳": 4378,
      "𞤫𞤼𞤢𞥄𞤪𞤫": 4379,
      "𞤬𞤵": 4380,
      "𞤬𞤢𞤺": 4381,
      "𞤬𞤢𞥄𞤲𞤣𞤢𞥄𞤪𞤫": 4382,
      "𞤭𞤧𞤤𞤢𞥄𞤥": 4383,
      "𞤱𞤮𞤪𞤩𞤫": 4384,
      "𞤲𞤢𞥄𞤱": 4385,
      "𞤲𞤢𞤲𞤭𞥅": 4386,
      "𞤳𞤫𞤤": 4387,
      "𞤳𞤫𞤲𞤫𞤲": 4388,
      "𞤴𞤵𞤩": 4389,
      "𞤴𞤢𞤪𞤳𞤮": 4390,
      "𞤵𞤶𞤵𞤲𞤫𞤪𞤫": 4391,
      "𞤶𞤫𞤱": 4392,
      "𞤶𞤢𞤳𞤢": 4393,
      "𞤷𞤢𞤤𞤯𞤭": 4394,
      "𞤸𞤫𞥅": 4395,
      "𞤸𞤢𞥄𞤤𞤭": 4396,
      "𞤸𞤢𞤲𞤳𞤮": 4397,
      "𞤸𞤫𞥅𞤯": 4398,
      "𞤺𞤮𞤲": 4399,
      "𞥔𞥐": 4400,
      "𞥖𞥕": 4401,
      "𞥖𞥒": 4402,
      "##𞤮𞤨": 4403,
      "##𞤯𞤮𞤤": 4404,
      "##𞥆𞤢𞥄𞤲𞤺𞤮": 4405,
      "##𞤭𞤩": 4406,
      "##𞤭𞤱𞤢𞤤": 4407,
      "##𞤲𞤯": 4408,
      "##𞤲𞤫𞥅𞤣𞤫": 4409,
      "##𞤤𞤮": 4410,
      "##𞤤𞤮𞤤": 4411,
      "##𞤪𞤭𞥅": 4412,
      "##𞤱𞤮𞤤": 4413,
      "##𞤣𞤮𞥅": 4414,
      "##𞤧𞤢𞤤": 4415,
      "##𞤧𞤭𞤼": 4416,
      "##𞤦𞤫𞥅": 4417,
      "##𞤦𞤮𞤤": 4418,
      "##𞤦𞤭𞥅𞤪𞤫": 4419,
      "##𞤴𞤢𞤴": 4420,
      "##𞤵𞤦𞤢𞥄": 4421,
      "##𞤼𞤮𞥅𞤪": 4422,
      "##𞤼𞤢𞥄𞤳𞤢": 4423,
      "##𞤳𞤢𞥄𞤲": 4424,
      "##𞤳𞥆𞤫𞤪𞤫": 4425,
      "##𞤉𞤊": 4426,
      "##𞤉𞤈𞤋𞤑": 4427,
      "##𞤑𞤌𞤐": 4428,
      "##dl": 4429,
      "##ut": 4430,
      "##av": 4431,
      "##la": 4432,
      "##lr": 4433,
      "##les": 4434,
      "##ram": 4435,
      "##𞤽𞤼𞤭𞤲𞤭𞥅": 4436,
      "##𞤓𞤁": 4437,
      "##𞤓𞤁𞤋": 4438,
      "##mer": 4439,
      "##ment": 4440,
      "##blr": 4441,
      "##𞤸𞤢": 4442,
      "##gram": 4443,
      "##DP": 4444,
      "##𞤻𞤢𞥄𞤪𞤫": 4445,
      "##اب": 4446,
      "##اضغط": 4447,
      "##ضو": 4448,
      "##ful": 4449,
      "##In": 4450,
      "##App": 4451,
      "##يل": 4452,
      "##وك": 4453,
      "##وضو": 4454,
      "##تر": 4455,
      "##بوك": 4456,
      "##سبوك": 4457,
      "##ذه": 4458,
      "##𞤣𞤫𞤧": 4459,
      "##𞤮𞥅𞤧": 4460,
      "##𞤢𞤤𞤫𞤧": 4461,
      "##𞤭𞥅𞤣": 4462,
      "##𞤭𞤲𞤼𞤢": 4463,
      "##𞤭𞤲𞤳𞤢": 4464,
      "𞤳𞤢اضغط": 4465,
      "𞤲𞤺𞤵𞤤": 4466,
      "𞤲𞤺𞤮𞥅𞤤": 4467,
      "𞤲𞤺𞤫𞥅𞤲": 4468,
      "𞤳𞤮𞤶𞤮𞤥𞤢𞥄𞤶𞤫": 4469,
      "𞤱𞤮𞤲𞤳𞤭𞥅": 4470,
      "𞤱𞤮𞤲𞤢𞤲𞤩𞤫": 4471,
      "##𞤮𞤪𞤭𞥅": 4472,
      "##𞤮𞤪𞤺𞤮𞤤": 4473,
      "##𞤭𞤼𞤫𞥅𞤣𞤫": 4474,
      "##𞤼𞤭𞤲𞤢𞤴": 4475,
      "##𞤭𞤴𞥆𞤵": 4476,
      "𞤼𞤢𞤱𞤢": 4477,
      "𞤼𞤢𞤱𞤢𞤲𞤮𞥅𞤩𞤫": 4478,
      "##𞤢𞥄𞤲𞤢𞥄": 4479,
      "𞤸𞤫𞤷": 4480,
      "𞤸𞤫𞤧𞤮": 4481,
      "##𞤺𞤮𞤥𞤢𞤤": 4482,
      "##𞤶𞤫𞤪𞤫": 4483,
      "𞤱𞤢𞤯𞤭𞤪𞤭": 4484,
      "𞤢𞤪𞤵𞤲𞤮𞥅": 4485,
      "##𞤢𞤩𞤵𞤪𞤵": 4486,
      "𞤸𞤢𞥄𞤪": 4487,
      "𞤸𞤢𞥄𞤩𞤭𞥅": 4488,
      "##𞤵𞤯𞤫𞤲": 4489,
      "𞤱𞤮𞥅𞤣": 4490,
      "𞤣𞤵𞥅𞤥𞤮": 4491,
      "𞤢𞤲𞤣𞤵𞤣𞤫": 4492,
      "##𞥆𞤢𞤲𞤮": 4493,
      "##𞥆𞤢𞤲𞤢": 4494,
      "𞤬𞤮𞤳𞥆": 4495,
      "𞤬𞤮𞤣𞤵𞤲𞤮𞥅": 4496,
      "##𞤫𞥅𞤣𞤫𞥅": 4497,
      "𞤤𞤢𞥄𞤼𞤢𞥄𞤣𞤫": 4498,
      "##𞤮𞥅𞤲𞤺𞤢𞤤": 4499,
      "##𞤣𞤭𞤪𞤢": 4500,
      "𞤶𞤢𞥄𞤺𞤮𞤪𞤯𞤫": 4501,
      "𞤬𞤭𞤶𞤭": 4502,
      "𞤥𞤢𞤱𞤳𞤢": 4503,
      "𞤧𞤮𞤳𞤫": 4504,
      "##𞤢𞤲𞤮𞥅𞤯𞤫": 4505,
      "##𞤵𞤲𞥋𞤺𞤵": 4506,
      "𞤣𞤢𞤪𞤼𞤭𞤲": 4507,
      "𞤣𞤢𞤪𞤮𞤼𞤮": 4508,
      "𞤣𞤢𞤪𞤼𞤢𞥄𞤣𞤫": 4509,
      "𞤣𞤢𞤪𞤮𞤼𞤮𞥅𞤯𞤮": 4510,
      "##𞤀𞤈𞤀": 4511,
      "##𞤀𞤈𞤂": 4512,
      "𞤸𞤫𞤩𞤭𞤪𞤢": 4513,
      "𞤸𞤫𞤩𞤢𞥄𞤳𞤭": 4514,
      "𞤸𞤫𞤩𞤼𞤭𞤼": 4515,
      "𞤱𞤭𞤭𞥅": 4516,
      "𞤱𞤭𞤵𞤲𞤮": 4517,
      "##𞤣𞤭𞤲𞤳𞤮𞤱𞤢𞤤": 4518,
      "##𞤀𞤐𞤁𞤉": 4519,
      "𞤼𞤭𞤥𞥆𞤢𞤤": 4520,
      "𞤲𞤢𞥄𞤣𞤢": 4521,
      "𞤲𞤢𞥄𞤣𞤵𞤺𞤮𞤤": 4522,
      "##𞤧𞤮𞤳𞤮": 4523,
      "##𞤀𞤂𞤋𞤒𞤀": 4524,
      "##𞤢𞤧𞤢𞤲": 4525,
      "𞤥𞤢𞥄𞤴𞤵𞤲𞤮": 4526,
      "𞤣𞤵𞤻": 4527,
      "𞤲𞤶𞤢𞥄": 4528,
      "𞤴𞤢𞤸𞤵𞤣𞤫": 4529,
      "𞤱𞤢𞤪𞤵𞤺𞤮𞤤": 4530,
      "𞤱𞤢𞤪𞤫𞥅𞤣𞤫": 4531,
      "𞤲𞤢𞤴𞤫𞥅𞤩𞤫": 4532,
      "𞤼𞤭𞤳𞥆𞤫𞤪𞤫": 4533,
      "𞤶𞤮𞤺𞤫": 4534,
      "𞤢𞤣𞥆𞤢": 4535,
      "𞤢𞤣𞤵𞤲𞤢": 4536,
      "𞤰𞤫𞤼𞥆𞤵𞤣𞤫": 4537,
      "𞤣𞤭𞤪𞤼𞤭𞤲𞤺𞤮𞤤": 4538,
      "𞤥𞤵𞤪𞤢𞥄𞤣𞤵": 4539,
      "𞤴𞤢𞤤𞤼𞤭𞤲𞤣𞤫": 4540,
      "𞤬𞤭𞤶𞤢𞤲𞤯𞤫": 4541,
      "𞤱𞤢𞤴𞤪": 4542,
      "##𞤮𞤼𞤭𞤪𞤢𞤤": 4543,
      "𞤐𞤦𞤢𞤼𞤭𞤪𞤣𞤵": 4544,
      "##𞤓𞥅𞤅": 4545,
      "##𞤋𞥅𞤃": 4546,
      "𞤬𞤮𞤤𞥆𞤭": 4547,
      "𞤬𞤮𞤤𞥆𞤵𞤲𞤮𞥅": 4548,
      "𞤢𞥄𞤲𞤭": 4549,
      "##𞤭𞥅𞤧𞤢": 4550,
      "##𞤭𞤲𞤮𞥅𞤯𞤮": 4551,
      "𞤸𞤢𞥄𞤤𞤵𞤣𞤫": 4552,
      "##𞥆𞤭𞤪𞤢𞥄": 4553,
      "𞤭𞤱𞤢": 4554,
      "𞤥𞤮𞤰𞥆𞤭": 4555,
      "𞤳𞤫𞤷𞥆𞤫": 4556,
      "𞤶𞤢𞤩𞥆𞤮": 4557,
      "𞤼𞤢𞤥𞤢𞤱𞤵": 4558,
      "𞤶𞤮𞥅𞤯𞤲𞤣𞤫": 4559,
      "𞤶𞤮𞥅𞤯𞤢𞤲𞤣𞤫": 4560,
      "𞤶𞤮𞥅𞤯𞤭𞤼𞤢𞤺𞤮𞤤": 4561,
      "##𞤭𞤲𞤼𞤭𞤲𞤺𞤮𞤤": 4562,
      "𞤧𞤮𞤳𞤭𞥅": 4563,
      "##𞤢𞥄𞤸𞤵": 4564,
      "𞤦𞤮𞤲𞤯𞤫": 4565,
      "##𞤧𞤭𞥅𞤪": 4566,
      "𞤤𞤵𞤥𞤦𞤵𞤣𞤫": 4567,
      "𞤬𞤢𞤱𞤭𞥅": 4568,
      "فيسبوك": 4569,
      "𞤬𞤫𞤼𞥆𞤭": 4570,
      "𞤼𞤭𞤥𞥆𞤭𞤲𞤣𞤫": 4571,
      "##𞤀𞤁𞤋": 4572,
      "##𞤉𞥅𞤈𞤋": 4573,
      "𞤱𞤵𞤤𞥆𞤭𞤼𞤭𞥅": 4574,
      "##𞤀𞤚𞤓": 4575,
      "𞤴𞤫𞥅𞤴𞤭𞤪𞤤𞤫": 4576,
      "𞤸𞤫𞤩𞤭𞤣𞤭": 4577,
      "𞤣𞤵𞤦𞤵𞥅𞤶𞤫": 4578,
      "𞤩𞤫𞤴𞤣𞤭𞤳𞤫": 4579,
      "##𞤭𞤲𞥋𞤣𞤭𞤪": 4580,
      "𞤱𞤭𞤫𞤼𞤫𞥅𞤯𞤮": 4581,
      "𞤬𞤫𞥅𞤱𞤲": 4582,
      "𞤢𞤲𞤣𞤭𞤪𞤢𞥄𞤯𞤮": 4583,
      "𞤸𞤫𞤣𞥆𞤭𞥅𞤯𞤫": 4584,
      "𞤀𞤪𞤶𞤢𞤲": 4585,
      "##𞤌𞤂𞥆𞤀": 4586,
      "𞤐𞤢𞤶𞤫𞤪𞤭𞤴𞤢𞥄": 4587,
      "𞤲𞤫𞥅𞤩𞤲": 4588,
      "𞤧𞤢𞥄𞤼𞤭𞤲𞤢𞥄": 4589,
      "##iss": 4590,
      "𞤴𞤢𞥄𞤧𞤭": 4591,
      "𞤣𞤭𞥅𞤲𞤢": 4592,
      "𞤶𞤮𞤳𞥆𞤮𞤲": 4593,
      "𞤤𞤵𞤼𞥆𞤵": 4594,
      "𞤴𞤫𞤯𞤭": 4595,
      "𞤢𞤪𞤣𞤭𞤲𞤢𞥄": 4596,
      "𞤳𞤵𞤩𞤫𞥅𞤶𞤫": 4597,
      "𞤱𞤮𞥅𞤱𞤭𞤪𞤭": 4598,
      "𞤣𞤵𞤽𞤢𞤴𞤫𞥅": 4599,
      "𞤀𞤊𞤑𞤌𞤐": 4600,
      "𞤬𞤵𞤯𞥆𞤮𞤪𞤭": 4601,
      "𞤴𞤢𞤲𞤵𞤺𞤮𞤤": 4602,
      "𞤲𞤮𞤣𞥆𞤭": 4603,
      "𞤀𞤥𞥆𞤢𞥄": 4604,
      "𞤪𞤮𞤲𞤳𞤭": 4605,
      "𞤼𞤢𞤰𞤵𞤺𞤮𞤤": 4606,
      "𞤅𞤮𞤲𞥆𞤢": 4607,
      "𞤱𞤢𞤳𞥆𞤭𞤤𞤭𞥅": 4608,
      "𞤸𞤮𞤥𞤦𞤢𞤼𞤢": 4609,
      "𞤧𞤫𞤪𞤢𞥄𞤪𞤭": 4610,
      "##entation": 4611,
      "𞤺𞤢𞤴𞤲𞤭𞥅": 4612,
      "𞤧𞤢𞤬𞤪𞤮𞤪𞤣𞤵": 4613,
      "𞤼𞤵𞥅𞤥𞤭": 4614,
      "𞤧𞤢𞤳𞤢": 4615,
      "𞤸𞤵𞤤𞤭": 4616,
      "𞤸𞤵𞤤𞤩": 4617,
      "𞤽𞤢𞤤𞤯": 4618,
      "𞤼𞤢𞤥𞤰𞤭𞤲𞤢𞥄": 4619,
      "##terest": 4620,
      "𞤱𞤫𞥅𞤩𞤭𞤼": 4621,
      "𞤱𞤵𞤤𞥆𞤭𞤼𞤢𞤺𞤮𞤤": 4622,
      "𞤬𞤢𞤲𞤼𞤭𞤲": 4623,
      "##edIn": 4624,
      "𞤤𞤢𞤥𞤭𞤼": 4625,
      "𞤱𞤫𞤪𞤤𞤢𞤤": 4626,
      "𞤦𞤢𞤪𞤥𞤭": 4627,
      "𞤖𞤭𞤩𞤫": 4628,
      "𞤖𞤭𞤳𞥆𞤢": 4629,
      "𞤄𞤢𞤪𞤳𞤢𞥄𞤲": 4630,
      "𞤸𞤫𞤩𞥆𞤭𞤼𞤢𞤺𞤮𞤤": 4631,
      "##ide": 4632,
      "𞤃𞤢𞤴𞤳": 4633,
      "𞤸𞤢𞤤𞤬𞤭𞤲𞤢𞥄𞤯𞤮": 4634,
      "𞤀𞤃𞤀𞤈𞤀": 4635,
      "𞤴𞤫𞤤𞤭𞥅": 4636,
      "𞤀𞤤𞤥𞤢𞥄𞤥𞤭": 4637,
      "𞤥𞤵𞤧𞤭𞤣": 4638,
      "𞤤𞤵𞤪𞥆𞤢𞤤": 4639,
      "𞤥𞤢𞥄𞤲𞤣𞤫𞥅𞤶𞤭": 4640,
      "##𞤄𞤓𞤒𞤀": 4641,
      "𞤅𞤫𞤲𞤭𞥅𞤯𞤮": 4642,
      "𞤔𞤮𞤺𞤮𞤥𞤢𞤤": 4643,
      "𞤻𞤫𞤥𞤼𞤭𞤲𞤢": 4644,
      "𞤬𞤫𞤼𞤤𞤫𞥅𞤣𞤫": 4645,
      "𞤧𞤢𞤳𞥆𞤭𞤼𞤮𞤪𞤭": 4646,
      "𞤱𞤫𞤲𞤺": 4647,
      "𞤶𞤵𞤳𞥆𞤫": 4648,
      "𞤶𞤵𞤳𞥆𞤫𞤪𞤫": 4649,
      "##𞤉𞥅𞤐𞤋𞥅": 4650,
      "𞤬𞤢𞤪𞤢𞤲𞤧𞤫𞥅𞤪𞤫": 4651,
      "Paris": 4652,
      "𞤂𞤭𞤦𞤭𞤴𞤢": 4653,
      "𞤃𞤵𞤪𞤢": 4654,
      "𞤑𞤵𞤲𞤧𞤭𞤼": 4655,
      "##𞤢𞤲𞤣𞤮𞤳": 4656,
      "𞤼𞤭𞤺𞥆𞤭": 4657,
      "𞤀𞥄𞤪𞤢𞤦𞤵": 4658,
      "𞤼𞤢𞤥𞤰𞤭𞤲𞤢𞥄𞤪𞤫": 4659,
      "𞤅𞤭𞤣𞤭𞤴𞤢": 4660,
      "##𞤋𞥅𞤅𞤀": 4661,
      "𞤐𞤢𞤶𞤫𞥅𞤪𞤭𞤴𞤢": 4662,
      "𞤄𞤫𞤤𞤧𞤭𞤳": 4663,
      "𞤚𞤢𞤥𞤧𞤭𞥅𞤪": 4664,
      "𞤯𞤵𞤯𞥆𞤭𞤲": 4665,
      "𞤷𞤫𞥅𞤥": 4666,
      "𞤧𞤢𞤪𞤭𞤴𞤢𞥄𞤶𞤭": 4667,
      "𞤬𞤮𞤤𞥆𞤢𞥄𞤯𞤮": 4668,
      "𞤃𞤢𞤲𞤳𞤭𞤪𞤺𞤢𞤤": 4669,
      "𞤅𞤭𞥅𞤧𞤮𞤳𞤮": 4670,
      "𞤑𞤢𞤦𞤮𞥅𞤪𞤫": 4671,
      "𞤕𞤫𞤪𞤲𞤮": 4672,
      "##𞤢𞤲𞤫𞥅𞤪𞤵": 4673,
      "𞤤𞤫𞤱𞤻𞤵": 4674,
      "𞤅𞤢𞥄𞤸𞤢𞤤": 4675,
      "𞤑𞤭𞤲𞤣𞤭": 4676,
      "𞤣𞤭𞤥𞤯𞤫": 4677,
      "𞤲𞤺𞤫𞤴𞤺𞤵": 4678,
      "𞤀𞤤𞤤𞤢𞥄𞤸𞤵": 4679,
      "𞤻𞤢𞤱𞤲𞤣𞤭𞤪": 4680,
      "𞤲𞤣𞤭𞤥𞤢𞥄𞤺𞤵": 4681,
      "𞤦𞤮𞤯𞤫𞤱𞤢𞤤": 4682,
      "𞤗𞤵𞤪𞥇𞤢𞥄𞤲𞤢": 4683,
      "𞤔𞤵𞤲𞥆𞤭𞤼𞤢𞤤": 4684,
      "𞤧𞤭𞤥𞥆𞤫": 4685,
      "𞤧𞤮𞥅𞤪𞤭𞥅𞤶𞤮": 4686,
      "##𞥆𞤵𞤪𞤵𞥅𞤶𞤭": 4687,
      "𞤧𞤫𞤲𞤰𞤭𞤪": 4688,
      "𞤝𞤢𞤣𞤭𞥅𞤶𞤢": 4689,
      "𞤂𞤭𞤾𞤫𞤪𞤨𞤵𞤤": 4690,
      "𞤄𞤢𞥁𞤵𞤥": 4691,
      "𞤅𞤵𞥅𞤪𞤭𞤴𞤢": 4692,
      "𞤋𞤼𞤢𞤤𞤭𞥅": 4693,
      "𞤢𞤣𞤭𞤪𞤺𞤢𞤤": 4694,
      "##atsApp": 4695,
      "Jeune": 4696,
      "LinkedIn": 4697,
      "Pinterest": 4698,
      "Reddit": 4699,
      "Tumblr": 4700,
      "Telegram": 4701,
      "WhatsApp": 4702,
      "إعجاب": 4703,
      "الموضو": 4704,
      "بهذه": 4705,
      "تويتر": 4706,
      "تحميل": 4707,
      "لمشاركة": 4708,
      "لتشارك": 4709,
      "معجب": 4710,
      "𞤁𞤓𞤃𞤄𞤓𞤒𞤀": 4711,
      "𞤃𞤋𞤅𞤈𞤀": 4712,
      "𞤅𞤀𞤏𞤓𞤁𞤋": 4713,
      "𞤐𞤀𞤐𞤁𞤌𞤂𞥆𞤀": 4714,
      "𞤐𞤉𞥅𞤐𞤉": 4715,
      "𞤑𞤵𞤴𞤢𞥄𞤼𞤫": 4716,
      "𞤑𞤋𞤘𞤀𞤂𞤋": 4717,
      "𞤖𞤢𞥄𞤧𞤭𞤥𞤭𞤴𞥆𞤵": 4718,
      "𞤚𞤓𞤐𞤋𞥅𞤅𞤀": 4719,
      "𞤝𞤀𞤃𞤉𞥅𞤐𞤋𞥅": 4720,
      "𞤪𞤭𞥅𞤱": 4721,
      "𞤶𞤫𞤱𞤼𞤫": 4722,
      "𞤲𞤺𞤫𞥅𞤲𞤢𞥄𞤪𞤭": 4723,
      "𞤑𞤵𞤲𞤧𞤭𞤼𞤫𞤤": 4724,
      "الموضوع": 4725,
      "Tw": 4726,
      "is": 4727,
      "les": 4728,
      "me": 4729,
      "ré": 4730,
      "writ": 4731,
      "𞤀𞤒": 4732,
      "𞤁𞤢𞤲": 4733,
      "𞤁𞤢𞤳": 4734,
      "𞤁𞤀𞤐": 4735,
      "𞤁𞤫𞤪𞤫": 4736,
      "𞤃𞤀𞤃𞥆": 4737,
      "𞤄𞤢𞤲": 4738,
      "𞤄𞤫𞥅": 4739,
      "𞤄𞤢𞤲𞤺": 4740,
      "𞤅𞤢𞤱": 4741,
      "𞤅𞤌𞤐": 4742,
      "𞤆𞤢𞤤𞤫𞤧": 4743,
      "𞤈𞤢𞤲𞤫𞥅𞤪𞤵": 4744,
      "𞤉𞤷": 4745,
      "𞤉𞤦𞤮𞤤": 4746,
      "𞤋𞤈": 4747,
      "𞤌𞤦": 4748,
      "𞤏𞤭𞤲𞤣𞤫": 4749,
      "𞤐𞤣": 4750,
      "𞤐𞤀𞥄": 4751,
      "𞤐𞤭𞤨": 4752,
      "𞤐𞤭𞤶": 4753,
      "𞤑𞤢𞤤𞤭": 4754,
      "𞤑𞤀𞤈": 4755,
      "𞤑𞤭𞤨": 4756,
      "𞤔𞤢𞤱": 4757,
      "𞤕𞤮𞤺": 4758,
      "𞤕𞤀𞤁": 4759,
      "𞤖𞤭𞤲": 4760,
      "𞤖𞤫𞥅𞤱": 4761,
      "𞤖𞤢𞤶": 4762,
      "𞤘𞤭𞤴": 4763,
      "𞤙𞤀𞤃": 4764,
      "𞤚𞤭𞤲": 4765,
      "𞤚𞤢𞤱": 4766,
      "𞤟𞤢𞤲": 4767,
      "𞤣𞤵𞤪": 4768,
      "𞤣𞤭𞤤": 4769,
      "𞤣𞤢𞥄𞤳𞤢": 4770,
      "𞤤𞤮𞤪": 4771,
      "𞤤𞤵𞥅𞤥": 4772,
      "𞤤𞤭𞤻": 4773,
      "𞤥𞤢𞥄𞤥": 4774,
      "𞤧𞤵𞤲": 4775,
      "𞤧𞤵𞤪": 4776,
      "𞤧𞤮𞤱": 4777,
      "𞤧𞤵𞥅𞤧": 4778,
      "𞤨𞤫𞤪": 4779,
      "𞤨𞤭𞤲𞤢𞤤": 4780,
      "𞤪𞤵": 4781,
      "𞤬𞤮𞤲": 4782,
      "𞤬𞤢𞤩": 4783,
      "𞤬𞤢𞤸𞤥": 4784,
      "𞤮𞤥𞤦": 4785,
      "𞤯𞤢𞤲": 4786,
      "𞤯𞤢𞤥": 4787,
      "𞤯𞤭𞤴𞤢": 4788,
      "𞤱𞤵𞥅": 4789,
      "𞤱𞤢𞥄𞤤𞤭𞥅": 4790,
      "𞤳𞤵𞤪": 4791,
      "𞤳𞤢𞥄𞤳𞤭": 4792,
      "𞤳𞤵𞤧": 4793,
      "𞤴𞤵": 4794,
      "𞤴𞤮𞥅": 4795,
      "𞤴𞤮𞤼": 4796,
      "𞤴𞤫𞤪": 4797,
      "𞤵𞤴": 4798,
      "𞤶𞤢𞤱𞤮": 4799,
      "𞤸𞤢𞤥": 4800,
      "𞤸𞤢𞥄𞤱": 4801,
      "𞤺𞤵𞤴": 4802,
      "𞤻𞤭𞤨": 4803,
      "𞤼𞤢𞤤": 4804,
      "𞤼𞤢𞤺": 4805,
      "𞤼𞤢𞥄𞤩": 4806,
      "𞥓𞥐𞥐": 4807,
      "𞥔𞥒": 4808,
      "##𞥆𞤓": 4809,
      "##𞥆𞤮𞤲": 4810,
      "##𞥆𞤮𞥅𞤱𞤮": 4811,
      "##𞥆𞤢𞥄𞤳𞤢": 4812,
      "##𞥆𞤢𞤴𞤲𞤮": 4813,
      "##𞥆𞤀𞥄𞤖": 4814,
      "##𞥆𞤵𞥅𞤤𞤭": 4815,
      "##𞤲𞤢𞥄𞤺": 4816,
      "##𞤲𞤢𞥄𞤳𞤵": 4817,
      "##𞤺𞤢𞥄𞤲": 4818,
      "##𞤺𞤭𞤪𞤭": 4819,
      "##𞤤𞤭𞤲": 4820,
      "##𞤤𞤢𞤲𞤣𞤫": 4821,
      "##𞤤𞤮𞤴": 4822,
      "##𞤪𞤧": 4823,
      "##𞤢𞤩𞤫": 4824,
      "##𞤢𞤣𞤵": 4825,
      "##𞤫𞤤𞤫": 4826,
      "##𞤧𞤢𞤴": 4827,
      "##𞤥𞤭": 4828,
      "##𞤦𞤭𞤲": 4829,
      "##𞤴𞤭𞥅": 4830,
      "##𞤼𞤵𞤲𞤣𞤫": 4831,
      "##𞤈𞤌": 4832,
      "##𞤈𞤑": 4833,
      "##𞤳𞤢𞤲": 4834,
      "##𞤊𞤀": 4835,
      "##𞤨𞤭": 4836,
      "##𞤨𞤮𞤤": 4837,
      "##𞤨𞥆𞤭𞤼": 4838,
      "##𞤨𞥆𞤭𞤼𞤭𞥅": 4839,
      "##𞤰𞤮": 4840,
      "##𞤬𞤭𞥅": 4841,
      "##𞤅𞤀𞤐": 4842,
      "##𞤑𞤮": 4843,
      "##cc": 4844,
      "##ca": 4845,
      "##oci": 4846,
      "##pt": 4847,
      "##bas": 4848,
      "##𞤟𞤀𞤃𞤄𞤋𞤑": 4849,
      "##𞤹𞥆𞤫𞥅𞤶𞤭": 4850,
      "##𝗱𝗲": 4851,
      "##𞤢𞥄𞤶": 4852,
      "##𞤢𞥄𞤬": 4853,
      "##𞤮𞥅𞤤𞤫": 4854,
      "##𞤮𞥅𞤥𞤢": 4855,
      "##𞤢𞤲𞥆𞤮": 4856,
      "##𞤭𞥅𞥃𞤢": 4857,
      "##𞤭𞥅𞤺𞤭𞥅": 4858,
      "##𞤮𞤲𞤣𞤭": 4859,
      "##𞤮𞤲𞤫𞤤": 4860,
      "##𞤭𞤲𞤳𞤭𞤲": 4861,
      "##𞤵𞤲𞤼": 4862,
      "𞤳𞤢𞤽𞥆𞤫": 4863,
      "##𞤢𞤪𞤢𞥄": 4864,
      "##𞤢𞤪𞤭𞥅𞤩𞤫": 4865,
      "##𞤵𞥅𞤲": 4866,
      "##𞤭𞤪𞤲𞤣𞤫": 4867,
      "##𞤭𞤪𞤫𞥅𞤣𞤫": 4868,
      "##𞤭𞤪𞤲𞤮𞥅": 4869,
      "𞤱𞤮𞤲𞤯𞤫": 4870,
      "𞤱𞤮𞤲𞤵𞤣𞤫": 4871,
      "𞤱𞤮𞤲𞤢𞤲𞤭": 4872,
      "𞤱𞤮𞤲𞤢𞥄𞤲𞤮": 4873,
      "##𞤮𞤪𞤢𞥄": 4874,
      "##𞤮𞤪𞤮𞥅": 4875,
      "##𞤳𞥆𞤵𞤲": 4876,
      "𞤑𞤮𞤥𞤨": 4877,
      "##𞤮𞤼𞤮𞤲𞤮": 4878,
      "##𞤢𞥄𞤤𞤢": 4879,
      "##𞥆𞤵𞤼𞤵𞤣𞤫": 4880,
      "##𞤼𞤭𞤲𞤮𞥅𞤩𞤫": 4881,
      "##𞤼𞤭𞤲𞤫𞥅𞤣𞤫": 4882,
      "𞤼𞤢𞤱𞤲": 4883,
      "𞤼𞤢𞤱𞤵": 4884,
      "𞤼𞤢𞤱𞤫𞥅": 4885,
      "𞤸𞤫𞤯": 4886,
      "𞤤𞤢𞥄𞤥𞤵𞥅𞤶𞤭": 4887,
      "##𞥆𞤭𞤲𞤭𞥅": 4888,
      "##𞥆𞤭𞤲𞤢𞥄𞤥𞤢": 4889,
      "##𞤢𞤲𞤳𞤮𞥅𞤶𞤫": 4890,
      "##𞤢𞤲𞤳𞤮𞤱𞤢𞤤": 4891,
      "##𞤼𞤫𞤼𞤫": 4892,
      "##𞤤𞤫𞤧": 4893,
      "𞤱𞤢𞤯𞥆𞤭𞥅": 4894,
      "𞤱𞤢𞤯𞤢𞤼𞤢𞥄": 4895,
      "𞤱𞤢𞤯𞥆𞤭𞤲𞤭": 4896,
      "𞤱𞤢𞤯𞥆𞤭𞤲𞤢𞥄": 4897,
      "𞤢𞤪𞤭𞥅": 4898,
      "𞤢𞤪𞤮𞥅𞤪𞤫": 4899,
      "##𞤮𞤱𞤮": 4900,
      "##𞤫𞤱𞤮𞤤": 4901,
      "##𞤢𞤸𞤫𞥅𞤪𞤭": 4902,
      "𞤸𞤮𞤯𞤭": 4903,
      "𞤧𞤭𞤱": 4904,
      "##𞤮𞥅𞤤𞤭": 4905,
      "𞤱𞤮𞥅𞤲𞤣𞤭": 4906,
      "𞥒𞥐𞥒𞥕": 4907,
      "##𞤼𞤭𞥅𞤲": 4908,
      "##𞤢𞤤𞤭𞤦𞤢": 4909,
      "##𞤢𞤯𞤢": 4910,
      "𞤀𞤤𞤬𞤢": 4911,
      "𞤳𞤵𞥅𞤱": 4912,
      "𞤬𞤭𞤯𞤭": 4913,
      "𞤥𞤢𞤱𞤲": 4914,
      "𞤣𞤫𞤥𞤢𞤤": 4915,
      "##𞤵𞤲𞥋𞤣𞤭": 4916,
      "𞤣𞤢𞤪𞤮𞤪𞤢": 4917,
      "𞤬𞤫𞤰𞥆𞤵𞤯𞤫": 4918,
      "𞤯𞤫𞤫": 4919,
      "##𞤢𞤳𞥆𞤫𞤪𞤫": 4920,
      "𞤸𞤫𞤩𞤢": 4921,
      "𞤸𞤫𞤩𞤵𞤲𞤮𞥅": 4922,
      "##𞤣𞤭𞤲𞤺𞤮𞤤": 4923,
      "𞤥𞤵𞤼𞤭": 4924,
      "𞤬𞤮𞥅𞤤𞤭𞥅": 4925,
      "𞤬𞤮𞥅𞤤𞤵𞤣𞤫": 4926,
      "𞤬𞤮𞥅𞤤𞤢𞥄𞤤𞤭": 4927,
      "𞤲𞤢𞥄𞤣𞤢𞥄": 4928,
      "𞤲𞤢𞥄𞤼𞤵𞤣𞤫": 4929,
      "𞤩𞤫𞤴𞤣𞤵𞤺𞤮𞤤": 4930,
      "𞤱𞤢𞥄𞤱𞤭𞥅": 4931,
      "𞥒𞥐𞥑𞥒": 4932,
      "𞤤𞤢𞤲𞤣𞤢𞤤": 4933,
      "𞤴𞤢𞤸𞤢": 4934,
      "𞤱𞤢𞤪𞤵𞤣𞤫": 4935,
      "𞤲𞤦𞤢𞤲": 4936,
      "𞤢𞤤𞤳": 4937,
      "𞤶𞤫𞤴𞤢𞥄𞤩𞤫": 4938,
      "𞤅𞤭𞤺𞤭𞤪𞤭": 4939,
      "𞤭𞤼𞥆𞤭𞤲": 4940,
      "𞤥𞤵𞤪𞤼𞤮": 4941,
      "𞤲𞤣𞤭𞤴𞤢𞤥": 4942,
      "##𞤮𞤲𞥋𞤣𞤭𞤪𞤲𞤮𞥅": 4943,
      "𞤴𞤢𞤤𞤼𞤭𞤲𞤭𞥅": 4944,
      "𞤬𞤭𞤶𞤵𞤣𞤫": 4945,
      "𞤬𞤭𞤶𞤢𞤼𞤢": 4946,
      "𞤀𞥄𞤥": 4947,
      "𞤲𞤢𞤲𞤺𞤭𞥅": 4948,
      "𞤴𞤫𞤱𞤼𞤵": 4949,
      "𞤴𞤫𞤱𞤼𞤵𞤺𞤮𞤤": 4950,
      "𞤩𞤵𞤪𞤢𞥄": 4951,
      "𞤭𞤥𞥆𞤮": 4952,
      "𞤻𞤢𞥄𞤱𞤮𞥅𞤩𞤫": 4953,
      "𞤻𞤢𞥄𞤱𞤭𞤲𞥋𞤣𞤮𞤼𞤮𞥅𞤯𞤮": 4954,
      "𞤱𞤭𞤲𞤣𞤵𞤺𞤮𞤤": 4955,
      "𞤻𞤢𞥄𞤥𞤵": 4956,
      "𞤸𞤢𞤨𞥆𞤢𞥄": 4957,
      "𞤢𞤷𞥆𞤭": 4958,
      "𞤢𞤷𞥆𞤭𞤪": 4959,
      "𞤬𞤮𞤼𞥆𞤢𞤼𞤢": 4960,
      "##𞥆𞤭𞤪𞤼𞤢": 4961,
      "𞤤𞤢𞤼𞤫𞤲": 4962,
      "𞤭𞤱𞤵": 4963,
      "𞤭𞤱𞤪𞤭": 4964,
      "𞤥𞤮𞤰𞥆𞤫": 4965,
      "𞤶𞤢𞤩𞤢𞥄𞤲𞤮": 4966,
      "##𞤫𞥅𞤪𞤭𞤴𞤢𞥄": 4967,
      "𞤶𞤮𞥅𞤯𞤭𞥅": 4968,
      "𞤶𞤮𞥅𞤯𞤭𞥅𞤩𞤫": 4969,
      "##𞤵𞤩𞥆𞤵𞤤𞤭": 4970,
      "𞤶𞤭𞤩": 4971,
      "𞤶𞤭𞤩𞤭": 4972,
      "𞤶𞤭𞤱𞤵𞤲": 4973,
      "𞤬𞤫𞤤𞥆𞤭𞤲": 4974,
      "𞤬𞤫𞤤𞥆𞤮": 4975,
      "𞤪𞤵𞤼𞥆𞤮": 4976,
      "𞤦𞤮𞤲𞤣𞤫": 4977,
      "𞤤𞤵𞤥𞤦𞤭": 4978,
      "𞤸𞤵𞤥𞤢𞥄𞤳𞤭": 4979,
      "𞤸𞤫𞤱𞤼": 4980,
      "𞤴𞤭𞤭": 4981,
      "𞤱𞤫𞤤𞤼𞤮𞤪": 4982,
      "𞤱𞤫𞤤𞤼𞤮𞤪𞤭": 4983,
      "𞤲𞤫𞤱𞤭𞤲𞤢𞤲": 4984,
      "##𞤭𞤲𞤮𞤳𞤫": 4985,
      "𞤲𞤢𞤩𞤢": 4986,
      "𞥒𞥐𞥐𞥑": 4987,
      "𞥑𞥙𞥙𞥓": 4988,
      "𞤀𞤸𞤥𞤫": 4989,
      "##𞤴𞤢𞤲𞤳𞤫𞥅𞤶𞤫": 4990,
      "𞤼𞤢𞤦𞤭𞤲𞤼𞤭𞤲𞤣𞤫": 4991,
      "𞤭𞤲𞥆𞤫𞤼𞤫𞥅𞤲𞤺𞤢𞤤": 4992,
      "𞤴𞤫𞥅𞤴𞤭𞤪𞤣𞤫": 4993,
      "𞤵𞤣𞥆𞤭𞤼𞤢𞤲𞤭": 4994,
      "𞤴𞤢𞤤𞤼𞤵𞤩𞤫": 4995,
      "𞤪𞤫𞤲𞤼𞤢𞤺𞤮𞤤": 4996,
      "𞤄𞤭𞤧𞤭𞥅𞤺𞤭𞥅": 4997,
      "𞤸𞤫𞥅𞤱𞤵𞤯𞤫": 4998,
      "𞤬𞤫𞤰𞥆𞤭𞤪𞤢": 4999,
      "𞤲𞤮𞤳𞥆𞤵𞥅𞤶𞤫": 5000,
      "𞤼𞤫𞤣𞥆𞤭𞤲": 5001,
      "𞤶𞤵𞥅𞤤𞤣𞤫𞥅𞤪𞤫": 5002,
      "##𞤭𞤲𞥋𞤣𞤭𞤪𞤭": 5003,
      "𞤤𞤭𞤣𞥆𞤭𞥅": 5004,
      "𞤭𞤥𞥆𞤢𞥄𞤣𞤫": 5005,
      "𞤭𞤥𞥆𞤮𞤪𞤭": 5006,
      "𞤏𞤮𞤲𞤭": 5007,
      "𞤉𞤪𞤮𞤨𞤲𞤢𞥄𞤩𞤫": 5008,
      "𞤺𞤮𞤥𞤯𞤭𞤲": 5009,
      "##𞤌𞤂𞤀": 5010,
      "𞤸𞤢𞤯𞤢𞥄𞤲𞤮": 5011,
      "𞤢𞤲𞤣𞤵𞤲𞤮𞥅": 5012,
      "𞤐𞤄𞤮𞥅𞤴𞤮": 5013,
      "𞤤𞤭𞤥𞤼𞤮𞤤": 5014,
      "##itter": 5015,
      "##𞤭𞤤𞤭𞤴𞤮𞤲": 5016,
      "𞤯𞤢𞤩𞥆𞤵𞤣𞤫": 5017,
      "𞤁𞤮𞤧𞤼𞤫𞤪𞤫𞤴𞤢𞤲𞤳𞤮𞥅𞤪𞤵": 5018,
      "𞤅𞤢𞤪𞤴": 5019,
      "𞤱𞤮𞥅𞤱𞤵𞤲𞤮𞥅": 5020,
      "𞤣𞤵𞤽𞤭𞤲𞤢𞤲": 5021,
      "##𞤅𞤚𞤀": 5022,
      "𞤧𞤫𞤨𞥆𞤵𞤪𞤵": 5023,
      "𞤧𞤫𞤨𞥆𞤵𞤪𞤵𞥅𞤶𞤭": 5024,
      "##𞤵𞤦𞤵": 5025,
      "𞤦𞤢𞤤𞥆𞤢𞤤": 5026,
      "𞤃𞤌𞤟𞤀𞤃𞤄𞤋𞤑": 5027,
      "𞤸𞤫𞤪𞤧": 5028,
      "𞤸𞤫𞤪𞤧𞤢": 5029,
      "𞤧𞤢𞤪𞤴𞤭𞤲𞤮𞥅𞤪𞤵": 5030,
      "𞤥𞤮𞤲𞤫𞥅": 5031,
      "𞤧𞤢𞤬𞤪𞤮𞥅𞤩𞤫": 5032,
      "𞤱𞤭𞤴𞤫𞤼𞤫𞥅𞤲𞤣𞤫": 5033,
      "𞤲𞤫𞤱𞤲𞤢𞤲": 5034,
      "𞤙𞤢𞥄𞤱𞤮𞥅𞤪𞤫": 5035,
      "𞤦𞤮𞥅𞤦𞤮": 5036,
      "𞤬𞤢𞤲𞤼𞤭𞤲𞤺𞤮𞤤": 5037,
      "𞤄𞤫𞤲𞤺𞤢𞤤": 5038,
      "𞤲𞤺𞤵𞥅𞤪𞤣𞤢𞤥": 5039,
      "##𞤋𞤂𞤋": 5040,
      "𞤉𞤪𞤣𞤮𞤺𞤢𞥄𞤲": 5041,
      "𞤚𞤵𞥅𞤪𞤫𞥅": 5042,
      "𞤣𞤢𞥄𞤳𞤮𞤪𞤣𞤫": 5043,
      "𞤤𞤮𞤤𞥆𞤵𞤣𞤫": 5044,
      "𞤼𞤢𞤱𞤫𞤼𞤫": 5045,
      "𞤼𞤢𞤼𞤢𞤩𞤵": 5046,
      "##𞤀𞤐𞤁𞤀": 5047,
      "𞤀𞤄𞤓𞥅𞤄𞤀𞤑𞤀𞤈": 5048,
      "𞤔𞤮𞤲𞤢𞤼𞤢𞤲": 5049,
      "𞤑𞤮𞤼𞤣𞤭𞤱𞤢𞥄𞤪": 5050,
      "𞤀𞤃𞤉𞤈𞤋𞤑": 5051,
      "𞤃𞤢𞤤𞤢𞤱𞤭𞥅": 5052,
      "𞤄𞤀𞤈𞤋": 5053,
      "𞤣𞤢𞤪𞤢𞤲𞤭𞥅": 5054,
      "##𞤼𞤮𞤼𞤢𞤲𞤮𞥅𞤳𞤮": 5055,
      "𞤥𞤢𞤶𞥆𞤫": 5056,
      "𞤱𞤮𞤯𞥆𞤭𞤼": 5057,
      "𞤴𞤢𞥄𞤳𞤮𞤪𞤢𞥄𞤯𞤮": 5058,
      "𞤃𞤢𞤸𞤢𞤥": 5059,
      "𞤄𞤫𞤣𞤭𞤴𞤫": 5060,
      "𞤧𞤮𞤺𞤭𞤼𞤭𞥅": 5061,
      "##𞤋𞤒𞤀𞤐": 5062,
      "𞤻𞤢𞤱𞤲𞤣𞤮𞥅𞤩𞤫": 5063,
      "𞤧𞤢𞤪𞤯𞤮𞤤": 5064,
      "𞤃𞤓𞤖𞤀𞤃𞥆𞤀𞤁𞤓": 5065,
      "𞤃𞤵𞥅𞤧𞤢": 5066,
      "𞤩𞤢𞤲𞤼𞤢𞤤": 5067,
      "𞤪𞤮𞤳𞥆": 5068,
      "𞤱𞤫𞥅𞤪𞤣𞤫": 5069,
      "𞤴𞤮𞤩𞤵𞤺𞤮𞤤": 5070,
      "𞤧𞤫𞤥𞤦𞤭𞤲𞤢𞤴": 5071,
      "𞤴𞤵𞤪𞤥𞤫𞥅𞤲𞤣𞤫": 5072,
      "𞤥𞤫𞤸𞤪𞤫": 5073,
      "𞤅𞤵𞤱𞤭𞤧": 5074,
      "Paribas": 5075,
      "𞤆𞤮𞤪𞤼𞤭": 5076,
      "𞤼𞤢𞥄𞤪𞤭𞥅𞤳𞤢": 5077,
      "𞤢𞤪𞤼𞤭𞤪𞤺𞤮𞤤": 5078,
      "𞤀𞤤𞤶𞤢𞤪𞤭𞥅": 5079,
      "##𞤀𞤐𞤑𞤌𞥅": 5080,
      "𞤸𞤭𞤳𞥆𞤮𞤪𞤲𞤺𞤮": 5081,
      "𞤧𞤢𞤳𞥆𞤭𞤼𞤮𞤪𞤵𞤲": 5082,
      "𞤼𞤵𞥅𞤺𞤮𞤪𞤣𞤫": 5083,
      "𞤊𞤫𞤤𞤲𞤺𞤮": 5084,
      "𞤹𞤭𞤪𞥆𞤭𞤼": 5085,
      "𞤺𞤵𞤲𞤣𞤮𞥅𞤶𞤭": 5086,
      "𞤥𞤮𞤩𞤼𞤮𞤲": 5087,
      "𞤸𞤮𞤴𞤯𞤢": 5088,
      "𞤥𞤢𞥄𞤨𞤭𞤲𞤭": 5089,
      "𞤳𞤵𞥅𞤩𞤢𞤤𞤶𞤮": 5090,
      "𞤀𞤄𞤁𞤓𞤂𞥆𞤀𞥄𞤖": 5091,
      "𞤳𞤵𞤤𞤮𞤤": 5092,
      "𞤋𞤧𞤪𞤢𞥄𞤴𞤭𞥅𞤤𞤢": 5093,
      "𞤄𞤈𞤀𞤅𞤋𞤂": 5094,
      "𞤸𞤮𞤶𞤮𞤥𞤫𞤪𞤫": 5095,
      "𞤼𞤮𞥅𞤻𞤫": 5096,
      "France": 5097,
      "𞤔𞤫𞤪𞤥𞤢𞤲𞤭𞥅": 5098,
      "𞤪𞤢𞤲𞤫𞥅𞤩𞤫": 5099,
      "𞤳𞤮𞤪𞤮𞥅𞤲𞤢": 5100,
      "𞤸𞤢𞤤𞤮𞤪𞤢𞤤𞤶𞤫": 5101,
      "𞤶𞤢𞤲𞤺𞤢𞤲𞤢𞥄𞤳𞤵𞥅𞤩𞤫": 5102,
      "𞤆𞤫𞤲𞤧𞤭𞤤": 5103,
      "𞤊𞤫𞤣𞥆𞤫": 5104,
      "𞤥𞤵𞥅𞤥𞤩𞤫": 5105,
      "𞤴𞤮𞤤𞤲𞤣𞤫": 5106,
      "𞤀𞤬𞤪𞤭𞤳𞤲𞤢𞥄𞤱𞤢𞤤": 5107,
      "𞤧𞤢𞥄𞤴𞤲𞤺𞤮": 5108,
      "𞤼𞤵𞤬𞤵𞤲𞤣𞤫": 5109,
      "𞤨𞤵𞤼𞥆𞤢𞤤𞤭𞥅𞤪𞤵": 5110,
      "𞤆𞤮𞤼𞥆𞤵𞤯𞤭": 5111,
      "𞤈𞤮𞥅𞤧𞤭𞤴𞤢": 5112,
      "𞤌𞤅𞤚𞤀𞤈𞤀𞤂𞤋𞤒𞤀": 5113,
      "𞤫𞤳𞤲𞤯": 5114,
      "##fulde": 5115,
      "𞤀𞤪𞤶𞤢𞤲𞤼𞤭𞤲𞤢": 5116,
      "##𞤢𞤲𞤣𞤮𞤳𞤢𞥄𞤩𞤫": 5117,
      "Twitter": 5118,
      "𞤁𞤫𞤪𞤫𞤳": 5119,
      "𞤅𞤌𞤐𞤑𞤌": 5120,
      "𞤆𞤢𞤤𞤫𞤧𞤼𞤭𞥅𞤲": 5121,
      "𞤉𞤷𞤮𞤨": 5122,
      "𞤉𞤦𞤮𞤤𞤢𞥄": 5123,
      "𞤖𞤭𞤲𞤤𞤫": 5124,
      "𞤖𞤫𞥅𞤱𞤵𞤩𞤫": 5125,
      "𞤚𞤭𞤲𞤵𞤦𞤵": 5126,
      "𞤤𞤵𞥅𞤥𞤮𞥅𞤶𞤭": 5127,
      "𞤥𞤢𞥄𞤥𞤭𞤪𞤢𞥄𞤩𞤫": 5128,
      "𞤺𞤵𞤴𞤢𞥄𞤤𞤫": 5129,
      "𞤼𞤢𞥄𞤩𞤢𞤲𞤣𞤫": 5130,
      "𞤑𞤮𞤥𞤨𞤢𞤱𞤮𞤪𞤫": 5131,
      "𞤢𞤷𞥆𞤭𞤪𞤼𞤢𞥄": 5132,
      "𞤀𞤄𞤁𞤓𞤂𞥆𞤀𞥄𞤖𞤋": 5133,
      "Adl": 5134,
      "Ful": 5135,
      "Gu": 5136,
      "Krist": 5137,
      "il": 5138,
      "ph": 5139,
      "té": 5140,
      "wh": 5141,
      "𞤀𞤶𞤭": 5142,
      "𞤀𞤣𞤵𞤲": 5143,
      "𞤁𞤢𞤤": 5144,
      "𞤁𞤫𞤬": 5145,
      "𞤁𞤢𞥄𞤦": 5146,
      "𞤁𞤵𞥅𞤥": 5147,
      "𞤁𞤮𞤬": 5148,
      "𞤁𞤮𞥅𞤤𞤫": 5149,
      "𞤂𞤫𞤱": 5150,
      "𞤃𞤀𞤃": 5151,
      "𞤃𞤮𞤴": 5152,
      "𞤄𞤮": 5153,
      "𞤅𞤋": 5154,
      "𞤅𞤢𞤲": 5155,
      "𞤅𞤢𞤲𞤣𞤫": 5156,
      "𞤅𞤉𞤂": 5157,
      "𞤆𞤀": 5158,
      "𞤆𞤮𞥅𞤤": 5159,
      "𞤆𞤫𞤤𞥆𞤫": 5160,
      "𞤇𞤢𞤱𞤼𞤭": 5161,
      "𞤈𞤮": 5162,
      "𞤈𞤓𞤏": 5163,
      "𞤈𞤋𞤑": 5164,
      "𞤈𞤮𞤳": 5165,
      "𞤉𞤥𞤢𞤲": 5166,
      "𞤊𞤉𞤅": 5167,
      "𞤋𞤣": 5168,
      "𞤋𞤊": 5169,
      "𞤌𞤐": 5170,
      "𞤌𞤼𞤢𞤲": 5171,
      "𞤏𞤢𞤯": 5172,
      "𞤏𞤀𞥄": 5173,
      "𞤐𞤣𞤭": 5174,
      "𞤐𞤫𞤯": 5175,
      "𞤑𞤭": 5176,
      "𞤑𞤋𞤐": 5177,
      "𞤑𞤫𞤲𞤫𞤲": 5178,
      "𞤒𞤵": 5179,
      "𞤒𞤮𞤪𞤳": 5180,
      "𞤔𞤢𞥄𞤩𞤭": 5181,
      "𞤔𞤢𞤥𞥆𞤫": 5182,
      "𞤕𞤀𞤒": 5183,
      "𞤕𞤵𞤩𞤢𞤤": 5184,
      "𞤖𞤋": 5185,
      "𞤖𞤢𞤪𞤢": 5186,
      "𞤖𞤭𞥅𞤪𞤲𞤢": 5187,
      "𞤘𞤢𞥄𞤱𞤢𞤤": 5188,
      "𞤘𞤵𞥅𞤺𞤮𞤤": 5189,
      "𞤙𞤢𞥄𞤱𞤮": 5190,
      "𞤚𞤫": 5191,
      "𞤚𞤵": 5192,
      "𞤚𞤢𞤴": 5193,
      "𞤚𞤵𞤼": 5194,
      "𞤚𞤀𞤐": 5195,
      "𞤡𞤮": 5196,
      "𞤡𞤀𞤈𞤂": 5197,
      "𞤣𞤢𞤲": 5198,
      "𞤣𞤮𞤤𞤢": 5199,
      "𞤤𞤵𞤩": 5200,
      "𞤤𞤢𞤩": 5201,
      "𞤥𞤵𞤼": 5202,
      "𞤦𞤢𞤺": 5203,
      "𞤧𞤢𞥄𞤱": 5204,
      "𞤧𞤢𞥄𞤳": 5205,
      "𞤧𞤫𞤴": 5206,
      "𞤧𞤵𞥅𞤥": 5207,
      "𞤧𞤫𞤤𞥆𞤵": 5208,
      "𞤧𞤢𞤲𞤣": 5209,
      "𞤬𞤢𞤴": 5210,
      "𞤬𞤵𞤤": 5211,
      "𞤬𞤢𞤣": 5212,
      "𞤬𞤢𞤩𞥆𞤭𞤲": 5213,
      "𞤮𞤯𞤮𞤲": 5214,
      "𞤯𞤵𞥅𞤪": 5215,
      "𞤯𞤢𞤲𞤣𞤮𞤳𞤢𞥄𞤩𞤫": 5216,
      "𞤰𞤢𞤱": 5217,
      "𞤰𞤢𞤱𞤢𞤤": 5218,
      "𞤱𞤭𞥅": 5219,
      "𞤱𞤭𞤪": 5220,
      "𞤱𞤫𞤣": 5221,
      "𞤲𞤢𞤼𞤫": 5222,
      "𞤳𞤵": 5223,
      "𞤳𞤭𞤤": 5224,
      "𞤳𞤮𞥅𞤪": 5225,
      "𞤴𞤭𞤪": 5226,
      "𞤴𞤭𞤥": 5227,
      "𞤴𞤢𞤲𞤺": 5228,
      "𞤴𞤢𞤲𞤭𞥅": 5229,
      "𞤶𞤮𞤤": 5230,
      "𞤶𞤮𞥅𞤯𞤮": 5231,
      "𞤶𞤮𞤤𞤮": 5232,
      "𞤷𞤮𞤤𞤼𞤮": 5233,
      "𞤸𞤭𞥅𞤤": 5234,
      "𞤸𞤭𞤧": 5235,
      "𞤺𞤭": 5236,
      "𞤺𞤭𞥅": 5237,
      "𞤺𞤭𞤣": 5238,
      "𞤺𞤭𞤯": 5239,
      "𞤻𞤮": 5240,
      "𞤻𞤫𞥅𞤻": 5241,
      "𞤼𞤢𞥄𞤲": 5242,
      "𞤼𞤢𞤳𞥆": 5243,
      "𞥓𞥖": 5244,
      "𞥔𞥙": 5245,
      "𞥕𞥘": 5246,
      "𞥖𞥓": 5247,
      "𞥖𞥗": 5248,
      "𞥘𞥓": 5249,
      "𞥘𞥒": 5250,
      "##𞤮𞤣": 5251,
      "##𞤯𞤭𞥅": 5252,
      "##𞤯𞤮𞥅𞤩𞤫": 5253,
      "##𞥆𞤫𞤲": 5254,
      "##𞥆𞤮𞤪𞤣𞤫": 5255,
      "##𞥆𞤢𞤴𞤲𞤮𞥅": 5256,
      "##𞤭𞤬": 5257,
      "##𞤲𞤢𞥄𞤥𞤢": 5258,
      "##𞤺𞤭𞤪𞤯𞤫": 5259,
      "##𞤺𞤸𞤢": 5260,
      "##𞤪𞤣": 5261,
      "##𞤪𞤢𞤤": 5262,
      "##𞤪𞤭𞤼": 5263,
      "##𞤢𞤢𞤤": 5264,
      "##𞤫𞤧𞤤𞤢𞥄𞤪𞤫": 5265,
      "##𞤣𞤢𞤴": 5266,
      "##𞤣𞤮𞤪𞤣𞤫": 5267,
      "##𞤣𞤮𞤪𞤭": 5268,
      "##𞤣𞤢𞥄𞤲𞤣𞤵": 5269,
      "##𞤧𞥆𞤢𞤤": 5270,
      "##𞤧𞤢𞤼𞤵": 5271,
      "##𞤥𞤮𞤪": 5272,
      "##𞤦𞤫": 5273,
      "##𞤵𞤧𞤮": 5274,
      "##𞤶𞥆𞤮": 5275,
      "##𞤼𞤵𞤲": 5276,
      "##𞤼𞤶𞤫": 5277,
      "##𞤼𞤢𞤼𞤢𞥄": 5278,
      "##𞤳𞤢𞤤": 5279,
      "##𞤋𞤈𞤋": 5280,
      "##𞤨𞤫𞤪𞤫": 5281,
      "##𞤰𞥆𞤵𞤣𞤫": 5282,
      "##𞤉𞤚": 5283,
      "##𞤬𞤮": 5284,
      "##𞤬𞤮𞤪": 5285,
      "##un": 5286,
      "##te": 5287,
      "##ire": 5288,
      "##oir": 5289,
      "##lo": 5290,
      "##lé": 5291,
      "##ly": 5292,
      "##𞤓𞤊": 5293,
      "##𞤘𞤋": 5294,
      "##𞤘𞤉𞤂𞤉": 5295,
      "##𞤚𞤀𞤐": 5296,
      "##ver": 5297,
      "##𞤹𞤵": 5298,
      "##𞥁𞤭𞥅": 5299,
      "##𞤢𞥄𞤺𞤢𞤤": 5300,
      "##𞤢𞥄𞤪𞤫𞥅": 5301,
      "##𞤢𞤲𞤫𞤲": 5302,
      "##𞤢𞤲𞤢𞥄𞤣𞤫": 5303,
      "##𞤢𞤲𞤮𞥅𞤲𞤺𞤮": 5304,
      "##𞤭𞥅𞤲𞤣𞤫": 5305,
      "##𞤮𞤲𞤳": 5306,
      "##𞤵𞤲𞤺𞤢𞤤": 5307,
      "##𞤫𞥅𞤯𞤮": 5308,
      "##𞤫𞥅𞤼𞤭": 5309,
      "##𞤢𞤪𞤻": 5310,
      "##𞤵𞥅𞤷": 5311,
      "##𞤵𞥅𞤣𞤢": 5312,
      "##𞤵𞥅𞤼𞤮𞥅": 5313,
      "𞤲𞤺𞤵𞤴": 5314,
      "##𞤭𞤪𞤮": 5315,
      "##𞤭𞤪𞤼𞤫𞥅": 5316,
      "##𞤭𞤪𞤯𞤵𞤲": 5317,
      "𞤲𞤣𞤫𞤴𞤢": 5318,
      "𞤱𞤮𞤲𞤯𞤮": 5319,
      "𞤱𞤮𞤲𞤼𞤢": 5320,
      "𞤱𞤮𞤲𞤼𞤭𞤪": 5321,
      "##𞤮𞤪𞤲𞤮𞥅": 5322,
      "##𞤮𞤪𞤲𞤣𞤭": 5323,
      "##𞤭𞤼𞤮": 5324,
      "##𞤭𞤼𞤫𞤪": 5325,
      "##𞤭𞤼𞤮𞤪𞤯𞤫": 5326,
      "𞤤𞤫𞤤": 5327,
      "##𞤵𞤥𞤢": 5328,
      "𞤮𞤲𞤯𞤮𞤲": 5329,
      "𞤬𞤫𞤨": 5330,
      "𞤬𞤫𞤬": 5331,
      "##𞥆𞤵𞤼𞤵𞤲𞤮": 5332,
      "##𞤢𞥄𞤱𞤵𞥅𞤣𞤢": 5333,
      "𞤲𞤺𞤢𞤤𞤵𞥅𞤶𞤭": 5334,
      "##𞤼𞤭𞤧": 5335,
      "##𞤼𞤭𞤴": 5336,
      "##𞤼𞤭𞤧𞤵": 5337,
      "##𞤼𞤭𞤲𞥋𞤣𞤭𞤪": 5338,
      "##𞤭𞤴𞤮": 5339,
      "##𞤭𞤴𞤢𞤥𞤢": 5340,
      "𞤼𞤢𞤱𞤣": 5341,
      "𞤼𞤢𞤱𞤢𞤲𞤮": 5342,
      "𞤼𞤢𞤱𞤢𞥄𞤳𞤢": 5343,
      "##𞤢𞥄𞤲𞤺": 5344,
      "##𞤵𞤪𞤢": 5345,
      "𞤸𞤫𞤻": 5346,
      "##𞤭𞤤𞤭": 5347,
      "##𞤺𞤢𞤤𞤭": 5348,
      "##𞥆𞤭𞤲𞤣𞤫": 5349,
      "##𞥆𞤭𞤲𞤮𞥅𞤩𞤫": 5350,
      "##𞥆𞤭𞤼𞤵𞤺𞤮𞤤": 5351,
      "𞤸𞤢𞤳𞤵𞤲": 5352,
      "##𞤼𞤫𞤤": 5353,
      "##𞤣𞤮𞤴": 5354,
      "𞤢𞤪𞤵": 5355,
      "𞤢𞤪𞤼𞤭": 5356,
      "##𞤮𞤱𞤢": 5357,
      "##𞤫𞤼𞤫𞤲": 5358,
      "##𞤫𞤼𞤢𞥄𞤳𞤫": 5359,
      "𞤸𞤢𞥄𞤩": 5360,
      "##𞤵𞤯𞤢𞥄": 5361,
      "𞤸𞤮𞤯": 5362,
      "𞤢𞤲𞤣𞤵": 5363,
      "𞤤𞤢𞥄𞤩𞤭": 5364,
      "𞤥𞤭𞤧𞤢𞤤": 5365,
      "𞤸𞤭𞤼𞥆": 5366,
      "𞤬𞤭𞤯": 5367,
      "𞤼𞤢𞤼𞤢𞤩𞤫𞤪𞤫": 5368,
      "𞤥𞤢𞤱𞤪𞤭": 5369,
      "𞤼𞤮𞤩": 5370,
      "𞤧𞤵𞤩𞤢𞤺𞤮𞤤": 5371,
      "##𞤵𞤲𞥋𞤺𞤮𞤤": 5372,
      "𞤣𞤢𞤪𞤢𞥄𞤣𞤫": 5373,
      "𞤣𞤢𞤪𞤼𞤭𞤲𞤮": 5374,
      "𞤣𞤢𞤪𞤮𞤼𞤮𞥅𞤩𞤫": 5375,
      "𞤣𞤢𞤪𞤼𞤭𞥅𞤩𞤫": 5376,
      "𞤯𞤵𞥅𞤯𞤢𞥄": 5377,
      "##𞤣𞤭𞤲𞤳": 5378,
      "##𞤣𞤭𞤲𞤢𞤴": 5379,
      "𞤸𞤭𞤧𞤭": 5380,
      "𞤶𞤢𞤲𞤺𞤭𞤲𞤮𞥅𞤩𞤫": 5381,
      "𞤼𞤭𞤥𞥆𞤢": 5382,
      "𞤼𞤭𞤥𞥆𞤵𞤣𞤫": 5383,
      "𞤬𞤵𞤯𞥆𞤮𞥅𞤣𞤫": 5384,
      "𞤬𞤮𞥅𞤤𞤵𞤲𞤮𞥅": 5385,
      "𞤲𞤢𞥄𞤣𞤭𞥅": 5386,
      "𞤑𞤮𞤲𞤼𞤫": 5387,
      "𞤑𞤮𞤲𞤢𞥄𞤪𞤫": 5388,
      "##𞥆𞤢𞥄𞤶𞤫": 5389,
      "##𞤳𞤮𞤴": 5390,
      "𞤩𞤫𞤴𞤣𞤢": 5391,
      "𞤱𞤢𞥄𞤱𞤵𞤣𞤫": 5392,
      "𞤺𞤮𞤤𞥆𞤭": 5393,
      "𞤺𞤮𞤤𞥆𞤭𞤼": 5394,
      "𞤤𞤢𞤲𞤣𞤭𞤲𞤮": 5395,
      "𞤫𞤲𞤺𞤫𞤤": 5396,
      "𞤴𞤢𞤸𞤵": 5397,
      "𞤴𞤢𞤸𞤵𞤲𞤮𞥅": 5398,
      "𞤶𞤫𞤴𞤢𞥄𞤲𞤣𞤫": 5399,
      "𞤶𞤫𞤴𞤢𞥄𞤯𞤮": 5400,
      "𞤶𞤫𞤴𞤼𞤢𞥄𞤪𞤫": 5401,
      "𞤶𞤮𞤺𞤢𞥄𞤣𞤫": 5402,
      "𞤢𞤣𞥆𞤵𞤣𞤫": 5403,
      "##𞤢𞤬𞤭𞥅": 5404,
      "##𞤼𞤵𞤯𞤮": 5405,
      "𞤸𞤢𞥄𞤲𞤭𞤪𞤭": 5406,
      "𞤶𞤢𞤲𞤬𞤢": 5407,
      "##𞤢𞥄𞤦𞤭": 5408,
      "𞤥𞤵𞤪𞤼𞤭": 5409,
      "𞤥𞤵𞤪𞤼𞤢𞤲": 5410,
      "𞤴𞤢𞤤𞤼𞤭𞤲𞤢𞥄𞤥𞤢": 5411,
      "𞤬𞤭𞤶𞤮𞥅𞤩𞤫": 5412,
      "𞤬𞤭𞤶𞤵𞤲𞤮": 5413,
      "𞤱𞤢𞤴𞤪𞤭": 5414,
      "𞤀𞥄𞤧𞤭𞤴": 5415,
      "𞤭𞤲𞥆𞤫𞥅": 5416,
      "𞤲𞤢𞤲𞤺𞤢𞥄𞤩𞤫": 5417,
      "𞤳𞤢𞤲𞤧": 5418,
      "##𞤧𞤤𞤭𞤥": 5419,
      "𞤴𞤫𞤱𞤼𞤢𞥄": 5420,
      "𞤱𞤭𞤴𞤵𞤲𞤮": 5421,
      "𞤸𞤮𞤤𞥆𞤭𞥅𞤲𞤮": 5422,
      "𞤶𞤮𞤺𞤮": 5423,
      "𞤶𞤮𞤥𞤦": 5424,
      "##𞤵𞤴𞤫𞤤": 5425,
      "𞤻𞤢𞥄𞤱𞤫𞥅𞤣𞤫": 5426,
      "𞤱𞤭𞤲𞤣𞤵𞤣𞤫": 5427,
      "𞤱𞤭𞤲𞤣𞤢𞤲": 5428,
      "𞤻𞤢𞥄𞤥𞤤𞤭": 5429,
      "𞤻𞤢𞥄𞤥𞤢𞤴𞤲𞤮𞥅": 5430,
      "𞤬𞤢𞥄𞤤𞤢𞥄𞤯𞤮": 5431,
      "##𞤋𞥅𞤐": 5432,
      "𞤬𞤮𞤤𞥆𞤢𞤲𞤮𞥅": 5433,
      "𞤸𞤢𞤨𞥆𞤢𞤲𞤢𞥄": 5434,
      "𞤱𞤢𞤴𞤤𞤭𞤼𞤭𞥅": 5435,
      "𞤩𞤫𞥅𞤲": 5436,
      "𞤃𞤮𞤪𞤭𞤧": 5437,
      "𞤬𞤮𞤼𞥆𞤭𞥅": 5438,
      "𞤸𞤢𞥄𞤤𞤣𞤭": 5439,
      "𞤸𞤢𞥄𞤤𞤢𞥄𞤶𞤭": 5440,
      "𞤼𞤢𞤦𞤭𞤼𞤭": 5441,
      "##𞥆𞤭𞤪𞤭𞥅": 5442,
      "𞤘𞤫𞤲𞤣𞤭": 5443,
      "𞤸𞤮𞤤𞥆𞤭𞤼𞤢𞥄": 5444,
      "𞤥𞤮𞤰𞥆𞤢": 5445,
      "𞤖𞤢𞤪𞤭𞤧": 5446,
      "𞤳𞤫𞤷𞥆𞤭": 5447,
      "𞤶𞤢𞤩𞤭𞥅": 5448,
      "𞤶𞤮𞥅𞤯𞤢𞤲𞤯𞤫": 5449,
      "𞤧𞤮𞥅𞤣": 5450,
      "𞤤𞤮𞤲𞤼𞤢𞤺𞤮𞤤": 5451,
      "𞤧𞤮𞤳𞤵𞤺𞤮𞤤": 5452,
      "𞤀𞤦𞤵𞥅": 5453,
      "𞤉𞤲𞤫𞤲": 5454,
      "𞤦𞤮𞤲𞤩𞤫": 5455,
      "##onn": 5456,
      "𞤤𞤵𞤥𞤦𞤵𞤺𞤮𞤤": 5457,
      "𞤸𞤫𞤱𞤼𞤵𞤣𞤫": 5458,
      "𞤴𞤭𞤢𞥄𞤤𞤭": 5459,
      "##ank": 5460,
      "##𞤉𞤈𞤉": 5461,
      "𞤴𞤢𞤥𞤭𞤪𞤢𞥄": 5462,
      "𞤴𞤢𞤥𞤭𞤪𞤢𞥄𞤥𞤢": 5463,
      "𞤱𞤫𞤤𞤼𞤢𞤲": 5464,
      "𞤱𞤫𞤤𞤼𞤢𞤲𞤭": 5465,
      "##𞤤𞤢𞤣𞤫𞤧": 5466,
      "𞤬𞤭𞤶𞤮𞤴𞤼𞤢": 5467,
      "𞤲𞤢𞤩𞤭𞤪𞤢𞥄": 5468,
      "𞤬𞤫𞤼𞥆𞤢𞥄𞤲𞤺𞤮": 5469,
      "𞥑𞥙𞥙𞥔": 5470,
      "𞥑𞥙𞥙𞥗": 5471,
      "𞤫𞤩𞥆𞤭": 5472,
      "𞤬𞤫𞤰𞥆𞤭𞤲𞤢𞤲𞤭": 5473,
      "##𞤌𞤐𞤀𞤂": 5474,
      "𞤴𞤫𞥅𞤴𞤭𞤼": 5475,
      "𞤴𞤫𞥅𞤴𞤮𞥅𞤱𞤮": 5476,
      "𞤸𞤫𞤲𞤣𞤭": 5477,
      "𞤸𞤫𞤲𞤣𞤵": 5478,
      "𞤸𞤭𞤱𞤮𞥅𞤩𞤫": 5479,
      "𞤃𞤢𞤳𞤪𞤮𞤲": 5480,
      "𞤣𞤵𞤦𞤵𞤲": 5481,
      "𞤲𞤢𞤱𞤲𞤢𞥄𞤶𞤫": 5482,
      "𞤸𞤫𞥅𞤱𞤵𞤯𞤭": 5483,
      "𞤩𞤫𞤴𞤣𞤭𞤼𞤭": 5484,
      "𞤺𞤢𞤤𞥆𞤫𞥅𞤶𞤭": 5485,
      "𞤼𞤫𞤣𞥆𞤭𞤲𞤭": 5486,
      "𞤼𞤫𞤣𞥆𞤵𞤩𞤫": 5487,
      "𞤸𞤵𞤩𞤭𞤲𞥋𞤣": 5488,
      "𞤸𞤮𞥅𞤪𞤭𞥅": 5489,
      "𞤧𞤫𞥅𞤳𞤮𞤤": 5490,
      "##𞤫𞤧𞤳𞤮𞥅": 5491,
      "𞤸𞤵𞥅𞤩𞤭𞤼𞤭": 5492,
      "𞤸𞤵𞥅𞤩𞤲𞤵𞤺𞤮𞤤": 5493,
      "𞤅𞤭𞤤𞤭": 5494,
      "𞤪𞤢𞥄𞤩𞤵𞤣𞤫": 5495,
      "##arm": 5496,
      "𞤱𞤭𞤫𞤼𞤫𞥅𞤲𞤺𞤮": 5497,
      "𞤩𞤢𞤲𞤺𞤭𞤲𞤭𞥅": 5498,
      "##𞥆𞤢𞤴𞤫𞥅": 5499,
      "𞤀𞤪𞤣𞤮𞤪𞤣𞤫": 5500,
      "𞤼𞤭𞥅𞤯𞤵𞤯𞤭": 5501,
      "𞤼𞤭𞥅𞤯𞤲𞤢𞥄𞤪𞤫": 5502,
      "𞤣𞤢𞤯𞤵𞤺𞤮𞤤": 5503,
      "𞤶𞤵𞤲𞤺𞤮": 5504,
      "𞤩𞤫𞤴𞤣𞤢𞤴": 5505,
      "𞤳𞤭𞥅𞤼𞤮𞥅𞤱𞤮": 5506,
      "𞤺𞤫𞤲𞤣𞤭𞤲𞤳𞤮𞤱𞤢𞤤": 5507,
      "𞤧𞤢𞥄𞤼𞤭𞥅𞤲𞤣𞤫": 5508,
      "##ity": 5509,
      "𞤼𞤢𞤥𞤨𞤭𞤲𞤭": 5510,
      "𞤲𞤮𞥅𞤺𞤢𞤴𞤮": 5511,
      "𞤬𞤢𞥄𞤼𞤵𞤲𞤣𞤫": 5512,
      "𞤔𞤢𞥄𞤺𞤮𞤪𞤢𞥄𞤯𞤮": 5513,
      "𞤐𞤣𞤫𞥅𞤲𞤳𞤢": 5514,
      "𞤶𞤮𞤳𞥆𞤵𞤩𞤫": 5515,
      "𞤬𞤭𞤪𞤼𞤭𞥅": 5516,
      "𞤁𞤫𞤲𞤺𞤸𞤢": 5517,
      "𞤀𞤲𞤼𞤮𞤲": 5518,
      "##𞤅𞤚𞤉𞤊": 5519,
      "𞤴𞤢𞤲𞤵𞤲𞤮𞥅": 5520,
      "𞤼𞤢𞤱𞤢𞤲𞤮𞥅𞤳𞤢": 5521,
      "𞥑𞥙𞥘𞥙": 5522,
      "𞤳𞤫𞤧𞤫": 5523,
      "𞤺𞤢𞤧𞤢𞥄𞤤𞤭": 5524,
      "𞤺𞤢𞤧𞤢𞤼𞤢": 5525,
      "𞤧𞤮𞤪𞤼𞤭𞥅": 5526,
      "𞤧𞤮𞤪𞤼𞤢𞤺𞤮𞤤": 5527,
      "𞤱𞤢𞤳𞥆𞤭𞤤𞤢𞥄𞤪𞤫": 5528,
      "𞤸𞤮𞤥𞤦𞤭𞤪𞤭": 5529,
      "𞤧𞤵𞤥𞤲𞤢": 5530,
      "𞤀𞥄𞤩𞤵𞤲𞤣𞤫": 5531,
      "𞤥𞤭𞤤𞤭𞤴𞤢𞤪": 5532,
      "𞤺𞤢𞤴𞤲𞤭": 5533,
      "##ort": 5534,
      "𞤸𞤫𞤧𞤫𞤪𞤫": 5535,
      "𞤬𞤢𞥄𞤦𞤮": 5536,
      "##𞤶𞤢𞤲𞥆𞤢": 5537,
      "𞥑𞥙𞥖𞥑": 5538,
      "𞤦𞤢𞤲𞤣𞤭𞤪": 5539,
      "𞤽𞤢𞤤𞤢𞤱𞤵": 5540,
      "𞤸𞤮𞥅𞤤𞤮𞤪": 5541,
      "𞤲𞤶𞤫𞥅𞤺𞤮𞤮": 5542,
      "𞤼𞤢𞤥𞤰𞤭𞤲𞤭𞥅": 5543,
      "𞤲𞤫𞤱𞤲𞤢𞤲𞤭": 5544,
      "𞤬𞤭𞤩𞤵": 5545,
      "𞤙𞤢𞥄𞤱𞤭𞤪𞤣𞤵": 5546,
      "𞤦𞤮𞥅𞤼𞤭": 5547,
      "𞤭𞤼𞥆𞤢𞤲𞤭": 5548,
      "𞤤𞤢𞤥𞤯𞤢𞤲": 5549,
      "𞤩𞤢𞤥𞤼𞤮𞤼𞤢𞤲𞤮𞥅𞤳𞤮": 5550,
      "##𞤼𞤮𞤴𞤭": 5551,
      "𞤸𞤭𞤤𞤲": 5552,
      "𞤲𞤮𞤣𞥆𞤭𞤼𞤢𞥄": 5553,
      "𞤃𞤢𞤪𞤮𞥅": 5554,
      "𞤃𞤢𞤪𞤭𞤴𞤢𞤥𞤢": 5555,
      "𞤺𞤮𞤦𞤭𞤲𞤢𞥄𞤶𞤮": 5556,
      "𞤽𞤭𞤻𞤭𞥅": 5557,
      "##𞤋𞤂𞥆𞤌": 5558,
      "𞤚𞤵𞥅𞤺𞤢𞤤𞥆𞤮": 5559,
      "𞤬𞤭𞤤𞥆": 5560,
      "𞤅𞤉𞤲𞤫": 5561,
      "𞤳𞤵𞤥𞤨𞤭𞤼𞤫": 5562,
      "𞤸𞤫𞥅𞤪𞤼𞤮𞤪": 5563,
      "𞤨𞤮𞥅𞤤𞤺𞤵": 5564,
      "𞥑𞥙𞥗𞥒": 5565,
      "𞤀𞤃𞤋": 5566,
      "𞤃𞤢𞤤𞤢𞥄𞤩𞤫": 5567,
      "##𞤼𞤮𞤼𞤢𞥄𞤳𞤮": 5568,
      "𞤤𞤫𞤼𞥆𞤫": 5569,
      "𞤢𞤣𞤵𞤲𞤢𞤴𞤢𞤲𞤳𞤮𞤱𞤮": 5570,
      "remer": 5571,
      "𞤉𞤐𞤘𞤉𞤂𞤉": 5572,
      "𞤐𞤔𞤫𞤧𞤤𞤢𞥄𞤪𞤫": 5573,
      "𞤣𞤮𞥅𞤤𞤲": 5574,
      "𞤩𞤮𞥅𞤴𞤢𞥄𞤲𞤮": 5575,
      "𞤬𞤢𞤥𞤯𞤭": 5576,
      "##𞤄𞤓𞤑": 5577,
      "𞥑𞥙𞥕𞥘": 5578,
      "𞤶𞤭𞤦𞤭𞤲𞤢𞤲𞤣𞤫": 5579,
      "𞤶𞤭𞤦𞤭𞤲𞤢𞥄𞤯𞤮": 5580,
      "𞤴𞤢𞥄𞤬𞤮𞥅": 5581,
      "𞤊𞤢𞤪𞤢𞤲𞤧𞤭𞥅𞤩𞤫": 5582,
      "𞤼𞤭𞤨𞥆𞤭𞥅": 5583,
      "𞤃𞤓𞤖𞤀𞤃𞥆𞤀𞤁": 5584,
      "𞤄𞤪𞤢𞥄𞤴": 5585,
      "𞤄𞤪𞤢𞤧𞤭𞤤": 5586,
      "𞤪𞤮𞤳𞥆𞤭": 5587,
      "𞤧𞤫𞤥𞤦𞤭𞤲𞤺𞤮𞤤": 5588,
      "𞤸𞤢𞤼𞤮𞤲𞤶𞤭𞤲": 5589,
      "𞤢𞤬𞤪𞤭𞤳𞤲𞤢𞥄𞤩𞤫": 5590,
      "𞤨𞤮𞤪𞤼𞤮": 5591,
      "##cie": 5592,
      "𞤩𞤢𞤲𞤺𞤭𞤲𞤢𞥄𞤤𞤭": 5593,
      "𞤂𞤭𞤦𞤢𞤲": 5594,
      "𞤲𞤫𞥅𞤣𞤭": 5595,
      "𞤀𞥄𞤪𞤢𞤦𞤫𞥅𞤩𞤫": 5596,
      "𞤃𞤫𞤳": 5597,
      "𞤅𞤢𞤥𞤭𞤴𞤢": 5598,
      "𞤶𞤭𞤨𞥆𞤭𞥅": 5599,
      "𞤲𞤺𞤢𞤴𞤳𞤢": 5600,
      "𞤸𞤫𞤴𞤯": 5601,
      "𞤸𞤫𞤤𞥆𞤭𞤬𞤢𞥄𞤩𞤫": 5602,
      "lien": 5603,
      "𞤀𞤬𞤪": 5604,
      "𞤘𞤮𞤤𞥆𞤫": 5605,
      "𞤬𞤵𞤪𞤫𞥅𞤶𞤭": 5606,
      "𞤺𞤵𞤲𞤣𞤮𞥅": 5607,
      "𞤧𞤫𞤩𞤭𞤼𞤭𞥅": 5608,
      "𞤱𞤫𞥅𞤴𞤮": 5609,
      "𞤧𞤫𞤲𞤫𞤺𞤢𞤤𞤲𞤢𞥄𞤩𞤫": 5610,
      "parl": 5611,
      "𞤉𞤤𞤫𞤲": 5612,
      "𞤏𞤢𞤺𞤢𞤣𞤵": 5613,
      "𞤗𞤢𞤪𞤣𞤢𞥄𞤱": 5614,
      "𞤘𞤮𞤥𞤫𞥅𞤧": 5615,
      "𞤤𞤢𞤣𞥆𞤫": 5616,
      "𞤱𞤢𞤤𞥆𞤭𞤬𞤭𞥅": 5617,
      "𞤼𞤮𞥅𞤱𞤲𞤺𞤢𞤤": 5618,
      "𞤱𞤫𞤪𞤤𞤢𞥄𞤶𞤫": 5619,
      "𞤱𞤫𞤪𞤤𞤢𞤱𞤢𞤤": 5620,
      "𞤄𞤫𞤪𞤲𞤭𞥅": 5621,
      "𞤌𞤆𞤈𞤀": 5622,
      "𞤑𞤢𞤼𞤭": 5623,
      "𞤑𞤮𞥅𞤪𞤫𞤴𞤢": 5624,
      "𞤨𞤵𞤤𞥆𞤮": 5625,
      "𞤰𞤭𞥅𞤰𞤢𞤲": 5626,
      "##rés": 5627,
      "##𞤢𞤪𞤢𞤲𞤳𞤫𞥅𞤩𞤫": 5628,
      "𞤃𞤢𞤬𞤢𞤲𞤳𞤮𞥑": 5629,
      "avoir": 5630,
      "𞤃𞤢𞤥𞥆𞤢𞤣𞤵": 5631,
      "𞤊𞤭𞤶𞤮": 5632,
      "𞤋𞤅𞤈": 5633,
      "𞤙𞤀𞥄𞤃𞤐𞤀𞥄𞤈𞤋": 5634,
      "𞤚𞤮𞤺𞤮": 5635,
      "𞤚𞤮𞥅𞤱𞤵𞤲𞥋𞤣𞤫": 5636,
      "##𞤢𞥄𞤨𞤢𞥄𞤤𞤭": 5637,
      "𞤸𞤢𞤨𞥆𞤵𞥅𞤶𞤭": 5638,
      "𞤃𞤮𞤸𞤢𞤥𞥆𞤫𞤣": 5639,
      "𞤄𞤀𞤟": 5640,
      "𞤄𞤓𞤈𞤑": 5641,
      "𞤅𞤭𞤥𞤦": 5642,
      "𞤑𞤢𞤺𞤢𞤥𞤫": 5643,
      "𞤚𞤪𞤢𞤲𞤧𞤤𞤫": 5644,
      "𞤤𞤢𞤧𞤼𞤫": 5645,
      "𞤳𞤢𞥄𞤳𞤢𞤪": 5646,
      "𞤻𞤢𞤦𞥆𞤵𞥅𞤤𞤭": 5647,
      "𞤴𞤮𞤺𞤢𞥄𞤩𞤫": 5648,
      "𞤱𞤭𞤲𞤣𞤫𞤪𞤫𞤴𞤢𞤲𞤳": 5649,
      "𞤯𞤭𞤯𞤢𞤩𞤵": 5650,
      "𞤼𞤭𞤶𞥆𞤮𞤪𞤢𞤲𞤮𞥅": 5651,
      "𞤸𞤢𞤤𞤬𞤭𞤲𞤢𞥄": 5652,
      "𞤄𞤉𞤂𞤅𞤋𞤑": 5653,
      "𞤈𞤀𞤒𞤚": 5654,
      "𞤒𞤢𞤤𞥆𞤭": 5655,
      "𞤒𞤭𞥅𞤤𞤭𞤪𞤣𞤫": 5656,
      "𞤖𞤌𞤂𞤀𞤐𞤁": 5657,
      "𞤪𞤮𞤼𞥆𞤢𞤲𞤣𞤫": 5658,
      "𞤬𞤢𞤺𞥆𞤭𞤼": 5659,
      "𞤸𞤫𞥅𞤺𞤫": 5660,
      "𞤯𞤵𞤯𞥆𞤭𞤲𞤮𞤪𞤢": 5661,
      "𞤷𞤫𞥅𞤥𞤫𞥅𞤯𞤮": 5662,
      "𞤁𞤢𞤳𞤢𞥄𞤪": 5663,
      "𞤁𞤀𞤐𞤃𞤀𞤈": 5664,
      "𞤃𞤀𞤃𞥆𞤀𞤁𞤓": 5665,
      "𞤅𞤢𞤱𞤣𞤢": 5666,
      "𞤐𞤀𞥄𞤅𞤀𞥄": 5667,
      "𞤐𞤭𞤨𞤮𞥅𞤲": 5668,
      "𞤑𞤢𞤤𞤭𞤬𞤮𞤪": 5669,
      "𞤑𞤭𞤨𞥆𞤮𞤤": 5670,
      "𞤘𞤭𞤴𞤮𞤥": 5671,
      "𞤨𞤫𞤪𞤳𞤢𞤲": 5672,
      "𞤸𞤢𞥄𞤱𞤲𞤭𞥅": 5673,
      "𞤀𞤸𞤥𞤫𞤣": 5674,
      "𞤄𞤫𞤲𞤺𞤢𞤤𞤭𞥅𞤪𞤫": 5675,
      "𞤆𞤮𞤪𞤼𞤭𞤺𞤢𞤤": 5676,
      "Adlam": 5677,
      "Fulfulde": 5678,
      "Kristi": 5679,
      "phot": 5680,
      "télé": 5681,
      "𞤁𞤫𞤬𞤼𞤫𞤪𞤫": 5682,
      "𞤁𞤢𞥄𞤦𞤮": 5683,
      "𞤁𞤵𞥅𞤥𞤢𞥄𞤪𞤫": 5684,
      "𞤃𞤀𞤃𞤀𞤁𞤋": 5685,
      "𞤅𞤉𞤂𞥆𞤓": 5686,
      "𞤆𞤀𞤅𞤚𞤉𞤊": 5687,
      "𞤈𞤓𞤏𞤀𞤐𞤁𞤀": 5688,
      "𞤉𞤥𞤢𞤲𞤵𞤴𞤫𞤤": 5689,
      "𞤊𞤉𞤅𞤄𞤓𞤑": 5690,
      "𞤋𞤊𞤁𞤘": 5691,
      "𞤏𞤀𞥄𞤁": 5692,
      "𞤑𞤭𞤺𞤢𞤤𞤭": 5693,
      "𞤚𞤵𞤺𞤢𞤤𞥆𞤮": 5694,
      "𞤡𞤮𞤾𞤫𞤲": 5695,
      "𞤧𞤢𞤲𞤣𞤢𞤪": 5696,
      "𞤳𞤮𞥅𞤪𞤢𞥄𞤺𞤵": 5697,
      "𞤺𞤭𞤯𞤺𞤮𞤤": 5698,
      "##𞤪𞤣𞤵𞥅𞤪𞤫": 5699,
      "##𞤧𞥆𞤢𞤤𞤢𞥄𞤥": 5700,
      "𞤲𞤺𞤵𞤴𞤳𞤢": 5701,
      "𞤱𞤫𞤤𞤼𞤢𞤲𞤭𞤳𞤫": 5702,
      "𞤅𞤉𞤲𞤫𞤺𞤢𞤤": 5703,
      "remercie": 5704,
      "𞤏𞤢𞤺𞤢𞤣𞤵𞤺𞤵": 5705,
      "𞤄𞤓𞤈𞤑𞤋𞤐𞤀": 5706,
      "𞤚𞤪𞤢𞤲𞤧𞤤𞤫𞤼": 5707,
      "𞤑𞤢𞤤𞤭𞤬𞤮𞤪𞤲": 5708,
      "Alphabet": 5709,
      "App": 5710,
      "FC": 5711,
      "In": 5712,
      "La": 5713,
      "Le": 5714,
      "RH": 5715,
      "UD": 5716,
      "ab": 5717,
      "cli": 5718,
      "min": 5719,
      "of": 5720,
      "pl": 5721,
      "tr": 5722,
      "ter": 5723,
      "tab": 5724,
      "ال": 5725,
      "𞤀𞤁𞤉": 5726,
      "𞤁𞤭𞥅": 5727,
      "𞤁𞤮𞤲": 5728,
      "𞤁𞤭𞤤": 5729,
      "𞤁𞤮𞤱": 5730,
      "𞤁𞤭𞥅𞤧": 5731,
      "𞤁𞤢𞥄𞤱𞤵𞥅𞤣𞤢": 5732,
      "𞤂𞤢": 5733,
      "𞤂𞤭𞤧": 5734,
      "𞤂𞤢𞤲𞤧": 5735,
      "𞤂𞤢𞤪𞤫": 5736,
      "𞤂𞤮𞤪𞤢𞤲": 5737,
      "𞤂𞤢𞤸𞤫𞥅𞤪𞤭": 5738,
      "𞤃𞤢𞥄": 5739,
      "𞤃𞤢𞥄𞤥𞤢": 5740,
      "𞤃𞤵𞤤𞥆𞤫𞤪𞤫": 5741,
      "𞤃𞤀𞤅": 5742,
      "𞤃𞤉𞤑": 5743,
      "𞤄𞤢𞤤": 5744,
      "𞤄𞤮𞤪": 5745,
      "𞤄𞤢𞥄𞤥": 5746,
      "𞤄𞤋𞤅": 5747,
      "𞤄𞤀𞤒": 5748,
      "𞤄𞤭𞤥𞤦𞤭": 5749,
      "𞤄𞤤𞤫𞤧": 5750,
      "𞤅𞤫𞤪𞤫": 5751,
      "𞤅𞤢𞥄𞤪": 5752,
      "𞤅𞤓𞤐": 5753,
      "𞤅𞤢𞤸𞤪𞤫": 5754,
      "𞤅𞤮𞤪𞤮": 5755,
      "𞤅𞤀𞥄𞤈": 5756,
      "𞤅𞤓𞤁": 5757,
      "𞤆𞤫": 5758,
      "𞤆𞤫𞥅": 5759,
      "𞤆𞤭𞤴": 5760,
      "𞤇𞤢𞤴": 5761,
      "𞤇𞤫𞤴": 5762,
      "𞤈𞤵": 5763,
      "𞤈𞤋": 5764,
      "𞤈𞤌𞤐𞤀𞤂": 5765,
      "𞤉𞥅": 5766,
      "𞤉𞤥𞤦": 5767,
      "𞤊𞤢": 5768,
      "𞤊𞤢𞤪": 5769,
      "𞤊𞤮𞤪": 5770,
      "𞤊𞤀𞤅": 5771,
      "𞤊𞤭𞤶": 5772,
      "𞤋𞤾": 5773,
      "𞤍𞤭": 5774,
      "𞤍𞤭𞥅": 5775,
      "𞤍𞤫𞤴𞤢": 5776,
      "𞤏𞤢𞤤": 5777,
      "𞤏𞤫𞤴𞤢": 5778,
      "𞤐𞤵𞥅": 5779,
      "𞤐𞤺𞤮𞤤": 5780,
      "𞤐𞤭𞤥": 5781,
      "𞤐𞤫𞤱": 5782,
      "𞤐𞤣𞤭𞥅": 5783,
      "𞤐𞤢𞤧": 5784,
      "𞤐𞤫𞥅𞤩": 5785,
      "𞤑𞤫": 5786,
      "𞤑𞤭𞥅": 5787,
      "𞤑𞤵𞥅": 5788,
      "𞤑𞤵𞤪": 5789,
      "𞤑𞤢𞤨": 5790,
      "𞤑𞤢𞤧": 5791,
      "𞤑𞤮𞥅𞤴": 5792,
      "𞤑𞤵𞤪𞤵": 5793,
      "𞤑𞤵𞤥𞤨𞤭𞤼": 5794,
      "𞤒𞤫𞥅": 5795,
      "𞤓𞤪𞤣𞤵𞥅𞤪𞤫": 5796,
      "𞤔𞤢𞥄𞤩": 5797,
      "𞤔𞤢𞤸𞤫": 5798,
      "𞤖𞤢": 5799,
      "𞤖𞤢𞤨": 5800,
      "𞤖𞤫𞤧": 5801,
      "𞤘𞤫𞥅": 5802,
      "𞤘𞤭𞤥": 5803,
      "𞤙𞤢𞥄𞤲": 5804,
      "𞤚𞤮𞥅": 5805,
      "𞤚𞤵𞤱": 5806,
      "𞤚𞤮𞤥": 5807,
      "𞤝𞤢𞤪": 5808,
      "𞤢𞤦": 5809,
      "𞤢𞤲𞤣𞤫": 5810,
      "𞤣𞤭𞤪𞤣𞤫": 5811,
      "𞤣𞤭𞤪𞤢": 5812,
      "𞤣𞤵𞤲𞤣": 5813,
      "𞤤𞤭𞥅𞤤": 5814,
      "𞤤𞤵𞤲𞤣": 5815,
      "𞤤𞤢𞥄𞤲𞤢": 5816,
      "𞤤𞤢𞤩𞥆𞤭𞤲": 5817,
      "𞤤𞤢𞤳𞥆𞤫𞤪𞤫": 5818,
      "𞤥𞤫𞤯": 5819,
      "𞤦𞤢𞤺𞥆𞤫": 5820,
      "𞤦𞤫𞤼𞤫": 5821,
      "𞤦𞤢𞥄𞤬": 5822,
      "𞤧𞤢𞤼": 5823,
      "𞤧𞤢𞤺": 5824,
      "𞤧𞤫𞥅𞤣𞤫𞥅": 5825,
      "𞤨𞤢𞤥": 5826,
      "𞤨𞤭𞤲𞤳𞤢": 5827,
      "𞤩𞤢𞥄": 5828,
      "𞤩𞤢𞥄𞤪": 5829,
      "𞤩𞤢𞥄𞤴𞤼𞤭": 5830,
      "𞤫𞤼𞤢𞤺𞤮𞤤": 5831,
      "𞤬𞤢𞤺𞥆𞤵": 5832,
      "𞤯𞤢": 5833,
      "𞤯𞤢𞤼𞤫": 5834,
      "𞤰𞤫𞤤": 5835,
      "𞤱𞤮𞤴": 5836,
      "𞤲𞤶𞤫": 5837,
      "𞤲𞤢𞤲𞤭": 5838,
      "𞤲𞤢𞤧": 5839,
      "𞤲𞤢𞥄𞤲𞤺𞤫": 5840,
      "𞤳𞤢𞤲𞤳": 5841,
      "𞤴𞤮𞥅𞤪𞤵": 5842,
      "𞤶𞤭𞤤": 5843,
      "𞤶𞤢𞥄𞤺": 5844,
      "𞤶𞤢𞤨𞤢𞤲": 5845,
      "𞤷𞤢𞤤": 5846,
      "𞤷𞤵𞤩𞤫": 5847,
      "𞤷𞤫𞥅𞤣𞤫": 5848,
      "𞤷𞤵𞤲𞤼": 5849,
      "𞤷𞤵𞥅𞤷": 5850,
      "𞤸𞤭𞤲𞥋": 5851,
      "𞤸𞤭𞥅𞤪𞤲𞤢": 5852,
      "𞤺𞤢𞥄𞤤": 5853,
      "𞤺𞤢𞤲𞤣𞤮": 5854,
      "𞤺𞤢𞤯𞤢": 5855,
      "𞤼𞤢𞥄𞤤𞤭": 5856,
      "𞤽𞤫𞥅𞤪": 5857,
      "𞥔𞥔": 5858,
      "𞥔𞥑": 5859,
      "𞥔𞥗": 5860,
      "𞥕𞥖": 5861,
      "𞥕𞥐𞥐": 5862,
      "𞥖𞥘": 5863,
      "𞥘𞥕": 5864,
      "🇲🇦": 5865,
      "##𞥆𞤢𞤦": 5866,
      "##𞥆𞤢𞤤𞤭": 5867,
      "##𞤲𞤢𞥄𞤣𞤫": 5868,
      "##𞤲𞤭𞤼𞤭": 5869,
      "##𞤲𞤭𞥅𞤧𞤢": 5870,
      "##𞤺𞤵𞤲": 5871,
      "##𞤺𞤵𞤤": 5872,
      "##𞤤𞤭𞥅": 5873,
      "##𞤢𞤽": 5874,
      "##𞤢𞤳𞤫": 5875,
      "##𞤫𞤪𞤭": 5876,
      "##𞤣𞤢𞥄𞤣𞤫": 5877,
      "##𞤣𞥆𞤭𞤪": 5878,
      "##𞤣𞤮𞥅𞤶𞤫": 5879,
      "##𞥅𞤪𞤫": 5880,
      "##𞤧𞤩𞤫": 5881,
      "##𞤧𞤭𞥅𞤩𞤫": 5882,
      "##𞤥𞤢𞤪": 5883,
      "##𞤦𞤫𞤪": 5884,
      "##𞤦𞤢𞤥𞤩𞤫": 5885,
      "##𞤩𞤣𞤭": 5886,
      "##𞤵𞤣𞤵𞤣𞤫": 5887,
      "##𞤶𞤢𞤥": 5888,
      "##𞤶𞤢𞥄𞤪𞤭": 5889,
      "##𞤼𞤭𞤥": 5890,
      "##𞤼𞤮𞥅𞤪𞤫": 5891,
      "##𞤼𞤢𞤲𞤮": 5892,
      "##𞤈𞤉": 5893,
      "##𞤁𞤌": 5894,
      "##𞤁𞤀𞥄": 5895,
      "##𞤌𞤅": 5896,
      "##𞤀𞤖": 5897,
      "##𞤳𞤮𞤲": 5898,
      "##𞤳𞤭𞤴𞤫": 5899,
      "##𞤨𞥆": 5900,
      "##𞤰𞤵𞤣𞤫": 5901,
      "##𞤬𞤼": 5902,
      "##𞤃𞤀𞤐": 5903,
      "##𞤷𞤫": 5904,
      "##𞤷𞤫𞤧": 5905,
      "##𞤑𞤓": 5906,
      "##uage": 5907,
      "##ten": 5908,
      "##tic": 5909,
      "##oo": 5910,
      "##ob": 5911,
      "##ost": 5912,
      "##lis": 5913,
      "##rtic": 5914,
      "##se": 5915,
      "##sist": 5916,
      "##𞤓𞤄": 5917,
      "##me": 5918,
      "##𞤘𞤌𞤂𞤀": 5919,
      "##ger": 5920,
      "##𞤚𞤋": 5921,
      "##𞥑𞥙": 5922,
      "##𞤻𞤭": 5923,
      "##𞥕𞥐": 5924,
      "##𞤜𞤋": 5925,
      "##𞤜𞤀𞤈": 5926,
      "##𞥒𞥔": 5927,
      "##FA": 5928,
      "##𞤢𞥄𞤭𞥅𞤤𞤢": 5929,
      "##𞤣𞤫𞤼𞤫𞥅": 5930,
      "##𞤢𞤤𞤩𞤫": 5931,
      "##𞤢𞤲𞤼𞤭": 5932,
      "##𞤢𞤲𞤮𞥅𞤲": 5933,
      "##𞤢𞤲𞤢𞤺𞤮𞤤": 5934,
      "##𞤭𞥅𞤱𞤢": 5935,
      "##𞤭𞤲𞤣": 5936,
      "##𞤭𞤲𞤳": 5937,
      "##𞤭𞤲𞤢𞤲𞤣𞤫": 5938,
      "𞤳𞤢𞤼": 5939,
      "𞤳𞤢𞤬𞤢𞥄": 5940,
      "##𞤢𞤪𞤶𞤢𞥄𞤪𞤭": 5941,
      "𞤲𞤺𞤵𞤪": 5942,
      "𞤲𞤺𞤮𞤥": 5943,
      "𞤲𞤺𞤢𞤢𞤤": 5944,
      "##𞤭𞤪𞤭𞤲": 5945,
      "##𞤭𞤪𞤫𞤲": 5946,
      "##𞤢𞤴𞤲𞤣𞤫": 5947,
      "𞤱𞤮𞤲𞤵𞤲": 5948,
      "𞤱𞤮𞤲𞤣𞤵": 5949,
      "𞤱𞤮𞤲𞤢𞤲𞤮𞥅": 5950,
      "𞤱𞤮𞤲𞤣𞤵𞤯𞤮": 5951,
      "##𞤮𞤪𞤢𞥄𞤩𞤫": 5952,
      "##𞥆𞤫𞤼𞤫": 5953,
      "##𞤭𞤼𞤢𞥄": 5954,
      "##𞤭𞤼𞤫𞥅": 5955,
      "𞤥𞤢𞤳𞥆𞤵": 5956,
      "𞤥𞤢𞤳𞥆𞤵𞤲": 5957,
      "##𞤣𞤵𞤺𞤢𞤤": 5958,
      "𞤲𞤣𞤮𞤲𞤣𞤭": 5959,
      "##𞤼𞤭𞤹𞤵": 5960,
      "##𞤢𞤦𞤫𞤼": 5961,
      "##𞤼𞤭𞤲𞤢𞤲": 5962,
      "𞤥𞤮𞤣": 5963,
      "##𞤭𞤴𞤢𞤥": 5964,
      "##𞤭𞤴𞤢𞤲𞤳": 5965,
      "𞤼𞤢𞤱𞤼𞤵𞤺𞤮𞤤": 5966,
      "##𞤢𞥄𞤲𞤢𞥄𞤪𞤫": 5967,
      "##𞥆𞤢𞤸": 5968,
      "𞤤𞤢𞥄𞤥𞤢𞤺𞤮𞤤": 5969,
      "##𞥆𞤭𞤲𞤢": 5970,
      "##𞥆𞤭𞤲𞤢𞥄𞤩𞤫": 5971,
      "##𞥆𞤭𞤲𞤯𞤭𞤲": 5972,
      "##𞤢𞤲𞤳𞤢": 5973,
      "##𞥆𞤭𞤼𞤫": 5974,
      "𞤸𞤢𞤹𞥆𞤫𞥅𞤶𞤭": 5975,
      "𞤯𞤭𞤦": 5976,
      "##𞤵𞤩𞤤𞤫": 5977,
      "##𞤺𞤮𞤧": 5978,
      "##𞤤𞤫𞤪𞤫": 5979,
      "𞤱𞤢𞤯𞤼𞤭": 5980,
      "𞤱𞤢𞤯𞤵𞤯𞤫": 5981,
      "𞤱𞤢𞤯𞤼𞤢𞤲𞤣𞤫": 5982,
      "𞤢𞤪𞤢": 5983,
      "𞤢𞤪𞤣𞤭": 5984,
      "𞤢𞤪𞤢𞤼𞤢": 5985,
      "𞤢𞤪𞤼𞤵𞤺𞤮𞤤": 5986,
      "##𞤫𞤱𞤵": 5987,
      "##𞤫𞤱𞤤𞤵": 5988,
      "##𞤣𞤭𞥅𞤺𞤢𞤤": 5989,
      "##𞤮𞥅𞤪𞤼𞤭𞥅": 5990,
      "##𞤭𞤪𞤭𞤧": 5991,
      "##𞤼𞤭𞥅𞤯𞤫": 5992,
      "𞤢𞤲𞥆𞤢𞤦": 5993,
      "𞤀𞤤𞤹": 5994,
      "𞤸𞤭𞤼𞤮": 5995,
      "𞤸𞤭𞤼𞥆𞤭": 5996,
      "𞤸𞤭𞤼𞥆𞤵𞤣𞤫": 5997,
      "##𞤳𞤢𞤺𞤮𞤤": 5998,
      "𞤥𞤢𞤱𞤲𞤵𞤣𞤫": 5999,
      "##𞤀𞥄𞤟": 6000,
      "𞤼𞤮𞤳𞥆": 6001,
      "𞤧𞤵𞤩𞤮𞤼𞤮𞥅": 6002,
      "𞤣𞤢𞤪𞤼𞤢𞤲": 6003,
      "𞤣𞤢𞤪𞤮𞤼𞤢𞥄𞤳𞤮": 6004,
      "𞤬𞤫𞤰𞥆𞤢": 6005,
      "𞤬𞤫𞤰𞥆𞤵𞤺𞤮𞤤": 6006,
      "##𞤢𞤴𞤲𞤮𞥅𞤩𞤫": 6007,
      "𞤸𞤫𞤩𞤢𞤼𞤢𞥄": 6008,
      "𞤱𞤭𞤢": 6009,
      "𞤱𞤭𞤢𞤴": 6010,
      "𞤱𞤭𞤵𞤺𞤮𞤤": 6011,
      "##𞤣𞤭𞤲𞤳𞤫": 6012,
      "𞤸𞤭𞤯": 6013,
      "𞤥𞤵𞤻": 6014,
      "𞤬𞤮𞥅𞤤𞤢": 6015,
      "𞤲𞤢𞥄𞤼𞤵𞤺𞤮𞤤": 6016,
      "##𞤳𞤮𞤪𞤫": 6017,
      "𞤩𞤫𞤴𞤣𞤢𞤲": 6018,
      "𞤻𞤢𞤱𞤤": 6019,
      "𞤥𞤢𞥄𞤴𞤩𞤫": 6020,
      "𞤺𞤮𞤤𞥆𞤵": 6021,
      "𞤺𞤮𞤤𞥆𞤵𞤣𞤫": 6022,
      "𞤺𞤮𞤤𞥆𞤢𞤲𞤣𞤫": 6023,
      "𞤺𞤮𞤤𞥆𞤮𞥅𞤱𞤮": 6024,
      "##𞤬𞤢𞥄𞤶𞤮": 6025,
      "𞤧𞤢𞤪𞤭𞤪𞤣𞤵": 6026,
      "𞤸𞤢𞤪𞤫𞥅𞤶𞤭": 6027,
      "𞤴𞤫𞥅𞤼𞤭𞥅": 6028,
      "𞤲𞤦𞤮": 6029,
      "𞤲𞤦𞤢𞥄𞤱": 6030,
      "𞤢𞤤𞤥": 6031,
      "𞤢𞤤𞤶𞤢𞤲𞥆𞤢": 6032,
      "𞤶𞤫𞤴𞤢𞥄𞤲𞤺𞤮": 6033,
      "𞤢𞤣𞥆𞤵𞤲𞤮𞥅": 6034,
      "##𞤮𞥅𞤯𞤮𞤲": 6035,
      "𞤣𞤭𞤪𞤼𞤢": 6036,
      "𞤬𞤫𞤱𞤲𞤣𞤭𞤲𞤮𞥅": 6037,
      "##𞤈𞤋𞤚𞤀𞤐": 6038,
      "##𞤢𞥄𞤦𞤵𞤱𞤫": 6039,
      "𞤭𞤼𞥆𞤢": 6040,
      "𞤭𞤼𞥆𞤢𞥄": 6041,
      "𞤭𞤼𞥆𞤵𞤲𞤮": 6042,
      "##𞤮𞤲𞥋𞤣𞤭𞤪𞤮": 6043,
      "𞤴𞤢𞤤𞤼𞤭𞤲𞤫": 6044,
      "𞤴𞤢𞤤𞤼𞤭𞤲𞤫𞥅𞤣𞤫": 6045,
      "𞤴𞤢𞤤𞤼𞤭𞤲𞤢𞤲𞤮𞥅": 6046,
      "𞤬𞤭𞤶𞤮𞥅𞤱𞤮": 6047,
      "##𞤮𞤴𞤢𞤴": 6048,
      "##𞤮𞤴𞤼𞤮": 6049,
      "𞤀𞥄𞤼𞤭𞤹𞤵": 6050,
      "𞤑𞤌𞤅𞤚𞤀": 6051,
      "##𞤫𞤼𞤫𞥅𞤶𞤮": 6052,
      "𞤲𞤢𞤲𞤺𞤮𞤲": 6053,
      "𞤲𞤢𞤲𞤺𞤵𞤺𞤮𞤤": 6054,
      "##𞤉𞤐𞤘": 6055,
      "##𞤉𞤐𞤅𞤀𞤐": 6056,
      "𞤨𞤭𞤴𞤵𞤲𞤮𞥅": 6057,
      "𞤼𞤫𞥅𞤥": 6058,
      "𞤱𞤭𞤴𞤵𞤣𞤫": 6059,
      "𞤐𞤦𞤢𞤤𞤣𞤫": 6060,
      "𞤭𞤥𞥆𞤭𞥅": 6061,
      "𞤸𞤭𞤳𞥆𞤮𞤪𞤭": 6062,
      "𞤸𞤵𞥅𞤱𞤵𞤣𞤫": 6063,
      "𞤻𞤢𞥄𞤥𞤯𞤭": 6064,
      "𞤬𞤢𞥄𞤤𞤢𞤲𞤮𞥅": 6065,
      "𞤬𞤢𞥄𞤤𞤢𞤲𞤮": 6066,
      "𞤲𞤺𞤵𞤶𞥆𞤮": 6067,
      "𞤸𞤢𞤨𞥆𞤢𞤲": 6068,
      "𞤱𞤢𞤴𞤤𞤭𞥅": 6069,
      "𞤱𞤢𞤴𞤤𞤭𞤼𞤭": 6070,
      "𞤱𞤢𞤤𞥆𞤭": 6071,
      "𞤱𞤢𞤤𞥆𞤭𞤲𞤢𞥄": 6072,
      "𞤸𞤢𞥄𞤤𞤢𞥄𞤤𞤭": 6073,
      "##𞥆𞤭𞤪𞤮": 6074,
      "##𞥆𞤭𞤪𞤯𞤮": 6075,
      "##𞥆𞤭𞤪𞤢𞤲𞤭": 6076,
      "𞤘𞤫𞤲𞤣𞤭𞥅": 6077,
      "𞤶𞤮𞤱𞤢𞤩𞤢𞤤": 6078,
      "𞤤𞤢𞤼𞤫": 6079,
      "𞤭𞤱𞤵𞤣𞤫": 6080,
      "𞤭𞤱𞤢𞤼𞤢": 6081,
      "𞤼𞤮𞤯𞥆𞤢𞤺𞤮𞤤": 6082,
      "𞤼𞤮𞤯𞥆𞤫𞥅𞤣𞤫": 6083,
      "𞤼𞤮𞤯𞥆𞤭𞤲𞤮𞥅": 6084,
      "𞤥𞤮𞤰𞥆𞤮": 6085,
      "𞤥𞤮𞤰𞥆𞤫𞤪𞤫": 6086,
      "𞤥𞤮𞤰𞥆𞤢𞤲𞤭": 6087,
      "𞤶𞤮𞥅𞤯𞥆𞤭𞤲𞤺𞤮𞤤": 6088,
      "𞤶𞤮𞥅𞤯𞥆𞤭𞤲𞤢𞥄": 6089,
      "𞤧𞤮𞥅𞤣𞤭": 6090,
      "𞤧𞤮𞥅𞤣𞤭𞤪": 6091,
      "𞤧𞤮𞥅𞤣𞤭𞤪𞤭": 6092,
      "𞤤𞤮𞤲𞤼𞤮𞤲𞥋𞤣𞤭𞤪𞤢𞤤": 6093,
      "##𞤢𞤥𞤦𞤢": 6094,
      "𞤀𞤦𞤣": 6095,
      "𞤶𞤭𞤩𞤭𞥅": 6096,
      "##𞤢𞤥𞥆𞤢𞤣": 6097,
      "𞤉𞤲𞤣": 6098,
      "𞤉𞤲𞤺𞤫𞤤": 6099,
      "𞤤𞤢𞥄𞤱𞤳𞤢": 6100,
      "𞤦𞤮𞤲𞤭": 6101,
      "𞤦𞤮𞤲𞤢𞤲𞤭": 6102,
      "𞤦𞤮𞤲𞥆𞤵𞤺𞤮𞤤": 6103,
      "𞤲𞤢𞤱𞤲𞤭": 6104,
      "𞤸𞤫𞤱𞤼𞤵𞤺𞤮𞤤": 6105,
      "𞤴𞤭𞤢𞤲𞤣𞤫": 6106,
      "##𞤫𞤥𞤢𞥄𞤩𞤫": 6107,
      "𞤱𞤫𞤤𞤣𞤭𞤲": 6108,
      "𞤼𞤵𞤥𞤦𞤫𞤪𞤫": 6109,
      "𞤢𞤪𞤢𞤲𞤵": 6110,
      "##𞤼𞤮𞥅𞤲𞤣𞤫": 6111,
      "##𞤼𞤭𞤪𞤢𞥄": 6112,
      "##𞤼𞤭𞤪𞤼𞤢": 6113,
      "𞥑𞥙𞥙𞥖": 6114,
      "𞥑𞥙𞥙𞥕": 6115,
      "𞤼𞤮𞤽𞤭𞥅": 6116,
      "𞤼𞤮𞤽𞤢𞤲𞤭": 6117,
      "##𞤴𞤢𞤲𞤳𞤮𞤱𞤢𞤤": 6118,
      "𞤧𞤭𞤲𞤷𞤭𞥅": 6119,
      "𞤧𞤭𞤲𞤷𞤵𞤩𞤫": 6120,
      "𞤶𞤫𞥅𞤯𞤭𞤯𞤮": 6121,
      "𞤃𞤮𞤶𞤮𞤦𞤫𞤪𞤫": 6122,
      "𞤧𞤢𞤤𞤥": 6123,
      "𞤮𞥅𞤻𞤢𞥄𞤪𞤫": 6124,
      "𞤱𞤵𞤪𞤮": 6125,
      "##𞤀𞤚𞤀": 6126,
      "𞤲𞤢𞤬𞤢𞤼𞤢𞥄": 6127,
      "𞤪𞤫𞤲𞤼𞤢𞥄𞤣𞤫": 6128,
      "𞤼𞤭𞤶𞥆𞤢𞥄𞤳𞤢": 6129,
      "𞤲𞤢𞤱𞤲𞤵𞤯𞤮": 6130,
      "𞤴𞤭𞥅𞤤𞤮": 6131,
      "𞤩𞤫𞤴𞤣𞤭𞤼𞤢𞥄": 6132,
      "##ated": 6133,
      "𞤼𞤫𞤣𞥆𞤵𞤯𞤮": 6134,
      "𞤶𞤵𞥅𞤤𞤣𞤫": 6135,
      "𞤶𞤵𞥅𞤤𞤯𞤮": 6136,
      "𞤴𞤭𞥅𞤼𞤢𞥄": 6137,
      "𞤅𞤭𞤤𞤭𞥅𞤪𞤵": 6138,
      "##𞤴𞤢𞥄𞤺𞤢𞤤": 6139,
      "𞤐𞤣𞤫𞤲𞤧𞤢𞤴": 6140,
      "𞤩𞤢𞤲𞤺𞤭𞤲𞤭": 6141,
      "𞤩𞤢𞤲𞤺𞤭𞤲𞤺𞤮𞤤": 6142,
      "𞤥𞤢𞤪𞤭𞤲𞤮𞥅": 6143,
      "𞤥𞤢𞤪𞤣𞤵𞤺𞤢𞤤": 6144,
      "𞤬𞤫𞤱𞤶𞤮": 6145,
      "𞤬𞤫𞤱𞤼𞤵𞤯𞤫": 6146,
      "𞤀𞤪𞤢𞤲𞤮": 6147,
      "𞤲𞤫𞥅𞤩𞤢𞥄𞤤𞤭": 6148,
      "##𞤶𞤮𞤦𞤫": 6149,
      "𞤸𞤢𞤯𞤵𞤺𞤮𞤤": 6150,
      "𞤧𞤢𞥄𞤼𞤭𞤲𞤢𞤲𞤮𞥅": 6151,
      "𞤀𞤁𞤂𞤀𞤃": 6152,
      "𞤀𞤂𞤜𞤀𞤈": 6153,
      "𞤣𞤢𞤯𞤭𞤼𞤮𞤪𞤯𞤫": 6154,
      "𞤣𞤮𞤧𞤼𞤫𞤪𞤫𞤴𞤢𞤲𞤳𞤮𞥅𞤪𞤵": 6155,
      "𞤥𞤮𞥅𞤩𞤼": 6156,
      "𞤻𞤭𞥅𞤩𞤲𞤵𞤣𞤫": 6157,
      "𞤼𞤮𞤪𞤭𞤲𞤮": 6158,
      "𞤧𞤵𞤨𞥆𞤭𞤼𞤭𞥅": 6159,
      "𞤀𞤦𞤣𞤵𞤧𞥆𞤢𞤤𞤢𞥄𞤥": 6160,
      "𞤖𞤮𞤥𞤦𞤮": 6161,
      "𞤥𞤫𞤷𞥆𞤫": 6162,
      "𞤢𞤪𞤣𞤭𞤲𞤮𞥅": 6163,
      "𞤦𞤢𞤪𞤢": 6164,
      "𞤲𞤶𞤮𞤩𞤣𞤭": 6165,
      "𞤣𞤢𞤱𞤪𞤮𞤴𞤢𞤲𞤳𞤫𞥅𞤶𞤫": 6166,
      "𞤀𞤲𞤼𞤵𞤩𞤫": 6167,
      "𞤘𞤮𞥅𞤼𞤮": 6168,
      "𞤷𞤵𞤳𞥆": 6169,
      "𞤬𞤵𞤯𞥆𞤮𞤼𞤮": 6170,
      "𞤳𞤭𞤯𞥆𞤭": 6171,
      "𞤶𞤢𞥄𞤤𞤢𞤺𞤮𞤤": 6172,
      "𞤲𞤮𞤣𞥆𞤢": 6173,
      "𞤧𞤭𞤳𞥆𞤵𞤲𞤮𞥅": 6174,
      "𞤳𞤫𞤧𞤮𞤤": 6175,
      "𞤍𞤫𞤲𞤺𞤢𞤤": 6176,
      "𞤪𞤮𞤲𞤣𞤭𞥅": 6177,
      "𞤼𞤢𞤰𞤢𞥄𞤤𞤫": 6178,
      "𞤧𞤮𞤪𞤮": 6179,
      "##𞤢𞤻𞤭": 6180,
      "𞤲𞤣𞤢𞥄𞤪𞤭𞥅": 6181,
      "𞤱𞤢𞤳𞥆𞤭𞤤𞤢𞥄𞤣𞤫": 6182,
      "𞤱𞤢𞤳𞥆𞤭𞤤𞤭𞤲𞤮": 6183,
      "𞤧𞤵𞤥𞤲𞤭": 6184,
      "𞤯𞤮𞤬": 6185,
      "𞤸𞤵𞥅𞤱𞤼𞤮𞤪𞤫𞥅𞤣𞤫": 6186,
      "𞤧𞤢𞤯𞤵𞤺𞤮𞤤": 6187,
      "𞤻𞤢𞤥𞤢𞥄𞤲𞤣𞤫": 6188,
      "𞤶𞤫𞥅𞤲𞤢𞤴𞤮": 6189,
      "𞤢𞥄𞤩𞤵𞤲𞤣𞤫": 6190,
      "𞤢𞤷𞥆𞤭𞤼𞤫": 6191,
      "𞤖𞤮𞤤𞤢𞤲𞤣": 6192,
      "𞤸𞤮𞥅𞤤𞤢𞥄𞤪𞤫": 6193,
      "𞤤𞤮𞥅𞤱𞤫𞤼𞤫𞥅": 6194,
      "##alde": 6195,
      "UNO": 6196,
      "𞤶𞤮𞥅𞤥": 6197,
      "𞤶𞤮𞥅𞤥𞤢": 6198,
      "𞤼𞤮𞥅𞤤𞤲𞤵𞤺𞤮𞤤": 6199,
      "𞤢𞤲𞤣𞤢𞥄𞤯𞤫": 6200,
      "𞤬𞤭𞤩𞤵𞤣𞤫": 6201,
      "𞤙𞤢𞥄𞤱𞤭𞤲𞥋𞤣𞤮𞤼𞤮𞥅𞤯𞤮": 6202,
      "𞤦𞤮𞥅𞤼𞤮": 6203,
      "𞤴𞤵𞤪𞤥𞤫": 6204,
      "𞤳𞤮𞤴𞤲𞤺𞤢𞤤": 6205,
      "𞤄𞤫𞤲𞤺": 6206,
      "𞤢𞤴𞤦": 6207,
      "𞤩𞤢𞤥𞤼𞤵𞤺𞤮𞤤": 6208,
      "𞤖𞤭𞤱": 6209,
      "𞤵𞤧𞤼𞤢𞥄𞤣𞤫": 6210,
      "##𞤭𞤲𞤺𞤭𞤪": 6211,
      "𞤅𞤵𞤳𞤢": 6212,
      "𞤦𞤢𞤯𞤼𞤭𞤲": 6213,
      "𞤦𞤢𞤯𞤼𞤭𞤲𞤭𞥅": 6214,
      "𞤷𞤫𞤪𞤲𞤮𞥅𞤩𞤫": 6215,
      "𞤸𞤫𞤩𞥆𞤭𞤼𞤮𞤪𞤢": 6216,
      "𞤼𞤵𞤥𞤦𞤮𞤲𞤣𞤭𞤪𞤢𞤤": 6217,
      "𞤚𞤵𞥅𞤲𞤭𞥅𞤧𞤢": 6218,
      "𞤬𞤭𞤤𞥆𞤢𞤴𞤫𞥅": 6219,
      "𞤼𞤫𞤨": 6220,
      "𞤼𞤢𞤧𞤳𞤮": 6221,
      "𞤥𞤢𞤩𞥆𞤭": 6222,
      "𞤸𞤫𞤤𞥆𞤮": 6223,
      "𞤼𞤢𞤼𞤢𞤩𞤭𞤪𞤭": 6224,
      "𞤬𞤫𞤱𞤶𞤵𞤣𞤫": 6225,
      "𞤚𞤵𞤪𞤳𞤭𞤴𞤫": 6226,
      "𞤲𞤢𞤬𞤢𞥄": 6227,
      "𞤳𞤢𞤱𞤼𞤫": 6228,
      "𞤺𞤮𞥅𞤲𞤺": 6229,
      "𞥑𞥙𞥗𞥘": 6230,
      "𞤴𞤫𞤯𞤢𞥄": 6231,
      "𞤀𞤤𞤥𞤢𞤲": 6232,
      "𞤤𞤢𞤲𞤣𞤢𞥄𞤣𞤫": 6233,
      "rep": 6234,
      "𞤬𞤢𞤥𞥆𞤫𞥅𞤪𞤫": 6235,
      "𞤁𞤫𞤥𞤮𞤳𞤢𞤪𞤢𞥄𞤳𞤵": 6236,
      "𞤼𞤭𞤲𞤼𞤵𞤣𞤵𞤣𞤫": 6237,
      "𞤔𞤮𞤸": 6238,
      "𞤻𞤫𞤥𞤼𞤭𞤲": 6239,
      "𞤬𞤵𞤯𞥆𞤭𞤼𞤢𞥄𞤣𞤫": 6240,
      "𞤃𞤓𞤖𞤀𞤃𞥆𞤉𞤁": 6241,
      "𞤢𞤴𞤲𞤮𞥅𞤱𞤮": 6242,
      "𞤲𞤫𞤦": 6243,
      "##𞤭𞤲𞤢𞤴𞤯𞤭": 6244,
      "𞤣𞤢𞤻𞤢𞥄": 6245,
      "𞤧𞤮𞤲𞥆𞤢": 6246,
      "𞤧𞤮𞤲𞥆𞤢𞥄𞤶𞤮": 6247,
      "𞤲𞤺𞤭𞤤𞤳𞤵": 6248,
      "𞤤𞤮𞤲𞤼𞤭𞤲𞤭𞤪𞤢": 6249,
      "𞤥𞤢𞤲𞤣𞤢𞤲": 6250,
      "𞤨𞤫𞤤𞥆𞤫𞤼": 6251,
      "𞤯𞤵𞤴𞤼𞤢𞤴": 6252,
      "𞤺𞤮𞤪𞤳𞤮": 6253,
      "𞤳𞤮𞤯𞤮𞥅𞤤𞤭": 6254,
      "𞤲𞤣𞤢𞤴𞤺": 6255,
      "𞤶𞤫𞥅𞤺𞤮𞥅": 6256,
      "𞤸𞤵𞤥𞤨𞤭𞤼𞤭𞤳𞤫": 6257,
      "𞤔𞤮𞤪𞤶𞤵": 6258,
      "𞤨𞤮𞥅𞤯𞤮𞤲": 6259,
      "𞤺𞤫𞤩𞤫": 6260,
      "𞤼𞤭𞤳𞥆𞤭𞤲𞤭": 6261,
      "𞤼𞤢𞤥𞤰𞤭𞤲𞤭𞤲𞤮𞥅": 6262,
      "𞤉𞤶𞤭𞤨𞤼": 6263,
      "𞤥𞤢𞤤𞤢𞤤": 6264,
      "𞤥𞤮𞤬𞤼𞤫𞤪𞤫": 6265,
      "𞤅𞤭𞤣𞤭𞤳𞤭": 6266,
      "𞤸𞤫𞤤𞥆𞤭𞤬𞤢𞥄𞤯𞤮": 6267,
      "𞤲𞤣𞤢𞤪𞤼𞤭𞤲": 6268,
      "𞤲𞤣𞤢𞤪𞤼𞤭𞤲𞤮": 6269,
      "𞤸𞤢𞤳𞤼𞤭𞤧𞤵": 6270,
      "𞤧𞤫𞤩𞤭𞤼𞤭𞤳𞤫": 6271,
      "𞤃𞤵𞤧𞤤𞤭𞤥": 6272,
      "𞤄𞤵𞤱𞤢𞤳𞤫": 6273,
      "𞤄𞤵𞤱𞤢𞤻𞤭": 6274,
      "𞤩𞤢𞤴𞤪𞤵": 6275,
      "𞤫𞤳𞥆𞤭𞤼": 6276,
      "𞤳𞤭𞤦𞤭𞤪𞤺𞤢𞤤": 6277,
      "𞤴𞤫𞤼𞥆𞤮𞥅𞤪𞤫": 6278,
      "𞤤𞤢𞤦𞤵𞤼𞤢𞥄𞤲𞤭𞥅𞤪𞤵": 6279,
      "𞤀𞤐𞤘𞤌𞤂𞤀": 6280,
      "𞤁𞤌𞤅𞤚": 6281,
      "𞤃𞤢𞥄𞤤𞤭𞤳": 6282,
      "𞤋𞤲𞤫𞤧𞤳𞤮𞥅": 6283,
      "𞤌𞤆𞤉𞤑": 6284,
      "𞤑𞤭𞤧𞤢𞤤": 6285,
      "𞤳𞤢𞥄𞤤𞤣𞤭𞤺𞤢𞤤": 6286,
      "𞤵𞤦𞥆𞤢𞥄": 6287,
      "##𞤡𞤀𞤡𞤀": 6288,
      "𞤁𞤵𞤼𞤫": 6289,
      "𞤇𞤵𞤪𞤭𞥅": 6290,
      "𞤪𞤫𞤧𞤭": 6291,
      "𞤬𞤫𞤰𞥆𞤭𞤼𞤮𞤪𞤭": 6292,
      "𞤼𞤢𞤦𞤭𞤼𞤢𞥄𞤤𞤭": 6293,
      "##andid": 6294,
      "𞤉𞤑𞤏𞤀𞤚𞤉𞤈": 6295,
      "𞤉𞤑𞤏𞤀𞤚𞤉𞥅𞤈𞤋": 6296,
      "language": 6297,
      "𞤂𞤢𞤥𞤭𞥅𞤲": 6298,
      "𞤂𞤫𞤧𞤣𞤭": 6299,
      "𞤄𞤢𞤺𞤦𞤮": 6300,
      "𞤄𞤉𞤈𞤐𞤀𞥄𞤈": 6301,
      "𞤇𞤢𞤤𞤫𞥅𞤶𞤮": 6302,
      "𞤖𞤵𞤧𞤫𞤴": 6303,
      "𞤬𞤵𞤲𞤫𞥅𞤩𞤫": 6304,
      "𞤸𞤢𞤳𞤭𞤲𞤣𞤭𞤲": 6305,
      "𞤱𞤮𞥅𞤲𞤣𞤮𞥅𞤪𞤫": 6306,
      "𞤧𞤮𞤩𞥆𞤭𞥅": 6307,
      "𞤺𞤮𞤤𞥆𞤢𞤲𞤮𞥅𞤱𞤮": 6308,
      "𞤢𞤤𞤯𞤵𞤣𞤫": 6309,
      "𞤼𞤮𞤲𞤺𞤮𞥅𞤣𞤫": 6310,
      "𞤸𞤫𞤣𞥆𞤮𞤼𞤮𞥅": 6311,
      "𞤴𞤢𞥄𞤶𞤵𞤣𞤫": 6312,
      "𞤲𞤺𞤫𞤲𞤣𞤭𞤴𞤢𞤲𞤳𞤮𞥅𞤪𞤫": 6313,
      "𞤀𞤼𞤤𞤢𞤲𞤼𞤭": 6314,
      "𞤃𞤢𞥄𞤥𞤵𞤲": 6315,
      "𞤆𞤢𞤧𞤳𞤢𞤤": 6316,
      "𞤐𞤢𞤦𞤭𞤴𞤢𞤥": 6317,
      "𞤑𞤢𞤲𞤢𞤪𞤭𞥅": 6318,
      "𞤚𞤵𞤥𞤦𞤮𞤲𞥋𞤣𞤭𞤪𞤢𞤤": 6319,
      "𞤣𞤫𞤱𞤫": 6320,
      "𞤲𞤫𞥅𞤩𞤲𞤵𞤼𞤵𞤺𞤮𞤤": 6321,
      "𞤤𞤢𞤥𞤭𞤼𞤮𞤪𞤭": 6322,
      "𞤑𞤭𞤲𞤣𞤭𞤴𞤢𞥄": 6323,
      "𞤁𞤢𞤲𞤥𞤢𞤪": 6324,
      "𞤋𞤈𞤀𞤐": 6325,
      "𞤑𞤀𞤈𞤋𞥅𞤃": 6326,
      "𞤙𞤀𞤃𞤐𞤀𞥄𞤈𞤋": 6327,
      "##𞤲𞤢𞥄𞤺𞤫": 6328,
      "##𞤨𞥆𞤭𞤼𞤢𞤺𞤮𞤤": 6329,
      "𞤳𞤵𞥅𞤱𞤯𞤫": 6330,
      "𞤢𞤤𞤳𞤵𞤤𞤫": 6331,
      "𞤀𞥄𞤥𞤭𞤲𞤢": 6332,
      "Guide": 6333,
      "𞤅𞤢𞤲𞤣𞤫𞤪𞤧": 6334,
      "𞤈𞤋𞤑𞤀": 6335,
      "𞤋𞤣𞤪𞤭𞤧": 6336,
      "𞤐𞤫𞤯𞥆𞤮": 6337,
      "𞤑𞤋𞤐𞤡𞤀𞤡𞤀": 6338,
      "𞤚𞤵𞤼𞤧𞤭𞥅𞤩𞤫": 6339,
      "𞤧𞤢𞥄𞤳𞤭𞤼": 6340,
      "𞤬𞤵𞤤𞤩𞤫": 6341,
      "𞤺𞤭𞥅𞤦𞤢": 6342,
      "##𞥁𞤭𞥅𞥁": 6343,
      "##𞤮𞤲𞤳𞤫𞤱𞤢𞤤": 6344,
      "##𞤢𞤪𞤻𞤭𞤼𞤫": 6345,
      "𞤃𞤮𞤪𞤭𞤧𞤢𞤲𞤣𞤢": 6346,
      "𞤃𞤢𞤪𞤮𞥅𞤳": 6347,
      "𞤃𞤫𞤳𞤧𞤭𞤳": 6348,
      "𞤋𞤅𞤈𞤀𞥄𞤒𞤋𞥅𞤂𞤀": 6349,
      "𞤄𞤀𞤟𞤓𞤃": 6350,
      "𞤅𞤭𞤥𞤦𞤢𞥄𞤦𞤵𞤱𞤫": 6351,
      "𞤁𞤀𞤐𞤃𞤀𞤈𞤑": 6352,
      "𞤧𞤢𞤲𞤣𞤢𞤪𞤥𞤢𞥄𞤩𞤫": 6353,
      "FCFA": 6354,
      "RHDP": 6355,
      "plus": 6356,
      "tabalde": 6357,
      "𞤀𞤁𞤉𞤃𞤀": 6358,
      "𞤂𞤢𞤺𞤮𞤧": 6359,
      "𞤂𞤢𞤲𞤧𞤢𞤲𞤢": 6360,
      "𞤄𞤢𞥄𞤥𞤢𞤪": 6361,
      "𞤄𞤋𞤅𞤀𞤏": 6362,
      "𞤅𞤓𞤁𞤀𞤐": 6363,
      "𞤊𞤀𞤅𞤌": 6364,
      "𞤑𞤮𞥅𞤴𞤢𞥄": 6365,
      "𞤖𞤢𞤨𞥆𞤵": 6366,
      "𞤘𞤭𞤥𞤯𞤭": 6367,
      "𞤥𞤫𞤯𞤫𞤲": 6368,
      "𞤬𞤢𞤺𞥆𞤵𞤣𞤵": 6369,
      "𞤷𞤵𞤲𞤼𞤵𞥅𞤶𞤫": 6370,
      "##𞤷𞤫𞤧𞤼𞤫𞤪": 6371,
      "##lish": 6372,
      "##rticles": 6373,
      "##𞤈𞤋𞤚𞤀𞤐𞤋": 6374,
      "𞤁𞤢𞤲𞤥𞤢𞤪𞤳": 6375,
      "15": 6376,
      "10": 6377,
      "20": 6378,
      "30": 6379,
      "75": 6380,
      "70": 6381,
      "As": 6382,
      "Aiss": 6383,
      "BB": 6384,
      "Bro": 6385,
      "Ed": 6386,
      "En": 6387,
      "Eng": 6388,
      "Fin": 6389,
      "Fou": 6390,
      "He": 6391,
      "Ind": 6392,
      "Ly": 6393,
      "Les": 6394,
      "Lill": 6395,
      "Mu": 6396,
      "Mar": 6397,
      "Mus": 6398,
      "Pour": 6399,
      "Pro": 6400,
      "Sc": 6401,
      "Soci": 6402,
      "Th": 6403,
      "au": 6404,
      "al": 6405,
      "articles": 6406,
      "by": 6407,
      "cre": 6408,
      "cour": 6409,
      "cré": 6410,
      "candid": 6411,
      "du": 6412,
      "donn": 6413,
      "est": 6414,
      "harm": 6415,
      "je": 6416,
      "lum": 6417,
      "mill": 6418,
      "opp": 6419,
      "occ": 6420,
      "pres": 6421,
      "pers": 6422,
      "prés": 6423,
      "rue": 6424,
      "sp": 6425,
      "ser": 6426,
      "sal": 6427,
      "sous": 6428,
      "wel": 6429,
      "𝘁𝗮": 6430,
      "𞤀𞤅": 6431,
      "𞤀𞤟": 6432,
      "𞤀𞤼𞤢𞤤": 6433,
      "𞤀𞤪𞤭𞤧": 6434,
      "𞤀𞥁𞤭𞥅𞥁": 6435,
      "𞤁𞤢𞤱": 6436,
      "𞤁𞤢𞤦": 6437,
      "𞤁𞤮𞤴": 6438,
      "𞤁𞤮𞤧": 6439,
      "𞤂𞤭𞥅": 6440,
      "𞤂𞤭𞤲": 6441,
      "𞤂𞤭𞤴": 6442,
      "𞤂𞤵𞤱": 6443,
      "𞤂𞤢𞤪𞤢𞤤": 6444,
      "𞤂𞤋𞤂𞤋": 6445,
      "𞤃𞤭𞤲": 6446,
      "𞤃𞤵𞤼": 6447,
      "𞤃𞤮𞤧": 6448,
      "𞤃𞤵𞤲𞤣": 6449,
      "𞤃𞤭𞤤𞤭𞤴𞤮𞤲": 6450,
      "𞤄𞤤": 6451,
      "𞤄𞤢𞤤𞤢": 6452,
      "𞤄𞤫𞤴": 6453,
      "𞤄𞤢𞤧": 6454,
      "𞤄𞤮𞤴": 6455,
      "𞤄𞤋𞤒": 6456,
      "𞤄𞤪𞤭𞤧": 6457,
      "𞤅𞤵𞤲": 6458,
      "𞤅𞤵𞤤": 6459,
      "𞤅𞤫𞤤": 6460,
      "𞤅𞤫𞤯": 6461,
      "𞤅𞤢𞤬": 6462,
      "𞤅𞤢𞥄𞤲𞤮": 6463,
      "𞤅𞤉𞥅": 6464,
      "𞤅𞤢𞤬𞤪": 6465,
      "𞤅𞤓𞤃": 6466,
      "𞤆𞤪𞤭": 6467,
      "𞤆𞤫𞤣": 6468,
      "𞤆𞤮𞤤𞤮": 6469,
      "𞤆𞤢𞤪𞤻𞤭𞤼𞤫": 6470,
      "𞤇𞤢𞤲𞤺": 6471,
      "𞤇𞤵𞤪𞤭": 6472,
      "𞤇𞤭𞤯": 6473,
      "𞤇𞤫𞤴𞤢": 6474,
      "𞤈𞤵𞤼": 6475,
      "𞤈𞤮𞤧": 6476,
      "𞤈𞤵𞥅𞤦": 6477,
      "𞤈𞤢𞤬𞤭𞥅": 6478,
      "𞤉𞤃": 6479,
      "𞤉𞤼𞤭𞤴": 6480,
      "𞤊𞤈": 6481,
      "𞤊𞤢𞤲": 6482,
      "𞤊𞤮𞤤": 6483,
      "𞤊𞤭𞤪": 6484,
      "𞤊𞤢𞥄𞤸𞤭𞤲": 6485,
      "𞤊𞤤𞤮𞤴": 6486,
      "𞤋𞥅": 6487,
      "𞤋𞤅𞤃": 6488,
      "𞤌𞤬": 6489,
      "𞤏𞤵𞥅": 6490,
      "𞤏𞤫𞤤": 6491,
      "𞤏𞤭𞤧": 6492,
      "𞤏𞤢𞥄𞤣": 6493,
      "𞤏𞤀𞤚𞤀𞤈": 6494,
      "𞤐𞤭𞤤": 6495,
      "𞤐𞤵𞤤": 6496,
      "𞤑𞤫𞤲": 6497,
      "𞤑𞤭𞤤": 6498,
      "𞤑𞤮𞥅𞤤": 6499,
      "𞤑𞤓𞤂": 6500,
      "𞤑𞤮𞥅𞤸": 6501,
      "𞤑𞤮𞥅𞤣𞤫": 6502,
      "𞤑𞤢𞤪𞤭𞥅": 6503,
      "𞤑𞤵𞤦𞤢𞥄": 6504,
      "𞤑𞤭𞤪𞤭𞤧": 6505,
      "𞤒𞤮𞤲": 6506,
      "𞤒𞤢𞤱": 6507,
      "𞤒𞤢𞤥": 6508,
      "𞤒𞤫𞤱": 6509,
      "𞤒𞤉𞤈": 6510,
      "𞤓𞤃𞤀𞤈": 6511,
      "𞤔𞤭": 6512,
      "𞤔𞤭𞤲": 6513,
      "𞤔𞤫𞤲": 6514,
      "𞤔𞤢𞤪": 6515,
      "𞤔𞤢𞥄𞤱": 6516,
      "𞤔𞤮𞥅𞤤": 6517,
      "𞤔𞤮𞥅𞤲": 6518,
      "𞤔𞤮𞤺": 6519,
      "𞤔𞤢𞥄𞤪𞤭": 6520,
      "𞤕𞤭𞤴": 6521,
      "𞤕𞤢𞤳": 6522,
      "𞤕𞤢𞤣": 6523,
      "𞤕𞤉𞤈𞤐": 6524,
      "𞤕𞤫𞤥𞤦𞤫": 6525,
      "𞤖𞤵𞥅": 6526,
      "𞤖𞤭𞤪": 6527,
      "𞤘𞤫": 6528,
      "𞤘𞤢𞤤": 6529,
      "𞤘𞤢𞤲": 6530,
      "𞤘𞤭𞥅": 6531,
      "𞤘𞤢𞤧": 6532,
      "𞤘𞤌𞤐": 6533,
      "𞤘𞤀𞥄𞤟": 6534,
      "𞤙𞤢𞤱𞤵": 6535,
      "𞤚𞤫𞥅": 6536,
      "𞤚𞤓𞥅": 6537,
      "𞤚𞤭𞤨": 6538,
      "𞤚𞤭𞤶": 6539,
      "𞤛𞤢𞤤": 6540,
      "𞤜𞤫𞤪": 6541,
      "𞤜𞤭𞤳": 6542,
      "𞤜𞤉𞤐𞤅𞤀𞤐": 6543,
      "𞤟𞤢𞤴𞤲": 6544,
      "𞤟𞤀𞤐": 6545,
      "𞤡𞤋𞤐": 6546,
      "𞤣𞤢𞤲𞤳": 6547,
      "𞤣𞤢𞤺": 6548,
      "𞤣𞤮𞤴": 6549,
      "𞤣𞤮𞤧": 6550,
      "𞤣𞤭𞤲𞤺𞤭𞤪": 6551,
      "𞤤𞤭𞥅𞤧": 6552,
      "𞤤𞤭𞤺": 6553,
      "𞤤𞤵𞤺": 6554,
      "𞤥𞤮𞤲𞤮": 6555,
      "𞤥𞤢𞥄𞤲𞤣𞤭": 6556,
      "𞤥𞤵𞤤𞥆𞤫": 6557,
      "𞤥𞤢𞥄𞤲𞤢𞥄": 6558,
      "𞤦𞤫": 6559,
      "𞤦𞤵𞤪": 6560,
      "𞤦𞤢𞥄𞤦": 6561,
      "𞤦𞤢𞥄𞤨": 6562,
      "𞤦𞤵𞥅𞤼𞤮𞥅": 6563,
      "𞤦𞤮𞥅𞤪𞤼𞤭𞥅": 6564,
      "𞤧𞤢𞤲": 6565,
      "𞤧𞤵𞥅": 6566,
      "𞤧𞤢𞤴": 6567,
      "𞤧𞤢𞤤𞤭": 6568,
      "𞤧𞤢𞤧": 6569,
      "𞤧𞤢𞥄𞤤𞤭𞥅": 6570,
      "𞤨𞤭": 6571,
      "𞤨𞤢𞤪": 6572,
      "𞤨𞤭𞤼": 6573,
      "𞤨𞤫𞤱": 6574,
      "𞤨𞤫𞤤": 6575,
      "𞤨𞤮𞥅𞤪𞤫": 6576,
      "𞤩𞤭𞤧": 6577,
      "𞤩𞤢𞤣𞤭": 6578,
      "𞤩𞤵𞥅𞤪𞤭": 6579,
      "𞤩𞤵𞤪𞤫": 6580,
      "𞤩𞤢𞤱𞤼𞤭": 6581,
      "𞤩𞤮𞥅𞤧": 6582,
      "𞤪𞤮𞤱": 6583,
      "𞤪𞤢𞤽": 6584,
      "𞤫𞤼𞤢𞥄𞤣𞤫": 6585,
      "𞤬𞤢𞤤": 6586,
      "𞤬𞤵𞥅": 6587,
      "𞤬𞤭𞤴": 6588,
      "𞤬𞤢𞥄𞤲": 6589,
      "𞤬𞤭𞤲𞤣𞤫": 6590,
      "𞤬𞤮𞤲𞤺𞤮": 6591,
      "𞤯𞤢𞥄": 6592,
      "𞤯𞤮𞥅𞤲": 6593,
      "𞤰𞤮𞥅": 6594,
      "𞤰𞤢𞥄𞤪": 6595,
      "𞤱𞤮𞤱": 6596,
      "𞤱𞤭𞤴𞤢": 6597,
      "𞤱𞤵𞤴": 6598,
      "𞤱𞤢𞥄𞤶": 6599,
      "𞤲𞤭𞤥": 6600,
      "𞤳𞤭": 6601,
      "𞤳𞤭𞤼": 6602,
      "𞤳𞤫𞤪": 6603,
      "𞤴𞤢𞥄𞤩": 6604,
      "𞤵𞤶𞤵𞤲": 6605,
      "𞤶𞤫𞤲": 6606,
      "𞤶𞤭𞤥": 6607,
      "𞤶𞤵𞤳𞤮": 6608,
      "𞤶𞤵𞤥𞤢": 6609,
      "𞤷𞤢𞥄": 6610,
      "𞤷𞤮𞤤": 6611,
      "𞤷𞤫𞥅𞤪": 6612,
      "𞤷𞤫𞤥": 6613,
      "𞤷𞤢𞤸𞤫": 6614,
      "𞤷𞤫𞤤𞤫": 6615,
      "𞤷𞤭𞤬": 6616,
      "𞤸𞤭𞤦": 6617,
      "𞤸𞤭𞥅𞤪": 6618,
      "𞤺𞤵𞤲": 6619,
      "𞤺𞤢𞤲𞤣𞤫": 6620,
      "𞤺𞤫𞤤": 6621,
      "𞤺𞤢𞤴𞤲𞤢": 6622,
      "𞤻𞤮𞥅": 6623,
      "𞤻𞤫𞤲": 6624,
      "𞤻𞤭𞤩": 6625,
      "𞤻𞤤𞤢𞤲𞤣𞤫": 6626,
      "𞥃𞤭𞥅𞥃𞤢": 6627,
      "𞥓𞥓": 6628,
      "𞥓𞥘": 6629,
      "𞥔𞥓": 6630,
      "𞥕𞥑": 6631,
      "𞥕𞥒": 6632,
      "𞥖𞥔": 6633,
      "𞥗𞥓": 6634,
      "𞥗𞥔": 6635,
      "𞥗𞥘": 6636,
      "𞥗𞥑": 6637,
      "𞥗𞥕": 6638,
      "𞥘𞥗": 6639,
      "𞥘𞥖": 6640,
      "𞥙𞥑": 6641,
      "🇭🇷": 6642,
      "##𞤮𞤯𞤢𞥄": 6643,
      "##𞥆𞤢𞥄𞤲": 6644,
      "##𞥆𞤢𞥄𞤪𞤫": 6645,
      "##𞥆𞤮𞤪𞤭": 6646,
      "##𞥆𞤀𞤃𞤄": 6647,
      "##𞥆𞤵𞤲𞥋𞤺𞤢𞤤": 6648,
      "##𞥆𞤮𞤪𞤣𞤵": 6649,
      "##𞥆𞤵𞤲𞥋𞤺𞤮": 6650,
      "##𞤲𞤫𞤪": 6651,
      "##𞤲𞤢𞤼𞤢𞥄": 6652,
      "##𞤺𞤭𞤼": 6653,
      "##𞤢𞤣𞤫": 6654,
      "##𞤱𞤭𞥅": 6655,
      "##𞤣𞤢𞤱": 6656,
      "##𞤣𞤢𞤼𞤢𞥄": 6657,
      "##𞤣𞤢𞥄𞤲𞤮": 6658,
      "##𞤣𞤢𞤪𞤭𞥅𞤩𞤫": 6659,
      "##𞥅𞤈": 6660,
      "##𞤧𞤫": 6661,
      "##𞤥𞤢𞥄𞤶𞤭": 6662,
      "##𞤥𞤢𞥄𞤶𞤮": 6663,
      "##𞤦𞤵": 6664,
      "##𞤦𞤮𞥅": 6665,
      "##𞤦𞤢𞤴": 6666,
      "##𞤦𞤭𞤲𞤣𞤫": 6667,
      "##𞤩𞥆𞤭": 6668,
      "##𞤩𞥆𞤢𞤤": 6669,
      "##𞤴𞤢𞥄𞤩𞤫": 6670,
      "##𞤴𞤫𞥅𞤶𞤫": 6671,
      "##𞤴𞤮𞤪𞤳": 6672,
      "##𞤵𞥃": 6673,
      "##𞤵𞤵𞤲": 6674,
      "##𞤵𞤺𞤢𞤤": 6675,
      "##𞤄𞤋𞥅": 6676,
      "##𞤼𞤢𞥄𞤲𞤣𞤫": 6677,
      "##𞤈𞤀𞥄𞤖": 6678,
      "##𞤁𞥆": 6679,
      "##𞤌𞤚": 6680,
      "##𞤀𞤘": 6681,
      "##𞤳𞤭𞥅𞤩𞤫": 6682,
      "##𞤳𞤮𞤪𞤮": 6683,
      "##𞤋𞤅𞤋": 6684,
      "##𞤨𞤫": 6685,
      "##𞤨𞥆𞤭": 6686,
      "##𞤨𞤭𞤦": 6687,
      "##𞤰𞤫": 6688,
      "##𞤰𞥆𞤫𞤪𞤫": 6689,
      "##𞤉𞤏": 6690,
      "##𞤬𞤢𞤴": 6691,
      "##𞤅𞤀𞤚𞤓": 6692,
      "##𞤷𞤮𞤤": 6693,
      "##𞤑𞤋𞤐": 6694,
      "##uc": 6695,
      "##ua": 6696,
      "##ure": 6697,
      "##ais": 6698,
      "##tit": 6699,
      "##ting": 6700,
      "##ib": 6701,
      "##oc": 6702,
      "##orit": 6703,
      "##lat": 6704,
      "##𞤽𞤢𞤤": 6705,
      "##so": 6706,
      "##slat": 6707,
      "##𞤓𞤅": 6708,
      "##𞤓𞤑": 6709,
      "##hn": 6710,
      "##gh": 6711,
      "##NI": 6712,
      "##𞤚𞤌": 6713,
      "##𞤚𞤉": 6714,
      "##𞤟𞤀𞤈": 6715,
      "##𞤟𞤋𞤒𞤀𞤐": 6716,
      "##𞥃𞤭𞥅𞤪": 6717,
      "##vis": 6718,
      "##viv": 6719,
      "##vand": 6720,
      "##𞤆𞤭": 6721,
      "##𞥒𞥖": 6722,
      "##IG": 6723,
      "##𞤔𞤌": 6724,
      "##𞤔𞤋": 6725,
      "##𝗮𝗹": 6726,
      "##𞥁𞤭𞤲": 6727,
      "##𞥁𞤫𞤲": 6728,
      "##AD": 6729,
      "##22": 6730,
      "##00": 6731,
      "##çais": 6732,
      "##𝗯𝗮𝗹": 6733,
      "##𞤣𞤫𞤺𞤮𞤤": 6734,
      "##𞤮𞥅𞤨": 6735,
      "##𞤮𞥅𞤯𞤫": 6736,
      "##𞤮𞥅𞤼𞤶𞤫": 6737,
      "##𞤢𞤲𞤼𞤮": 6738,
      "##𞤢𞤲𞤢𞥄𞤲𞤮": 6739,
      "##𞤢𞤲𞤣𞤢𞥄": 6740,
      "##𞤢𞤲𞤢𞤴𞤩𞤫": 6741,
      "##𞤭𞥅𞤥": 6742,
      "##𞤭𞤲𞤢𞤲𞤭": 6743,
      "##𞤭𞤲𞤢𞤺𞤮𞤤": 6744,
      "##𞤭𞤲𞤭𞤪𞤣𞤵": 6745,
      "##𞤫𞥅𞤯𞤫": 6746,
      "##𞤮𞤤𞤵": 6747,
      "##𞤣𞤭𞤧": 6748,
      "𞤳𞤢𞤥𞤦": 6749,
      "##𞤢𞤪𞤮𞥅": 6750,
      "##𞤢𞤪𞤢𞤥": 6751,
      "𞤳𞤮𞤪𞤫": 6752,
      "𞤳𞤮𞤥𞤦": 6753,
      "𞤳𞤮𞤾𞤭𞤣": 6754,
      "##𞤢𞤱𞤢𞥄": 6755,
      "##𞤢𞤱𞤭𞤴": 6756,
      "##𞤭𞤪𞤩𞤫": 6757,
      "##𞤭𞤪𞤢𞤲𞤮𞥅": 6758,
      "##𞤭𞤪𞤢𞥄𞤥𞤢": 6759,
      "##𞤭𞤪𞤲𞤮": 6760,
      "##𞤢𞤴𞥃": 6761,
      "##𞤢𞤴𞤯𞤮": 6762,
      "𞤱𞤮𞤲𞤣": 6763,
      "𞤱𞤮𞤲𞤢𞥄𞤤𞤭": 6764,
      "𞤱𞤮𞤲𞤢𞤼𞤢": 6765,
      "##𞤮𞤪𞤲𞤣𞤫": 6766,
      "##𞤮𞤪𞤥𞤢": 6767,
      "##𞤮𞤪𞤲𞤮": 6768,
      "##𞥆𞤫𞤪𞤫𞥅𞤶𞤭": 6769,
      "𞤲𞤮𞤺𞤢𞤴": 6770,
      "##𞤭𞤼𞤭𞤪𞤭": 6771,
      "##𞤭𞤼𞤫𞤪𞤫": 6772,
      "##𞤳𞥆𞤫𞥅𞤤𞤫": 6773,
      "𞤤𞤫𞤳𞥆𞤫𞥅𞤤𞤫": 6774,
      "##𞤢𞤼𞤭": 6775,
      "##𞤢𞤼𞤵𞤤": 6776,
      "##𞤪𞤭𞤴𞤢𞤲": 6777,
      "𞤥𞤢𞤳𞥆𞤢": 6778,
      "##𞤢𞥄𞤥𞤮𞤪𞤭": 6779,
      "##𞤭𞤥𞤮": 6780,
      "##𞤭𞤥𞥆𞤢𞥄𞤶𞤫": 6781,
      "𞤮𞤲𞤮𞤲": 6782,
      "##𞤣𞤵𞤯𞤫": 6783,
      "𞤸𞤮𞥅𞤪𞤭": 6784,
      "##𞤼𞤭𞤴𞤢𞤲": 6785,
      "𞤱𞤢𞤳𞤧": 6786,
      "##𞤢𞤦𞤢𞥄": 6787,
      "##𞤢𞤦𞥆𞤢": 6788,
      "##𞤼𞤭𞤲𞤢𞥄": 6789,
      "##𞤼𞤭𞤲𞤢𞤤": 6790,
      "##𞤼𞤭𞤲𞤮𞤪𞤯𞤫": 6791,
      "𞤥𞤮𞤶𞤫𞤪𞤫": 6792,
      "𞤬𞤭𞥅𞤤": 6793,
      "𞤼𞤢𞤱𞤵𞤲𞤮": 6794,
      "𞤼𞤢𞤱𞤫𞤼𞤫𞥅": 6795,
      "𞤼𞤢𞤱𞤣𞤫𞥅𞤣𞤫": 6796,
      "𞤲𞤣𞤫𞤲𞤳𞤢": 6797,
      "##𞤢𞥄𞤲𞤮𞥅": 6798,
      "𞤸𞤫𞤰": 6799,
      "𞥒𞥐𞥕𞥐": 6800,
      "##𞥆𞤮𞤴𞤼𞤢": 6801,
      "##𞤢𞥄𞤳𞤮𞥅𞤩𞤫": 6802,
      "𞤻𞤢𞤤𞤯𞤭": 6803,
      "𞤻𞤢𞤤𞤮𞤪𞤥𞤢": 6804,
      "##𞥆𞤭𞤼𞤢𞥄𞤲𞤣𞤫": 6805,
      "##𞥆𞤭𞤼𞤮𞤪𞤭": 6806,
      "𞤸𞤢𞤩𞤭": 6807,
      "𞤸𞤢𞤳𞥆𞤫": 6808,
      "##𞤼𞤫𞤼𞤫𞥅": 6809,
      "##𞤺𞤮𞥁𞤭𞤲": 6810,
      "##𞤼𞤮𞤣𞤭": 6811,
      "##𞤩𞥆𞤫𞤪𞤫": 6812,
      "##𞤤𞤫𞤱𞤢𞤤": 6813,
      "##𞤢𞤲𞤺𞤵": 6814,
      "𞤱𞤢𞤯𞤢𞤴": 6815,
      "𞤱𞤢𞤯𞤢𞤲𞤭": 6816,
      "𞤱𞤢𞤯𞤢𞤴𞤲": 6817,
      "𞤱𞤢𞤯𞤭𞤪𞤢": 6818,
      "𞤱𞤢𞤯𞤢𞤲𞤢𞥄": 6819,
      "𞤱𞤢𞤯𞤢𞤴𞤲𞤮𞥅": 6820,
      "𞤢𞤪𞤵𞤺𞤮𞤤": 6821,
      "𞤢𞤪𞤥𞤢": 6822,
      "𞤢𞤪𞤼𞤭𞥅": 6823,
      "𞤢𞤪𞤮𞥅𞤶𞤭": 6824,
      "##𞤮𞤱𞤵": 6825,
      "##𞤢𞤸𞤭": 6826,
      "##𞤢𞤸𞤭𞤤𞤭": 6827,
      "𞤸𞤮𞤤𞥆𞤵": 6828,
      "𞤸𞤮𞤤𞥆𞤢𞥄𞤤𞤭": 6829,
      "𞤸𞤮𞤩𞥆𞤫": 6830,
      "𞤸𞤮𞤴𞤲": 6831,
      "𞤸𞤮𞤣𞥆𞤭𞤪": 6832,
      "𞤺𞤮𞥅𞤪𞤫": 6833,
      "##𞤣𞤭𞥅𞤶𞤮": 6834,
      "##𞤮𞥅𞤪𞤮": 6835,
      "𞤧𞤭𞤳𞥆𞤫": 6836,
      "𞤱𞤮𞥅𞤬": 6837,
      "𞤱𞤮𞥅𞤪𞤫": 6838,
      "𞤱𞤮𞥅𞤼𞤫": 6839,
      "𞤱𞤮𞥅𞤼𞤮": 6840,
      "𞤣𞤵𞥅𞤶𞤮": 6841,
      "𞤢𞤲𞤣𞤭𞥅": 6842,
      "𞤢𞤲𞤣𞤵𞤺𞤮𞤤": 6843,
      "##𞤧𞤭𞤧𞤭": 6844,
      "𞤀𞤤𞤦𞤢": 6845,
      "𞤀𞤤𞤢𞤧𞤢𞤲": 6846,
      "𞤬𞤮𞤯": 6847,
      "𞤳𞤮𞤲𞤣𞤫": 6848,
      "##𞤫𞤴𞤢𞤲𞤳𞤮𞤱𞤢𞤤": 6849,
      "##𞤢𞤤𞥆𞤢𞤸": 6850,
      "𞤤𞤢𞥄𞤼𞤮": 6851,
      "𞤤𞤢𞥄𞤼𞤮𞤼𞤮": 6852,
      "𞤳𞤵𞥅𞤯𞤫": 6853,
      "##𞤪𞤵𞤼": 6854,
      "##𞤮𞤺𞤭": 6855,
      "𞥑𞥙𞥓": 6856,
      "##𞤣𞤭𞤪𞤢𞥄": 6857,
      "##𞤣𞤭𞤪𞤲𞤮𞥅": 6858,
      "𞤶𞤢𞥄𞤺𞤮𞤪𞤣𞤵": 6859,
      "𞤼𞤢𞤼𞤥": 6860,
      "𞤥𞤢𞤱𞤲𞤺𞤵": 6861,
      "𞤥𞤢𞤱𞤦𞤢": 6862,
      "𞤣𞤫𞤰": 6863,
      "𞤣𞤫𞤨𞤭𞤼": 6864,
      "𞤧𞤵𞤩𞤢𞥄": 6865,
      "𞤧𞤵𞤩𞤭𞤲𞤮𞥅": 6866,
      "𞤣𞤢𞤪𞤮": 6867,
      "𞤣𞤢𞤪𞤼𞤭𞥅": 6868,
      "𞤣𞤢𞤪𞤭𞤲𞤮𞥅": 6869,
      "𞤣𞤢𞤪𞤭𞤲𞤮": 6870,
      "𞤣𞤢𞤪𞤮𞤼𞤮𞥅": 6871,
      "𞤣𞤢𞤪𞤭𞤲𞤮𞥅𞤩𞤫": 6872,
      "𞤬𞤫𞤰𞥆𞤵𞤲𞤮𞥅": 6873,
      "𞤬𞤫𞤰𞥆𞤵𞤯𞤭": 6874,
      "𞤯𞤵𞥅𞤯𞤵𞤲": 6875,
      "##𞤭𞥅𞤤𞥆𞤭": 6876,
      "##𞤢𞤳𞤵": 6877,
      "𞤸𞤫𞤩𞤢𞤴": 6878,
      "##𞥆𞤢𞤤𞤫": 6879,
      "##𞤀𞤐𞤘": 6880,
      "𞤸𞤭𞤯𞤫𞤲": 6881,
      "𞤶𞤢𞤲𞤺𞤭𞥅": 6882,
      "𞤶𞤢𞤲𞤺𞤫𞤲": 6883,
      "𞤶𞤢𞤲𞤺𞤮𞥅𞤩𞤫": 6884,
      "𞤶𞤢𞤲𞤺𞤢𞤼𞤢": 6885,
      "𞤶𞤢𞤲𞤺𞤭𞤪𞤣𞤫": 6886,
      "𞤶𞤢𞤲𞤺𞤭𞤲𞤣𞤫": 6887,
      "𞤥𞤵𞤰𞥆𞤵𞤣𞤫": 6888,
      "𞤼𞤭𞤥𞥆": 6889,
      "𞤼𞤭𞤥𞥆𞤭𞤪𞤼𞤢": 6890,
      "𞤸𞤵𞥅𞤩𞤭": 6891,
      "𞤸𞤵𞥅𞤤𞤫𞤪𞤫": 6892,
      "𞤬𞤵𞤯𞥆𞤮": 6893,
      "𞤬𞤵𞤯𞥆𞤢𞤺𞤮𞤤": 6894,
      "𞤬𞤵𞤯𞥆𞤢𞤼𞤢": 6895,
      "𞤬𞤮𞥅𞤤𞤮𞤼": 6896,
      "𞤬𞤮𞥅𞤤𞤵𞤲𞤮": 6897,
      "𞤬𞤮𞥅𞤤𞤢𞥄𞤥𞤢": 6898,
      "𞤬𞤮𞥅𞤤𞤭𞤼𞤭𞤪": 6899,
      "𞤲𞤢𞥄𞤼𞤭𞤪": 6900,
      "𞤲𞤢𞥄𞤣𞤵𞤲𞤮": 6901,
      "𞤑𞤮𞤲𞤢𞤲": 6902,
      "𞤩𞤫𞤴𞤣𞤮": 6903,
      "𞤻𞤢𞤱𞤵𞤩𞤫": 6904,
      "##𞤼𞤢𞤲𞤭𞥅": 6905,
      "𞤱𞤢𞥄𞤱𞤭𞤪𞤭": 6906,
      "𞤱𞤢𞥄𞤱𞤵𞤲𞤮": 6907,
      "𞤱𞤢𞥄𞤱𞤢𞤼𞤢𞥄𞤲𞤮": 6908,
      "##𞤢𞤧𞤢𞥄𞤲": 6909,
      "𞤺𞤮𞤤𞥆𞤭𞤪𞤣𞤫": 6910,
      "𞤤𞤢𞤲𞤣𞤢𞥄": 6911,
      "𞤣𞤵𞤶𞤵𞤲": 6912,
      "𞤣𞤵𞤶𞤵𞤲𞤫𞤪𞤫": 6913,
      "𞤫𞤲𞤺𞤫𞤤𞤫": 6914,
      "𞤲𞤶𞤮𞤪𞤲𞤣𞤭": 6915,
      "𞤷𞤢𞤨𞥆𞤢": 6916,
      "##𞤀𞤃𞤋": 6917,
      "𞤴𞤢𞤸𞤢𞤴": 6918,
      "𞤴𞤢𞤸𞤢𞤲𞤣𞤫": 6919,
      "𞤧𞤢𞤪𞤯𞤭𞤲": 6920,
      "𞤧𞤢𞤪𞤰𞤮": 6921,
      "𞤶𞤵𞥅𞤼𞤭𞤪𞤼𞤢": 6922,
      "𞤥𞤵𞤲𞤣𞤢𞥄": 6923,
      "𞤲𞤦𞤫𞤯": 6924,
      "𞤲𞤦𞤢𞤦𞥆𞤢": 6925,
      "𞤶𞤫𞤴𞤢𞥄𞤲𞤺𞤢𞤤": 6926,
      "𞤶𞤫𞤴𞤭𞤲𞤢𞤺𞤮𞤤": 6927,
      "𞤶𞤮𞤺𞤢𞤲𞤭": 6928,
      "𞤶𞤮𞤺𞤭𞥅𞤩𞤫": 6929,
      "𞤶𞤮𞤺𞤢𞤲𞤭𞥅": 6930,
      "𞤶𞤮𞤺𞤲𞤭": 6931,
      "𞤶𞤮𞤺𞤫𞤥𞤢𞥄𞤩𞤫": 6932,
      "𞤢𞤣𞥆𞤭𞥅": 6933,
      "𞤰𞤫𞤼𞥆𞤢𞥄": 6934,
      "𞤰𞤫𞤼𞥆𞤢𞥄𞤤𞤭": 6935,
      "𞤸𞤢𞥄𞤲𞤣𞤭": 6936,
      "𞤸𞤢𞥄𞤲𞤣𞤭𞤲": 6937,
      "𞤣𞤭𞤪𞤲𞤮": 6938,
      "𞤶𞤢𞤲𞤢𞤲𞤮": 6939,
      "##𞤈𞤋𞥅": 6940,
      "𞤭𞤼𞥆𞤵𞤣𞤫": 6941,
      "𞤭𞤼𞥆𞤭𞤪": 6942,
      "𞤀𞤥𞤫𞤪𞤭𞤳𞤢": 6943,
      "𞤲𞤣𞤭𞤳𞥆": 6944,
      "𞤲𞤣𞤭𞤺𞤢": 6945,
      "𞤴𞤢𞤤𞤼𞤭𞤲𞤢𞥄": 6946,
      "𞤴𞤢𞤤𞤼𞤭𞤲𞥆𞤮": 6947,
      "𞤧𞤢𞤨𞥆𞤢": 6948,
      "##𞤮𞤴𞤭": 6949,
      "##𞤮𞤴𞤼𞤫": 6950,
      "𞤼𞤢𞤱𞤢𞥄𞤯𞤫": 6951,
      "𞤀𞥄𞤥𞤢𞤣𞤵": 6952,
      "𞤑𞤌𞥅𞤈": 6953,
      "𞤲𞤢𞤲𞤺𞤢": 6954,
      "𞤲𞤢𞤲𞤺𞤵𞤣𞤫": 6955,
      "𞤲𞤢𞤲𞤺𞤢𞥄𞤥𞤢": 6956,
      "𞤲𞤢𞤲𞤺𞤢𞤲𞤮𞥅𞤩𞤫": 6957,
      "𞤨𞤭𞤴𞤭𞤪": 6958,
      "𞤨𞤭𞤴𞤵𞤺𞤮𞤤": 6959,
      "𞤨𞤭𞤴𞤢𞤲𞤮": 6960,
      "𞤳𞤢𞤲𞤺𞤢𞤤": 6961,
      "𞤳𞤢𞤲𞤶𞤭": 6962,
      "𞤴𞤫𞤱𞤼𞤵𞤣𞤫": 6963,
      "𞤩𞤵𞤪𞤵𞤯𞤫": 6964,
      "𞤩𞤵𞤪𞤵𞤲𞥋𞤺𞤢𞤤": 6965,
      "𞤶𞤮𞤨𞤫": 6966,
      "𞤭𞤥𞥆𞤢𞤺𞤮𞤤": 6967,
      "𞤻𞤢𞥄𞤱𞤮𞥅𞤱𞤮": 6968,
      "𞤸𞤭𞤳𞥆𞤮𞤪𞤯𞤫": 6969,
      "𞤲𞤺𞤵𞥅𞤪𞤫𞥅": 6970,
      "𞤸𞤵𞥅𞤱𞤲𞤣𞤫": 6971,
      "𞤥𞤫𞥅𞤯𞤢𞥄𞤤𞤭": 6972,
      "𞤻𞤢𞥄𞤥𞤮": 6973,
      "𞤻𞤢𞥄𞤥𞤭": 6974,
      "𞤻𞤢𞥄𞤥𞤭𞥅": 6975,
      "𞤻𞤢𞥄𞤥𞤲𞤢𞥄𞤲𞤺𞤫": 6976,
      "##𞤋𞥅𞤃𞤀": 6977,
      "𞤬𞤮𞤤𞥆𞤵𞤣𞤫": 6978,
      "𞤬𞤮𞤤𞥆𞤵𞤩𞤫": 6979,
      "𞤬𞤮𞤤𞥆𞤢𞥄𞤥𞤢": 6980,
      "##𞤼𞤮𞤪𞤢𞥄𞤯𞤫": 6981,
      "𞤱𞤢𞤴𞤤𞤢𞥄": 6982,
      "𞤱𞤢𞤴𞤤𞤵𞤲𞤮": 6983,
      "𞤢𞥄𞤲": 6984,
      "𞤢𞥄𞤥": 6985,
      "𞤢𞥄𞤣𞤭𞥅": 6986,
      "𞤢𞥄𞤪𞤢𞤦": 6987,
      "𞤢𞥄𞤴𞤫𞥅𞤶𞤫": 6988,
      "𞤢𞤷𞥆𞤵": 6989,
      "𞤢𞤷𞥆𞤢": 6990,
      "𞤢𞤷𞥆𞤭𞥅": 6991,
      "𞤢𞤷𞥆𞤢𞤲": 6992,
      "𞤢𞤷𞥆𞤵𞤣𞤫": 6993,
      "𞤢𞤷𞥆𞤢𞥄𞤤𞤭": 6994,
      "𞤢𞤷𞥆𞤢𞤼𞤢𞥄": 6995,
      "𞤢𞤷𞥆𞤵𞤼𞤵𞤺𞤮𞤤": 6996,
      "𞤢𞤷𞥆𞤫𞤲": 6997,
      "𞤃𞤮𞤪𞤭𞤼": 6998,
      "𞤃𞤮𞤪𞤼𞤢𞤲𞤭": 6999,
      "𞤬𞤮𞤼𞥆𞤵𞤲𞤮𞥅": 7000,
      "𞤬𞤮𞤼𞥆𞤢𞥄𞤤𞤭": 7001,
      "𞤱𞤢𞤤𞥆𞤭𞤲": 7002,
      "𞤸𞤢𞥄𞤤𞤭𞥅": 7003,
      "##𞤵𞤱𞤢": 7004,
      "##𞤵𞤱𞤢𞤴": 7005,
      "##𞤵𞤱𞤢𞤼𞤫𞥅𞤪𞤭": 7006,
      "𞤘𞤫𞤲𞤣𞤭𞤲𞤳𞤫": 7007,
      "𞤸𞤮𞤤𞥆𞤭𞤼𞤢𞤤": 7008,
      "𞤭𞤱𞤵𞤺𞤮𞤤": 7009,
      "𞤭𞤱𞤪𞤵": 7010,
      "𞤼𞤮𞤯𞥆": 7011,
      "𞤼𞤮𞤯𞥆𞤫": 7012,
      "𞤥𞤮𞤰𞥆𞤭𞤲𞤺𞤮𞤤": 7013,
      "𞤳𞤫𞤩𞤢𞤤": 7014,
      "𞤳𞤫𞤩𞥆𞤢𞤤": 7015,
      "𞤶𞤢𞤩𞤭𞤼": 7016,
      "𞤶𞤢𞤩𞤼𞤵𞤺𞤮𞤤": 7017,
      "𞤶𞤢𞤩𞤼𞤵𞤩𞤫": 7018,
      "𞤶𞤮𞥅𞤯𞤢𞥄𞤣𞤫": 7019,
      "𞤧𞤮𞥅𞤣𞤵𞤣𞤫": 7020,
      "𞤧𞤮𞥅𞤣𞤵𞤺𞤮𞤤": 7021,
      "𞤧𞤮𞥅𞤦𞤫𞥅": 7022,
      "𞤼𞤫𞥅𞤥𞤫𞤣𞤫": 7023,
      "𞤤𞤮𞤲𞤼": 7024,
      "𞤤𞤮𞤲𞤼𞤢𞥄𞤣𞤫": 7025,
      "𞤤𞤮𞤲𞤼𞤮𞤼𞤮𞥅": 7026,
      "##𞤭𞤲𞤼𞤭𞤲𞤭": 7027,
      "𞤧𞤮𞤳𞤢𞥄𞤥𞤢": 7028,
      "𞤧𞤮𞤳𞤭𞤣": 7029,
      "##𞤣𞤢𞥄𞤪𞤭": 7030,
      "##𞤼𞤢𞥄𞤶𞤫": 7031,
      "𞤴𞤢𞤱𞤼𞤭𞥅": 7032,
      "𞤶𞤭𞤳𞥆": 7033,
      "𞤶𞤭𞤳𞥆𞤵": 7034,
      "##𞤢𞥄𞤸𞤭": 7035,
      "𞤤𞤫𞤱𞤤𞤫𞤱𞤢𞤤": 7036,
      "𞤬𞤫𞤤𞤮𞥅𞤩𞤫": 7037,
      "𞤬𞤫𞤤𞤭𞤪𞤭": 7038,
      "𞤬𞤫𞤤𞤮𞥅𞤪𞤫": 7039,
      "𞤪𞤵𞤼𞥆": 7040,
      "𞤸𞤫𞤣𞥆𞤭𞤲𞤮𞥅": 7041,
      "𞤸𞤫𞤣𞥆𞤭𞤲𞤮𞥅𞤩𞤫": 7042,
      "𞤦𞤮𞤲𞤫": 7043,
      "𞤦𞤮𞤲𞤯𞤭": 7044,
      "𞤦𞤮𞤲𞥆𞤢𞥄": 7045,
      "𞤦𞤮𞤲𞥆𞤵𞤣𞤫": 7046,
      "𞤐𞤺𞤮𞤲": 7047,
      "𞤃𞤭𞤧𞤭𞤧𞤭": 7048,
      "𞤤𞤵𞤥𞤦𞤢": 7049,
      "𞤤𞤵𞤥𞤦𞤢𞥄𞤤𞤭": 7050,
      "𞤸𞤵𞤥𞤭𞥅": 7051,
      "𞤸𞤫𞤱𞤼𞤢": 7052,
      "𞤸𞤫𞤱𞤼𞤵": 7053,
      "𞤸𞤫𞤱𞤼𞤭𞤼": 7054,
      "𞤸𞤫𞤱𞤼𞤵𞤲𞤮𞥅": 7055,
      "𞤸𞤢𞤩𞤵𞤣𞤫": 7056,
      "##ess": 7057,
      "𞤃𞤵𞤸𞤢𞤥𞥆𞤫𞤣": 7058,
      "𞤴𞤭𞤢𞥄": 7059,
      "𞤴𞤭𞤭𞥅": 7060,
      "𞤴𞤭𞤵𞤺𞤮𞤤": 7061,
      "𞤴𞤭𞤫𞥅𞤣𞤫": 7062,
      "𞤴𞤭𞤢𞥄𞤥𞤢": 7063,
      "𞤬𞤢𞤱𞤫𞥅𞤣𞤫": 7064,
      "##𞤉𞤈𞤉𞤒": 7065,
      "##ript": 7066,
      "𞤱𞤫𞤤𞤮": 7067,
      "𞤱𞤫𞤤𞤼𞤢𞥄𞤪𞤫": 7068,
      "##ence": 7069,
      "##𞤓𞤐𞤌": 7070,
      "𞤢𞤪𞤢𞤲𞤫": 7071,
      "𞤢𞤪𞤢𞤲𞤭𞤪𞤭": 7072,
      "##𞤦𞤢𞥄𞤶𞤮": 7073,
      "𞤲𞤢𞤲𞤢𞤼𞤢": 7074,
      "𞤲𞤢𞤲𞤮𞤲𞥋𞤣𞤭𞤪𞤢𞤤": 7075,
      "##𞤲𞤣𞤢𞤲": 7076,
      "𞤲𞤢𞤩𞤵𞤲𞤮𞥅": 7077,
      "##ine": 7078,
      "𞥒𞥐𞥐𞥔": 7079,
      "##𞤤𞤭𞤳𞤫": 7080,
      "𞤬𞤫𞤼𞥆𞤭𞤲𞤢𞥄": 7081,
      "𞥑𞥙𞥙𞥘": 7082,
      "𞤶𞤫𞥅𞤼𞤢𞤼𞤢𞤩𞤭𞤪𞤭": 7083,
      "𞤼𞤮𞤽𞤢𞥄": 7084,
      "𞤼𞤮𞤽𞤢𞤲𞤭𞥅": 7085,
      "𞤼𞤭𞤥𞥆𞤭𞤲𞥆𞤮𞥅": 7086,
      "##𞤴𞤢𞤲𞤳𞤫𞥅𞤶𞤮": 7087,
      "𞤬𞤫𞤷𞥆𞤮": 7088,
      "𞤬𞤫𞤰𞥆𞤭𞤲𞤣𞤫": 7089,
      "𞤬𞤫𞤰𞥆𞤭𞤲𞤯𞤮": 7090,
      "𞤬𞤫𞤰𞥆𞤭𞤲𞤭𞤪𞤭𞥅": 7091,
      "𞤧𞤫𞤲𞤣𞤭𞤲": 7092,
      "##𞤢𞤲𞤢𞥄𞤶𞤮": 7093,
      "𞤼𞤢𞤦𞤭𞤲𞤼𞤭𞤲𞤢𞥄𞤤𞤭": 7094,
      "𞤣𞤢𞤱𞤢": 7095,
      "𞤣𞤢𞤱𞤪𞤢": 7096,
      "𞤱𞤵𞤪𞤼𞤭𞥅": 7097,
      "𞤱𞤵𞤪𞤼𞤢𞥄": 7098,
      "𞤱𞤵𞤪𞤲𞤭𞤼": 7099,
      "𞤱𞤵𞤪𞤼𞤢𞤲𞤭": 7100,
      "𞤱𞤵𞤪𞤼𞤭𞤲𞤭": 7101,
      "𞤱𞤵𞤤𞥆𞤭𞤲": 7102,
      "##𞤀𞤑𞥆𞤀": 7103,
      "𞤭𞤲𞥆𞤫𞤼𞤫𞥅𞤲𞤺𞤮": 7104,
      "𞤴𞤫𞥅𞤴𞤭𞤼𞤭𞤪": 7105,
      "𞤵𞤣𞥆𞤭𞤼𞤢𞤤": 7106,
      "##out": 7107,
      "𞤴𞤢𞤤𞤼𞤢𞥄𞤤𞤭": 7108,
      "𞤸𞤭𞤱𞤫𞥅𞤣𞤫": 7109,
      "𞤼𞤭𞤶𞥆𞤭𞤲𞤮𞥅": 7110,
      "𞤁𞤫𞤦𞤭": 7111,
      "𞤶𞤭𞤦𞤭𞤲𞤭": 7112,
      "𞤲𞤢𞤱𞤲𞤵𞤩𞤫": 7113,
      "𞤪𞤫𞤱𞤪": 7114,
      "𞤴𞤭𞥅𞤤𞤢𞤺𞤮𞤤": 7115,
      "𞤬𞤫𞤰𞥆𞤵𞤲𞤣𞤫": 7116,
      "𞤬𞤫𞤰𞥆𞤵𞤲𞥋𞤣𞤵": 7117,
      "𞤩𞤫𞤴𞤣𞤭𞤼𞤢𞤲𞤭": 7118,
      "𞤩𞤫𞤴𞤣𞤭𞤼𞤢𞥄𞤯𞤫": 7119,
      "𞤑𞤮𞤪𞤮𞤱𞤢": 7120,
      "##atou": 7121,
      "𞤴𞤭𞥅𞤼𞤭𞤲": 7122,
      "𞤸𞤵𞤩𞤭𞤲": 7123,
      "𞤸𞤮𞥅𞤪𞤦𞤭𞤪𞥆𞤫": 7124,
      "𞤸𞤵𞥅𞤩𞤢𞤼𞤢𞥄": 7125,
      "𞤭𞤥𞥆𞤮𞤪𞤩𞤫": 7126,
      "𞤅𞤭𞤤𞥆𞤢𞥄": 7127,
      "𞤪𞤢𞥄𞤩𞤢𞤴": 7128,
      "𞤪𞤢𞥄𞤩𞤭𞤪𞤢": 7129,
      "𞤪𞤢𞥄𞤩𞤢𞤴𞤲𞤺𞤵": 7130,
      "𞤪𞤢𞥄𞤩𞤭𞤲𞤼𞤢": 7131,
      "𞤪𞤢𞥄𞤩𞤭𞤲𞤢𞤴𞤯𞤭": 7132,
      "##𞤴𞤢𞥄𞤶𞤮": 7133,
      "##arger": 7134,
      "𞤅𞤮𞥅𞤪𞤭": 7135,
      "##𞤁𞤋𞤑": 7136,
      "𞤬𞤫𞥅𞤼𞤫𞤪𞤫": 7137,
      "𞤥𞤢𞤪𞤢𞥄": 7138,
      "𞤬𞤫𞤱𞤼𞤭": 7139,
      "𞤬𞤫𞤱𞤶𞤭": 7140,
      "𞤢𞤲𞤣𞤭𞤪𞤢𞥄𞤩𞤫": 7141,
      "𞤢𞤲𞤣𞤭𞤪𞤢𞥄𞤳𞤢": 7142,
      "𞤢𞤲𞤣𞤭𞤪𞤢𞥄𞤲𞤣𞤭": 7143,
      "𞤢𞤲𞤣𞤭𞤲𞤭": 7144,
      "𞤢𞤲𞤣𞤭𞤲𞤺𞤮𞤤": 7145,
      "𞤢𞤲𞤣𞤭𞤲𞤼𞤭𞤲𞤺𞤮𞤤": 7146,
      "𞤲𞤢𞥄𞤣𞤭𞤼𞤭𞥅": 7147,
      "𞤀𞤴𞤧𞤢𞤼𞤵": 7148,
      "𞤲𞤫𞥅𞤩𞤭𞥅": 7149,
      "𞤧𞤢𞥄𞤼𞤭𞤲𞤢𞥄𞤲𞤺𞤢𞤤": 7150,
      "𞤧𞤢𞥄𞤼𞤭𞤲𞤢𞤲𞤮𞥅𞤲𞤺𞤮": 7151,
      "𞤼𞤭𞥅𞤯𞤵𞤺𞤮𞤤": 7152,
      "𞤀𞤂𞤃𞤀𞤐": 7153,
      "𞤀𞤂𞤟𞤀𞤈": 7154,
      "𞤣𞤢𞤯𞤭𞤲𞤢": 7155,
      "𞤶𞤵𞤲𞤼𞤢𞤤": 7156,
      "𞤩𞤫𞤴𞤣𞤮𞤪": 7157,
      "𞤩𞤫𞤴𞤣𞤢𞤲𞤭": 7158,
      "𞤩𞤫𞤴𞤣𞤮𞤼𞤮": 7159,
      "𞤩𞤫𞤴𞤣𞤮𞤪𞤢": 7160,
      "𞤐𞤄𞤀𞤚𞤓": 7161,
      "𞤳𞤭𞥅𞤼𞤮𞥅𞤪𞤫": 7162,
      "𞤴𞤢𞥄𞤬𞤭𞤲": 7163,
      "𞤴𞤮𞤲𞤢𞥄": 7164,
      "𞤴𞤮𞤲𞤢𞥄𞤤𞤭": 7165,
      "𞤴𞤮𞤲𞤢𞤼𞤢𞥄": 7166,
      "𞤺𞤫𞤲𞤯𞤭": 7167,
      "𞤺𞤫𞤲𞤣𞤭𞤪": 7168,
      "𞤺𞤫𞤲𞤣𞤭𞤴": 7169,
      "𞤥𞤮𞥅𞤩𞤵": 7170,
      "𞤥𞤮𞥅𞤩𞤼𞤭𞤲": 7171,
      "thank": 7172,
      "𞤤𞤭𞤥𞤼𞤭": 7173,
      "##ité": 7174,
      "##𞤭𞥅𞤪𞤢": 7175,
      "𞤺𞤮𞥅𞤼𞤵𞤲": 7176,
      "𞤺𞤮𞥅𞤼𞤯𞤵𞤲": 7177,
      "𞤷𞤮𞤺𞥆𞤭": 7178,
      "𞤬𞤢𞥄𞤼𞤭𞥅𞤯𞤮": 7179,
      "𞤶𞤮𞤲𞤯𞤫": 7180,
      "𞤧𞤫𞥅𞤯𞤢𞥄𞤶𞤫": 7181,
      "##𞤵𞤧𞤳𞤭𞥅𞤩𞤫": 7182,
      "𞤐𞤣𞤫𞥅𞤲": 7183,
      "𞤐𞤣𞤫𞥅𞤳𞤢": 7184,
      "𞤶𞤮𞤳𞥆𞤭𞤪𞤢𞥄": 7185,
      "𞤬𞤭𞤪𞤮": 7186,
      "𞤬𞤭𞤪𞤣𞤢𞤱": 7187,
      "##ndol": 7188,
      "𞤢𞤪𞤣𞤭𞤲𞤭": 7189,
      "𞤢𞤪𞤣𞤭𞤲𞤢𞥄𞤯𞤮": 7190,
      "𞤶𞤫𞤴𞤢𞥄𞤯𞤫": 7191,
      "𞤁𞤫𞤲𞤭𞤧": 7192,
      "𞤁𞤫𞤲𞤾𞤫𞤪": 7193,
      "𞤥𞤵𞥅𞤴𞤲": 7194,
      "𞤥𞤵𞥅𞤴𞤭𞥅": 7195,
      "𞤱𞤮𞥅𞤱𞤢𞥄": 7196,
      "𞤣𞤵𞤽𞤭𞤲𞤭": 7197,
      "𞤣𞤵𞤽𞤭𞤲𞤢𞤲𞤢𞥄": 7198,
      "𞤴𞤢𞤲𞤵𞤲": 7199,
      "𞤲𞤮𞤣𞥆𞤢𞥄": 7200,
      "𞥑𞥙𞥘𞥖": 7201,
      "𞥑𞥙𞥘𞥕": 7202,
      "𞥑𞥙𞥘𞥒": 7203,
      "𞤅𞤢𞤤𞤭𞥅𞤬": 7204,
      "𞤄𞤢𞤴𞤪𞤵𞤼": 7205,
      "𞤪𞤮𞤲𞤵𞤩𞤫": 7206,
      "𞤺𞤢𞤧𞤭𞥅": 7207,
      "𞤱𞤢𞤤𞥆𞤭𞤼𞤢𞥄𞤣𞤫": 7208,
      "𞤼𞤢𞤰𞤭𞥅": 7209,
      "𞤧𞤮𞤪𞤭𞥅𞤩𞤫": 7210,
      "𞤲𞤣𞤢𞥄𞤪𞤵𞤣𞤫": 7211,
      "𞤃𞤢𞤲𞤷𞤫𞤧𞤼𞤫𞤪": 7212,
      "𞥑𞥓𞥐": 7213,
      "𞤴𞤮𞤱𞤮𞤲": 7214,
      "𞤴𞤮𞤱𞤵𞤲𞤮𞥅": 7215,
      "𞤣𞤫𞤥𞤮𞤳𞤢𞤪𞤢𞤲𞤳𞤮𞥅𞤩𞤫": 7216,
      "𞤀𞥄𞤩𞤲𞤣𞤫": 7217,
      "𞤸𞤵𞥅𞤱𞤼𞤮𞤪𞤢": 7218,
      "𞤸𞤵𞥅𞤱𞤼𞤮𞤪𞤢𞤴𞤲𞤮𞥅": 7219,
      "𞤃𞤌𞤈𞤋𞤚𞤀𞤐𞤋": 7220,
      "𞤤𞤢𞤱𞤳𞤢": 7221,
      "𞤥𞤭𞤤𞤭𞤴𞤢𞥄𞤪": 7222,
      "𞤧𞤢𞤯𞤭𞥅": 7223,
      "𞤧𞤢𞤯𞤼𞤵": 7224,
      "##𞤣𞤭𞤴𞤫𞥅": 7225,
      "𞤸𞤫𞤪𞤼𞤮𞤪𞤢𞥄𞤯𞤫": 7226,
      "𞤸𞤫𞤧𞤤𞤢𞤤": 7227,
      "𞤢𞤷𞥆𞤭𞤼𞤢𞥄": 7228,
      "𞤢𞤷𞥆𞤭𞤼𞤵𞤺𞤮𞤤": 7229,
      "𞤢𞤷𞥆𞤭𞤼𞤵𞤣𞤫": 7230,
      "𞤩𞤢𞤣𞤲𞤭𞤼": 7231,
      "𞤸𞤵𞤥𞤨𞤭𞤼𞤢𞥄": 7232,
      "𞤢𞤥𞥆𞤢𞥄": 7233,
      "𞤥𞤮𞤲𞤭": 7234,
      "𞤸𞤢𞤦𞥆𞤢𞤲𞤮𞥅": 7235,
      "𞤼𞤵𞥅𞤥𞤵𞤲𞤮𞥅": 7236,
      "𞥑𞥙𞥖𞥓": 7237,
      "𞤉𞤪𞤮𞥅𞤨": 7238,
      "𞤧𞤢𞤯𞤭": 7239,
      "𞤬𞤢𞤪𞤢𞤲𞤧𞤭": 7240,
      "𞤸𞤵𞤤𞤦𞤮𞥅𞤩𞤫": 7241,
      "𞤱𞤭𞤴𞤫𞤼𞤫𞥅𞤯𞤮": 7242,
      "𞤱𞤭𞤴𞤫𞤼𞤫𞥅𞤲𞤣𞤭": 7243,
      "##ingua": 7244,
      "𞤆𞤮𞤤𞤭𞥅𞤧𞤢𞥄𞤩𞤫": 7245,
      "𞤤𞤮𞥅𞤱𞤯𞤫": 7246,
      "𞤭𞥅𞤤": 7247,
      "𞤸𞤮𞤪𞤥": 7248,
      "##terp": 7249,
      "𞤲𞤫𞤱𞤲𞤢𞤲𞤢𞥄": 7250,
      "𞤱𞤫𞥅𞤩𞤢𞤲𞤢𞥄𞤤𞤭": 7251,
      "𞤶𞤮𞥅𞤨": 7252,
      "𞥑𞥒𞥐𞥐": 7253,
      "𞤸𞤫𞤦𞥆𞤭𞤲": 7254,
      "𞤬𞤭𞤩𞤭𞥅": 7255,
      "𞤱𞤵𞤤𞥆𞤭𞤼𞤮𞥅": 7256,
      "𞤱𞤵𞤤𞥆𞤭𞤼𞤢𞥄𞤪𞤫": 7257,
      "𞤱𞤵𞤤𞥆𞤭𞤼𞤮𞤼𞤮": 7258,
      "𞤙𞤢𞥄𞤱𞤭𞤲𞥋𞤣": 7259,
      "𞤬𞤢𞤲𞤼𞤭": 7260,
      "𞤸𞤵𞤲𞤶": 7261,
      "##𞤣𞤫𞥅𞤶𞤭": 7262,
      "𞤥𞤢𞤺𞥆𞤢𞤤": 7263,
      "𞤭𞤼𞥆𞤭𞤪𞤭": 7264,
      "𞤁𞤫𞤐𞤘": 7265,
      "𞤐𞤺𞤢𞤤𞤵": 7266,
      "𞤐𞤺𞤢𞤤𞤵𞤲𞤳𞤫𞤱𞤢𞤤": 7267,
      "𞤓𞤧𞤥𞤢𞥄𞤲𞤭": 7268,
      "𞤢𞤴𞤲𞤣𞤫": 7269,
      "𞤩𞤢𞤥𞤼𞤭𞥅𞤯𞤫": 7270,
      "𞤰𞤫𞤱𞤤": 7271,
      "𞤸𞤢𞤼𞥆𞤭𞤪𞤣𞤫": 7272,
      "𞤦𞤢𞤪𞤥𞤭𞤲𞤭": 7273,
      "𞤴𞤭𞤴𞤢𞥄𞤳𞤢": 7274,
      "𞤵𞤧𞤼𞤭𞤳𞤫": 7275,
      "𞤶𞤢𞥄𞤦𞤢𞤺𞤮𞤤": 7276,
      "𞤸𞤭𞤤𞥆𞤢": 7277,
      "𞤼𞤵𞥅𞤥𞤫": 7278,
      "##𞤵𞤺𞤵𞤤": 7279,
      "𞤬𞤫𞥅𞤻𞥆𞤭𞤲": 7280,
      "𞤄𞤢𞤪𞤢𞤧𞤭𞤤": 7281,
      "𞤍𞤵𞤲𞤤𞤫": 7282,
      "ethn": 7283,
      "𞤅𞤢𞥄𞤤𞤢𞥄": 7284,
      "𞤉𞤳𞤵𞤱𞤢𞤼𞤫𞥅𞤪𞤭": 7285,
      "𞤤𞤮𞤤𞥆𞤭𞤪𞤯𞤮": 7286,
      "𞤥𞤫𞤼𞥆𞤭": 7287,
      "𞤪𞤫𞥅𞤲𞤮": 7288,
      "𞤱𞤵𞤶𞥆𞤭": 7289,
      "𞤱𞤵𞥅𞤪𞤲": 7290,
      "𞤼𞤫𞤽𞤼𞤭𞤲𞤭𞥅": 7291,
      "𞤼𞤢𞤧𞤳𞤢𞤺𞤮𞤤": 7292,
      "𞤸𞤵𞥅𞤤𞤢𞤲𞤣𞤫": 7293,
      "𞤸𞤵𞥅𞤤𞤢𞤲𞤭": 7294,
      "𞤆𞤢𞤪𞤭𞤦𞤢𞥄": 7295,
      "𞤴𞤭𞤤𞤼𞤭𞥅": 7296,
      "𞤸𞤫𞥅𞤪𞤭𞤲𞤢𞤲𞤢𞥄": 7297,
      "##𞤱𞤢𞤲𞤭𞤴𞤢𞥄": 7298,
      "𞤸𞤢𞤤𞤬𞤭𞤲𞤢𞥄𞤩𞤫": 7299,
      "𞤲𞤵𞤲𞤯𞤵𞤩𞤫": 7300,
      "𞤔𞤮𞤲𞤧𞤮𞤲": 7301,
      "𞤲𞤢𞤶𞤫𞤪𞤭": 7302,
      "##𞤀𞤅𞤋𞥅": 7303,
      "𞥑𞥙𞥗𞥙": 7304,
      "𞤶𞤮𞤺𞤲𞤭𞤼𞤭𞥅": 7305,
      "𞤶𞤮𞤺𞤲𞤵𞤼𞤵𞤣𞤫": 7306,
      "𞤀𞥄𞤣𞤢𞤥": 7307,
      "𞤄𞤭𞤲𞤣𞤭": 7308,
      "𞤤𞤮𞤭𞤲𞤢𞥄𞤩𞤫": 7309,
      "𞤬𞤮𞥅𞤺𞤭𞤪𞤯𞤫": 7310,
      "𞤴𞤫𞤤𞤢": 7311,
      "𞤸𞤮𞤲𞤢𞥄𞤪𞤭": 7312,
      "##𞤼𞤫𞤲𞤮𞥅": 7313,
      "##𞤼𞤮𞤼𞤮𞤲𞤮": 7314,
      "𞤥𞤢𞤶𞥆𞤫𞤪𞤫": 7315,
      "##ations": 7316,
      "𞤢𞤣𞤵𞤲𞤢𞤴𞤢𞤲𞤳𞤮𞥅𞤶𞤫": 7317,
      "𞤢𞤣𞤵𞤲𞤢𞤴𞤢𞤲𞤳𞤮𞥅𞤶𞤭": 7318,
      "𞤴𞤢𞥄𞤳𞤮𞤪𞤢𞤤": 7319,
      "𞤐𞤔𞤀𞥄𞤒": 7320,
      "𞤑𞤢𞤤𞤭𞥅": 7321,
      "𞤣𞤮𞥅𞤤𞤲𞤵𞤣𞤫": 7322,
      "𞤧𞤵𞥅𞤯𞤵𞤺𞤮𞤤": 7323,
      "𞤧𞤮𞤺𞤭𞤼𞤭𞤳𞤫": 7324,
      "𞤩𞤮𞥅𞤴𞤭𞥅": 7325,
      "𞤫𞤺𞥆𞤭𞤲𞤢𞥄𞤩𞤫": 7326,
      "𞤬𞤢𞤥𞤯": 7327,
      "##ich": 7328,
      "##quez": 7329,
      "𞥑𞥙𞥕𞥒": 7330,
      "𞤁𞤫𞤥𞤮𞤳𞤢𞤪𞤢𞤲𞤳𞤮𞥅𞤶𞤫": 7331,
      "𞤋𞤥𞤢𞥄𞤥": 7332,
      "𞤻𞤫𞤥𞤼𞤭𞤲𞤣𞤫": 7333,
      "𞤻𞤢𞤱𞤲𞤣𞤢𞤺𞤮𞤤": 7334,
      "𞤼𞤭𞤨𞥆𞤵𞤣𞤫": 7335,
      "𞤭𞤥𞥆𞤭𞤲𞤣𞤫": 7336,
      "𞤭𞤥𞥆𞤭𞤲𞤭𞥅": 7337,
      "𞤲𞤫𞤯𞥆𞤢𞥄𞤳𞤵": 7338,
      "𞤸𞤢𞤱𞤪𞤢𞤼𞤢": 7339,
      "𞤱𞤫𞥅𞤪𞤲": 7340,
      "𞤲𞤫𞤭": 7341,
      "##asion": 7342,
      "##ranslat": 7343,
      "𞤳𞤢𞤪𞤸": 7344,
      "𞤳𞤢𞤬𞤤𞤫": 7345,
      "𞤤𞤢𞤲𞤷𞤵𞤺𞤮𞤤": 7346,
      "𞤸𞤭𞤳𞥆𞤭𞥅𞤯𞤫": 7347,
      "𞤴𞤵𞤪𞤥𞤭𞤲𞤭": 7348,
      "𞤩𞤢𞤼𞤢𞥄𞤳𞤫𞤱𞤮𞤤": 7349,
      "Africa": 7350,
      "𞤦𞤢𞤥𞤦𞤢𞤲𞤺𞤮𞤤": 7351,
      "𞤨𞤮𞤪𞤼𞤮𞥅𞤩𞤫": 7352,
      "𞤲𞤫𞤤𞤣𞤭": 7353,
      "##𞤵𞤲𞤳𞤫𞥅𞤩𞤫": 7354,
      "𞤱𞤭𞤳𞥆𞤢𞥄𞤣𞤫": 7355,
      "𞤤𞤮𞤲𞤼𞤭𞤲𞤭𞤪𞤢𞥄": 7356,
      "##𞤉𞤈𞤐𞤀𞤐𞤁𞤉": 7357,
      "𞤧𞤢𞤳𞥆𞤭𞤼𞤢𞥄𞤯𞤮": 7358,
      "𞤧𞤢𞤳𞥆𞤭𞤼𞤭𞥅𞤯𞤭": 7359,
      "𞤀𞤤𞤸𞤢𞤧𞤢𞤲": 7360,
      "𞤱𞤵𞤶𞥆𞤭𞥅": 7361,
      "𞤅𞤵𞤱𞤢𞤸𞤭𞤤𞤭": 7362,
      "𞤋𞤄𞤈𞤀𞥄𞤖": 7363,
      "𞤖𞤮𞥅𞤪𞤦𞤭𞤪𞥆𞤫": 7364,
      "𞤥𞤵𞤤𞥆𞤮": 7365,
      "##𞤭𞥅𞤦𞤢𞥄𞤶𞤭": 7366,
      "𞤶𞤫𞥅𞤺𞤢𞤩𞤮": 7367,
      "𞤶𞤭𞤱𞤮𞤴": 7368,
      "𞤸𞤵𞤥𞤨𞤭𞤼𞤭𞥅": 7369,
      "𞤸𞤫𞤦𞤤𞤢𞤲𞤮𞥅": 7370,
      "𞤤𞤮𞥅𞤼𞤢𞤯𞤫": 7371,
      "𞤲𞤫𞥅𞤥𞤢𞥄𞤶𞤭": 7372,
      "𞤶𞤭𞤲𞥆𞤢": 7373,
      "𞤺𞤫𞤪𞤭": 7374,
      "##𞤢𞥁𞤭𞥅𞤪𞤢": 7375,
      "𞤸𞤢𞤳𞥆𞤭𞤤𞤫": 7376,
      "𞤼𞤭𞤳𞥆𞤢𞤲𞤭": 7377,
      "𞤀𞤊𞤪𞤭𞤳𞤢𞥄": 7378,
      "𞤃𞤫𞤧𞤭": 7379,
      "𞤴𞤢𞤪𞤤": 7380,
      "𞤸𞤭𞥅𞤧𞤮": 7381,
      "##charger": 7382,
      "𞤲𞤺𞤢𞤴𞤵": 7383,
      "𞤲𞤺𞤢𞤴𞤵𞥅𞤪𞤭": 7384,
      "𞤥𞤮𞤬𞤼𞤭": 7385,
      "𞤀𞤤𞤶𞤢𞥁𞤭𞥅𞤪𞤢": 7386,
      "𞤴𞤫𞥅𞤦𞤢𞤺𞤮𞤤": 7387,
      "𞤸𞤭𞤳𞥆𞤮𞤪𞤲𞤣𞤫": 7388,
      "𞤱𞤭𞤲𞤣𞤭𞤪𞤢𞥄": 7389,
      "𞤱𞤭𞤲𞤣𞤭𞤪𞤢𞥄𞤲𞤺𞤢𞤤": 7390,
      "𞤐𞤢𞤶𞤫𞥅𞤪𞤭𞤴𞤢𞥄": 7391,
      "𞤧𞤢𞤳𞥆𞤭𞤼𞤮𞤪𞤢𞤤": 7392,
      "𞤑𞤢𞤪𞤮𞥅𞤼𞤶𞤫": 7393,
      "𞤚𞤢𞤥𞤨𞤫𞤪𞤫": 7394,
      "𞤬𞤵𞤪𞤫𞥅": 7395,
      "𞤱𞤢𞥄𞤧𞤫𞥅𞤣𞤫": 7396,
      "𞤶𞤢𞤤𞤳": 7397,
      "𞤼𞤮𞥅𞤱𞤵𞤯𞤮": 7398,
      "𞤬𞤫𞤪𞤺𞤵": 7399,
      "𞤬𞤫𞤪𞤢𞥄𞤯𞤮": 7400,
      "𞤣𞤵𞥅𞤥𞤭𞥅": 7401,
      "𞤶𞤮𞤺𞤲𞤭𞤼𞤵𞤺𞤮𞤤": 7402,
      "𞤸𞤵𞤥𞤢𞤥𞤦𞤭𞤲𞤢𞥄𞤳𞤵": 7403,
      "𞤲𞤫𞥅𞤩𞤲𞤭𞤼𞤢𞤴": 7404,
      "𞤱𞤫𞥅𞤴𞤮𞤲𞤳𞤫𞤱𞤢𞤤": 7405,
      "𞤉𞤤𞤭𞤧": 7406,
      "𞤋𞤼𞤢𞤤𞤭": 7407,
      "𞤏𞤢𞤺𞤲𞤫𞤪": 7408,
      "𞤔𞤢𞤲𞤺𞤣𞤫": 7409,
      "𞤔𞤵𞥅𞤤𞤯𞤮": 7410,
      "𞤗𞤢𞤪𞤣𞤢𞤱𞤭𞤴": 7411,
      "𞤬𞤵𞤳𞥆𞤭𞥅": 7412,
      "𞤳𞤭𞤦𞤭𞤪𞤯𞤫": 7413,
      "𞤷𞤮𞤳𞥆𞤮": 7414,
      "𞤷𞤮𞤩𞥆𞤭": 7415,
      "𞤺𞤭𞤥𞤯𞤭": 7416,
      "𞤺𞤭𞤥𞤯𞤮𞤤": 7417,
      "𞥑𞥙𞥔𞥘": 7418,
      "𞤺𞤮𞤤𞥆𞤭𞤪𞤺𞤮𞤤": 7419,
      "𞤸𞤫𞤱𞤼𞤮𞤴𞤺𞤮𞤤": 7420,
      "𞤭𞤥𞥆𞤮𞤪𞤯𞤮": 7421,
      "𞤼𞤮𞥅𞤱𞤲𞤵𞤺𞤮𞤤": 7422,
      "𞤼𞤭𞤲𞤼𞤭𞤣𞤢𞤤": 7423,
      "𞤥𞤫𞥅𞤥𞤵𞤺𞤮𞤤": 7424,
      "𞤤𞤢𞤦𞤵𞤼𞤢𞥄𞤲𞤪𞤵": 7425,
      "𞤋𞤧𞤪𞤢𞥄𞤭𞥅𞤤𞤢": 7426,
      "𞤐𞤭𞤱𞤴𞤮𞤪𞤳": 7427,
      "𞤑𞤭𞤧𞤢𞥄𞤶𞤭": 7428,
      "𞤖𞤀𞤄𞤀": 7429,
      "𞤖𞤢𞤤𞤭𞥅𞤥𞤢": 7430,
      "𞤰𞤭𞥅𞤰𞤢𞤥": 7431,
      "𞤳𞤢𞥄𞤰𞤫": 7432,
      "𞤶𞤵𞤸𞤭": 7433,
      "𞤶𞤵𞤳𞥆𞤭𞤲𞤫": 7434,
      "##tait": 7435,
      "𞤸𞤮𞤶𞤮𞤥𞤫": 7436,
      "𞤧𞤮𞤰𞤵𞤣𞤫": 7437,
      "𞤱𞤭𞤯𞤼𞤮": 7438,
      "𞤶𞤵𞥅𞤪𞤢𞤤": 7439,
      "𞤧𞤢𞤤𞤢𞤤𞤮": 7440,
      "ave": 7441,
      "conviv": 7442,
      "𞤇𞤵𞤪𞤲𞤭𞥅": 7443,
      "𞤋𞤅𞤑𞤋𞤐": 7444,
      "𞤑𞤀𞥄𞤅𞤀𞥄": 7445,
      "𞤖𞤢𞤳𞥆𞤵𞤲𞥋𞤣𞤫": 7446,
      "𞤚𞤮𞥅𞤱𞤵𞤯𞤮": 7447,
      "𞤣𞤢𞤥𞤨": 7448,
      "𞤣𞤢𞤥𞤢𞤤": 7449,
      "𞤴𞤫𞤣𞥆": 7450,
      "𞤼𞤵𞤥𞤢": 7451,
      "𞤼𞤮𞤼𞥆𞤵𞤣𞤫": 7452,
      "##ctob": 7453,
      "##okes": 7454,
      "𞤥𞤮𞤺𞥆𞤫𞤪𞤫": 7455,
      "𞤧𞤮𞤬𞤼𞤭𞤲𞤮𞥅𞤩𞤫": 7456,
      "𞤥𞤵𞤴𞤲𞤢𞥄𞤯𞤫": 7457,
      "𞤥𞤵𞤴𞤲𞤢𞥄𞤲𞤺𞤢𞤤": 7458,
      "𞤃𞤮𞤸𞤢𞤥𞥆𞤢𞤣": 7459,
      "langue": 7460,
      "𞤂𞤢𞤼𞤫𞤲": 7461,
      "𞤂𞤭𞤣𞥆𞤵": 7462,
      "𞤂𞤭𞤣𞥆𞤭𞥅𞤩𞤫": 7463,
      "𞤄𞤢𞤺𞤦𞤮𞥅": 7464,
      "𞤄𞤉𞤈𞤐𞤀𞤈": 7465,
      "𞤑𞤢𞤬𞤤𞤫": 7466,
      "𞤖𞤢𞤦𞤪𞤫": 7467,
      "𞤖𞤵𞤧𞤫𞤴𞤲": 7468,
      "𞤣𞤮𞤵𞤲𞤮": 7469,
      "𞤪𞤢𞤯𞤢𞥄": 7470,
      "𞤶𞤢𞥄𞤪𞤲𞤢𞥄𞤥𞤢": 7471,
      "##𞤭𞤼𞤮𞥅𞤱𞤢𞤤": 7472,
      "𞤱𞤢𞤯𞤼𞤢𞤲𞤢𞥄𞤤𞤭": 7473,
      "𞤳𞤵𞥅𞤩𞤮": 7474,
      "𞤳𞤵𞥅𞤩𞤢𞤤𞥆𞤮": 7475,
      "𞤣𞤭𞤪𞤼𞤭𞤲𞤫": 7476,
      "𞤶𞤮𞤶𞥆𞤢𞤤𞤫": 7477,
      "𞤀𞤼𞤤𞤢𞤧": 7478,
      "New": 7479,
      "Neen": 7480,
      "𞤃𞤢𞥄𞤴𞤣𞤫": 7481,
      "𞤈𞤀𞤋𞥅𞤅": 7482,
      "𞤏𞤢𞥃": 7483,
      "𞤑𞤢𞤲𞤢𞤣𞤢": 7484,
      "𞤑𞤢𞤲𞤢𞤣𞤢𞥄": 7485,
      "𞤒𞤢𞥄𞤳𞤮𞤪𞤣𞤫": 7486,
      "𞤔𞤢𞤲𞤺𞤮": 7487,
      "𞤨𞤫𞤲𞤢𞥄𞤤𞤫": 7488,
      "𞤺𞤮𞤲𞤣𞤢𞤤": 7489,
      "𞤸𞤢𞥄𞤪𞤢𞤼𞤢𞥄": 7490,
      "𞤲𞤶𞤢𞥄𞤺𞤮": 7491,
      "𞤱𞤢𞤴𞤪𞤢𞤲𞤮𞥅": 7492,
      "𞤀𞤒𞤅𞤀𞤚𞤓": 7493,
      "𞤏𞤭𞤲𞤣𞤫𞤲": 7494,
      "𞤐𞤭𞤶𞤫𞥅𞤪𞤭𞤴𞤢": 7495,
      "𞤖𞤢𞤶𞥆𞤢": 7496,
      "𞤣𞤵𞤪𞤱": 7497,
      "𞤱𞤵𞥅𞤪𞤵": 7498,
      "𞤳𞤵𞤪𞤵𞤲": 7499,
      "𞤳𞤵𞤧𞤫𞤤": 7500,
      "𞤴𞤵𞤨𞥆": 7501,
      "𞤸𞤢𞤥𞥆𞤢𞤲𞤭": 7502,
      "𞤴𞤫𞤱𞤼𞤵𞤣𞤵𞤺𞤮𞤤": 7503,
      "𞤤𞤭𞤣𞥆𞤭𞥅𞤯𞤫": 7504,
      "𞤃𞤢𞤸𞤢𞤥𞤢𞤲": 7505,
      "##𞤀𞤐𞤑𞤌𞥅𞤈𞤓": 7506,
      "𞤳𞤮𞤪𞤮𞥅𞤲𞤢𞤾𞤭𞤪𞤭𞥅𞤧": 7507,
      "𞤆𞤫𞤲𞤧𞤭𞤤𞤱𞤢𞤲𞤭𞤴𞤢𞥄": 7508,
      "which": 7509,
      "𞤀𞤣𞤵𞤲𞤢𞤴𞤢𞤲𞤳": 7510,
      "𞤁𞤮𞤬𞤼𞤮𞥅𞤪": 7511,
      "𞤂𞤫𞤱𞤪𞤵": 7512,
      "𞤆𞤫𞤤𞥆𞤫𞤼": 7513,
      "𞤐𞤣𞤭𞤺𞤢": 7514,
      "𞤕𞤀𞤒𞤐𞤀": 7515,
      "𞤖𞤋𞤈𞤀": 7516,
      "𞤚𞤫𞤽𞤼𞤭𞤲𞤭𞥅": 7517,
      "𞤧𞤵𞥅𞤥𞤭𞤪𞤯𞤵𞤲": 7518,
      "𞤧𞤫𞤤𞥆𞤵𞤯𞤮": 7519,
      "𞤬𞤢𞤴𞤣𞤢": 7520,
      "𞤴𞤭𞤪𞤦": 7521,
      "𞤺𞤭𞤪𞤫": 7522,
      "##𞤵𞤧𞤮𞤳𞤮𞤪𞤮": 7523,
      "##unity": 7524,
      "𞤱𞤮𞤲𞤼𞤭𞤪𞤲𞤣𞤫": 7525,
      "𞤬𞤫𞤬𞤭𞤲𞥋": 7526,
      "𞤺𞤮𞤤𞥆𞤭𞤼𞤭𞤪𞤯𞤫": 7527,
      "𞤀𞥄𞤧𞤭𞤴𞤢𞤲𞤳𞤮𞥅𞤩𞤫": 7528,
      "𞤳𞤢𞤲𞤧𞤫𞤪": 7529,
      "𞤱𞤫𞤤𞤼𞤢𞤲𞤢𞥄𞤥𞤢": 7530,
      "𞤸𞤫𞤲𞤣𞤭𞤳𞤫": 7531,
      "𞤀𞤲𞤼𞤮𞤲𞤭𞥅": 7532,
      "##ortunity": 7533,
      "𞤦𞤢𞤲𞤣𞤭𞤪𞤢𞥄𞤩𞤫": 7534,
      "𞤸𞤫𞥅𞤪𞤼𞤮𞤪𞤢𞥄𞤯𞤭": 7535,
      "𞤸𞤢𞤼𞤮𞤲𞤶𞤭𞤲𞥆𞤮𞥅": 7536,
      "𞤸𞤫𞤴𞤯𞤭𞤲𞤼𞤭𞤲𞤺𞤮𞤤": 7537,
      "𞤀𞤬𞤪𞤭𞥅𞤳𞤢": 7538,
      "parler": 7539,
      "𞤗𞤢𞤪𞤣𞤢𞥄𞤱𞤭𞥅": 7540,
      "photos": 7541,
      "télécharger": 7542,
      "𞤑𞤢𞤤𞤭𞤬𞤮𞤪𞤲𞤭𞤴𞤢": 7543,
      "Interp": 7544,
      "about": 7545,
      "cliquez": 7546,
      "minorit": 7547,
      "𞤁𞤭𞥅𞤱𞤢𞤤": 7548,
      "𞤁𞤮𞤱𞤪𞤭": 7549,
      "𞤁𞤭𞥅𞤧𞤲": 7550,
      "𞤂𞤭𞤧𞤵𞤦𞤢𞥄": 7551,
      "𞤃𞤀𞤅𞥆𞤀𞤃𞤄": 7552,
      "𞤃𞤉𞤑𞤅𞤋𞤑": 7553,
      "𞤄𞤀𞤒𞤋𞤂𞥆𞤌": 7554,
      "𞤅𞤫𞤪𞤫𞤳𞤮𞤪𞤫": 7555,
      "𞤈𞤵𞤹": 7556,
      "𞤈𞤌𞤐𞤀𞤂𞤁𞤌": 7557,
      "𞤉𞤥𞤦𞤢": 7558,
      "𞤐𞤭𞤥𞤦𞤢𞥄": 7559,
      "𞤑𞤵𞥅𞤤𞤫": 7560,
      "𞤑𞤵𞤪𞤵𞤧𞤢": 7561,
      "𞤑𞤵𞤥𞤨𞤭𞤼𞤢𞤤": 7562,
      "𞤒𞤫𞥅𞤴": 7563,
      "𞤨𞤢𞤥𞤢𞤪": 7564,
      "𞤯𞤢𞤩𞥆𞤫𞤪𞤫": 7565,
      "𞤲𞤶𞤫𞤪": 7566,
      "𞤲𞤢𞤧𞤢𞥄𞤪": 7567,
      "𞤳𞤢𞤲𞤳𞤢𞤤𞤭𞤦𞤢": 7568,
      "𞤶𞤢𞤨𞤢𞤲𞤢𞥄𞤩𞤫": 7569,
      "𞤷𞤵𞥅𞤷𞤢𞤤": 7570,
      "##𞥆𞤢𞤤𞤭𞤦𞤭": 7571,
      "##osting": 7572,
      "##sistant": 7573,
      "##𞤭𞤲𞤣𞤮𞤼𞤮𞥅𞤯𞤮": 7574,
      "𞤳𞤢𞤬𞤢𞥄𞤯𞤫": 7575,
      "𞤲𞤺𞤮𞤥𞤲𞤢𞥄𞤳𞤵": 7576,
      "𞤘𞤫𞤲𞤣𞤭𞥅𞤱𞤢𞤤": 7577,
      "𞤱𞤫𞤤𞤣𞤭𞤲𞤼𞤭𞤲𞤺𞤮𞤤": 7578,
      "𞤀𞤂𞤜𞤀𞤈𞤉𞤅": 7579,
      "𞤄𞤫𞤲𞤺𞤤𞤢𞤣𞤫𞤧": 7580,
      "𞤔𞤮𞤸𞤲": 7581,
      "𞤲𞤫𞤦𞥆𞤢𞤲": 7582,
      "𞤁𞤌𞤅𞤚𞤉𞤈𞤉𞤒": 7583,
      "𞤖𞤵𞤧𞤫𞤴𞤲𞤭": 7584,
      "2022": 7585,
      "7500": 7586,
      "Assistant": 7587,
      "Aissatou": 7588,
      "BBC": 7589,
      "Brookes": 7590,
      "Educ": 7591,
      "English": 7592,
      "Fouta": 7593,
      "Lyon": 7594,
      "Lilly": 7595,
      "Mundol": 7596,
      "Mark": 7597,
      "Script": 7598,
      "Socio": 7599,
      "also": 7600,
      "created": 7601,
      "créé": 7602,
      "harmoni": 7603,
      "million": 7604,
      "opportunity": 7605,
      "occasion": 7606,
      "presentation": 7607,
      "présentation": 7608,
      "spok": 7609,
      "servand": 7610,
      "𝘁𝗮𝗯𝗮𝗹": 7611,
      "𞤀𞤼𞤢𞤤𞤢𞤲𞤼𞤢": 7612,
      "𞤃𞤵𞤼𞥆𞤢𞤤𞤭𞤦𞤭": 7613,
      "𞤃𞤵𞤲𞤣𞤮𞤤": 7614,
      "𞤄𞤮𞤴𞤭𞤲𞤺": 7615,
      "𞤄𞤋𞤒𞤉𞤐𞤉": 7616,
      "𞤅𞤫𞤤𞤫𞤲": 7617,
      "𞤅𞤫𞤯𞤼𞤮": 7618,
      "𞤅𞤢𞥄𞤲𞤮𞤺𞤮": 7619,
      "𞤆𞤪𞤭𞤺𞤮𞥁𞤭𞤲": 7620,
      "𞤆𞤮𞤤𞤮𞤻": 7621,
      "𞤈𞤮𞤧𞤭𞤴𞤢": 7622,
      "𞤈𞤵𞥅𞤦𞤵𞤤": 7623,
      "𞤈𞤢𞤬𞤭𞥅𞤹": 7624,
      "𞤊𞤤𞤮𞤴𞤣": 7625,
      "𞤐𞤭𞤤𞥆𞤢𞥄𞤶𞤮": 7626,
      "𞤐𞤵𞤤𞤢𞥄𞤯𞤮": 7627,
      "𞤑𞤫𞤲𞤭𞤴𞤢": 7628,
      "𞤑𞤢𞤪𞤭𞥅𞤥": 7629,
      "𞤒𞤉𞤈𞤌": 7630,
      "𞤕𞤭𞤴𞤢𞤲𞤭": 7631,
      "𞤕𞤉𞤈𞤐𞤌": 7632,
      "𞤘𞤀𞥄𞤟𞥆𞤀": 7633,
      "𞤚𞤭𞤨𞥆𞤵𞤣𞤫": 7634,
      "𞤜𞤫𞤪𞤣𞤫": 7635,
      "𞤜𞤭𞤳𞤼𞤮𞥅𞤪": 7636,
      "𞤟𞤢𞤴𞤲𞤢𞤦": 7637,
      "𞤡𞤋𞤐𞤟𞤋𞤒𞤀𞤐": 7638,
      "𞤤𞤭𞥅𞤧𞤫𞥅": 7639,
      "𞤦𞤢𞥄𞤨𞥆𞤢": 7640,
      "𞤦𞤵𞥅𞤼𞤮𞥅𞤪𞤭": 7641,
      "𞤨𞤭𞤶𞤫": 7642,
      "𞤨𞤫𞤱𞤶𞤫": 7643,
      "𞤰𞤮𞥅𞤺": 7644,
      "𞤱𞤵𞤴𞤩𞤫": 7645,
      "𞤳𞤭𞤼𞤢𞥄𞤤𞤫": 7646,
      "𞤷𞤫𞤥𞤼𞤮𞤤": 7647,
      "𞤷𞤭𞤬𞤼𞤭𞤲𞤮𞤪𞤯𞤫": 7648,
      "𞤻𞤮𞥅𞤺𞤫": 7649,
      "##vision": 7650,
      "𞤱𞤢𞤳𞤧𞤫𞤲": 7651,
      "𞤀𞤤𞤦𞤢𞥃𞤭𞥅𞤪": 7652,
      "𞤬𞤮𞥅𞤤𞤭𞤼𞤭𞤪𞤮": 7653,
      "𞤘𞤫𞤲𞤣𞤭𞤲𞤳𞤫𞤸𞤵": 7654,
      "𞤃𞤭𞤧𞤭𞤧𞤭𞤨𞤭": 7655,
      "𞤑𞤮𞤪𞤮𞤱𞤢𞤧𞤭": 7656,
      "𞤬𞤭𞤪𞤣𞤢𞤱𞤧𞤭": 7657,
      "##ranslate": 7658,
      "##𞤉𞤈𞤐𞤀𞤐𞤁𞤉𞤅": 7659,
      "𞤋𞤄𞤈𞤀𞥄𞤖𞤋𞥅𞤃𞤀": 7660,
      "𞤃𞤀𞤅𞥆𞤀𞤃𞤄𞤀": 7661,
      "𞤁𞤌𞤅𞤚𞤉𞤈𞤉𞤒𞤀𞤐𞤑𞤌𞥅𞤈𞤓": 7662,
      "75006": 7663,
      "Mundolingua": 7664,
      "servandoni": 7665,
      "𝘁𝗮𝗯𝗮𝗹𝗱𝗲": 7666,
      "And": 7667,
      "Be": 7668,
      "Ban": 7669,
      "CI": 7670,
      "Goo": 7671,
      "Hav": 7672,
      "Je": 7673,
      "NK": 7674,
      "PDC": 7675,
      "RP": 7676,
      "TV": 7677,
      "Translate": 7678,
      "Un": 7679,
      "UP": 7680,
      "URD": 7681,
      "West": 7682,
      "acc": 7683,
      "be": 7684,
      "ci": 7685,
      "do": 7686,
      "fr": 7687,
      "mo": 7688,
      "vid": 7689,
      "vers": 7690,
      "vide": 7691,
      "wit": 7692,
      "will": 7693,
      "Ét": 7694,
      "𝗼𝗿": 7695,
      "𝘄𝗶": 7696,
      "𞤀𞤣": 7697,
      "𞤀𞤧": 7698,
      "𞤀𞤶": 7699,
      "𞤀𞤡": 7700,
      "𞤀𞤨𞤮𞤤": 7701,
      "𞤀𞤣𞤭𞤧": 7702,
      "𞤁𞤫𞤤": 7703,
      "𞤂𞤋": 7704,
      "𞤂𞤮𞥅": 7705,
      "𞤂𞤭𞤥": 7706,
      "𞤂𞤵𞤼": 7707,
      "𞤂𞤢𞤪𞤢𞤲𞤳": 7708,
      "𞤃𞤋": 7709,
      "𞤃𞤮𞤲": 7710,
      "𞤃𞤢𞥄𞤲": 7711,
      "𞤃𞤫𞤼": 7712,
      "𞤃𞤀𞤐": 7713,
      "𞤃𞤢𞤧": 7714,
      "𞤃𞤀𞤁": 7715,
      "𞤃𞤀𞥄𞤐": 7716,
      "𞤄𞤭": 7717,
      "𞤄𞤉": 7718,
      "𞤄𞤮𞥅": 7719,
      "𞤄𞤮𞤤": 7720,
      "𞤄𞤵𞥅": 7721,
      "𞤄𞤪𞤫": 7722,
      "𞤄𞤭𞤤": 7723,
      "𞤄𞤢𞤲𞤳": 7724,
      "𞤄𞤢𞥄𞤴": 7725,
      "𞤄𞤋𞤒𞤀": 7726,
      "𞤄𞤮𞤤𞤢": 7727,
      "𞤄𞤭𞤴𞤮": 7728,
      "𞤄𞤢𞤥𞤦𞤢": 7729,
      "𞤄𞤵𞥃": 7730,
      "𞤄𞤋𞤅𞤋": 7731,
      "𞤅𞤢𞥄": 7732,
      "𞤅𞤢𞤲𞤺": 7733,
      "𞤅𞤭𞤦": 7734,
      "𞤅𞤀𞤃": 7735,
      "𞤅𞤫𞤸": 7736,
      "𞤅𞤵𞥅𞤧": 7737,
      "𞤅𞤀𞤃𞤄": 7738,
      "𞤅𞤫𞤥𞤦": 7739,
      "𞤅𞤢𞥄𞤳𞤮": 7740,
      "𞤅𞤢𞤲𞤣": 7741,
      "𞤅𞤫𞥅𞤣𞤫𞥅": 7742,
      "𞤆𞤉": 7743,
      "𞤆𞤵𞤼": 7744,
      "𞤆𞤭𞥅𞤶𞤭": 7745,
      "𞤆𞤭𞤲𞤢𞤤": 7746,
      "𞤆𞤭𞤼𞤢": 7747,
      "𞤇𞤢𞤥": 7748,
      "𞤇𞤀𞥄": 7749,
      "𞤇𞤮𞥅𞤴": 7750,
      "𞤈𞤌": 7751,
      "𞤈𞤉": 7752,
      "𞤈𞤫𞤴": 7753,
      "𞤈𞤀𞤃": 7754,
      "𞤈𞤵𞤧𞤳𞤭𞥅𞤩𞤫": 7755,
      "𞤊𞤮": 7756,
      "𞤊𞤪": 7757,
      "𞤊𞤘": 7758,
      "𞤊𞤭𞤼": 7759,
      "𞤊𞤢𞤼": 7760,
      "𞤊𞤢𞥄𞤲": 7761,
      "𞤊𞤀𞥄": 7762,
      "𞤊𞤢𞤴𞤩𞤫": 7763,
      "𞤊𞤢𞤲𞤼𞤢": 7764,
      "𞤊𞤉𞤈𞤐𞤀𞤐𞤁𞤉𞤅": 7765,
      "𞤋𞤪": 7766,
      "𞤋𞤱": 7767,
      "𞤌𞤳": 7768,
      "𞤌𞤨": 7769,
      "𞤍𞤋": 7770,
      "𞤍𞤮𞤲": 7771,
      "𞤍𞤭𞤯": 7772,
      "𞤏𞤢𞤪": 7773,
      "𞤏𞤢𞥄𞤲": 7774,
      "𞤏𞤫𞤪": 7775,
      "𞤏𞤋𞤐": 7776,
      "𞤏𞤉𞤈𞤁𞤉": 7777,
      "𞤐𞤢𞤴": 7778,
      "𞤐𞤢𞤥": 7779,
      "𞤐𞤣𞤵": 7780,
      "𞤐𞤳𞤮": 7781,
      "𞤐𞤢𞤬": 7782,
      "𞤐𞤘𞤀𞤂": 7783,
      "𞤐𞤑𞤌": 7784,
      "𞤐𞤉𞤚": 7785,
      "𞤐𞤀𞤃𞤋": 7786,
      "𞤑𞤉": 7787,
      "𞤑𞤢𞤴": 7788,
      "𞤑𞤭𞤴": 7789,
      "𞤑𞤢𞥄𞤤𞤭": 7790,
      "𞤑𞤢𞤲𞤮": 7791,
      "𞤑𞤢𞥄𞤪": 7792,
      "𞤑𞤈𞤋": 7793,
      "𞤑𞤓𞤐": 7794,
      "𞤑𞤢𞥄𞤦𞤢": 7795,
      "𞤑𞤪𞤭𞤧": 7796,
      "𞤑𞤤𞤭𞤲": 7797,
      "𞤒𞤢𞤲": 7798,
      "𞤒𞤢𞥄𞤥": 7799,
      "𞤒𞤭𞤤": 7800,
      "𞤒𞤭𞤯": 7801,
      "𞤒𞤵𞤥𞥆𞤢": 7802,
      "𞤒𞤓𞥅𞤅": 7803,
      "𞤓𞤤": 7804,
      "𞤓𞤬": 7805,
      "𞤓𞤪𞤵": 7806,
      "𞤔𞤵": 7807,
      "𞤔𞤢𞥄": 7808,
      "𞤔𞤮𞤤": 7809,
      "𞤔𞤭𞤥": 7810,
      "𞤔𞤵𞤤": 7811,
      "𞤔𞤮𞤱": 7812,
      "𞤔𞤀𞥄": 7813,
      "𞤔𞤢𞤳": 7814,
      "𞤔𞤮𞥅𞤯": 7815,
      "𞤔𞤵𞤩𞥆𞤵𞤣𞤭": 7816,
      "𞤔𞤀𞤑𞤋": 7817,
      "𞤔𞤌𞥅": 7818,
      "𞤔𞤮𞥅𞤲𞤮": 7819,
      "𞤕𞤵": 7820,
      "𞤕𞤢𞤥": 7821,
      "𞤕𞤢𞥄𞤱𞤮": 7822,
      "𞤕𞤢𞥄𞤨𞤢𞥄𞤤𞤭": 7823,
      "𞤖𞤫": 7824,
      "𞤖𞤢𞥄𞤤": 7825,
      "𞤖𞤭𞤧": 7826,
      "𞤖𞤀𞤑": 7827,
      "𞤖𞤢𞤪𞤮": 7828,
      "𞤖𞤢𞤪𞤫": 7829,
      "𞤖𞤌𞥅": 7830,
      "𞤗𞤢𞥄𞤧𞤭𞤥": 7831,
      "𞤘𞤮": 7832,
      "𞤘𞤘": 7833,
      "𞤘𞤭𞤲": 7834,
      "𞤘𞤢𞤪": 7835,
      "𞤘𞤢𞥄𞤴": 7836,
      "𞤚𞤵𞤤": 7837,
      "𞤚𞤫𞤱": 7838,
      "𞤚𞤵𞤦": 7839,
      "𞤚𞤭𞤺": 7840,
      "𞤚𞤮𞥅𞤪𞤮": 7841,
      "𞤡𞤫𞤪": 7842,
      "𞤡𞤭𞥅𞥃𞤢": 7843,
      "𞤢𞤸": 7844,
      "𞤢𞤥𞤦": 7845,
      "𞤢𞤣𞤭𞤲𞤮𞥅": 7846,
      "𞤣𞤭𞤲": 7847,
      "𞤣𞤵𞤥𞤦": 7848,
      "𞤣𞤢𞤲𞤳𞤭": 7849,
      "𞤣𞤢𞤥𞤦": 7850,
      "𞤣𞤵𞤲𞤳𞤫𞥅𞤩𞤫": 7851,
      "𞤤𞤵𞥅𞤦": 7852,
      "𞤤𞤭𞥅𞤦": 7853,
      "𞤤𞤭𞥅𞤰": 7854,
      "𞤤𞤢𞥄𞤤𞤢": 7855,
      "𞤥𞤮𞤤": 7856,
      "𞤥𞤮𞤪": 7857,
      "𞤥𞤢𞥄𞤲": 7858,
      "𞤥𞤮𞥅𞤤": 7859,
      "𞤥𞤮𞥅𞤯𞤮𞤲": 7860,
      "𞤦𞤭": 7861,
      "𞤦𞤵𞤥": 7862,
      "𞤦𞤵𞤩": 7863,
      "𞤦𞤫𞤤": 7864,
      "𞤦𞤢𞤨": 7865,
      "𞤦𞤢𞤤𞥆𞤢": 7866,
      "𞤦𞤵𞤼": 7867,
      "𞤦𞤢𞥄𞤧": 7868,
      "𞤦𞤢𞥄𞤯𞤭": 7869,
      "𞤦𞤫𞤲𞤧": 7870,
      "𞤧𞤭𞥅𞤤": 7871,
      "𞤧𞤵𞤱": 7872,
      "𞤧𞤭𞤲𞤼𞤭𞤲": 7873,
      "𞤧𞤵𞥅𞤪": 7874,
      "𞤧𞤫𞤴𞤲": 7875,
      "𞤧𞤫𞤼𞤫𞥅𞤶𞤮": 7876,
      "𞤨𞤢𞤲𞤳": 7877,
      "𞤨𞤮𞥅𞤯𞤮": 7878,
      "𞤨𞤵𞤯𞤭": 7879,
      "𞤪𞤢𞤩": 7880,
      "𞤪𞤫𞤪": 7881,
      "𞤪𞤵𞥅𞤥": 7882,
      "𞤪𞤫𞤥": 7883,
      "𞤪𞤢𞤩𞥆𞤭𞤲": 7884,
      "𞤫𞤪𞤮": 7885,
      "𞤬𞤢𞤪": 7886,
      "𞤬𞤢𞤼": 7887,
      "𞤬𞤢𞤦": 7888,
      "𞤬𞤭𞤴𞤢": 7889,
      "𞤬𞤢𞥄𞤪": 7890,
      "𞤭𞤷": 7891,
      "𞤭𞤻𞥆𞤭𞤲": 7892,
      "𞤮𞤱𞤲": 7893,
      "𞤯𞤢𞤤": 7894,
      "𞤯𞤮𞤴": 7895,
      "𞤯𞤢𞥄𞤴": 7896,
      "𞤱𞤢𞤲": 7897,
      "𞤱𞤢𞥄𞤤": 7898,
      "𞤱𞤭𞤤": 7899,
      "𞤱𞤢𞤴𞤲": 7900,
      "𞤱𞤫𞥅𞤲": 7901,
      "𞤱𞤭𞥅𞤪": 7902,
      "𞤲𞤵𞤳": 7903,
      "𞤲𞤫𞥅𞤲": 7904,
      "𞤲𞤭𞤩": 7905,
      "𞤳𞤫𞤲": 7906,
      "𞤳𞤫𞤴": 7907,
      "𞤳𞤭𞤶": 7908,
      "𞤳𞤵𞤼𞤵": 7909,
      "𞤴𞤤": 7910,
      "𞤴𞤢𞥄𞤲": 7911,
      "𞤴𞤢𞤺": 7912,
      "𞤵𞥅": 7913,
      "𞤵𞤬": 7914,
      "𞤵𞤬𞤭𞤲": 7915,
      "𞤶𞤭𞤪": 7916,
      "𞤶𞤭𞤴": 7917,
      "𞤶𞤢𞤸": 7918,
      "𞤶𞤮𞥅𞤪": 7919,
      "𞤶𞤢𞥄𞤴": 7920,
      "𞤶𞤫𞤸𞤫": 7921,
      "𞤶𞤢𞥄𞤲𞤺𞤮𞤤": 7922,
      "𞤷𞤮𞤲": 7923,
      "𞤷𞤢𞥄𞤨𞤢𞥄𞤤𞤭": 7924,
      "𞤷𞤵𞤩𞤤𞤫": 7925,
      "𞤸𞤵𞤪": 7926,
      "𞤸𞤢𞤴𞤲": 7927,
      "𞤺𞤢𞥄": 7928,
      "𞤺𞤫𞥅": 7929,
      "𞤺𞤢𞤥": 7930,
      "𞤺𞤢𞤦": 7931,
      "𞤺𞤵𞤪": 7932,
      "𞤺𞤢𞤲𞤺": 7933,
      "𞤺𞤫𞤴": 7934,
      "𞤺𞤭𞥅𞤤": 7935,
      "𞤺𞤭𞥅𞤦𞤢𞥄𞤶𞤭": 7936,
      "𞤻𞤢𞥄": 7937,
      "𞤻𞤢𞥄𞤥𞤢": 7938,
      "𞤻𞤢𞥄𞤪𞤭": 7939,
      "𞤻𞤭𞥅𞤱𞤢": 7940,
      "𞤻𞤮𞤤𞤵": 7941,
      "𞤼𞤵𞤪": 7942,
      "𞤼𞤢𞤲𞤣𞤫": 7943,
      "𞤼𞤮𞤱": 7944,
      "𞤼𞤮𞥅𞤲": 7945,
      "𞤼𞤫𞤪𞤫": 7946,
      "𞤼𞤢𞤬": 7947,
      "𞤼𞤢𞥄𞤦": 7948,
      "𞤼𞤵𞥅𞤦": 7949,
      "𞤼𞤵𞤯𞤢𞤲": 7950,
      "𞤼𞤭𞥅𞤤𞥆𞤭": 7951,
      "𞤽𞤭𞤪": 7952,
      "𞤽𞤢𞤼": 7953,
      "𞥐𞥑": 7954,
      "𞥔𞥖": 7955,
      "𞥔𞥐𞥐": 7956,
      "𞥕𞥓": 7957,
      "𞥕𞥗": 7958,
      "𞥖𞥙": 7959,
      "𞥖𞥐𞥐": 7960,
      "𞥗𞥗": 7961,
      "𞥗𞥒": 7962,
      "𞥘𞥐": 7963,
      "𞥘𞥙": 7964,
      "𞥘𞥐𞥐": 7965,
      "𞥙𞥐": 7966,
      "𞥙𞥖": 7967,
      "🇧🇷": 7968,
      "🇨🇲": 7969,
      "🇨🇭": 7970,
      "🇪🇸": 7971,
      "🇵🇹": 7972,
      "##𞤮𞤥𞤫": 7973,
      "##𞤮𞤴𞤢": 7974,
      "##𞤯𞤮𞥅": 7975,
      "##𞤯𞤢𞤥": 7976,
      "##𞤯𞤵𞤺𞤮𞤤": 7977,
      "##𞤯𞤵𞤩𞤫": 7978,
      "##𞤯𞤼𞤭𞤪𞤣𞤫": 7979,
      "##𞥆𞤵𞥅𞤶𞤫": 7980,
      "##𞥆𞤢𞥄𞤲𞤺𞤢𞤤": 7981,
      "##𞥆𞤵𞤲𞥋𞤣𞤭": 7982,
      "##𞤭𞤣𞤭": 7983,
      "##𞤭𞤯𞤮": 7984,
      "##𞤲𞤭𞤪": 7985,
      "##𞤲𞤯𞤫": 7986,
      "##𞤲𞤢𞥄𞤤𞤭": 7987,
      "##𞤲𞤣𞤭𞥅": 7988,
      "##𞤲𞤮𞤪𞤭": 7989,
      "##𞤲𞤢𞤤𞥆𞤮": 7990,
      "##𞤲𞤢𞥄𞤶𞤭": 7991,
      "##𞤲𞤢𞤴𞤲𞤮": 7992,
      "##𞤲𞤢𞤼𞤫𞥅𞤪𞤭": 7993,
      "##𞤲𞥋𞤣𞤫": 7994,
      "##𞤺𞤭𞤤": 7995,
      "##𞤺𞤭𞤪𞤣𞤫": 7996,
      "##𞤺𞤫𞥅𞤪𞤫": 7997,
      "##𞤺𞤢𞤲𞤭𞥅": 7998,
      "##𞤺𞤮𞥅𞤪𞤵": 7999,
      "##𞤤𞤢𞥄𞤳𞤵": 8000,
      "##𞤤𞤢𞤲𞤣": 8001,
      "##𞤢𞤖𞤀": 8002,
      "##𞤢𞤾𞤭𞤪𞤭𞥅𞤧": 8003,
      "##𞤱𞤪": 8004,
      "##𞤱𞤫": 8005,
      "##𞤱𞤪𞤫": 8006,
      "##𞤱𞤪𞤵": 8007,
      "##𞤱𞤢𞤪𞤮": 8008,
      "##𞤱𞤪𞤭𞤼": 8009,
      "##𞤫𞤺𞤮𞤤": 8010,
      "##𞤫𞤪𞤵": 8011,
      "##𞤣𞤢𞥄𞤩𞤫": 8012,
      "##𞤣𞤢𞥄𞤳𞤢": 8013,
      "##𞤣𞤲𞤣𞤭": 8014,
      "##𞥅𞤣𞤫": 8015,
      "##𞤧𞤢𞤲": 8016,
      "##𞤧𞤢𞥄𞤪𞤫": 8017,
      "##𞤧𞤫𞤤": 8018,
      "##𞤧𞤳𞤭": 8019,
      "##𞤧𞤭𞤴𞤢𞥄": 8020,
      "##𞤥𞤭𞥅𞤪": 8021,
      "##𞤥𞤢𞥄𞤲𞤭": 8022,
      "##𞤦𞤫𞤤": 8023,
      "##𞤦𞤮𞥅𞤶𞤭": 8024,
      "##𞤦𞤭𞥅𞤪": 8025,
      "##𞤩𞤭𞤼": 8026,
      "##𞤩𞤼𞤮𞤲𞥋𞤣𞤭𞤪𞤢𞤤": 8027,
      "##𞤩𞥆𞤮𞤲": 8028,
      "##𞤴𞤫": 8029,
      "##𞤴𞤫𞥅": 8030,
      "##𞤴𞤣𞤭": 8031,
      "##𞤴𞤮𞤲𞤢𞤤": 8032,
      "##𞤵𞤣": 8033,
      "##𞤵𞤳𞤢": 8034,
      "##𞤄𞤋": 8035,
      "##𞤄𞤉𞤂𞤉": 8036,
      "##𞤶𞥆𞤢𞤤": 8037,
      "##𞤶𞤢𞤼𞤢": 8038,
      "##𞤶𞤢𞥄𞤲𞤢": 8039,
      "##𞤼𞤢𞤴𞤲𞤮": 8040,
      "##𞤼𞤵𞤲𞥋𞤺𞤢𞤤": 8041,
      "##𞤼𞤢𞤲𞤮𞥅𞤳𞤭": 8042,
      "##𞤼𞤵𞤲𞥋𞤣𞤭": 8043,
      "##𞤁𞤈𞤉": 8044,
      "##𞤌𞤁": 8045,
      "##𞤌𞤆": 8046,
      "##𞤌𞤘𞤋": 8047,
      "##𞤀𞤄": 8048,
      "##𞤐𞤢𞥄": 8049,
      "##𞤐𞤓𞥅𞤅": 8050,
      "##𞤳𞤵𞤺𞤮𞤤": 8051,
      "##𞤳𞤵𞥅𞤶𞤭": 8052,
      "##𞤳𞤮𞤪𞤢𞤲": 8053,
      "##𞤳𞤫𞤱𞤮𞤤": 8054,
      "##𞤋𞤄𞤓": 8055,
      "##𞤨𞤲𞤢𞥄𞤩𞤫": 8056,
      "##𞤰𞤢𞥄": 8057,
      "##𞤰𞥆𞤮": 8058,
      "##𞥋𞤣𞤭𞤪𞤭": 8059,
      "##𞤉𞤟": 8060,
      "##𞤬𞤮𞤲": 8061,
      "##𞤬𞤭𞤤": 8062,
      "##𞤬𞤫𞥅𞤪𞤫": 8063,
      "##𞤅𞤂": 8064,
      "##𞤅𞤉𞥅": 8065,
      "##𞤷𞤭": 8066,
      "##𞤷𞥆𞤭𞥅": 8067,
      "##𞤂𞤋": 8068,
      "##𞤑𞤈": 8069,
      "##𞤑𞤀𞤐": 8070,
      "##𞤑𞤀𞤂": 8071,
      "##𞤑𞤋𞤈𞤋": 8072,
      "##da": 8073,
      "##uri": 8074,
      "##can": 8075,
      "##ad": 8076,
      "##ale": 8077,
      "##ail": 8078,
      "##ia": 8079,
      "##ie": 8080,
      "##iè": 8081,
      "##ial": 8082,
      "##ique": 8083,
      "##nlo": 8084,
      "##lic": 8085,
      "##em": 8086,
      "##rent": 8087,
      "##𞤽𞤢𞤪𞤢𞤲𞤳𞤫𞥅𞤩𞤫": 8088,
      "##PC": 8089,
      "##éo": 8090,
      "##su": 8091,
      "##si": 8092,
      "##sous": 8093,
      "##𞤒𞤅𞤂": 8094,
      "##per": 8095,
      "##pon": 8096,
      "##bd": 8097,
      "##bu": 8098,
      "##𞤸𞤮": 8099,
      "##𞤸𞤢𞤤": 8100,
      "##𞤸𞤢𞥄𞤤𞤭": 8101,
      "##𞤸𞤮𞥅𞤪𞤫": 8102,
      "##𞤸𞤢𞤪𞤭𞥅": 8103,
      "##wnlo": 8104,
      "##gle": 8105,
      "##UI": 8106,
      "##𞤾𞤢": 8107,
      "##𞤚𞤉𞥅𞤈𞤋": 8108,
      "##𞥑𞥔": 8109,
      "##𞤟𞤀𞤐": 8110,
      "##𞤻𞤭𞥅𞤩𞤫": 8111,
      "##qu": 8112,
      "##𞤡𞤀𞤃𞤄𞤋𞤑": 8113,
      "##𞤜𞤌𞤘𞤋": 8114,
      "##𞤗𞤓": 8115,
      "##𞥊𞥅": 8116,
      "##𝗻𝗷": 8117,
      "##𝗻𝗴": 8118,
      "##𝗻𝗱𝗲": 8119,
      "##𝗲𝗻": 8120,
      "##𝗮𝗻𝗴": 8121,
      "##EC": 8122,
      "##EF": 8123,
      "##ES": 8124,
      "##𞥇𞤢𞤱": 8125,
      "##𞤣𞤫𞤦𞥆𞤮": 8126,
      "##𞤮𞥅𞤬": 8127,
      "##𞤢𞤤𞥆𞤫": 8128,
      "##𞤢𞤤𞤵𞤲𞤳𞤫𞤱𞤢𞤤": 8129,
      "##𞤢𞤲𞤣𞤭": 8130,
      "##𞤢𞤲𞤢𞤴": 8131,
      "##𞤢𞤲𞤯𞤮": 8132,
      "##𞤢𞤲𞤺𞤮": 8133,
      "##𞤢𞤲𞤢𞥄𞤩𞤫": 8134,
      "##𞤢𞤲𞤢𞥄𞤳𞤢": 8135,
      "##𞤢𞤲𞤢𞥄𞤳𞤭": 8136,
      "##𞤢𞤲𞤼𞤢𞥄": 8137,
      "##𞤢𞤲𞥋𞤣𞤫": 8138,
      "##𞤮𞤲𞤢𞤾𞤭𞤪𞤭𞥅𞤧": 8139,
      "##𞤭𞤲𞤫𞥅": 8140,
      "##𞤭𞤲𞥆𞤮": 8141,
      "##𞤭𞤲𞤢𞥄𞤣𞤫": 8142,
      "##𞤭𞤲𞤢𞤲𞤮": 8143,
      "##𞤭𞤲𞤮𞤪𞤭": 8144,
      "##𞤭𞤲𞤭𞤪𞤢𞥄": 8145,
      "##𞤭𞤲𞤼𞤮𞤲": 8146,
      "##𞤭𞤲𞤢𞤲𞤮𞥅𞤳𞤢": 8147,
      "##𞤵𞤲𞤢𞤤": 8148,
      "##𞤵𞤲𞤣𞤵": 8149,
      "##𞤫𞤲𞤼𞤭𞤧": 8150,
      "##𞤫𞤲𞤳𞤫𞤱𞤮𞤤": 8151,
      "##𞤫𞥅𞤪𞤵": 8152,
      "##𞤫𞥅𞤼𞤫𞥅": 8153,
      "##𞤫𞥅𞤧𞤭𞥅": 8154,
      "##𞤮𞤤𞤭": 8155,
      "𞤳𞤢𞤼𞤢𞥄": 8156,
      "##𞤢𞤪𞤦𞤢": 8157,
      "##𞤢𞤪𞤢𞥄𞤲𞤢": 8158,
      "##𞤵𞥅𞤼𞤵": 8159,
      "𞤲𞤺𞤢𞤲𞤼𞤮": 8160,
      "𞤳𞤮𞤸": 8161,
      "##𞤢𞤱𞤳𞤭": 8162,
      "##𞤭𞤪𞤢𞤲": 8163,
      "##𞤭𞤪𞤢𞥄𞤯𞤮": 8164,
      "𞤲𞤣𞤫𞤫": 8165,
      "𞤲𞤣𞤫𞤱𞤪𞤭𞤼": 8166,
      "##𞤢𞤴𞤳𞤢": 8167,
      "##𞤢𞤴𞤳𞤵𞤲": 8168,
      "##𞤢𞤴𞤳𞤮𞤱𞤢𞤤": 8169,
      "##𞤢𞤴𞤢𞥄𞤺𞤢𞤤": 8170,
      "𞤱𞤮𞤲𞤺𞤮": 8171,
      "𞤱𞤮𞤲𞤢𞥄𞤩𞤫": 8172,
      "𞤱𞤮𞤲𞤣𞤭𞥅": 8173,
      "𞤱𞤮𞤲𞤢𞤼𞤢𞥄": 8174,
      "𞤱𞤮𞤲𞤣𞤢𞥄": 8175,
      "𞤱𞤮𞤲𞤣𞤵𞤺𞤮𞤤": 8176,
      "𞤱𞤮𞤲𞤭𞤪𞤢𞥄": 8177,
      "𞤱𞤮𞤲𞤢𞤴𞤲𞤮": 8178,
      "𞤱𞤮𞤲𞥆𞤮𞥅𞤩𞤫": 8179,
      "𞤱𞤮𞤲𞤵𞤲𞥋𞤺𞤢𞤤": 8180,
      "𞤱𞤮𞤲𞤮𞤴𞤼𞤢": 8181,
      "𞤱𞤮𞤲𞤼𞤢𞤴": 8182,
      "𞤱𞤮𞤲𞤢𞤲𞥆𞤮𞥅": 8183,
      "𞤱𞤮𞤲𞤢𞤲𞥆𞤮": 8184,
      "##𞤮𞤪𞤮𞤧": 8185,
      "𞤲𞤮𞤣𞥆𞤫": 8186,
      "𞤲𞤮𞤨𞥆𞤭": 8187,
      "##𞤭𞤼𞤵𞤣𞤫": 8188,
      "##𞤭𞤼𞤮𞤪𞤣𞤫": 8189,
      "##𞤭𞤼𞤭𞤲𞤮": 8190,
      "##𞤭𞤼𞤮𞤪𞤢": 8191,
      "𞤩𞤫𞤤": 8192,
      "𞤑𞤮𞤥𞤮𞤪": 8193,
      "##𞤢𞤼𞤫𞥅": 8194,
      "##𞤢𞤼𞤮𞥅𞤩𞤫": 8195,
      "##𞤢𞤼𞤫𞥅𞤶𞤭": 8196,
      "𞤥𞤢𞤷": 8197,
      "𞤥𞤢𞤳𞥆𞤫": 8198,
      "##𞤢𞤥𞥆": 8199,
      "##𞤢𞤥𞤫𞥅": 8200,
      "##𞤢𞤥𞤭𞤧": 8201,
      "##𞤯𞤮𞤼𞤮": 8202,
      "##𞤭𞤥𞤫𞤲": 8203,
      "##𞤮𞤼𞤮𞥅𞤯": 8204,
      "𞤬𞤫𞤥𞤦": 8205,
      "𞤬𞤫𞤼𞤫𞤤": 8206,
      "##𞥆𞤵𞤯𞤵𞤺𞤮𞤤": 8207,
      "##𞤢𞥄𞤱𞤢": 8208,
      "𞤲𞤣𞤢𞤲𞤺𞤵": 8209,
      "𞤲𞤺𞤢𞤤𞤵𞤲𞤳𞤫𞤱𞤢𞤤": 8210,
      "##𞤼𞤭𞤤": 8211,
      "𞤱𞤢𞤭": 8212,
      "𞤱𞤢𞤯𞤫": 8213,
      "##𞤢𞤦𞤵": 8214,
      "##𞤢𞤦𞤵𞥅𞤶𞤭": 8215,
      "##𞤢𞤦𞤢𞤥𞤢": 8216,
      "##𞤼𞤭𞤲𞤭𞤪𞤭": 8217,
      "##𞤼𞤭𞤲𞤢𞤲𞤮𞥅": 8218,
      "##𞤼𞤭𞤲𞤢𞥄𞤥𞤢": 8219,
      "##𞥆𞤭𞤴𞤮𞤲𞤢𞤤": 8220,
      "𞤥𞤮𞤥": 8221,
      "𞤥𞤮𞤮𞤲": 8222,
      "𞤥𞤮𞤶𞤮𞤦𞤫": 8223,
      "##𞤭𞤴𞤢𞤲": 8224,
      "##𞤭𞤴𞤫𞥅": 8225,
      "##𞤭𞤴𞤢𞤲𞤳𞤮": 8226,
      "##𞤭𞤴𞤮𞤧": 8227,
      "𞤼𞤢𞤱𞤲𞤢": 8228,
      "𞤼𞤢𞤱𞤲𞤮": 8229,
      "𞤼𞤢𞤱𞤢𞥄𞤲𞤺𞤢𞤤": 8230,
      "𞤼𞤢𞤱𞤲𞤢𞥄": 8231,
      "𞤼𞤢𞤱𞤼𞤢𞤴𞤲𞤮": 8232,
      "##𞤢𞥄𞤲𞤯𞤫": 8233,
      "##𞤢𞥄𞤲𞤭𞤴𞤢": 8234,
      "##𞤢𞥄𞤲𞥋𞤣𞤫": 8235,
      "##𞤵𞤪𞤢𞥄": 8236,
      "𞤸𞤫𞤼": 8237,
      "𞤸𞤫𞤣𞥆𞤭𞤼": 8238,
      "𞤸𞤫𞤷𞥆𞤭": 8239,
      "##𞤭𞤤𞤭𞥅": 8240,
      "##𞤭𞤤𞤫𞥅𞤪": 8241,
      "##𞤵𞤤𞥆𞤢𞥄𞤪𞤭": 8242,
      "𞥒𞥐𞥓𞥐": 8243,
      "##𞥆𞤢𞤣𞤫": 8244,
      "𞤤𞤢𞥄𞤥𞤭𞥅𞤩𞤫": 8245,
      "𞤤𞤢𞥄𞤥𞤮𞤪𞤯𞤫": 8246,
      "𞤤𞤢𞥄𞤥𞤢𞤼𞤫𞥅𞤪𞤭": 8247,
      "𞤤𞤢𞥄𞤥𞤭𞤳𞤫": 8248,
      "𞤤𞤢𞥄𞤥𞤭𞤲𞤮𞤳𞤫": 8249,
      "##𞥆𞤭𞤲𞤮𞤪𞤭": 8250,
      "##𞥆𞤮𞤣𞤭": 8251,
      "##𞥆𞤮𞤴𞤢": 8252,
      "##𞤢𞤲𞤳𞤢𞥄𞤳𞤵": 8253,
      "##𞤢𞤲𞤳𞤫𞥅𞤶𞤮": 8254,
      "##𞤢𞤲𞤳𞤮𞤪𞤮": 8255,
      "##𞤢𞥄𞤳𞤵𞤲": 8256,
      "##𞤢𞥄𞤳𞤮𞥅𞤪𞤫": 8257,
      "##𞤢𞤲𞤣𞤫𞤥𞤢": 8258,
      "##𞥆𞤭𞤼𞤮𞥅": 8259,
      "##𞥆𞤭𞤼𞤢𞥄𞤣𞤫": 8260,
      "𞤸𞤢𞤯𞤭": 8261,
      "𞤸𞤢𞤬𞤢𞥄": 8262,
      "𞤲𞤣𞤫𞤪𞤶𞤭": 8263,
      "##𞤪𞤫𞥅𞤣𞤫": 8264,
      "##𞤪𞤫𞥅𞤪𞤭": 8265,
      "𞤱𞤢𞤯𞤣𞤫": 8266,
      "𞤱𞤢𞤯𞤫𞥅𞤣𞤫": 8267,
      "𞤱𞤢𞤯𞤮𞤪𞤭": 8268,
      "𞤱𞤢𞤯𞤢𞤴𞤲𞤮": 8269,
      "𞤱𞤢𞤯𞤵𞤲𞥋𞤺𞤢𞤤": 8270,
      "𞤱𞤢𞤯𞤢𞤴𞤯𞤭": 8271,
      "𞤱𞤢𞤯𞤭𞤪𞤢𞤲𞤭": 8272,
      "𞤢𞤪𞤣𞤫": 8273,
      "𞤢𞤪𞤢𞤲𞤣𞤫": 8274,
      "𞤢𞤪𞤼𞤵𞤲𞤮𞥅": 8275,
      "𞤢𞤪𞤼𞤭𞤪𞤭": 8276,
      "##𞤢𞤩𞤵𞤲": 8277,
      "##𞤢𞤩𞥆𞤭𞤼": 8278,
      "##𞤫𞤱𞤫": 8279,
      "𞤸𞤮𞥅𞤪𞤫𞤴𞤢𞥄𞤺𞤢𞤤": 8280,
      "𞤧𞤢𞤦𞤭𞤲𞤭": 8281,
      "𞤧𞤢𞤦𞤢𞤦𞤵𞥅𞤶𞤭": 8282,
      "𞤧𞤢𞤦𞤢𞤲𞤣𞤫𞤥𞤢": 8283,
      "𞤸𞤮𞤤𞥆": 8284,
      "𞤸𞤮𞤤𞥆𞤢𞤴": 8285,
      "##𞤫𞤤𞤢": 8286,
      "𞤺𞤮𞥅𞤼𞤫𞤤": 8287,
      "##𞤣𞤭𞥅𞤶𞤫": 8288,
      "##𞤣𞤭𞥅𞤪𞤵": 8289,
      "𞤧𞤭𞤬": 8290,
      "𞤥𞤢𞥄𞤳𞥆𞤮": 8291,
      "𞤥𞤢𞥄𞤯𞤵𞤲": 8292,
      "##𞤢𞤲𞤭𞤳𞤫": 8293,
      "##𞤮𞥅𞤤𞤢𞤤": 8294,
      "𞤱𞤮𞥅𞤼𞤢": 8295,
      "𞤱𞤮𞥅𞤣𞤭𞥅": 8296,
      "𞤱𞤮𞥅𞤣𞤵𞤲𞤮𞥅": 8297,
      "𞤣𞤵𞥅𞤣𞤫𞤪𞤫": 8298,
      "𞤣𞤵𞥅𞤩𞤭𞥅": 8299,
      "##𞤢𞤨𞥆𞤢𞤲𞤯𞤫": 8300,
      "##𞥆𞤢𞤲𞤯𞤮": 8301,
      "##𞤧𞤭𞤣": 8302,
      "##𞤢𞤯𞤢𞥄": 8303,
      "𞤀𞤤𞤳": 8304,
      "𞤀𞤤𞤭𞤱": 8305,
      "𞤀𞤤𞤢𞤦𞤢𞤥𞤢": 8306,
      "𞤬𞤮𞤴": 8307,
      "𞤳𞤮𞤲𞤺𞤭": 8308,
      "𞤴𞤢𞤤𞤼𞤢𞤤": 8309,
      "𞤴𞤢𞤤𞤼𞤭𞤪": 8310,
      "𞤤𞤢𞥄𞤴": 8311,
      "𞤤𞤢𞥄𞤯𞤫": 8312,
      "𞤤𞤢𞥄𞤼𞤢𞤲": 8313,
      "𞤤𞤢𞥄𞤼𞤮𞤪": 8314,
      "𞤤𞤢𞥄𞤼𞤮𞤪𞤢": 8315,
      "𞤳𞤵𞥅𞤤": 8316,
      "𞤸𞤭𞤼𞥆𞤢𞤲𞤣𞤫": 8317,
      "𞤸𞤭𞤼𞤢𞤲𞥋𞤣𞤫": 8318,
      "##𞤥𞤫𞤯𞥆𞤫": 8319,
      "𞥑𞥙𞥐": 8320,
      "𞥑𞥙𞥒𞥖": 8321,
      "𞤬𞤭𞤯𞤭𞤲": 8322,
      "##𞤫𞤪𞤲": 8323,
      "𞤥𞤢𞤱𞤲𞤭": 8324,
      "𞤥𞤢𞤱𞤲𞤣𞤭": 8325,
      "##𞤀𞥄𞤃𞤀": 8326,
      "##𞤀𞥄𞤑𞤋𞤈𞤋": 8327,
      "𞤼𞤮𞤨𞥆𞤭𞤼𞤢𞤺𞤮𞤤": 8328,
      "𞤧𞤵𞤩𞤮𞥅": 8329,
      "𞤧𞤵𞤩𞤢𞤲𞤮𞥅": 8330,
      "𞤣𞤢𞤪𞤭𞥅𞤩𞤫": 8331,
      "𞤣𞤢𞤪𞤢𞥄𞤳𞤭": 8332,
      "𞤣𞤢𞤪𞤭𞥅𞤯𞤮": 8333,
      "𞤣𞤢𞤪𞤼𞤭𞤲𞤭": 8334,
      "𞤣𞤢𞤪𞤼𞤮𞤪𞤢": 8335,
      "𞤣𞤢𞤪𞤭𞤲𞤮𞥅𞤯𞤮": 8336,
      "𞤯𞤵𞥅𞤯𞤵𞤲𞤮𞥅": 8337,
      "##𞤵𞤼𞤵𞥅𞤩𞤫": 8338,
      "##𞤀𞤈𞤑": 8339,
      "##𞤭𞤧𞤢𞥄𞤩𞤫": 8340,
      "𞤸𞤫𞤩𞤵": 8341,
      "𞤸𞤫𞤩𞤢𞥄": 8342,
      "𞤸𞤫𞤩𞤼𞤭𞥅": 8343,
      "𞤸𞤫𞤩𞤢𞥄𞤲𞤮": 8344,
      "𞤸𞤫𞤩𞤼𞤢𞤼": 8345,
      "𞤸𞤫𞤩𞥆𞤭𞤼𞤭𞥅": 8346,
      "𞤸𞤫𞤩𞤼𞤭𞤪𞤢": 8347,
      "𞤱𞤭𞤵𞤣𞤫": 8348,
      "𞤱𞤭𞤵𞤯𞤮𞤲": 8349,
      "##𞤣𞤭𞤲𞤣𞤫": 8350,
      "##𞤣𞤭𞤲𞤼𞤭𞤲": 8351,
      "𞤸𞤭𞤨": 8352,
      "𞤸𞤭𞤱𞤮": 8353,
      "𞤶𞤢𞤲𞤺𞤢": 8354,
      "𞤶𞤢𞤲𞤺𞤵": 8355,
      "𞤶𞤢𞤲𞤺𞤭𞤲𞤭": 8356,
      "𞤶𞤢𞤲𞤺𞤵𞤯𞤮": 8357,
      "𞤶𞤢𞤲𞤺𞤭𞤲𞤺𞤮𞤤": 8358,
      "𞤶𞤢𞤲𞤺𞤭𞤪𞤤𞤫": 8359,
      "𞤥𞤵𞤴": 8360,
      "𞤼𞤭𞤥𞥆𞤵𞤺𞤮𞤤": 8361,
      "𞤼𞤭𞤥𞥆𞤵𞤯𞤫": 8362,
      "𞤼𞤭𞤥𞥆𞤢𞤼𞤢𞥄": 8363,
      "##𞤢𞤲𞤳𞤮𞤸𞤵": 8364,
      "𞤬𞤵𞤯𞥆𞤭𞤼𞤭𞥅": 8365,
      "𞤬𞤮𞥅𞤤𞤭𞤪𞤭": 8366,
      "##𞤺𞤭𞤱𞤢𞤤": 8367,
      "𞤲𞤢𞥄𞤣𞤢𞤲": 8368,
      "𞤲𞤢𞥄𞤣𞤵𞤲𞤮𞥅": 8369,
      "𞤲𞤢𞥄𞤼𞤮𞤴𞤭": 8370,
      "𞤸𞤢𞤴𞤤": 8371,
      "𞤯𞤮𞤲𞤳𞤢": 8372,
      "𞤩𞤫𞤴𞤣𞤫𞤲": 8373,
      "𞤻𞤢𞤱𞤩𞤫": 8374,
      "𞤻𞤢𞤱𞤯𞤮": 8375,
      "##𞤼𞤢𞤲𞤢": 8376,
      "𞤱𞤢𞥄𞤱𞤭𞤪𞤢": 8377,
      "##𞤢𞤧𞤢": 8378,
      "##𞤥𞤦𞤭": 8379,
      "𞤥𞤢𞥄𞤴𞤢": 8380,
      "𞤥𞤢𞥄𞤴𞤵𞤺𞤮𞤤": 8381,
      "𞤥𞤢𞥄𞤴𞤢𞥄𞤤𞤭": 8382,
      "𞤥𞤢𞥄𞤴𞤵𞤲𞤮𞥅𞤩𞤫": 8383,
      "𞤺𞤮𞤤𞥆𞤵𞤺𞤮𞤤": 8384,
      "𞤺𞤮𞤤𞥆𞤢𞤴": 8385,
      "𞤤𞤢𞤲𞥆𞤭": 8386,
      "𞤤𞤢𞤲𞥆𞤢𞤼𞤢": 8387,
      "𞤣𞤵𞤳": 8388,
      "𞤫𞤲𞤯𞤭": 8389,
      "𞤫𞤲𞤯𞤢𞤥": 8390,
      "𞤲𞤶𞤢𞤪𞤢𞤥": 8391,
      "##𞤼𞤫𞥅𞤪": 8392,
      "𞤴𞤢𞤸𞤣𞤭": 8393,
      "𞤴𞤢𞤸𞤵𞤲𞤮𞥅𞤯𞤮": 8394,
      "𞤧𞤢𞤪𞤯𞤭": 8395,
      "𞤧𞤢𞤪𞤼𞤭": 8396,
      "𞤶𞤵𞥅𞤼𞤭": 8397,
      "𞤶𞤵𞥅𞤼𞤢𞤤": 8398,
      "𞤶𞤵𞥅𞤼𞤭𞤲𞤢": 8399,
      "𞤧𞤢𞥄𞤴𞤭": 8400,
      "𞤱𞤢𞤪𞤵": 8401,
      "𞤱𞤢𞤪𞤢𞤴": 8402,
      "𞤱𞤢𞤪𞤼𞤭𞤲": 8403,
      "𞤱𞤢𞤪𞤵𞤲𞤮𞥅": 8404,
      "𞤱𞤢𞤪𞤵𞤲𞤮": 8405,
      "𞤱𞤢𞤪𞤱𞤢𞤪𞤮": 8406,
      "𞤲𞤣𞤫𞥅𞤲": 8407,
      "𞤲𞤣𞤫𞥅𞤲𞤳𞤢": 8408,
      "𞤴𞤫𞥅𞤦𞤭": 8409,
      "𞤲𞤦𞤢𞥄𞤣𞤭": 8410,
      "𞤲𞤦𞤢𞤼𞤵𞤤": 8411,
      "𞤲𞤦𞤢𞤱𞤳𞤭": 8412,
      "𞤢𞤤𞤸𞤢𞥄𞤤𞤭": 8413,
      "𞤢𞤤𞤢𞤪𞤦𞤢": 8414,
      "𞤶𞤫𞤴𞤢": 8415,
      "𞤶𞤫𞤴𞤯𞤮": 8416,
      "𞤶𞤫𞤴𞤢𞥄𞤲𞤺𞤮𞤤": 8417,
      "𞤼𞤭𞤳𞥆𞤭": 8418,
      "𞤶𞤮𞤺𞤢𞥄": 8419,
      "𞤶𞤮𞤺𞤢𞥄𞤩𞤫": 8420,
      "𞤶𞤮𞤺𞤢𞤺𞤮𞤤": 8421,
      "𞤰𞤫𞤼𞥆𞤢": 8422,
      "𞤰𞤫𞤼𞥆𞤢𞤼𞤢": 8423,
      "𞤰𞤫𞤼𞥆𞤵𞤩𞤫": 8424,
      "𞤰𞤫𞤼𞥆𞤭𞤼𞤭": 8425,
      "𞤣𞤭𞤪𞤭𞥅": 8426,
      "𞤣𞤭𞤪𞤺𞤮𞤤": 8427,
      "𞤣𞤭𞤪𞤯𞤭": 8428,
      "##𞤭𞤯𞤢𞥄": 8429,
      "𞤬𞤫𞤱𞤲𞤣𞤵": 8430,
      "𞤬𞤫𞤱𞤲𞤣𞤢𞥄𞤪𞤫": 8431,
      "𞤬𞤫𞤱𞤲𞤭𞤼𞤫𞥅𞤣𞤫": 8432,
      "𞤬𞤫𞤱𞤲𞤣𞤮𞤪𞤭": 8433,
      "𞤑𞤢𞤥𞤢𞤤𞤢": 8434,
      "𞤅𞤫𞤲𞤫𞤺𞤢𞤤𞤲𞤢𞥄𞤩𞤫": 8435,
      "𞤶𞤢𞤲𞤬": 8436,
      "𞤩𞤢𞤤𞤫": 8437,
      "𞤩𞤢𞤤𞤣𞤵": 8438,
      "𞤩𞤢𞤤𞤫𞥅𞤪𞤫": 8439,
      "𞤭𞤼𞥆𞤭𞥅": 8440,
      "𞤭𞤼𞥆𞤢𞤴": 8441,
      "𞤭𞤼𞥆𞤫𞥅𞤣𞤫": 8442,
      "𞤥𞤵𞤪𞤼𞤫": 8443,
      "𞤥𞤵𞤪𞤼𞤵𞤣𞤫": 8444,
      "##𞤮𞤲𞥋𞤣𞤭𞤪𞤢": 8445,
      "##𞤮𞤲𞥋𞤣𞤭𞤪𞤭𞥅": 8446,
      "𞤴𞤢𞤤𞤼𞤭𞤲𞤭𞤪𞤭": 8447,
      "𞤴𞤢𞤤𞤼𞤭𞤲𞤢𞥄𞤳𞤢": 8448,
      "𞤴𞤢𞤤𞤼𞤭𞤲𞥆𞤮𞥅": 8449,
      "𞤬𞤭𞤶𞤢𞤲": 8450,
      "𞤬𞤭𞤶𞤭𞥅": 8451,
      "𞤬𞤭𞤶𞤢𞤴": 8452,
      "𞤬𞤭𞤶𞤵𞤺𞤮𞤤": 8453,
      "𞤬𞤭𞤶𞤢𞤲𞤮𞥅𞤩𞤫": 8454,
      "𞤱𞤢𞤴𞤭": 8455,
      "##𞤮𞤴𞤢𞥄": 8456,
      "𞤭𞤲𞥆𞤫": 8457,
      "𞤭𞤲𞥆𞤢𞥄": 8458,
      "𞤭𞤲𞥆𞤭𞤼𞤭𞥅": 8459,
      "𞤭𞤲𞥆𞤢𞤼𞤢": 8460,
      "##𞤫𞤼𞤫𞥅𞤯𞤭": 8461,
      "##𞤫𞤼𞤫𞥅𞤯𞤮": 8462,
      "𞤲𞤢𞤲𞤺𞤢𞥄𞤳𞤢": 8463,
      "𞤨𞤭𞤴𞤪𞤮": 8464,
      "𞤨𞤭𞤴𞤢𞥄𞤳𞤢": 8465,
      "##𞤧𞤤𞤢𞤼": 8466,
      "##𞤧𞤤𞤮𞥅𞤩𞤫": 8467,
      "𞤴𞤫𞤱𞤼𞤢": 8468,
      "𞤴𞤫𞤱𞤼𞤢𞤼𞤢": 8469,
      "𞤩𞤵𞤪𞤢𞤼𞤢𞥄": 8470,
      "𞤩𞤵𞤪𞤼𞤵𞤣𞤫": 8471,
      "𞤩𞤵𞤪𞤵𞤯𞤭": 8472,
      "𞤩𞤵𞤪𞤵𞤯𞤮": 8473,
      "𞤩𞤵𞤪𞤼𞤢𞤴": 8474,
      "##𞤫𞥅𞤪𞤢𞥄𞤤𞤭": 8475,
      "𞤱𞤭𞤴𞤵𞤲𞤮𞥅": 8476,
      "𞤐𞤦𞤢𞤼𞤵": 8477,
      "𞤐𞤦𞤢𞤪𞤤𞤫": 8478,
      "𞤐𞤦𞤢𞤪𞤶𞤢𞥄𞤪𞤭": 8479,
      "##𞤵𞤴𞤫𞥅": 8480,
      "𞤭𞤥𞥆𞤢𞤲": 8481,
      "𞤭𞤥𞥆𞤭𞤲𞤺𞤮𞤤": 8482,
      "𞤻𞤢𞥄𞤱𞤭": 8483,
      "𞤻𞤢𞥄𞤱𞤵": 8484,
      "𞤻𞤢𞥄𞤱𞤭𞤲𞤣𞤮𞤼𞤮𞥅𞤯𞤮": 8485,
      "𞤱𞤭𞤲𞤣𞤭𞤲": 8486,
      "𞤱𞤭𞤲𞤣𞤢": 8487,
      "𞤱𞤭𞤲𞤣𞤫𞥅": 8488,
      "𞤱𞤭𞤲𞤣𞤵𞤯𞤮": 8489,
      "𞤸𞤵𞥅𞤱𞤵𞤺𞤮𞤤": 8490,
      "𞤥𞤫𞥅𞤯𞤢𞥄": 8491,
      "𞤻𞤢𞥄𞤥𞤵𞤣𞤫": 8492,
      "𞤻𞤢𞥄𞤥𞤲𞤢𞥄𞤪𞤭": 8493,
      "𞤬𞤢𞥄𞤤𞤭𞤪": 8494,
      "𞤬𞤢𞥄𞤤𞤢𞥄𞤳𞤢": 8495,
      "𞤬𞤢𞥄𞤤𞤢𞥄𞤲𞤣𞤭": 8496,
      "##𞤋𞥅𞤈": 8497,
      "##𞤋𞥅𞤟": 8498,
      "𞤴𞤢𞤥𞤭𞤪𞤢": 8499,
      "##𞤲𞤮𞤯𞤫𞤲": 8500,
      "##𞤼𞤮𞤪𞤫𞥅": 8501,
      "##𞤼𞤮𞤪𞤯𞤫": 8502,
      "𞤸𞤢𞤨𞥆𞤭": 8503,
      "𞤱𞤢𞤴𞤤𞤮𞤼𞤮": 8504,
      "𞤱𞤢𞤴𞤤𞤵𞤺𞤵𞤤": 8505,
      "𞤢𞤷𞥆𞤭𞤼𞤭𞥅": 8506,
      "𞤢𞤷𞥆𞤵𞤼𞤵": 8507,
      "##𞤣𞤢𞤳𞤢": 8508,
      "𞤤𞤢𞥄𞤼𞤭𞤲𞤺𞤮𞤤": 8509,
      "𞤬𞤮𞤼𞥆𞤵𞤣𞤫": 8510,
      "𞤱𞤢𞤤𞥆𞤵": 8511,
      "𞤱𞤢𞤤𞥆𞤵𞤣𞤫": 8512,
      "𞤸𞤢𞥄𞤤𞤵𞤺𞤮𞤤": 8513,
      "𞤸𞤢𞥄𞤤𞤮𞥅𞤩𞤫": 8514,
      "𞤸𞤢𞥄𞤤𞤫𞥅𞤣𞤫": 8515,
      "𞤸𞤢𞥄𞤤𞤢𞤼𞤢": 8516,
      "𞤼𞤢𞤦𞤭𞤼𞤢": 8517,
      "##𞥆𞤭𞤪𞤺𞤮𞤤": 8518,
      "##𞥆𞤭𞤪𞤲𞤮": 8519,
      "𞤘𞤫𞤲𞤣𞤭𞤴𞤢𞤲𞤳": 8520,
      "𞤸𞤮𞤤𞥆𞤭𞤼𞤵𞤲𞤮": 8521,
      "𞤤𞤢𞤼𞤵𞤺𞤮𞤤": 8522,
      "𞤤𞤢𞤼𞤢𞤲𞤣𞤫": 8523,
      "𞤤𞤢𞤼𞤮𞥅𞤱𞤮": 8524,
      "𞤭𞤱𞤭𞤪𞤢": 8525,
      "𞤭𞤱𞤢𞤴𞤯𞤭": 8526,
      "𞤼𞤮𞤯𞥆𞤮": 8527,
      "𞤼𞤮𞤯𞥆𞤢𞥄𞤥𞤢": 8528,
      "𞤼𞤮𞤯𞥆𞤢𞥄𞤩𞤫": 8529,
      "𞤼𞤮𞤯𞥆𞤢𞥄𞤳𞤭": 8530,
      "𞤥𞤮𞤰𞥆𞤭𞤲𞤭": 8531,
      "𞤯𞤭𞤯𞤢𞤩𞤭𞤪𞤭": 8532,
      "𞤶𞤢𞤩𞤵": 8533,
      "𞤶𞤢𞤩𞤵𞤺𞤮𞤤": 8534,
      "𞤶𞤢𞤩𞤢𞤼𞤢𞥄": 8535,
      "𞤼𞤢𞤥𞥆𞤵": 8536,
      "𞤥𞤫𞤲𞤫𞤲": 8537,
      "𞤶𞤮𞥅𞤯𞤭𞤼𞤭𞥅": 8538,
      "𞤶𞤮𞥅𞤯𞤭𞤲𞤮𞥅": 8539,
      "𞤶𞤮𞥅𞤯𞥆𞤭𞤲𞤭": 8540,
      "𞤧𞤮𞥅𞤧": 8541,
      "𞤧𞤮𞥅𞤥": 8542,
      "𞤧𞤮𞥅𞤦": 8543,
      "𞤧𞤮𞥅𞤣𞤮𞤴": 8544,
      "##𞤮𞤥𞤫𞥅𞤼𞤭": 8545,
      "𞤧𞤮𞤳𞤢𞤲𞤮𞥅": 8546,
      "𞤀𞤦𞤵": 8547,
      "𞤦𞤭𞤲𞤣𞤫": 8548,
      "𞤦𞤭𞤲𞤣𞤮": 8549,
      "𞤦𞤭𞤲𞥆𞤢𞥄𞤥𞤢": 8550,
      "𞤬𞤫𞤤𞤢𞥄": 8551,
      "𞤬𞤫𞤤𞥆𞤵𞤣𞤫": 8552,
      "##𞤲𞤭𞤣𞤭": 8553,
      "𞤪𞤵𞤼𞥆𞤮𞥅": 8554,
      "𞤪𞤵𞤼𞥆𞤭𞤲𞤮𞥅": 8555,
      "##𞤢𞥄𞤪𞤭𞤧": 8556,
      "𞤸𞤫𞤣𞥆𞤭𞤳𞤫": 8557,
      "𞤸𞤫𞤣𞥆𞤭𞤲𞤮": 8558,
      "𞤸𞤫𞤣𞥆𞤢𞤲𞤭𞥅": 8559,
      "𞤤𞤢𞥄𞤱𞤯𞤫": 8560,
      "𞤦𞤮𞤲𞥆𞤫𞤪𞤫": 8561,
      "𞤦𞤮𞤲𞤫𞥅𞤶𞤭": 8562,
      "𞤦𞤮𞤲𞥆𞤫𞤪𞤫𞥅𞤶𞤭": 8563,
      "##𞤧𞤭𞥅𞤶𞤮": 8564,
      "𞤐𞤺𞤢𞥄𞤤": 8565,
      "𞤧𞤫𞤸𞤪𞤫": 8566,
      "##𞤫𞥅𞤲𞤢𞤤": 8567,
      "𞤤𞤵𞤥𞤦𞤢𞤴": 8568,
      "𞤤𞤵𞤥𞤦𞤭𞤲𞤮": 8569,
      "𞤸𞤵𞤥𞤼𞤢𞤺𞤮𞤤": 8570,
      "𞤣𞤫𞤲𞤯": 8571,
      "𞤴𞤭𞤢𞤴": 8572,
      "𞤬𞤢𞤱𞤵𞤲𞤮𞥅": 8573,
      "𞤬𞤢𞤱𞤼𞤭𞥅": 8574,
      "𞤬𞤢𞤱𞤢𞤲𞤮": 8575,
      "𞤬𞤢𞤱𞤢𞥄𞤳𞤢": 8576,
      "𞤑𞤢𞤣": 8577,
      "𞤱𞤫𞤤𞤭": 8578,
      "𞤱𞤫𞤤𞤧": 8579,
      "𞤱𞤫𞤤𞤣𞤭": 8580,
      "𞤱𞤫𞤤𞤣𞤭𞥅𞤩𞤫": 8581,
      "𞤼𞤵𞤥𞤦𞤫": 8582,
      "𞤼𞤵𞤥𞤦𞤮𞤲𞥋𞤣𞤭𞤪": 8583,
      "𞤲𞤫𞤱𞤫": 8584,
      "𞤲𞤫𞤱𞤭𞥅": 8585,
      "𞤲𞤫𞤱𞤭𞤲𞤢𞥄𞤤𞤭": 8586,
      "𞤲𞤢𞤲𞤢𞤴": 8587,
      "𞤲𞤢𞤲𞤵𞤣𞤫": 8588,
      "##𞤲𞤣𞤮𞥅": 8589,
      "##𞤲𞤣𞤢𞤥": 8590,
      "##𞤫𞤸𞤮𞤴": 8591,
      "𞤥𞤢𞤴𞤣𞤫": 8592,
      "𞤲𞤢𞤩𞤭𞤪𞤢𞥄𞤥𞤢": 8593,
      "##𞤣𞤢𞤤𞥆𞤢𞥄𞤸𞤭": 8594,
      "##𞤼𞤭𞤪𞤫𞥅": 8595,
      "##𞤼𞤭𞤪𞤣𞤵": 8596,
      "##𞤼𞤭𞤪𞤣𞤲𞤣𞤭": 8597,
      "𞥑𞥙𞥙𞥒": 8598,
      "𞤼𞤮𞤽𞤼𞤭": 8599,
      "𞤼𞤮𞤽𞤵𞤺𞤮𞤤": 8600,
      "𞤼𞤮𞤽𞤵𞤲𞤮": 8601,
      "𞤼𞤭𞤥𞥆𞤭𞤲𞤺𞤮𞤤": 8602,
      "𞤫𞤩𞥆𞤭𞤪": 8603,
      "##𞤴𞤢𞤲𞤳𞤮𞥅𞤩𞤫": 8604,
      "𞤧𞤭𞤲𞤷𞤵𞤣𞤫": 8605,
      "𞤧𞤭𞤲𞤷𞤵𞤲𞤮𞥅": 8606,
      "𞤧𞤭𞤲𞤷𞤢𞤲𞤭": 8607,
      "𞤧𞤭𞤲𞤷𞤵𞤯𞤮": 8608,
      "𞤧𞤭𞤲𞤷𞤫𞥅𞤲𞤣𞤫": 8609,
      "𞤨𞤫𞤼𞤮𞤪": 8610,
      "𞤨𞤫𞤼𞥆𞤫": 8611,
      "𞤬𞤫𞤷𞥆𞤭": 8612,
      "𞤧𞤫𞤲𞤣𞤢": 8613,
      "𞤼𞤢𞤦𞤭𞤲𞤼𞤭𞤲𞤢𞥄": 8614,
      "𞤧𞤢𞤤𞤢𞥄𞤪𞤫": 8615,
      "𞤧𞤢𞤤𞤭𞤲𞤮𞥅": 8616,
      "𞤮𞥅𞤲": 8617,
      "𞤱𞤵𞤪𞤭𞤪𞤣𞤫": 8618,
      "𞤱𞤵𞤪𞤼𞤵𞤣𞤫": 8619,
      "𞤱𞤵𞤤𞤵𞥅𞤪𞤫": 8620,
      "𞤪𞤫𞤬𞤦𞤭𞥅𞤪𞤫": 8621,
      "##𞤌𞤐𞤘": 8622,
      "𞤴𞤫𞥅𞤴𞤭𞤪𞤯𞤫": 8623,
      "𞤲𞤮𞥅𞤼𞤭𞥅𞤯𞤮": 8624,
      "𞤵𞤣𞥆𞤭𞤼𞤢": 8625,
      "𞤵𞤣𞥆𞤭𞤼𞤭𞥅": 8626,
      "𞤸𞤫𞤲𞤣𞤭𞤲": 8627,
      "𞤸𞤫𞤲𞤮𞤪𞤣𞤫": 8628,
      "𞤸𞤫𞤲𞤢𞤲𞥆𞤮𞥅": 8629,
      "##oun": 8630,
      "𞤴𞤢𞤤𞤼𞤵𞤲𞤮𞥅": 8631,
      "𞤴𞤢𞤤𞤼𞤭𞤪𞤭": 8632,
      "𞤸𞤭𞤱𞤢": 8633,
      "𞤸𞤭𞤱𞤵𞤣𞤫": 8634,
      "𞤪𞤫𞤲𞤣𞤵𞤲𞤮": 8635,
      "𞤣𞤵𞤦𞤵𞥅𞤪𞤫": 8636,
      "𞤼𞤭𞤶𞥆𞤢𞤲": 8637,
      "𞤸𞤢𞤱𞤳": 8638,
      "𞤸𞤢𞤱𞤲𞤭𞥅": 8639,
      "𞤴𞤭𞥅𞤤𞤭": 8640,
      "𞤴𞤭𞥅𞤤𞤢𞥄𞤣𞤫": 8641,
      "𞤴𞤭𞥅𞤤𞤭𞤪𞤣𞤵": 8642,
      "𞤸𞤫𞥅𞤱𞤵𞤲𞤮𞥅": 8643,
      "𞤬𞤫𞤰𞥆𞤢𞤼𞤢𞥄𞤲𞤮": 8644,
      "𞤩𞤫𞤴𞤣𞤭𞤼𞤭𞥅": 8645,
      "𞤑𞤮𞤪𞤳𞤮𞤪𞤢𞤲": 8646,
      "𞤑𞤮𞤪𞤮𞤲𞤢𞤾𞤭𞤪𞤭𞥅𞤧": 8647,
      "##ativ": 8648,
      "𞤲𞤮𞤳𞥆𞤵𞤣𞤫": 8649,
      "𞤲𞤮𞤳𞥆𞤵𞥅𞤤𞤭": 8650,
      "𞤂𞤢𞥄𞤥𞤩𞤫": 8651,
      "𞤂𞤢𞥄𞤥𞤢𞤼𞤫𞥅𞤪𞤭": 8652,
      "𞤂𞤢𞥄𞤥𞤭𞥅𞤯𞤮": 8653,
      "𞤼𞤢𞤺𞤭": 8654,
      "𞤼𞤫𞤲𞤼𞤭𞤲": 8655,
      "𞤼𞤫𞤣𞥆𞤭𞤲𞤺𞤮𞤤": 8656,
      "##𞤢𞤱𞤮𞤺𞤮": 8657,
      "𞤶𞤵𞥅𞤤𞤵𞤺𞤮𞤤": 8658,
      "𞤶𞤵𞥅𞤤𞤢𞤼𞤢": 8659,
      "𞤶𞤵𞥅𞤤𞤭𞤪𞤯𞤫": 8660,
      "𞤶𞤵𞥅𞤤𞤣𞤢𞥄𞤲𞤣𞤵": 8661,
      "𞤢𞤣𞤵𞤲𞤢𞤴𞤳𞤮𞤱𞤢𞤤": 8662,
      "𞤴𞤭𞥅𞤼𞤭": 8663,
      "𞤴𞤭𞥅𞤼𞤢𞥄𞤳𞤢": 8664,
      "𞤤𞤭𞤣𞥆𞤢𞥄𞤣𞤫": 8665,
      "𞤧𞤫𞥅𞤣𞤭𞤪𞤭": 8666,
      "𞤧𞤫𞥅𞤣𞤭𞤪𞤢": 8667,
      "𞤧𞤫𞥅𞤣𞤢𞤼𞤢𞥄": 8668,
      "𞤱𞤮𞤲𞤵𞤲𞤮𞥅𞤯𞤫": 8669,
      "𞤱𞤮𞤲𞤵𞤲𞤮𞥅𞤯𞤮": 8670,
      "𞤸𞤵𞥅𞤩𞤭𞤼": 8671,
      "𞤸𞤵𞥅𞤩𞤵𞤼": 8672,
      "𞤸𞤵𞥅𞤩𞤵𞤯𞤭": 8673,
      "𞤸𞤵𞥅𞤩𞤲𞤢𞤴": 8674,
      "𞤭𞤥𞥆𞤮𞤼𞤮": 8675,
      "𞤅𞤮𞥅𞤧𞤮": 8676,
      "𞤤𞤢𞥄𞤩𞤭𞤪𞤭": 8677,
      "𞤱𞤭𞤫𞤼𞤫𞥅𞤲𞤣𞤵": 8678,
      "𞤱𞤭𞤫𞤼𞤫𞥅𞤲𞤺𞤢𞤤": 8679,
      "𞤥𞤢𞤪𞤵𞤺𞤮𞤤": 8680,
      "𞤥𞤢𞤪𞤵𞤩𞤫": 8681,
      "𞤥𞤢𞤪𞤺𞤢": 8682,
      "𞤥𞤢𞤪𞤲𞤮𞥅": 8683,
      "𞤥𞤢𞤪𞤮𞤼𞤮": 8684,
      "𞤀𞤪𞤢𞤲": 8685,
      "𞤀𞤪𞤣𞤵": 8686,
      "𞤀𞤪𞤣𞤭𞥅𞤯𞤮": 8687,
      "𞤺𞤮𞤥𞤯": 8688,
      "𞤺𞤮𞤥𞤯𞤭𞤲𞤭": 8689,
      "𞥐𞥐𞥑": 8690,
      "𞤳𞤢𞤴𞤪𞤫": 8691,
      "𞤢𞤲𞤣𞤭𞤲𞤭𞥅": 8692,
      "𞤢𞤲𞤣𞤭𞤲𞤢𞤴": 8693,
      "𞤢𞤲𞤣𞤭𞤲𞤢𞥄𞤤𞤭": 8694,
      "𞤢𞤲𞤣𞤭𞤲𞤼𞤭𞤲𞤭": 8695,
      "𞤀𞤴𞤵": 8696,
      "𞤲𞤫𞥅𞤩𞤢𞥄": 8697,
      "𞤲𞤫𞥅𞤩𞤢𞤼𞤢𞥄": 8698,
      "𞤶𞤢𞤥𞤢𞥄": 8699,
      "𞤶𞤢𞤥𞤣𞤭": 8700,
      "𞤸𞤢𞤯𞤵𞤣𞤫": 8701,
      "𞤸𞤢𞤯𞤵𞤲𞤮𞥅": 8702,
      "𞤧𞤢𞥄𞤼𞤭𞤲𞤮𞥅𞤲𞤺𞤮": 8703,
      "𞤼𞤭𞥅𞤯𞤲": 8704,
      "𞤼𞤭𞥅𞤯𞤭𞥅": 8705,
      "𞤼𞤭𞥅𞤯𞤵𞤯𞤫": 8706,
      "𞤼𞤭𞥅𞤯𞤲𞤮𞤯𞤫𞤲": 8707,
      "𞤀𞤂𞤋𞥅": 8708,
      "𞤀𞤂𞤖𞤀": 8709,
      "𞤣𞤢𞤯𞤵𞤲𞤮": 8710,
      "𞤣𞤢𞤯𞤭𞤪𞤢": 8711,
      "𞤢𞤲𞤣𞤢𞤲𞤮𞥅": 8712,
      "𞤩𞤫𞤴𞤣𞤢𞤺𞤮𞤤": 8713,
      "𞤩𞤫𞤴𞤣𞤢𞤲𞤢𞥄": 8714,
      "𞤴𞤢𞥄𞤻": 8715,
      "𞤴𞤢𞥄𞤶𞤵𞤲": 8716,
      "𞤴𞤮𞤲𞤭": 8717,
      "𞤴𞤮𞤲𞤣𞤭𞤲": 8718,
      "𞤺𞤫𞤲𞤣𞤭𞥅𞤶𞤫": 8719,
      "𞥑𞥘𞥓": 8720,
      "𞥑𞥘𞥘": 8721,
      "𞤧𞤢𞥄𞤼𞤭𞥅𞤯𞤭": 8722,
      "𞤧𞤢𞥄𞤼𞤭𞥅𞤲𞤺𞤢𞤤": 8723,
      "𞤥𞤮𞥅𞤩𞤵𞤣𞤫": 8724,
      "𞤥𞤮𞥅𞤩𞤭𞤲𞤮": 8725,
      "𞤑𞤫𞤴𞤼𞤢𞥄": 8726,
      "𞤤𞤭𞤥𞤮𞥅𞤶𞤫": 8727,
      "𞤺𞤮𞥅𞤼𞤯𞤫": 8728,
      "𞤣𞤫𞤬𞤼𞤫𞤪": 8729,
      "𞤼𞤢𞤥𞤨𞤵𞤣𞤫": 8730,
      "𞤼𞤢𞤥𞤨𞤵𞤩𞤫": 8731,
      "𞤅𞤫𞥅𞤣𞤭": 8732,
      "𞤩𞤭𞤯𞤼𞤫𞥅𞤲𞤣𞤫": 8733,
      "𞤻𞤭𞥅𞤩𞤢": 8734,
      "𞤻𞤭𞥅𞤩𞤲𞤢𞤴𞤲𞤮": 8735,
      "𞤬𞤮𞤱𞤼𞤮𞤪𞤭": 8736,
      "𞤱𞤮𞤯𞤮": 8737,
      "𞤼𞤮𞤪𞤢𞥄": 8738,
      "𞤼𞤮𞤪𞤭𞥅𞤩𞤫": 8739,
      "𞤐𞤶𞤢𞤴": 8740,
      "𞤐𞤶𞤢𞥄𞤴": 8741,
      "𞤐𞤶𞤵𞤩𞥆𞤵𞤤𞤭": 8742,
      "𞤣𞤵𞤯𞤭𞤲𞤭𞥅": 8743,
      "𞤧𞤫𞥅𞤯𞤢𞥄𞤩𞤫": 8744,
      "𞤶𞤮𞤳𞥆𞤭𞤪𞤢": 8745,
      "𞤶𞤮𞤳𞥆𞤮𞤲𞥋𞤣𞤭𞤪𞤢𞤤": 8746,
      "𞤃𞤀𞤈𞤋𞤒": 8747,
      "𞤤𞤵𞤼𞥆𞤭": 8748,
      "𞤤𞤵𞤼𞥆𞤭𞥅": 8749,
      "𞤤𞤵𞤼𞥆𞤵𞤺𞤮𞤤": 8750,
      "𞤤𞤵𞤼𞥆𞤵𞤲𞤮": 8751,
      "𞤤𞤵𞤼𞥆𞤭𞤪𞤢": 8752,
      "𞤼𞤭𞤲𞤭𞥅": 8753,
      "𞤬𞤭𞤪𞤼𞤵𞤺𞤮𞤤": 8754,
      "𞤬𞤭𞤪𞤼𞤭𞤪𞤣𞤲𞤣𞤭": 8755,
      "𞤯𞤢𞤩𞥆𞤢": 8756,
      "𞤯𞤢𞤩𞥆𞤵𞤺𞤮𞤤": 8757,
      "𞤯𞤢𞤩𞥆𞤢𞥄𞤤𞤭": 8758,
      "𞤯𞤢𞤩𞥆𞤢𞤴𞤲𞤮𞥅": 8759,
      "𞤼𞤵𞤺𞤢𞤤𞥆𞤮": 8760,
      "𞤢𞤪𞤣𞤭𞤲𞤮𞥅𞤩𞤫": 8761,
      "𞤢𞤪𞤣𞤭𞤲𞥆𞤮𞥅": 8762,
      "𞤢𞤪𞤣𞤭𞤲𞤮𞥅𞤯𞤮": 8763,
      "𞤁𞤫𞤲𞤭": 8764,
      "𞤅𞤢𞤪𞤭𞤴𞤢": 8765,
      "𞤥𞤵𞥅𞤤𞥆𞤫𞤪𞤫": 8766,
      "𞤦𞤢𞤪𞤭𞤤": 8767,
      "𞤦𞤢𞤪𞤥𞤫": 8768,
      "𞤲𞤶𞤮𞤬": 8769,
      "𞤀𞤲𞤣𞤢": 8770,
      "𞤈𞤫𞤬𞤦𞤭𞥅𞤪𞤫": 8771,
      "𞤊𞤮𞤼𞤭": 8772,
      "𞤒𞤮𞤥𞤦𞤭": 8773,
      "𞤬𞤵𞤯𞥆𞤮𞤼𞤮𞥅": 8774,
      "𞤬𞤵𞤯𞥆𞤮𞤪𞤭𞥅": 8775,
      "𞤧𞤫𞤨𞥆𞤵𞤣𞤫": 8776,
      "𞤴𞤢𞤲𞤵𞤣𞤫": 8777,
      "𞤴𞤢𞤲𞤺𞤮": 8778,
      "𞤴𞤢𞤲𞤢𞤲𞤭": 8779,
      "𞤶𞤢𞥄𞤤𞤭𞤲𞤺𞤮𞤤": 8780,
      "𞤲𞤮𞤣𞥆𞤵": 8781,
      "𞤲𞤮𞤣𞥆𞤭𞤪": 8782,
      "𞤲𞤮𞤣𞥆𞤢𞥄𞤤𞤭": 8783,
      "𞤲𞤮𞤣𞥆𞤵𞤼𞤵𞤲𞤮": 8784,
      "𞤧𞤭𞤳𞥆𞤢": 8785,
      "𞤧𞤭𞤳𞥆𞤵𞤣𞤫": 8786,
      "𞤧𞤭𞤳𞥆𞤵𞤲𞤮": 8787,
      "𞤧𞤭𞤳𞥆𞤢𞥄𞤲𞤮": 8788,
      "𞤧𞤭𞤳𞥆𞤢𞤲𞤮𞥅𞤯𞤮": 8789,
      "𞥑𞥙𞥘𞥓": 8790,
      "𞤳𞤫𞤧𞤵𞤲": 8791,
      "𞤀𞤥𞤸𞤢𞤪𞤭𞥅": 8792,
      "𞤅𞤌𞥅": 8793,
      "𞤅𞤢𞤤𞤲𞤣𞤵": 8794,
      "##𞥆𞤫𞥅𞤲𞤣𞤫": 8795,
      "##𞤘𞤌𞤈": 8796,
      "𞤑𞤌𞤐𞤀𞥄𞤑𞤋𞤈𞤋": 8797,
      "𞤴𞤢𞥄𞤳𞤮𞤪𞤯𞤫": 8798,
      "𞤺𞤢𞤧𞤵𞤣𞤫": 8799,
      "𞤺𞤢𞤧𞤭𞤪𞤢": 8800,
      "𞤢𞤲𞤣𞤭𞤼𞤭𞥅": 8801,
      "𞤼𞤢𞤰𞤢𞥄𞤪𞤫": 8802,
      "𞤀𞤦𞤣𞤵𞤤𞤢𞥄𞤸𞤭": 8803,
      "𞤧𞤮𞤪𞤼𞤢𞥄𞤣𞤫": 8804,
      "##𞤓𞤏𞤚𞤉𞥅𞤈𞤋": 8805,
      "𞤸𞤮𞤥𞤦𞤭": 8806,
      "𞤃𞤢𞤲𞤭𞤲𞤳𞤢": 8807,
      "𞤃𞤢𞤲𞤣𞤭𞤲𞤳": 8808,
      "𞤃𞤢𞤲𞤶𞤢𞥄𞤲𞤢": 8809,
      "𞤲𞤢𞥄𞤣𞤢𞤲𞤮𞥅𞤥𞤢": 8810,
      "𞤸𞤵𞥅𞤱𞤼𞤮𞤪𞤢𞥄𞤲𞤺𞤵": 8811,
      "𞤃𞤌𞤡𞤀𞤃𞤄𞤋𞤑": 8812,
      "𞤤𞤢𞤱𞤯𞤫": 8813,
      "𞤧𞤢𞤯𞤵𞤲𞤮𞥅": 8814,
      "𞤫𞤤𞤼𞤮": 8815,
      "𞤫𞤤𞤼𞤢𞤺𞤮𞤤": 8816,
      "𞤺𞤢𞤴𞤲𞤵𞤲𞤮𞥅": 8817,
      "𞤺𞤢𞤴𞤲𞤵𞤯𞤮": 8818,
      "𞤻𞤢𞤥𞤯𞤭": 8819,
      "𞤻𞤢𞤥𞥆𞤭𞤲𞤭": 8820,
      "𞤻𞤢𞤥𞤢𞥄𞤤𞤫": 8821,
      "𞤸𞤫𞤪𞤼𞤮": 8822,
      "𞤶𞤫𞥅𞤲𞤢𞤴𞤢𞤩𞤵𞤪𞤵": 8823,
      "𞤧𞤢𞤪𞤴𞤮𞥅𞤱𞤮": 8824,
      "𞤧𞤢𞤪𞤴𞤭𞤲𞤮": 8825,
      "𞤢𞤷𞥆𞤭𞤼𞤭": 8826,
      "𞤢𞤷𞥆𞤭𞤼𞤫𞥅𞤣𞤫": 8827,
      "𞤩𞤢𞤣𞤢𞤺𞤮𞤤": 8828,
      "𞤩𞤢𞤣𞤲𞤭𞥅": 8829,
      "𞤩𞤢𞤣𞤲𞤭𞤼𞤭": 8830,
      "𞤸𞤵𞤥𞤨𞤭𞤼𞤮𞥅𞤩𞤫": 8831,
      "𞤸𞤵𞤥𞤨𞤭𞤼𞤢𞥄𞤳𞤢": 8832,
      "𞤃𞤢𞤳𞥆𞤮": 8833,
      "𞤬𞤢𞥄𞤦𞤢𞤺𞤮𞤤": 8834,
      "𞤴𞤭𞤯𞤢𞤲𞤭": 8835,
      "𞤸𞤢𞤦𞤣𞤫": 8836,
      "𞤸𞤢𞤦𞥆𞤭𞤲𞤮𞥅": 8837,
      "##able": 8838,
      "##𞤭𞤼𞤮𞤪𞤲𞤮𞥅": 8839,
      "𞤐𞤘𞤢𞤴𞤵𞥅𞤶𞤭": 8840,
      "𞤐𞤘𞤢𞤤𞤵𞤲𞤳𞤫𞤱𞤢𞤤": 8841,
      "𞤣𞤮𞤺𞤵𞤺𞤮𞤤": 8842,
      "𞤣𞤮𞤺𞤵𞤣𞤫": 8843,
      "𞤦𞤢𞤶𞥆𞤢𞤤": 8844,
      "𞤧𞤢𞤣𞤢𞤳𞤢": 8845,
      "##𞤭𞤳𞤧": 8846,
      "𞤥𞤢𞤧𞤭𞥅𞤦𞤮𞥅𞤶𞤭": 8847,
      "𞤸𞤮𞥅𞤤𞤮": 8848,
      "𞤥𞤮𞤰𞥆𞤭𞤲𞤼𞤭𞤲𞤮": 8849,
      "𞤳𞤢𞥄𞤤𞤭𞤧": 8850,
      "##𞤌𞤈𞤁": 8851,
      "##𞤌𞤏𞤀𞤐": 8852,
      "𞤸𞤢𞤶𞥆𞤵𞤺𞤮𞤤": 8853,
      "𞤲𞤫𞤱𞤲𞤢𞤲𞤺𞤮𞤤": 8854,
      "UNAD": 8855,
      "UNES": 8856,
      "𞤱𞤫𞥅𞤩𞤵𞤺𞤮𞤤": 8857,
      "𞤱𞤫𞥅𞤩𞤭𞤼𞤭": 8858,
      "𞤱𞤫𞥅𞤩𞤭𞤼𞤢𞤲𞤭": 8859,
      "𞤶𞤮𞥅𞤳": 8860,
      "𞤶𞤮𞥅𞤲𞤣𞤫": 8861,
      "𞥑𞥒𞥖": 8862,
      "##𞤭𞤲𞤫𞤲𞤢𞥄𞤶𞤮": 8863,
      "𞤬𞤭𞤩𞤵𞤲𞤮𞥅": 8864,
      "𞤱𞤵𞤤𞥆𞤭𞤼𞤭𞤲𞤮𞥅": 8865,
      "𞤁𞤉𞤐𞤘": 8866,
      "𞤦𞤮𞥅𞤼𞤫𞤪𞤫": 8867,
      "𞤪𞤫𞥅𞤲𞤮𞥅𞤩𞤫": 8868,
      "𞤪𞤫𞥅𞤲𞤼𞤢𞤺𞤮𞤤": 8869,
      "𞤳𞤮𞤤𞤮𞤲𞤫𞤤": 8870,
      "𞤳𞤮𞤴𞤯𞤮𞤤": 8871,
      "𞤥𞤢𞤺𞥆𞤮𞤤": 8872,
      "𞤱𞤮𞥅𞤨𞤵𞤣𞤫": 8873,
      "𞤭𞤼𞥆𞤢𞥄𞤥𞤢": 8874,
      "𞤄𞤫𞤲𞤴𞤢𞤥": 8875,
      "𞤩𞤢𞤥𞤼𞤢𞥄𞤪𞤫": 8876,
      "𞤱𞤫𞤪𞤤𞤫": 8877,
      "##ille": 8878,
      "𞤂𞤢𞤦𞤭𞤪𞤭𞤴𞤢𞥄": 8879,
      "𞤦𞤢𞤪𞤥𞤭𞤲": 8880,
      "𞤃𞤓𞤖": 8881,
      "𞤖𞤭𞤳𞥆": 8882,
      "𞤢𞤧𞤫𞥅𞤣𞤫": 8883,
      "𞤴𞤭𞤴𞤫𞥅𞤣𞤫": 8884,
      "##𞤭𞤲𞤺𞤼𞤮𞤲": 8885,
      "𞤲𞤮𞤣𞥆𞤭𞤼𞤭": 8886,
      "𞤲𞤺𞤵𞥅𞤪𞤣𞤢𞤲": 8887,
      "𞤬𞤫𞥅𞤻𞤭𞤪𞤭": 8888,
      "𞤃𞤢𞤪𞤳": 8889,
      "𞤅𞤢𞤱𞤵𞤣𞤭": 8890,
      "𞤷𞤫𞤪𞤲𞤮": 8891,
      "𞤽𞤭𞤻𞤵𞤣𞤫": 8892,
      "𞤽𞤭𞤻𞤮𞥅𞤶𞤫": 8893,
      "##𞤋𞤂𞤀": 8894,
      "##𞤋𞤂𞤋𞤒": 8895,
      "𞤸𞤫𞤩𞥆𞤭𞤼𞤮𞥅": 8896,
      "𞤲𞤶𞤢𞤥𞤵": 8897,
      "CENI": 8898,
      "𞤈𞤵𞤱𞤢𞤲𞤣𞤢𞥄": 8899,
      "𞤊𞤵𞥅𞤼": 8900,
      "𞤤𞤮𞤤𞥆𞤵𞤯𞤮": 8901,
      "𞤥𞤫𞤼𞥆𞤫𞥅𞤲𞤣𞤫": 8902,
      "𞤬𞤭𞤤𞥆𞤮": 8903,
      "𞤬𞤭𞤤𞥆𞤫𞥅𞤣𞤫": 8904,
      "𞤱𞤵𞥅𞤪𞤲𞤭𞤼": 8905,
      "𞤼𞤫𞤳": 8906,
      "𞤼𞤫𞤦𞥆𞤭": 8907,
      "𞤼𞤫𞤩𞥆𞤮𞤲": 8908,
      "##ident": 8909,
      "𞤥𞤢𞤩𞥆𞤭𞥅": 8910,
      "𞤥𞤢𞤩𞥆𞤵𞤺𞤮𞤤": 8911,
      "𞤥𞤢𞤩𞥆𞤢𞥄𞤥𞤢": 8912,
      "𞤥𞤢𞤩𞥆𞤭𞤼𞤵𞤺𞤮𞤤": 8913,
      "𞤼𞤢𞤱𞤣𞤫𞤺𞤮𞤤": 8914,
      "𞤧𞤫𞥅𞤣𞤭𞤼𞤭𞤳𞤫": 8915,
      "𞤅𞤭𞥅𞤧𞤫𞥅": 8916,
      "𞤴𞤢𞥄𞤱𞤲𞤵𞤺𞤮𞤤": 8917,
      "𞤸𞤫𞥅𞤪𞤼𞤭𞤲": 8918,
      "𞤤𞤢𞥄𞤼𞤭𞥅𞤲𞤣𞤫": 8919,
      "𞤤𞤢𞥄𞤼𞤭𞥅𞤯𞤮": 8920,
      "𞤶𞤮𞤯𞥆𞤭𞤲𞤢𞥄": 8921,
      "𞤬𞤫𞤱𞤶𞤮𞥅𞤩𞤫": 8922,
      "𞤬𞤫𞤱𞤶𞤵𞤩𞤫": 8923,
      "𞤈𞤫𞤲𞤼𞤮𞥅": 8924,
      "𞤧𞤫𞥅𞤪𞤼𞤵𞤺𞤮𞤤": 8925,
      "##𞥆𞤮𞤪𞤲𞤮𞥅": 8926,
      "𞤳𞤢𞤱𞤪𞤢𞤤": 8927,
      "𞤶𞤮𞤺𞤲𞤵𞤼𞤵𞤺𞤮𞤤": 8928,
      "𞤶𞤮𞤺𞤲𞤭𞤲𞥋𞤣𞤭𞤪": 8929,
      "𞤥𞤭𞤤𞤭𞤴𞤮𞤲𞤶𞤭": 8930,
      "𞤃𞤢𞤤𞤭𞤲𞤢𞥄𞤩𞤫": 8931,
      "𞤣𞤢𞤪𞤢𞤲𞤮𞥅": 8932,
      "𞤣𞤢𞤪𞤢𞤲𞤢𞤺𞤮𞤤": 8933,
      "𞤤𞤮𞤭𞤲𞤺𞤮𞤤": 8934,
      "𞤴𞤫𞤤𞤢𞥄𞤳𞤭": 8935,
      "𞤴𞤫𞤯𞤢𞤲𞤮𞥅": 8936,
      "𞤴𞤫𞤯𞤢𞥄𞤳𞤢": 8937,
      "𞤸𞤮𞤲𞤮𞥅𞤩𞤫": 8938,
      "𞤤𞤫𞤼𞥆𞤭𞤪𞤯𞤫": 8939,
      "𞤀𞤤𞤥𞤢𞤲𞤩𞤫": 8940,
      "𞤀𞤤𞤥𞤢𞥄𞤻": 8941,
      "##ational": 8942,
      "𞤢𞤣𞤵𞤲𞤢𞤴𞤢𞤲𞤳𞤮𞤱𞤢𞤤": 8943,
      "𞤱𞤮𞤯𞥆𞤢𞥄𞤳𞤭": 8944,
      "𞤴𞤮𞤱𞤭𞤼𞤭𞥅𞤯𞤫": 8945,
      "reg": 8946,
      "𞤐𞤔𞤵𞤩𞥆𞤵𞤣𞤭": 8947,
      "𞤑𞤢𞤤𞤢𞤤𞤯𞤭": 8948,
      "𞤧𞤵𞥅𞤯𞤭𞥅": 8949,
      "𞤧𞤵𞥅𞤯𞤫𞥅": 8950,
      "𞤧𞤮𞤺𞤭𞤼": 8951,
      "𞤫𞤺𞥆𞤭𞤲𞤺𞤮𞤤": 8952,
      "𞤲𞤭𞤤𞥆𞤢𞥄𞤩𞤫": 8953,
      "𞤵𞤳𞥆𞤭𞥅": 8954,
      "𞥑𞥙𞥕𞥗": 8955,
      "𞤁𞤫𞤥𞤮𞤳𞤢𞤪𞤢𞥄𞤩𞤫": 8956,
      "𞤶𞤭𞤦𞤭𞤲𞤫𞥅𞤣𞤫": 8957,
      "𞤴𞤢𞥄𞤬𞤭𞤲𞤮𞥅": 8958,
      "𞤼𞤭𞤲𞤼𞤵𞤣𞤵𞤺𞤮𞤤": 8959,
      "𞤁𞤭𞤣𞤭𞤴𞤫𞥅": 8960,
      "𞤅𞤫𞤲𞥁𞤫𞤲": 8961,
      "𞤱𞤢𞤪𞤢𞤲𞤮𞥅": 8962,
      "𞤲𞤵𞤤𞤢𞤤": 8963,
      "𞤬𞤵𞤯𞥆𞤭𞤼𞤮": 8964,
      "𞤭𞤥𞥆𞤭𞤲𞥆𞤮": 8965,
      "𞤸𞤢𞤱𞤪𞤮𞤲": 8966,
      "𞤌𞤧𞤭𞤥𞤫𞤲": 8967,
      "𞤨𞤢𞤴𞤳𞤮𞤴": 8968,
      "𞤩𞤢𞤲𞤼𞤮𞤪𞤣𞤫": 8969,
      "𞤲𞤫𞤩": 8970,
      "##𞤀𞤙𞤀𞤖": 8971,
      "𞤳𞤢𞤬𞤲𞤺𞤢𞤤": 8972,
      "𞤴𞤮𞤩𞤭𞤼𞤭𞤪": 8973,
      "𞤸𞤢𞥄𞤶𞤵": 8974,
      "𞤤𞤢𞤲𞤷𞤭𞥅": 8975,
      "𞤤𞤢𞤲𞤣𞤭𞤼𞤢𞥄𞤣𞤫": 8976,
      "𞤬𞤫𞤱𞤲𞤣𞤭𞥅𞤯𞤭": 8977,
      "𞤸𞤭𞤳𞥆𞤭𞥅𞤲𞤺𞤮": 8978,
      "𞤧𞤫𞤥𞤦𞤭𞤲𞤢": 8979,
      "𞤧𞤭𞤲𞤷𞤭𞤣𞤭": 8980,
      "𞤼𞤫𞤣𞥆𞤵𞤲": 8981,
      "𞤴𞤵𞤪𞤥𞤭": 8982,
      "African": 8983,
      "𞤢𞤬𞤪𞤭𞤳𞤢𞥄": 8984,
      "𞤥𞤫𞤸𞤵𞤺𞤮𞤤": 8985,
      "𞤦𞤢𞤥𞤦𞤢𞤲𞤭": 8986,
      "𞤧𞤮𞤲𞤳𞤮": 8987,
      "𞤲𞤫𞤤𞤣𞤵𞤲𞤮𞥅": 8988,
      "##𞤼𞤫𞤪𞤲": 8989,
      "𞤤𞤮𞤲𞤼𞤭𞤲𞤭𞤪𞤭": 8990,
      "𞤧𞤢𞤳𞥆𞤭𞤼𞤭𞥅𞤲𞤺𞤮": 8991,
      "𞤩𞤢𞤲𞤺𞤭𞤲𞤢𞤲𞤺𞤮𞤤": 8992,
      "𞤤𞤢𞤦𞤵𞤼𞤢𞥄𞤲𞤭": 8993,
      "𞤱𞤵𞤶𞥆𞤢𞥄": 8994,
      "𞤱𞤵𞤶𞥆𞤵𞤺𞤮𞤤": 8995,
      "𞤅𞤵𞤱𞤢𞥄𞤪𞤫𞥅": 8996,
      "𞤚𞤢𞤲𞤧𞤢𞤲𞤭𞤴𞤢𞥄": 8997,
      "𞤥𞤵𞤤𞤭𞥅": 8998,
      "𞤧𞤮𞥅𞤯𞤮𞤪𞤮𞥅": 8999,
      "𞤱𞤫𞤲𞤶": 9000,
      "𞤱𞤫𞤲𞤺𞤭": 9001,
      "𞤶𞤢𞥄𞤩𞤭𞤸": 9002,
      "𞤺𞤮𞤪𞤮𞤤": 9003,
      "𞤼𞤵𞤤𞤼𞤵𞤺𞤮𞤤": 9004,
      "𞤼𞤵𞤤𞤩𞤫𞤪𞤫": 9005,
      "𞤼𞤵𞤤𞤼𞤢𞥄𞤤𞤭": 9006,
      "𞤼𞤫𞤬𞤮": 9007,
      "𞤸𞤫𞤧𞤤𞤮𞥅𞤱𞤮": 9008,
      "𞤸𞤫𞤧𞤤𞤮𞥅𞤸𞤮": 9009,
      "##𞤣𞤭𞤲𞤮𞤳𞤫": 9010,
      "𞤬𞤢𞤪𞤢𞤲𞤧𞤫𞥅𞤶𞤫": 9011,
      "𞤸𞤫𞤦𞤤𞤫𞥅𞤣𞤫": 9012,
      "𞤲𞤺𞤵𞥅𞤪𞤲𞤣𞤢𞤲": 9013,
      "𞤔𞤮𞤪𞤶𞤭𞤴𞤢": 9014,
      "𞤃𞤵𞤪𞤼𞤮": 9015,
      "𞤆𞤮𞤪𞤼𞤮": 9016,
      "𞤦𞤮𞤳𞥆": 9017,
      "𞤧𞤫𞤤𞤦": 9018,
      "𞤨𞤮𞥅𞤯𞤮𞤲𞥋𞤣𞤭𞤪𞤢𞤤": 9019,
      "𞤁𞤵𞤦𞤵𞤲": 9020,
      "𞤅𞤢𞤥𞤵𞤪𞤢𞥄": 9021,
      "𞤉𞤑𞤓𞤏𞤚𞤉𞥅𞤈𞤋": 9022,
      "𞤢𞤥𞤫𞤪𞤭𞤳𞤲𞤢𞥄𞤩𞤫": 9023,
      "𞤢𞤥𞤫𞤪𞤭𞤳𞤢𞤲𞤢𞥄𞤶𞤮": 9024,
      "𞤥𞤢𞤤𞤢𞥄": 9025,
      "𞤳𞤫𞥅𞤱𞤵𞤯𞤫": 9026,
      "𞤼𞤢𞥄𞤪𞤢𞤲𞤺𞤮𞤤": 9027,
      "##che": 9028,
      "##cher": 9029,
      "##roid": 9030,
      "##rorist": 9031,
      "𞤥𞤮𞤬𞤼𞤫": 9032,
      "𞤸𞤫𞤴𞤩𞤫": 9033,
      "𞤸𞤫𞤴𞤪𞤫": 9034,
      "𞤢𞤪𞤼𞤭𞤪𞤢𞥄": 9035,
      "𞤶𞤢𞤲𞤺𞤲𞤮𞥅𞤩𞤫": 9036,
      "𞤴𞤫𞥅𞤦𞤭𞥅": 9037,
      "𞤱𞤭𞤲𞤣𞤭𞤪𞤼𞤫𞥅𞤲𞤣𞤫": 9038,
      "##𞤢𞥄𞤧𞤭𞤥𞤵": 9039,
      "𞤩𞤢𞤽𞤵𞤲𞤮𞥅": 9040,
      "𞤩𞤢𞤽𞤼𞤢𞤤": 9041,
      "𞤧𞤫𞤲𞤣𞤭𞤼𞤮": 9042,
      "𞤧𞤵𞤥𞤮𞤶𞤢𞤲": 9043,
      "𞤑𞤌𞤚𞤁𞤋𞤜𞤀𞤈": 9044,
      "𞤼𞤵𞥅𞤺𞤭𞥅": 9045,
      "lieu": 9046,
      "𞤀𞤬𞤳𞤮𞤲": 9047,
      "𞤂𞤫𞤳𞥆𞤭": 9048,
      "𞤂𞤫𞤦𞥆𞤭": 9049,
      "𞤊𞤫𞤤𞤭𞤳𞤧": 9050,
      "𞤑𞤢𞤲𞤳𞤢𞤤𞤭𞤦𞤢": 9051,
      "𞤘𞤮𞤤𞥆𞤮𞥅𞤩𞤫": 9052,
      "𞤣𞤮𞤲𞤺𞤢𞤤": 9053,
      "𞤶𞤢𞤤𞤦": 9054,
      "𞤷𞤫𞥅𞤳𞤮𞤤": 9055,
      "𞤺𞤫𞤪𞤣𞤭": 9056,
      "𞤺𞤫𞤪𞤢𞤴": 9057,
      "𞤬𞤫𞤪𞤭𞥅": 9058,
      "𞤥𞤮𞤩𞤼𞤮𞤲𞥋𞤣𞤭𞤪𞤢𞤤": 9059,
      "𞤸𞤢𞤳𞤵𞤲𞥋𞤣𞤫": 9060,
      "𞤸𞤢𞤳𞤵𞥅𞤲": 9061,
      "𞤧𞤢𞥄𞤴𞤲𞤢𞥄𞤥𞤢": 9062,
      "𞤶𞤮𞤺𞤲𞤭𞤼𞤫𞥅": 9063,
      "𞤸𞤢𞥄𞤲𞤵𞤲𞤮𞥅𞤲𞤺𞤢𞤤": 9064,
      "𞤱𞤢𞤴𞤤𞤭𞤼𞤢𞤤": 9065,
      "𞤱𞤢𞤴𞤤𞤭𞤼𞤵𞤣𞤫": 9066,
      "𞤸𞤵𞥅𞤩𞤲𞤢𞤲𞤢𞥄𞤤𞤭": 9067,
      "𞤺𞤫𞤲𞤣𞤭𞤱𞤢𞤤": 9068,
      "𞤬𞤮𞥅𞤬𞤢𞥄𞤲𞤺𞤮": 9069,
      "𞤧𞤫𞤲𞤫𞤺𞤢𞤤𞤲𞤢𞥄𞤶𞤮": 9070,
      "𞤅𞤫𞤳𞤮": 9071,
      "𞤋𞤼𞥆𞤵𞤺𞤮𞤤": 9072,
      "𞤋𞤼𞥆𞤭𞤪𞤭": 9073,
      "𞤔𞤵𞥅𞤤𞤩𞤫": 9074,
      "𞤕𞤫𞤪𞤲𞤮𞥅𞤩𞤫": 9075,
      "𞤤𞤢𞤩𞤭": 9076,
      "𞤫𞤳𞥆𞤭𞤼𞤢𞥄𞤣𞤫": 9077,
      "𞤸𞤭𞤥𞤮": 9078,
      "𞤺𞤭𞤥𞤯𞤮𞥅𞤩𞤫": 9079,
      "𞤼𞤫𞤤𞥆𞤭𞤲𞤢𞥄": 9080,
      "𞤼𞤫𞤤𞥆𞤮𞤪𞤣𞤫": 9081,
      "##𞤭𞤲𞤭𞤪𞤫𞤲": 9082,
      "##𞤭𞤲𞤭𞤪𞤯𞤭": 9083,
      "𞤤𞤢𞥄𞤥𞤭𞤲𞤮𞥅𞤯𞤮": 9084,
      "𞤸𞤫𞤱𞤼𞤮𞤴𞤭": 9085,
      "𞤭𞤥𞥆𞤮𞤪𞤲𞤣𞤫": 9086,
      "𞤯𞤢𞤩𞥆𞤭𞤼𞤢": 9087,
      "𞤯𞤢𞤩𞥆𞤭𞤼𞤵𞤺𞤮𞤤": 9088,
      "𞤲𞤶𞤫𞥅𞤯𞤭𞤯𞤮𞥅𞤩𞤫": 9089,
      "𞤚𞤵𞤲𞤭𞥅𞤧𞤢": 9090,
      "compt": 9091,
      "𞤀𞤐𞤁𞤈𞤉": 9092,
      "𞤁𞤌𞤒𞤅𞤂": 9093,
      "𞤄𞤈𞤓𞤐𞤌": 9094,
      "𞤄𞤫𞤪𞤲": 9095,
      "𞤅𞤢𞥄𞤸𞤢𞤪𞤢": 9096,
      "𞤑𞤢𞤼𞤭𞥅": 9097,
      "𞤖𞤀𞤜": 9098,
      "𞤖𞤢𞤤𞤬𞤭𞤲": 9099,
      "𞤤𞤵𞤲𞤣𞤭𞥅𞤯𞤫": 9100,
      "𞤦𞤵𞤺𞤭𞤼𞤫𞥅𞤣𞤫": 9101,
      "𞤦𞤵𞤺𞤭𞤼𞤭𞤲𞤮": 9102,
      "𞤴𞤮𞥅𞤤𞤢𞥄𞤣𞤫": 9103,
      "𞤵𞤣𞥆𞤭": 9104,
      "𞤵𞤣𞥆𞤵𞤼𞤵𞤺𞤮𞤤": 9105,
      "𞤲𞤺𞤫𞤴𞤲𞤺𞤵": 9106,
      "𞤥𞤢𞤸𞤣𞤭": 9107,
      "𞤥𞤢𞤸𞤭𞥅𞤯𞤭": 9108,
      "𞤀𞤤𞤤𞤢𞤸": 9109,
      "##𞤫𞤴𞤲𞤢𞤦𞤵": 9110,
      "𞤶𞤵𞥅𞤪𞤢𞥄𞤣𞤫": 9111,
      "𞤭𞤱𞤪𞤢𞤼𞤢": 9112,
      "𞤧𞤢𞤤𞤢𞤤𞤭𞥅𞤩𞤫": 9113,
      "𞤴𞤫𞤶𞥆𞤭𞤼𞤵": 9114,
      "𞤗𞤵𞤪𞥇𞤢𞥄𞤲𞤢𞥄𞤪𞤫": 9115,
      "𞤁𞤭𞤳𞤧𞤭𞤲𞥑": 9116,
      "𞤁𞤵𞤶𞤵𞤲𞤫": 9117,
      "𞤖𞤢𞤳𞥆𞤵𞤲𞤣𞤫": 9118,
      "𞤙𞤢𞥄𞤥𞤲𞤢𞥄𞤲𞤺𞤫": 9119,
      "𞤙𞤀𞥄𞤃𞤐𞤢𞥄": 9120,
      "𞤣𞤢𞤣𞤭𞤼𞤮𞤤": 9121,
      "𞤣𞤭𞥅𞤧𞤮𞤲𞥋𞤣𞤭𞤪𞤢𞤤": 9122,
      "𞤥𞤵𞥅𞤧𞤫𞥅𞤲𞤣𞤭": 9123,
      "𞤦𞤮𞤪𞤼𞤵𞤲𞤮𞥅": 9124,
      "𞤬𞤭𞤲𞤣𞤭𞤲𞤢𞤴": 9125,
      "𞤰𞤢𞤥𞤼𞤵𞤺𞤮𞤤": 9126,
      "𞤰𞤫𞥅𞤱𞤤𞤵": 9127,
      "𞤳𞤢𞥄𞤱𞤵": 9128,
      "𞤼𞤵𞤥𞤢𞥄𞤪𞤫": 9129,
      "𞤼𞤮𞤼𞥆𞤵𞤺𞤮𞤤": 9130,
      "##𞤼𞤮𞤼𞤮𞥅𞤯𞤭": 9131,
      "𞤥𞤮𞤺𞥆𞤮": 9132,
      "𞤱𞤮𞥅𞤲𞤣𞤭𞤲": 9133,
      "𞤼𞤢𞤦𞤭𞤼𞤢𞥄": 9134,
      "𞤼𞤮𞤽𞤢𞤲𞤫": 9135,
      "𞤸𞤫𞤪𞤧𞤭𞤲𞤢𞤲𞤭𞥅": 9136,
      "𞤶𞤢𞤲𞤺𞤢𞤲𞤢𞥄𞤳𞤵𞥅𞤶𞤮": 9137,
      "dessous": 9138,
      "𞤂𞤢𞤼𞤮": 9139,
      "𞤂𞤢𞤥𞤢𞤪𞤢𞥄𞤲𞤢": 9140,
      "𞤂𞤫𞤧𞤯𞤫": 9141,
      "𞤑𞤢𞤺𞤢𞤥𞤫𞥅": 9142,
      "𞤖𞤢𞤦𞤭𞤴": 9143,
      "𞤙𞤢𞤥𞤲𞤢𞥄𞤪𞤭": 9144,
      "𞤚𞤪𞤢𞤲𞤧𞤤𞤢𞤼": 9145,
      "𞤣𞤮𞤭": 9146,
      "𞤲𞤮𞥅𞤲𞤫": 9147,
      "𞤲𞤮𞥅𞤲𞤫𞥅𞤶𞤭": 9148,
      "𞤳𞤢𞥄𞤳𞤮𞤤": 9149,
      "𞤶𞤢𞥄𞤪𞤲𞤭𞥅": 9150,
      "𞤶𞤢𞤺𞥆𞤮": 9151,
      "𞤶𞤢𞥄𞤧𞤫𞤪𞤫": 9152,
      "𞤸𞤵𞤼𞤭𞥅": 9153,
      "𞤼𞤢𞤨𞥆𞤭": 9154,
      "𞤼𞤢𞤨𞥆𞤭𞤪𞤯𞤫": 9155,
      "##𞤲𞤵𞤣𞤵𞤯𞤫": 9156,
      "##𞤧𞤤𞤫𞤴𞤣𞤭": 9157,
      "𞤤𞤢𞥄𞤥𞤮𞤪𞤲𞤺𞤢𞤤": 9158,
      "𞤱𞤢𞤯𞥆𞤭𞤲𞥆𞤮𞥅": 9159,
      "𞤱𞤢𞤯𞤼𞤢𞤲𞤢": 9160,
      "𞤣𞤭𞤪𞤼𞤭𞤲𞤢𞥄𞤥𞤢": 9161,
      "𞤱𞤭𞤲𞤣𞤢𞤲𞤭": 9162,
      "𞤼𞤮𞤲𞤺𞤮𞥅𞤯𞤫": 9163,
      "𞤸𞤫𞤣𞥆𞤮𞤪𞤭": 9164,
      "𞤼𞤭𞤶𞥆𞤮𞤪𞤢𞥄": 9165,
      "𞤺𞤫𞤲𞤣𞤭𞤴𞤢𞤲𞤳𞤮𞥅𞤪𞤵": 9166,
      "𞤥𞤮𞥅𞤩𞤼𞤮𞤲𞤣𞤭𞤪𞤢𞤤": 9167,
      "𞤱𞤮𞤨𞥆𞤵𞤺𞤮𞤤": 9168,
      "𞤸𞤭𞤤𞤲𞤭𞥅𞤯𞤮": 9169,
      "𞤼𞤢𞤧𞤳𞤢𞥄𞤣𞤫": 9170,
      "𞤅𞤀𞥄𞤂": 9171,
      "𞤅𞤀𞥄𞤔𞤌": 9172,
      "𞤈𞤫𞤨𞤭𞤦": 9173,
      "𞤊𞤮𞥅𞤤𞤮𞤲": 9174,
      "𞤊𞤮𞥅𞤤𞤮𞤼𞤭𞤪𞤢𞤤": 9175,
      "𞤒𞤢𞥄𞤳𞤮𞤪𞤢𞥄𞤩𞤫": 9176,
      "𞤔𞤫𞤥𞤧": 9177,
      "𞤖𞤢𞤱𞤧𞤢𞥄𞤪𞤫": 9178,
      "𞤖𞤢𞤥𞤣𞤢𞤤𞥆𞤢𞥄𞤸𞤭": 9179,
      "𞤥𞤮𞤼𞤮𞥅𞤪𞤵": 9180,
      "𞤩𞤢𞥄𞤱𞤮𞥅𞤩𞤫": 9181,
      "𞤲𞤢𞥄𞤱𞤲": 9182,
      "𞤸𞤫𞥅𞤯𞤭𞤲𞤼𞤭𞤲": 9183,
      "𞤸𞤫𞥅𞤯𞤭𞤲𞤼𞤭𞤲𞤺𞤮𞤤": 9184,
      "##𞤣𞤮𞥅𞤺𞤮": 9185,
      "##𞤭𞥅𞤣𞤲𞤢𞥄𞤩𞤫": 9186,
      "𞤲𞤺𞤵𞤤𞤭": 9187,
      "𞤲𞤺𞤵𞤤𞤫𞥅𞤲𞤣𞤭": 9188,
      "𞤸𞤫𞤷𞥆𞤭𞤲𞤯𞤭𞤲": 9189,
      "𞤸𞤫𞤷𞥆𞤵𞤯𞤵𞤺𞤮𞤤": 9190,
      "𞤱𞤮𞥅𞤣𞤢𞥄𞤳𞤢": 9191,
      "𞤱𞤢𞤴𞤪𞤢𞥄": 9192,
      "##𞤋𞥅𞤃𞤋𞥅": 9193,
      "##issage": 9194,
      "𞤽𞤢𞤤𞤯𞤭𞤪𞤭": 9195,
      "𞤽𞤢𞤤𞤯𞤭𞤲𞤣𞤫": 9196,
      "𞤃𞤢𞤴𞤳𞤮𞤪𞤮𞤧": 9197,
      "𞤥𞤵𞤧𞤭𞤣𞤩𞤫": 9198,
      "𞤥𞤵𞤧𞤭𞤣𞤯𞤮": 9199,
      "written": 9200,
      "𞤐𞤭𞤶𞤫𞥅𞤪𞤭𞤴𞤢𞥄": 9201,
      "𞤔𞤢𞤱𞤤𞤫": 9202,
      "𞤕𞤮𞤺𞥆𞤵": 9203,
      "𞤕𞤮𞤺𞤫𞤤": 9204,
      "𞤖𞤢𞤶𞥆𞤵": 9205,
      "𞤚𞤢𞤱𞤲𞤵𞤺𞤮𞤤": 9206,
      "𞤣𞤭𞤤𞥆𞤢𞤲𞤯𞤫": 9207,
      "𞤤𞤮𞤪𞥆𞤢": 9208,
      "𞤧𞤮𞤱𞤮𞤲": 9209,
      "𞤧𞤵𞥅𞤧𞤢𞤼𞤢𞥄": 9210,
      "𞤬𞤮𞤲𞤣𞤮": 9211,
      "𞤬𞤢𞤩𞥆𞤭𞤲𞤺𞤮𞤤": 9212,
      "𞤴𞤫𞤪𞤭𞤲𞥋𞤣𞤭𞤪𞤭": 9213,
      "𞤼𞤢𞤤𞥆𞤭𞥅": 9214,
      "𞤭𞤼𞥆𞤭𞤲𞤼𞤭𞤲": 9215,
      "𞤭𞤼𞥆𞤭𞤲𞤼𞤭𞤲𞤭": 9216,
      "𞤶𞤭𞤩𞤼𞤵𞤺𞤮𞤤": 9217,
      "𞤸𞤫𞤱𞤼𞤭𞤼𞤭𞥅": 9218,
      "𞤼𞤫𞤣𞥆𞤭𞤲𞤫𞥅𞤣𞤫": 9219,
      "𞤅𞤢𞤪𞤴𞤭𞤲𞤮𞥅𞤩𞤫": 9220,
      "𞤧𞤫𞤥𞤦𞤭𞤲𞤢𞤴𞤯𞤢𞤲": 9221,
      "𞤹𞤭𞤪𞥆𞤭𞤼𞤭𞤳𞤫": 9222,
      "𞤉𞤷𞤮𞤨𞤭𞥅": 9223,
      "𞤁𞤢𞤤𞤢𞥄𞤶𞤭": 9224,
      "𞤃𞤮𞤴𞤮": 9225,
      "𞤏𞤢𞤯𞤭𞥅": 9226,
      "𞤒𞤵𞤾𞤫𞤲": 9227,
      "𞤚𞤀𞤐𞤟𞤀𞤐": 9228,
      "𞤤𞤵𞤩𞤢𞥄𞤯𞤭": 9229,
      "𞤤𞤵𞤩𞤢𞥄𞤯𞤫": 9230,
      "𞤤𞤢𞤩𞤵𞤲": 9231,
      "𞤥𞤵𞤼𞤢𞤤": 9232,
      "𞤧𞤢𞥄𞤱𞤭": 9233,
      "𞤯𞤵𞥅𞤪𞤭𞥅": 9234,
      "𞤳𞤵𞤷𞥆𞤫": 9235,
      "𞤳𞤭𞤤𞤮𞥅𞤶𞤭": 9236,
      "𞤳𞤭𞤤𞤮𞤥𞤫𞥅𞤼𞤭": 9237,
      "𞤺𞤭𞤣𞥆𞤭": 9238,
      "𞤻𞤮𞤰𞥆𞤭": 9239,
      "𞤻𞤫𞥅𞤻𞤮": 9240,
      "𞤼𞤢𞥄𞤲𞤭𞤪𞤢𞥄𞤩𞤫": 9241,
      "##𞤫𞤼𞤫𞤲𞤮𞥅": 9242,
      "𞤸𞤢𞥄𞤩𞤢𞤼𞤢𞥄": 9243,
      "𞤸𞤭𞤼𞥆𞤢𞥄𞤲𞤣𞤫": 9244,
      "𞤸𞤭𞤼𞥆𞤫𞥅𞤲𞤣𞤭": 9245,
      "𞤫𞤲𞤺𞤫𞤤𞤫𞥅𞤩𞤫": 9246,
      "𞤭𞤲𞥆𞤫𞥅𞤼𞤫𞥅𞤯𞤮": 9247,
      "𞤶𞤮𞤺𞤮𞤥𞤢𞥄𞤩𞤫": 9248,
      "𞤱𞤭𞤲𞤣𞤢𞤲𞤢𞤴": 9249,
      "##𞤋𞥅𞤐𞤁𞤉": 9250,
      "𞤴𞤫𞥅𞤴𞤭𞤼𞤮𞥅𞤩𞤫": 9251,
      "𞤣𞤵𞤦𞤵𞤲𞤫𞤪𞤫": 9252,
      "𞤸𞤵𞤩𞤭𞤲𞥋𞤣𞤢𞥄𞤣𞤫": 9253,
      "𞤬𞤭𞤩𞤵𞤣𞤵𞤲𞤮𞥅": 9254,
      "𞤸𞤭𞤤𞤲𞤮𞤪𞤢": 9255,
      "𞤣𞤮𞥅𞤤𞤲𞤮𞤪𞤣𞤫": 9256,
      "𞤳𞤢𞥄𞤳𞤢𞤪𞤢𞥄𞤶𞤭": 9257,
      "𞤱𞤭𞤲𞤣𞤫𞤪𞤫𞤴𞤢𞤲𞤳𞤮𞥅𞤪𞤭": 9258,
      "Apprent": 9259,
      "UDD": 9260,
      "trav": 9261,
      "terrorist": 9262,
      "𞤁𞤮𞤲𞤳𞤭𞤲": 9263,
      "𞤃𞤢𞥄𞤥𞤢𞤣𞤭": 9264,
      "𞤆𞤭𞤴𞤫𞤪": 9265,
      "𞤇𞤫𞤴𞤯𞤮": 9266,
      "𞤉𞥅𞤶𞤭𞤨": 9267,
      "𞤊𞤢𞤧𞤮": 9268,
      "𞤊𞤭𞤶𞤭𞤪𞤣𞤫": 9269,
      "𞤋𞤾𞤢𞤲𞤳𞤢": 9270,
      "𞤐𞤵𞥅𞤲𞤮": 9271,
      "𞤑𞤫𞤦𞤫𞥅": 9272,
      "𞤑𞤵𞤪𞤵𞤲": 9273,
      "𞤖𞤫𞤧𞤤𞤢𞤤": 9274,
      "𞤘𞤫𞥅𞥁": 9275,
      "𞤚𞤵𞤱𞤭𞤼𞤫𞤪": 9276,
      "𞤝𞤢𞤪𞤼𞤵𞤥": 9277,
      "𞤢𞤦𞤣𞤵": 9278,
      "𞤣𞤵𞤲𞤣𞤢𞤪𞤢𞤲𞤳𞤫𞥅𞤩𞤫": 9279,
      "𞤤𞤭𞥅𞤤𞤭𞤱𞤢𞤤": 9280,
      "𞤦𞤢𞥄𞤬𞤢𞤤": 9281,
      "𞤧𞤢𞤺𞤢𞤪": 9282,
      "𞤩𞤢𞥄𞤪𞤭𞥅": 9283,
      "𞤱𞤮𞤴𞤲𞤣𞤵": 9284,
      "𞤷𞤢𞤤𞥆𞤮𞤤": 9285,
      "𞤸𞤭𞤲𞥋𞤣𞤫": 9286,
      "𞤺𞤢𞥄𞤤𞤢𞤤": 9287,
      "𞤼𞤢𞥄𞤤𞤭𞤦𞤢𞤥𞤩𞤫": 9288,
      "##𞤼𞤭𞤥𞤢": 9289,
      "##𞤁𞤀𞥄𞤈𞤀": 9290,
      "##𞤜𞤋𞤕": 9291,
      "##𞤣𞤫𞤼𞤫𞥅𞤯𞤫": 9292,
      "##𞤢𞤲𞤮𞥅𞤲𞤣𞤭": 9293,
      "𞤲𞤺𞤵𞤪𞤣𞤢𞤥": 9294,
      "##𞤭𞤪𞤭𞤲𞤴𞤢𞥄": 9295,
      "𞤀𞤤𞤹𞤢𞥄𞤧𞤭𞤥𞤵": 9296,
      "𞤸𞤭𞤯𞤩𞤫": 9297,
      "𞤲𞤦𞤮𞤯𞤮": 9298,
      "𞤲𞤦𞤢𞥄𞤱𞤣𞤭": 9299,
      "𞤢𞤤𞤥𞤢𞥄𞤥": 9300,
      "𞤼𞤫𞥅𞤥𞤭𞤲𞤢𞤲𞤣𞤫": 9301,
      "𞤀𞤦𞤣𞤢𞤤𞥆𞤢𞤸": 9302,
      "𞤉𞤲𞤺𞤫𞤤𞤫𞥅𞤩𞤫": 9303,
      "𞤥𞤢𞤪𞤭𞤲𞤮𞥅𞤲𞤣𞤫": 9304,
      "𞤥𞤮𞥅𞤩𞤼𞤮𞤲𞥋𞤣𞤭𞤪𞤫": 9305,
      "𞤶𞤮𞥅𞤥𞤭𞤪𞤢𞥄𞤩𞤫": 9306,
      "𞤢𞤴𞤦𞤭𞤲𞤺𞤮𞤤": 9307,
      "𞤼𞤫𞤨𞥆𞤫": 9308,
      "𞤻𞤫𞤥𞤼𞤭𞤲𞤼𞤫𞥅𞤯𞤮": 9309,
      "𞤲𞤣𞤢𞤴𞤺𞤭𞤲": 9310,
      "𞤲𞤣𞤢𞤪𞤼𞤭𞤲𞤭𞤪𞤯𞤭": 9311,
      "𞤃𞤵𞤧𞤤𞤭𞤥𞤭𞥅𞤲": 9312,
      "𞤧𞤮𞤩𞥆𞤭𞥅𞤪𞤫": 9313,
      "𞤀𞤼𞤤𞤢𞤲𞤼𞤭𞤳": 9314,
      "𞤧𞤢𞥄𞤳𞤭𞤼𞤵𞤺𞤮𞤤": 9315,
      "𞤄𞤢𞥄𞤥𞤢𞤪𞤢𞥄𞤳𞤮𞥅𞤪𞤫": 9316,
      "𞤄𞤋𞤅𞤀𞤏𞤌𞥅": 9317,
      "The": 9318,
      "candidat": 9319,
      "𞤀𞤟𞤋𞥅𞤟": 9320,
      "𞤁𞤮𞤴𞤧𞤤𞤫𞤴𞤣𞤭": 9321,
      "𞤃𞤮𞤧𞤳𞤵": 9322,
      "𞤅𞤵𞤲𞤶𞤢𞤼𞤢": 9323,
      "𞤋𞥅𞤾": 9324,
      "𞤋𞤅𞤃𞤀𞥄𞤒𞤋𞥅𞤂𞤀": 9325,
      "𞤏𞤫𞤤𞤧𞤩𞤫": 9326,
      "𞤏𞤭𞤧𞤼𞤢": 9327,
      "𞤑𞤮𞥅𞤤𞤮𞥅𞤥𞤢": 9328,
      "𞤑𞤭𞤪𞤭𞤧𞤼𞤭𞤴𞤢𞤲": 9329,
      "𞤒𞤮𞤲𞤼𞤫𞤪𞤫": 9330,
      "𞤒𞤢𞤱𞤵𞤲𞤣𞤫": 9331,
      "𞤓𞤃𞤀𞤈𞤓": 9332,
      "𞤔𞤭𞤱𞤮": 9333,
      "𞤔𞤮𞤺𞤮𞤲": 9334,
      "𞤕𞤢𞤳𞤢𞥄𞤪𞤭": 9335,
      "𞤖𞤭𞤪𞤲𞤢𞥄𞤲𞤺𞤫": 9336,
      "𞤘𞤫𞤩𞤢𞤤": 9337,
      "𞤘𞤢𞤧𞤢𞤥𞤢": 9338,
      "𞤘𞤌𞤐𞤑𞤀𞤂": 9339,
      "𞤚𞤓𞥅𞤐𞤓𞥅𞤅": 9340,
      "𞤚𞤭𞤶𞥆𞤢𞥄𞤲": 9341,
      "𞤣𞤮𞤧𞤼𞤢𞤤": 9342,
      "𞤣𞤭𞤲𞤺𞤭𞤪𞤢𞤤": 9343,
      "𞤧𞤢𞤲𞥆𞤫": 9344,
      "𞤧𞤢𞥄𞤤𞤭𞥅𞤲𞤣𞤫": 9345,
      "𞤨𞤭𞤼𞤢𞥄𞤶𞤫": 9346,
      "𞤩𞤢𞤣𞤭𞤳𞤫": 9347,
      "𞤬𞤵𞥅𞤼𞤭𞥅": 9348,
      "𞤬𞤭𞤴𞤢𞥄𞤳𞤵": 9349,
      "𞤷𞤫𞥅𞤪𞤼𞤢𞤤": 9350,
      "𞤸𞤭𞥅𞤪𞤲𞤢𞥄𞤲𞤺𞤫": 9351,
      "𞤻𞤫𞤲𞤼𞤭𞤲": 9352,
      "##𞤢𞤪𞤮𞥅𞤯𞤭": 9353,
      "𞤳𞤮𞤪𞤫𞤱𞤮𞤤": 9354,
      "𞤳𞤮𞤥𞤦𞤮𞤱𞤢𞤤": 9355,
      "𞤬𞤭𞥅𞤤𞤭𞥅𞤯𞤮": 9356,
      "𞤸𞤢𞤳𞥆𞤫𞤪𞤫𞤲": 9357,
      "𞤱𞤢𞤯𞤢𞤴𞤲𞤺𞤮": 9358,
      "𞤧𞤢𞤪𞤯𞤭𞤲𞥆𞤮": 9359,
      "𞤲𞤦𞤫𞤯𞥆𞤵𞤩𞤫": 9360,
      "𞤶𞤮𞤺𞤢𞤲𞤭𞤯𞤫𞤲": 9361,
      "𞤸𞤢𞥄𞤲𞤣𞤭𞤲𞤢𞤲𞤮𞥅": 9362,
      "𞤃𞤮𞤪𞤭𞤼𞤢𞤲𞤭𞥅": 9363,
      "𞤼𞤫𞥅𞤥𞤫𞤣𞤫𞤪𞤮": 9364,
      "𞤀𞤂𞤟𞤀𞤈𞤋": 9365,
      "𞤴𞤢𞥄𞤬𞤭𞤲𞤢𞤺𞤮𞤤": 9366,
      "𞤸𞤵𞤲𞤶𞤭𞥅": 9367,
      "𞤱𞤵𞥅𞤪𞤲𞤢𞤼𞤢": 9368,
      "𞤲𞤢𞤶𞤫𞤪𞤭𞤴𞤢𞥄": 9369,
      "𞤑𞤢𞤤𞤭𞥅𞤬𞤢𞥄𞤶𞤮": 9370,
      "𞤉𞤤𞤭𞤧𞤢𞤦𞤫𞤼": 9371,
      "avec": 9372,
      "𞤣𞤵𞤪𞤱𞤢𞤲𞤮𞥅𞤱𞤮": 9373,
      "𞤳𞤵𞤪𞤵𞤲𞤱𞤮𞤤": 9374,
[...]
