#version: 0.2
ð ŀ
ðŀ ¤
Ġ ðŀ¤
ðŀ ¥
ðŀ¤ ¢
ðŀ¤ ®
ðŀ¤ «
ðŀ¤ Ń
ðŀ¤ ²
ðŀ¤¢ ðŀ¤
ðŀ¥ ħ
ðŀ¤ µ
ðŀ¤ £
ðŀ¥ Ħ
ðŀ¤ ª
ðŀ¥ Ĩ
ðŀ¤ ¼
Ġðŀ¤ ²
ðŀ¤ ¤
Ġðŀ¤ ³
ðŀ¤£ ðŀ¤«
ðŀ¤ º
¹ ģ
â ¹ģ
ðŀ¤¢ðŀ¤ ¤
Ġ Ġ
© ðŀ¤«
Ġðŀ¤ ¸
ðŀ¤ ¥
Ġðŀ¤ «
ðŀ¤ ¯
ðŀ¤¢ ðŀ¤²
ðŀ¤® ðŀ¤²
ðŀ¤Ń ðŀ¤²
Ġðŀ¤ ±
Ġðŀ¤ ¥
ðŀ¤ ³
ðŀ¤µ ðŀ¤²
Ġðŀ¤ ¬
Ġðŀ¤ ¯
ðŀ¤« ðŀ¤
ðŀ¤ Ģ
Ġðŀ¤ ¤
ðŀ¤® ðŀ¤¤
Ġðŀ¤ ¼
ðŀ¤ª ðŀ¤«
Ġðŀ¤ §
ðŀ¤ ©ðŀ¤«
Ġðŀ¤ ©ðŀ¤«
ðŀ¤ ¶
Ġðŀ¤ ĳ
ðŀ¤¢ðŀ¤ ª
ðŀ¤£ ðŀ¤Ń
Ġðŀ¤ ´
Ġðŀ¤ ¶
Ġðŀ¤ ®
Ġðŀ¤³ ðŀ¤®
Ġðŀ¤² ðŀ¤º
ðŀ¤ ±
ðŀ¤ ´
ðŀ¤« ðŀ¤²
ðŀ¤ª ðŀ¤Ń
ðŀ¤ ¦
ðŀ¤Ģ ðŀ¤
Ġ ðŀ¥
ðŀ¤¢ðŀ¤ ±
Ġðŀ¤² ðŀ¤£ðŀ¤«
n ðŀ¤
ðŀ¤¢ðŀ¤ ´
ðŀ¤¼ ðŀ¤Ń
. \
ðŀ¤ ĭ
Ġðŀ¤± ðŀ¤®ðŀ¤²
ðŀ¤ §
ðŀ¤ ©
Ġðŀ¤³ ðŀ¤¢
Ġðŀ¤ £
Ġðŀ¤² ðŀ¤®
ðŀ¤ ī
Ġðŀ¤ ¢
Ġðŀ¤ ħ
Ġ "
ĠĠ Ġ
ðŀ¤ Į
Ġðŀ¤ Ģ
Ġðŀ¤ ĥ
ðŀ¤® ðŀ¤ª
ðŀ¤¯ ðŀ¤«
ðŀ¤² ðŀ¤£ðŀ¤«
ðŀ¥ Ĳ
ðŀ¤º ðŀ¤®ðŀ¤¤
ðŀ¤¢ðŀ¤ ³
Ġðŀ¤©ðŀ¤« ðŀ¤²
ðŀ¤¼ ðŀ¤¢
ðŀ¤¢ðŀ¤ £
Ġðŀ¤ º
Ġðŀ¤¸ ðŀ¤®
ðŀ¤¢ðŀ¤ ¥
ðŀ¤µ ðŀ¤¥
ðŀ¤¢ðŀ¤ ¼
Ġðŀ¤ »
ðŀ¤ Ĳ
Ġðŀ¤ Ĳ
Ġðŀ¤¤ ðŀ¤«ðŀ¤
Ġðŀ¤¬ ðŀ¤Ń
Ġðŀ¤ ©
ðŀ¤¶ ðŀ¤®
ðŀ¤¯ ðŀ¤®
ðŀ¤¢ðŀ¤ ¯
ðŀ¤¯ ðŀ¤Ń
Ġðŀ¤ ĺ
ðŀ¤Ń ðŀ¤ª
ðŀ¤¼ ðŀ¤®
Ġðŀ¤¤ ðŀ¤¢
ðŀ¤¢ðŀ¤£ ðŀ¤Ń
ðŀ¤¢ðŀ¤ ©
ðŀ¤Ń ðŀ¤¥
â Ģ
Ġðŀ¥ Ĵ
ðŀ¤¥ ðŀ¤¢
ðŀ¤¼ ðŀ¤«
Ġðŀ¤ĳ ðŀ¤®
Ġðŀ¤ Ħ
ðŀ¤ ĵ
Ġðŀ¤® ðŀ¤²
ðŀ¤¤ ðŀ¤Ń
ðŀ¤µ ðŀ¤ºðŀ¤®ðŀ¤¤
ðŀ¤µðŀ¤² ðŀ¤®
ðŀ¤ ¬
ðŀ¤ Ī
Ġðŀ¤² ðŀ¤£
n t
Ġðŀ¤¬ ðŀ¤®
Ġðŀ¤¥ ðŀ¤®
Ġðŀ¤³ ðŀ¤¢ðŀ¤£ðŀ¤Ń
ðŀ¤¤ ðŀ¤¢
ðŀ¤¼ ðŀ¤Ńðŀ¤²
Â ł
Ġðŀ¤²ðŀ¤º ðŀ¤¢ðŀ¤¤
ðŀ¤µ ðŀ¤£ðŀ¤«
ðŀ¤¢ðŀ¤ ¦
Ġðŀ¤ ¦
" :
ĠĠ ĠĠ
ĠĠĠĠ ĠĠĠ
Ġðŀ¤ Ĭ
ðŀ¤ ¨
Ġðŀ¤¯ ðŀ¤«ðŀ¤²
Ġðŀ¤¼ ðŀ¤¢ðŀ¤±
Ġ (
Ġðŀ¤¤ðŀ¤«ðŀ¤ ´
ĳ ðŀ¥
Ġðŀ¤ ĸ
ðŀ¤ ĳ
Ġðŀ¤²ðŀ¤£ðŀ¤« ðŀ¤²
ðŀ¤®ðŀ¤² ðŀ¤®
ðŀ¤«ðŀ¤ ±
Ġðŀ¥Ĵ ðŀ¥Ĳ
ðŀ¤µ ðŀ¤ª
Ġðŀ¤± ðŀ¤¢ðŀ¤¯
ðŀ¤³ ðŀ¤¢
ðŀ¤Ń ðŀ¤´
ðŀ¤± ðŀ¤®
ðŀ¤º ðŀ¤¢ðŀ¤¤
ðŀ¤£ ðŀ¤®
ðŀ¤£ ðŀ¤µ
Ġðŀ¤ ģ
Ġðŀ¤±ðŀ¤®ðŀ¤² ðŀ¤Ń
Ġðŀ¤ ī
Ġðŀ¤¸ ðŀ¤¢
ðŀ¤¤ ðŀ¤«
ðŀ¤¢ðŀ¤² ðŀ¤®
ðŀ¤ ģ
ðŀ¤³ ðŀ¤®
Ġðŀ¤¯ ðŀ¤Ń
Ġðŀ¤ ¨
Ġðŀ¤ Ķ
Ġðŀ¤ Ń
ðŀ¤¢ðŀ¤² ðŀ¤£ðŀ¤«
ðŀ¤¢ðŀ¤ª ðŀ¤Ń
Ġðŀ¤ ·
Ġðŀ¤» ðŀ¤¢ðŀ¤¤
ðŀ¥ Ĵ
ðŀ¤¢ðŀ¤ º
ðŀ¤º ðŀ¤®
Ġðŀ¤¸ ðŀ¤Ń
Ġðŀ¤§ ðŀ¤®
Ġðŀ¤¯ ðŀ¤µðŀ¤¥
Ġðŀ¤¥ ðŀ¤¢ðŀ¤³
ðŀ¤¥ ðŀ¤µ
Ġðŀ¤¶ ðŀ¤®
ðŀ¤Ńðŀ¤² ðŀ¤«
Ġðŀ¤ ª
Ġðŀ¤²ðŀ¤£ðŀ¤« ðŀ¤ª
ðŀ¤² ðŀ¤¢
ðŀ¤² ðŀ¤Ń
ðŀ¤ Ĥ
ðŀ¤Ńðŀ¤¥ ðŀ¤©ðŀ¤«
ðŀ¤© ðŀ¤Ń
ðŀ¤« ðŀ¤ªðŀ¤«
Ġðŀ¤£ ðŀ¤µ
ðŀ¥ ĭ
ðŀ¤² ðŀ¤®
ðŀ¤µ ðŀ¤¤
Ġðŀ¤ ļ
ðŀ¤¶ ðŀ¤Ń
Ġðŀ¤±ðŀ¤®ðŀ¤² ðŀ¤£ðŀ¤«
Ġðŀ¤²ðŀ¤º ðŀ¤µðŀ¤²
ðŀ¤ ĺ
Ġðŀ¤´ ðŀ¤®
Ġðŀ¤´ ðŀ¤Ńðŀ¤¥ðŀ¤©ðŀ¤«
ðŀ¤ ¸
Ġðŀ¤»ðŀ¤¢ðŀ¤¤ ðŀ¤²ðŀ¤£ðŀ¤«
ðŀ¤¢ðŀ¤² ðŀ¤Ń
ðŀ¤ ħ
nðŀ¤ ĳ
Ġðŀ¤§ ðŀ¤µ
Ġðŀ¤± ðŀ¤®
Ġðŀ¤º ðŀ¤®
Ġðŀ¤¥ ðŀ¤¢ðŀ¤©
ðŀ¤¢ðŀ¤¤ ðŀ¤¢
Ġðŀ¤²ðŀ¤£ ðŀ¤Ńðŀ¤²
Ġðŀ¤¤ðŀ¤«ðŀ¤´ ðŀ¤£ðŀ¤Ń
Ġðŀ¥ ĳðŀ¥
l e
ðŀ¤ ĥ
i t
ðŀ¤³ ðŀ¤Ń
ðŀ¤¶ ðŀ¤«
Ġðŀ¤ĺ ðŀ¤Ńðŀ¤²ðŀ¤«
ðŀ¤¢ðŀ¤² ðŀ¤º
ðŀ¤« ðŀ¤¤
ðŀ¤¢ðŀ¤ ¨
Ġðŀ¤¥ ðŀ¤¢
e nt
ðŀ¤¢ðŀ¤ ¸
Ġðŀ¤ Į
c o
ðŀ¤Ģðŀ¤ Ĥ
ðŀ¤ ļ
Ġðŀ¤¢ ðŀ¤ª
Ġðŀ¤¸ ðŀ¤«ðŀ¤
Ġðŀ¤ ı
ðŀ¤¢ðŀ¤¼ ðŀ¤¢
Ġðŀ¤¼ ðŀ¤®
Ġðŀ¤¶ ðŀ¤¢
ðŀ¤Ńðŀ¤² ðŀ¤¢
Ġ âĢ
Ġðŀ¤²ðŀ¤º ðŀ¤®ðŀ¤²
ðŀ¤£ðŀ¤Ń ðŀ¤ª
co nt
t it
ðŀ¤« ðŀ¤£
" ,
Ġ {
Ġ }
cont ent
tit le
âĢ Ļ
Ġ} ,
Ġðŀ¤§ ðŀ¤¢ðŀ¤¦
ðŀ¤µ ðŀ¤©ðŀ¤«
Ġðŀ¤¸ ðŀ¤®ðŀ¤¤
Ġðŀ¤ĳ ðŀ¤®ðŀ¤²ðŀ¤®
Ġðŀ¤ Ĩ
ðŀ¤« ðŀ¤¼
ðŀ¤¢ðŀ¤¤ ðŀ¤Ń
ðŀ¤§ ðŀ¤Ń
Ġðŀ¤¬ ðŀ¤«ðŀ¤
Ġðŀ¤¯ ðŀ¤Ńðŀ¤²
Ġðŀ¤§ ðŀ¤Ń
ðŀ¤ Ħ
ðŀ¥ħ â¹ģ
ðŀ¤Ńðŀ¤² ðŀ¤Ń
Ġðŀ¤¥ ðŀ¤Ń
ðŀ¤Ģðŀ¤ Ĳ
ðŀ¤£ ðŀ¤¢
nðŀ¤ĳ ðŀ¤®
Ġðŀ¤³ ðŀ¤µ
ðŀ¤Ģðŀ¤ Ī
Ġðŀ¤¥ ðŀ¤µ
ðŀ¤³ ðŀ¤«
Ġðŀ¥Ĵðŀ¥Ĳ ðŀ¥Ĵ
Ġðŀ¤³ ðŀ¤¢ðŀ¤¤ðŀ¤¢
ðŀ¤¢ðŀ¤º ðŀ¤®ðŀ¤¤
Ġðŀ¤¯ ðŀ¤«
ðŀ¤ª ðŀ¤®
ðŀ¤«ðŀ¤ ´
ðŀ¤Ń ðŀ¤¼ðŀ¤Ń
ðŀ¤Ńðŀ¤² ðŀ¤®
Ġðŀ¤ ĩ
ðŀ¤º ðŀ¤®ðŀ¤ª
Ġðŀ¤±ðŀ¤®ðŀ¤²ðŀ¤£ðŀ¤« ðŀ¤¥ðŀ¤¢
ðŀ¤¢ðŀ¤² ðŀ¤³ðŀ¤®
Ġðŀ¤¯ ðŀ¤®
ðŀ¤Ń ðŀ¤¼
ðŀ¤ Ĵ
ðŀ¤ª ðŀ¤µ
Ġðŀ¤¢ ðŀ¤²
ðŀ¤µ ðŀ¤¯
ðŀ¤¥ ðŀ¤®
Ġðŀ¤ Ĥ
ðŀ¤º ðŀ¤Ń
ðŀ¤¤ ðŀ¤®
ðŀ¤¥ ðŀ¤«
ðŀ¤¢ðŀ¤ª ðŀ¤¢
Ġðŀ¤ Ĵ
Ġðŀ¤³ ðŀ¤®ðŀ¤²
ðŀ¤ªðŀ¤Ń ðŀ¤³
ðŀ¤± ðŀ¤Ń
Ġðŀ¤´ ðŀ¤¢ðŀ¤¤
ðŀ¤´ ðŀ¤¢
Ġðŀ¤¸ðŀ¤«ðŀ¤ ©
Ġðŀ¤§ðŀ¤¢ðŀ¤¦ ðŀ¤µ
ðŀ¤« ðŀ¤ª
Ġðŀ¤ ĭ
ðŀ¤¦ ðŀ¤¢
ðŀ¤¢ðŀ¤ »
Ġðŀ¤¯ ðŀ¤µ
Ġðŀ¤ħ ðŀ¤Ń
ðŀ¤¢ðŀ¤ª ðŀ¤¢ðŀ¤²
Ġðŀ¤ Ī
Ġðŀ¤¶ ðŀ¤«
ðŀ¤Ńðŀ¤´ ðŀ¤¢
Ġðŀ¤Ģ ðŀ¤¬
ðŀ¤ ·
ðŀ¤¦ ðŀ¤Ń
Ġðŀ¤±ðŀ¤¢ðŀ¤¯ ðŀ¤Ń
ðŀ¥ ĳ
ðŀ¥ħ .
Ġðŀ¤¸ ðŀ¤¢ðŀ¤³
Ġðŀ¤² ðŀ¤®ðŀ¤²
ðŀ¤Ń ðŀ¤¤ðŀ¤¢
Ġðŀ¤± ðŀ¤¢
Ġðŀ¤¥ ðŀ¤¢ðŀ¤±
Ġðŀ¤¼ ðŀ¤¢ðŀ¤¼
Ġðŀ¤ į
Ġðŀ¤¸ ðŀ¤µ
Ġðŀ¤Ģ ðŀ¤¤
ðŀ¥ ĳðŀ¥
ðŀ¤¼ðŀ¤« ðŀ¤ªðŀ¤«
Ġðŀ¤ ķ
ĠâĢ ĵ
ðŀ¤ °
Ļ ðŀ¥
ðŀ¤¢ðŀ¤ §
Ġðŀ¤¥ ðŀ¤¢ðŀ¤¤
ðŀ¤¢ðŀ¤² ðŀ¤¢
ðŀ¤ĭ ðŀ¤Ĳ
Ġðŀ¤ °
ðŀ¤µðŀ¤² ðŀ¥ĭ
ðŀ¤¢ðŀ¤» ðŀ¤µðŀ¤²
Ġðŀ¤¸ ðŀ¤¢ðŀ¤²ðŀ¤£ðŀ¤«
ðŀ¤µ ðŀ¤¼
ðŀ¤º ðŀ¤µ
Ġðŀ¤³ ðŀ¤¢ðŀ¤»ðŀ¤µðŀ¤²
Ġðŀ¤© ðŀ¤¢
Ġðŀ¤¬ðŀ¤«ðŀ¤ °
Ġðŀ¤´ ðŀ¤Ń
ðŀ¤ª ðŀ¤¢
Ġðŀ¤± ðŀ¤Ń
ðŀ¤ī ðŀ¤Ĳ
Ġðŀ¤¸ðŀ¤Ń ðŀ¤¼ðŀ¤¢
ðŀ¤Ńðŀ¤ª ðŀ¤¢
ðŀ¤ ĸ
Ġðŀ¤¬ ðŀ¤¢
Ġðŀ¤²ðŀ¤£ ðŀ¤µðŀ¤²
Ġðŀ¤ µ
Ġðŀ¤² ðŀ¤¢
ðŀ¤«ðŀ¤ §
Ġðŀ¤£ ðŀ¤¢ðŀ¤ª
Ġðŀ¤³ ðŀ¤Ń
Ġðŀ¤¸ ðŀ¤¢ðŀ¤ªðŀ¤Ń
Ġðŀ¤» ðŀ¤¢
Ġðŀ¤¯ðŀ¤Ń ðŀ¤¯ðŀ¤Ń
Ġðŀ¤§ðŀ¤µ ðŀ¤©
ðŀ¤ Ķ
ðŀ¤³ ðŀ¤µ
Ġðŀ¤²ðŀ¤º ðŀ¤µ
ðŀ¤² ðŀ¤ºðŀ¤®
ðŀ¤¼ ðŀ¤¢ðŀ¤¤
Ġðŀ¤¼ ðŀ¤Ńðŀ¤¥
ðŀ¤ Ĭ
Ġðŀ¤¬ ðŀ¤µðŀ¤¯
Ġðŀ¤¼ ðŀ¤Ń
Ġðŀ¤Ĭ ðŀ¤¢ðŀ¤ªðŀ¤¢ðŀ¤²
ðŀ¤« ðŀ¤¼ðŀ¤«
ðŀ¤¢ðŀ¤² ðŀ¤¯ðŀ¤«
Ø §
nðŀ¤ Ĳ
ðŀ¤Ī ðŀ¤ĭ
Ġðŀ¤¶ ðŀ¤¢ðŀ¤²ðŀ¤º
Ġðŀ¤© ðŀ¤µ
Ġðŀ¤¤ðŀ¤«ðŀ¤´ ðŀ¤¯ðŀ¤«
Ġðŀ¤¸ ðŀ¤¢ðŀ¤´
Ġðŀ¤ĥ ðŀ¤¢ðŀ¤¤ðŀ¤Ń
ðŀ¤ ı
ðŀ¤Ģðŀ¤ ĥ
Ġðŀ¤ĳ ðŀ¤®ðŀ¤²
Ġðŀ¤±ðŀ¤®ðŀ¤² ðŀ¤¢
ðŀ¤¬ ðŀ¤¢
ðŀ¤¦ ðŀ¤®
Ġðŀ¤¤ðŀ¤«ðŀ¤ §
. "
Ġðŀ¤£ ðŀ¤®
Ġ Ù
Ġðŀ¤´ ðŀ¤«
ðŀ¤Į ðŀ¤Ĳ
Ġðŀ¤¯ ðŀ¤®ðŀ¤²
Ġðŀ¤¶ ðŀ¤µ
Ġðŀ¥ĳðŀ¥ Ļðŀ¥
ðŀ¤º ðŀ¤¢
Ġðŀ¤§ ðŀ¤¢
ðŀ¤®ðŀ¤ª ðŀ¤£ðŀ¤«
ðŀ¤Ń ðŀ¤ªðŀ¤Ń
Ġðŀ¤¬ðŀ¤® ðŀ¤¨
Ġðŀ¤³ ðŀ¤®ðŀ¤²ðŀ¤®
ðŀ¤¢ðŀ¤± ðŀ¤µ
Ġðŀ¤¶ ðŀ¤Ń
ðŀ¤§ ðŀ¤®
ðŀ¤«ðŀ¤± ðŀ¤²
ðŀ¤¼ðŀ¤Ńðŀ¤² ðŀ¤®
ðŀ¤¢ðŀ¤² ðŀ¤«
ðŀ¤«ðŀ¤² ðŀ¤«
Ġðŀ¤Ģðŀ¤¬ ðŀ¤ªðŀ¤Ńðŀ¤³
Ø ©
ðŀ¥ Ķ
Ġðŀ¤¥ ðŀ¤«
Ġðŀ¤©ðŀ¤« ðŀ¤´
ðŀ¤¼ðŀ¤Ń ðŀ¤ºðŀ¤Ń
ðŀ¤ĳ ðŀ¤®
Ġðŀ¤§ðŀ¤µðŀ¤© ðŀ¤®
Ħ Ù
ðŀ¥Ħ â¹ģ
ðŀ¥Ĳ ðŀ¥Ĳ
ðŀ¤«ðŀ¤ ¬
ðŀ¤¶ðŀ¤® ðŀ¤¥ðŀ¤¢
ðŀ¤¯ ðŀ¤«ðŀ¤²
ðŀ¤¼ðŀ¤Ńðŀ¤² ðŀ¤Ń
ðŀ¤ »
ðŀ¤ ĩ
ðŀ¤¢ðŀ¤ ¬
Ġðŀ¤²ðŀ¤º ðŀ¤®
ðŀ¤¢ðŀ¤ ¶
Ġðŀ¤©ðŀ¤µ ðŀ¤ªðŀ¤Ń
ðŀ¤¯ ðŀ¤¢
ðŀ¥ ĵ
ðŀ¤ºðŀ¤®ðŀ¤ª ðŀ¤¢ðŀ¤¤
ðŀ¥Ħ .
Ġðŀ¤¬ ðŀ¤«ðŀ¤£
ðŀ¤¦ ðŀ¤µ
ðŀ¤µ ðŀ¤©
ðŀ¤¤ ðŀ¤¢ðŀ¤¤
nðŀ¤ ī
ðŀ¤ ¾
Ġðŀ¤¤ ðŀ¤«
Ġðŀ¤¤ ðŀ¤¢ðŀ¤²
ðŀ¤µðŀ¤²ðŀ¥ĭ ðŀ¤£ðŀ¤«
Ġðŀ¤³ ðŀ¤¢ðŀ¤²ðŀ¤³ðŀ¤®
Ġðŀ¤² ðŀ¤«
Ġðŀ¤º ðŀ¤®ðŀ¤¤
ðŀ¤ģ ðŀ¤ī
Ġðŀ¤¥ðŀ¤µ ðŀ¤µðŀ¤²
Ġðŀ¤Ĭðŀ¤¢ðŀ¤ªðŀ¤¢ðŀ¤² ðŀ¤§ðŀ¤Ń
ðŀ¤µ ðŀ¤¯ðŀ¤«
Ġðŀ¤« ðŀ¤²
ðŀ¤µðŀ¤² ðŀ¤«
ðŀ¤¥ ðŀ¤Ń
Ġðŀ¤®ðŀ¤² ðŀ¤¼ðŀ¤Ńðŀ¤ºðŀ¤Ń
Ù Ĭ
ð Ł
ðŀ¤®ðŀ¤² ðŀ¥ĭ
Ġðŀ¥Ĵðŀ¥Ĳ ðŀ¥ĳðŀ¥
ðŀ¤£ðŀ¤Ńðŀ¤ª ðŀ¤¢ðŀ¤¤
Ġ \
Ġðŀ¤´ ðŀ¤¢ðŀ¤¸
Ġðŀ¤² ðŀ¤£ðŀ¤Ń
Ġðŀ¤§ ðŀ¤¢ðŀ¤ª
Ġðŀ¤¼ðŀ¤¢ðŀ¤± ðŀ¤¢
Ġðŀ¤¼ðŀ¤¢ðŀ¤¼ ðŀ¤Ń
Ġ Ø
ðŀ¤Ń ðŀ¤¤
ðŀ¤º ðŀ¤«
ðŀ¤´ ðŀ¤Ń
Ġðŀ¤§ ðŀ¤«
Ġðŀ¤¥ ðŀ¤µðŀ¤²
Ġðŀ¤¤ðŀ¤«ðŀ¤§ ðŀ¤£ðŀ¤Ń
ðŀ¤®ðŀ¤ª ðŀ¤¢
Ġðŀ¤¸ðŀ¤® ðŀ¤¶ðŀ¤®ðŀ¤¥ðŀ¤¢
Ġðŀ¤Ĳ ðŀ¤£ðŀ¤«
Ġðŀ¤¬ðŀ¤® ðŀ¤¼ðŀ¤¢
ðŀ¤ ½
Ġðŀ¤ĩ ðŀ¤«
ðŀ¤ªðŀ¤Ń ðŀ¤³ðŀ¤¢
ðŀ¤«ðŀ¤²ðŀ¤« ðŀ¤ºðŀ¤¢ðŀ¤¤
ðŀ¤® ðŀ¤¼
ðŁ ĩ
ðŀ¤ į
Ġðŀ¤² ðŀ¤¢ðŀ¤´
Ġðŀ¤® ðŀ¤¥ðŀ¤®
Ġðŀ¥ ĵ
ðŀ¤¢ðŀ¤² ðŀ¤³ðŀ¤Ń
Ġðŀ¤² ðŀ¤¶
ðŀ¤µðŀ¤² ðŀ¤¢
ðŀ¤ĵ ðŀ¤Ĳ
Ġðŀ¤ ĵ
Ġðŀ¤» ðŀ¤¢ðŀ¤±ðŀ¤µ
ðŀ¥ ķ
Ġðŀ¤¶ ðŀ¤«ðŀ¤´
Ġðŀ¤¢ ðŀ¤£
âĢ Ŀ
ðŀ¤Ń ðŀ¤£
Ġðŀ¤± ðŀ¤¢ðŀ¤¤
Ġðŀ¤¶ ðŀ¤¢ðŀ¤²
ðŀ¤Ń ðŀ¤¼ðŀ¤¢
Ġðŀ¤²ðŀ¤º ðŀ¤®ðŀ¤¤
Ġðŀ¤¼ðŀ¤¢ðŀ¤± ðŀ¤Ń
Ġðŀ¤° ðŀ¤«ðŀ¤¼
ðŀ¤® ðŀ¤±
ðŀ¤Ń ðŀ¤§
ðŀ¤¼ ðŀ¤µ
Ġðŀ¤· ðŀ¤¢ðŀ¤¨
ðŀ¤² ðŀ¤£ðŀ¤Ń
ðŀ¤² ðŀ¤£ðŀ¤µ
ðŀ¤Ī ðŀ¤ī
Ġðŀ¤¬ ðŀ¤«ðŀ¤±ðŀ¤²
Ġðŀ¤© ðŀ¤¢ðŀ¤¤
Ġðŀ¤ĳ ðŀ¤¢ðŀ¤¥
Ġðŀ¤º ðŀ¤Ńðŀ¤¤ðŀ¤¢
Ġðŀ¤ħ ðŀ¤«ðŀ¤²ðŀ¤«ðŀ¤ºðŀ¤¢ðŀ¤¤
ðŀ¤£ ðŀ¤Ńðŀ¤²
ðŀ¤± ðŀ¤¢ðŀ¤¤
Ġðŀ¤Ģ ðŀ¤¥ðŀ¤«
ðŀ¤µðŀ¤¥ ðŀ¤¢
ðŀ¤µðŀ¤¥ ðŀ¤¦
Ø ¯
Ù ģ
Ġðŀ¤± ðŀ¤¢ðŀ¤´
Ġðŀ¤Ń ðŀ¤¼
Ùģ Ø
Ġðŀ¤¥ ðŀ¤µðŀ¤ª
Ġðŀ¤Ĳ ðŀ¤®
Ġðŀ¤¼ðŀ¤¢ðŀ¤± ðŀ¤µðŀ¤²ðŀ¤®
ðŀ¤² ðŀ¤ºðŀ¤¢ðŀ¤¤
ðŀ¤´ ðŀ¤®
ðŀ¤ĺ ðŀ¤Ģðŀ¤Ĥ
ðŀ¤¼ ðŀ¤¢ðŀ¤²ðŀ¤«
Ġðŀ¤ĸ ðŀ¤®
ĠâĢ ľ
ðŀ¤Ĵ ðŀ¤Ģ
Ġðŀ¤ħ ðŀ¤«
Ġðŀ¤³ ðŀ¤¢ðŀ¤²
Ġðŀ¤¸ ðŀ¤«
Ġðŀ¤ĳ ðŀ¤Į
Ġðŀ¤Ń ðŀ¤²
ðŀ¤¤ðŀ¤® ðŀ¤¼ðŀ¤Ń
nðŀ¤ ĸ
ðŀ¤¢ðŀ¤´ ðŀ¤²ðŀ¤®
ðŀ¤¢ðŀ¤¯ ðŀ¤¼ðŀ¤¢ðŀ¤²ðŀ¤«
ðŀ¤Ńðŀ¤ª ðŀ¤£ðŀ¤«
Ġðŀ¤² ðŀ¤¢ðŀ¤²ðŀ¤º
ðŀ¤§ ðŀ¤¢
ðŀ¤¢ðŀ¤¸ ðŀ¤®
Ġðŀ¤ĳðŀ¤®ðŀ¤² ðŀ¤£ðŀ¤«
ðŀ¤µ ðŀ¤¯ðŀ¤Ń
ðŀ¤ Ĩ
Ġðŀ¤Ģðŀ¤¤ ðŀ¤¬ðŀ¤¢
Ġðŀ¤¼ ðŀ¤¢ðŀ¤¸ðŀ¤®
Ġðŀ¤§ ðŀ¤¢ðŀ¤¨
Ġðŀ¤´ ðŀ¤«ðŀ¤±
ðŀ¤¯ ðŀ¤µðŀ¤©ðŀ¤«
ðŀ¤± ðŀ¤¢
ð Ŀ
ðŀ¤Ń ðŀ¤¦ðŀ¤Ń
Ġðŀ¤¸ ðŀ¤¢ðŀ¤²ðŀ¤³ðŀ¤Ń
Ġðŀ¤´ ðŀ¤¢
ðŀ¤Į ðŀ¤Ĥ
ðŀ¤¼ ðŀ¤µðŀ¤ºðŀ¤®ðŀ¤¤
Ġðŀ¤± ðŀ¤Ńðŀ¤´
Ġðŀ¤¯ ðŀ¤µðŀ¤²
Ġðŀ¤¨ ðŀ¤Ńðŀ¤´
Ø§ Ø
Ġðŀ¤ Ļ
Ġðŀ¤¸ðŀ¤Ń ðŀ¤³
Ġðŀ¤± ðŀ¤Ńðŀ¤²
ðŀ¤ģ ðŀ¤ĭ
Ġðŀ¤Ń ðŀ¤¥
ðŀ¤¦ ðŀ¤Ńðŀ¤ª
Ġðŀ¤¬ðŀ¤Ń ðŀ¤¶
Ġðŀ¤± ðŀ¤¢ðŀ¤²ðŀ¤®
Ġðŀ¤Ķ ðŀ¤®
ðŀ¤¸ ðŀ¤Ń
ðŀ¤² ðŀ¤ºðŀ¤«
Ġðŀ¤¼ ðŀ¤«
Ġðŀ¤¸ ðŀ¤¢ðŀ¤¨
ðŀ¤¥ ðŀ¤¦
Ġðŀ¤¼ ðŀ¤µ
ðŀ¤¶ ðŀ¤µðŀ¤²ðŀ¤«
Ġðŀ¤´ ðŀ¤¢ðŀ¤¥
ðŀ¤Ģðŀ¤ ģ
nðŀ¤ ħ
Ġðŀ¤ħ ðŀ¤®
Ġðŀ¤¬ ðŀ¤®ðŀ¤¤
ðŀ¤Ģðŀ¤ ļ
ðŀ¥ħ .\
Ġðŀ¤ĳ ðŀ¤µ
Ġðŀ¤¢ ðŀ¤·
ðŀ¤¢ðŀ¤£ ðŀ¤µ
Ġðŀ¤© ðŀ¤µðŀ¤ª
ðŀ¤¢ðŀ¤ª ðŀ¤®
ðŀ¤¢ðŀ¤± ðŀ¤¼ðŀ¤Ń
Ġðŀ¤ĥ ðŀ¤µ
ðŀ¤ļ ðŀ¤ĭ
a n
ðŀ¤®ðŀ¤¤ ðŀ¤¼ðŀ¤®
Ġðŀ¤¼ ðŀ¤¢ðŀ¤¦
Ġðŀ¤ĺ ðŀ¤«ðŀ¤²
Ġðŀ¤į ðŀ¤µðŀ¤¥
Ġðŀ¤Ń ðŀ¤²ðŀ¤£ðŀ¤«
ðŀ¥ Ĺ
Ġðŀ¤¸ ðŀ¤«ðŀ¤£
Ġðŀ¤¸ðŀ¤«ðŀ¤© ðŀ¤Ń
Ġðŀ¤¬ðŀ¤«ðŀ¤±ðŀ¤² ðŀ¤£ðŀ¤®
Ġðŀ¤¤ ðŀ¤¢ðŀ¤¼
Ġðŀ¤¶ ðŀ¤¢ðŀ¤©
Ġðŀ¤¯ðŀ¤Ń ðŀ¤¯ðŀ¤®
) .
ðŀ¤ºðŀ¤® ðŀ¤®
Ġðŀ¤¼ðŀ¤® ðŀ¤¯
ðŀ¤£ðŀ¤Ńðŀ¤ª ðŀ¤¢
Ġðŀ¤¯ðŀ¤® ðŀ¤®
ðŀ¤Ńðŀ¤¼ ðŀ¤¢ðŀ¤¤
ðŀ¤£ ðŀ¤µðŀ¤²ðŀ¤®
ðŀ¤£ ðŀ¤µðŀ¤£ðŀ¤«
Ġðŀ¤¼ ðŀ¤¢ðŀ¤¥
ðŀ¤Ģðŀ¤ ĳ
Ġðŀ¤¯ðŀ¤Ń ðŀ¤¯
ðŀ¤¢ðŀ¤± ðŀ¤®
Ġðŀ¤¥ðŀ¤® ðŀ¤°
Ġðŀ¤ķ ðŀ¤®ðŀ¤¤ðŀ¤¼ðŀ¤®
Ġ t
Ġðŀ¤¥ ðŀ¤µðŀ¤¤
Ġðŀ¥ ĳ
nðŀ¤ Ĭ
Ġðŀ¤ĥ ðŀ¤®
ðŀ¤ĥ ðŀ¤Ģ
ðŀ¥ ĺ
ðŀ¤¼ ðŀ¤µðŀ¤¥ðŀ¤¢
Ġðŀ¤± ðŀ¤¢ðŀ¤ª
Ġðŀ¤¥ ðŀ¤«ðŀ¤²
Ġðŀ¤¼ ðŀ¤µðŀ¤²
ðŀ¤ªðŀ¤Ń ðŀ¤´ðŀ¤¢
Ġðŀ¤ĥ ðŀ¤¢ðŀ¤±
ðŀ¤®ðŀ¤ª ðŀ¤§ðŀ¤®
ðŀ¤¼ðŀ¤Ńðŀ¤² ðŀ¤ºðŀ¤®ðŀ¤¤
ðŀ¤¼ ðŀ¤¢ðŀ¤ºðŀ¤®ðŀ¤¤
Ġðŀ¤¤ ðŀ¤®ðŀ¤²
ðŀ¤ī ðŀ¤Ī
Ø Ł
ðŀ¤¯ ðŀ¤µðŀ¤²
ðŀ¥ ĸ
Ġðŀ¤© ðŀ¤Ń
ðŀ¤¸ ðŀ¤¢ðŀ¤¥
Ġðŀ¤²ðŀ¤« ðŀ¤¯
e r
ðŀ¤¼ ðŀ¤¢ðŀ¤¼
ðŀ¤¯ ðŀ¤µðŀ¤¯ðŀ¤«
nðŀ¤ ĺ
Ġðŀ¤¤ðŀ¤«ðŀ¤ ±
ª Ø
Ġðŀ¤Ħ ðŀ¤µ
ðŀ¤¼ðŀ¤Ńðŀ¤² ðŀ¤¢
Ġðŀ¤±ðŀ¤Ń ðŀ¤Ń
Ġðŀ¤± ðŀ¤µ
Ġðŀ¤¦ ðŀ¤Ńðŀ¤²
ðŀ¥Ħ .\
Ġðŀ¤¼ ðŀ¤®ðŀ¤²
Ġðŀ¥ ķ
Ġðŀ¥ ĸ
ðŀ¤ĭðŀ¤Ĳ ðŀ¤ī
ðŀ¤µ ðŀ¤¯ðŀ¤®
Ġðŀ¤¸ ðŀ¤¢ðŀ¤©
Ġðŀ¤± ðŀ¤«
Ġðŀ¤²ðŀ¤º ðŀ¤¢ðŀ¤¥
ðŀ¤µðŀ¤ª ðŀ¤³
ðŀ¤ĩ ðŀ¤ī
n ðŀ¤Ģ
Ã ©
ðŀ¥ ĥ
ðŀ¤² ðŀ¤ºðŀ¤µ
ðŀ¤¥ ðŀ¤®ðŀ¤ªðŀ¤£ðŀ¤«
ðŀ¤Ģðŀ¤ ħ
Ġðŀ¤¬ðŀ¤Ń ðŀ¤¶ðŀ¤®
Ġðŀ¥Ĵðŀ¥Ĳðŀ¥Ĵ ðŀ¥Ĳ
Ġðŀ¤³ðŀ¤®ðŀ¤² ðŀ¤µ
ðŀ¤Ńðŀ¤² ðŀ¤ºðŀ¤®ðŀ¤¤
Ġðŀ¤¥ ðŀ¤¢ðŀ¤ªðŀ¤Ń
ðŀ¤«ðŀ¤ ¸
nðŀ¤ ĥ
Ġðŀ¤¢ ðŀ¤¤ðŀ¤¢
Ġðŀ¤ħ ðŀ¤µ
Ġðŀ¤¦ ðŀ¤®ðŀ¤²
Ġðŀ¤ª ðŀ¤µðŀ¤¼
ðŀ¤ħ ðŀ¤ĭ
Ġðŀ¤±ðŀ¤® ðŀ¤¼ðŀ¤¢
Ġ d
ðŀ¤® ðŀ¤´
ðŀ¤Ń ðŀ¤¼ðŀ¤®
Ġðŀ¤¸ ðŀ¤¢ðŀ¤ª
ðŀ¤¢ðŀ¤¥ ðŀ¤©ðŀ¤«
Ġðŀ¤¯ðŀ¤«ðŀ¤² ðŀ¤¯ðŀ¤«
Ġðŀ¤ģ ðŀ¤µ
ðŀ¤¤ðŀ¤®ðŀ¤¼ðŀ¤Ń ðŀ¤ªðŀ¤®
o n
Ġðŀ¤¸ ðŀ¤«ðŀ¤±
ðŀ¤¢ðŀ¤² ðŀ¤³
ðŀ¤ª ðŀ¤³ðŀ¤¢
ðŀ¤¼ ðŀ¤£ðŀ¤Ń
Ġðŀ¤² ðŀ¤¦
Ġðŀ¤¬ ðŀ¤«
ðŀ¤¢ðŀ¤¥ ðŀ¤¢
Ġðŀ¤Ĳ ðŀ¤Ń
Ġðŀ¤Ħ ðŀ¤¢
Ġðŀ¤¬ðŀ¤® ðŀ¤¼
i n
Ġðŀ¤² ðŀ¤¢ðŀ¤©
ðŀ¤Ģðŀ¤ Ĵ
ðŀ¤¼ðŀ¤Ń ðŀ¤ª
ðŀ¤¢ðŀ¤¥ ðŀ¤¦
ðŀ¤µðŀ¤¥ ðŀ¤¨
Ġðŀ¤¶ðŀ¤® ðŀ¤±ðŀ¤Ń
ðŀ¤ĺ ðŀ¤Į
Ġðŀ¤Ģðŀ¤¬ ðŀ¤ªðŀ¤Ńðŀ¤³ðŀ¤¢
ðŀ¤¼ ðŀ¤µðŀ¤£ðŀ¤«
Ġðŀ¤¬ ðŀ¤«ðŀ¤¤
Ġðŀ¤£ ðŀ¤«ðŀ¤²
ðŀ¤Ńðŀ¤ª ðŀ¤²ðŀ¤¢
Ġðŀ¤ĳðŀ¤® ðŀ¤¼ðŀ¤£ðŀ¤Ń
Ġðŀ¤¦ ðŀ¤¢ðŀ¤¯ðŀ¤¼ðŀ¤¢ðŀ¤²ðŀ¤«
ðŀ¤µðŀ¤ª ðŀ¤µ
ðŀ¤®ðŀ¤²ðŀ¥ĭ ðŀ¤£ðŀ¤Ńðŀ¤ªðŀ¤¢ðŀ¤¤
ðŀ¤µðŀ¤ªðŀ¤³ ðŀ¤Ńðŀ¤²ðŀ¤¢
Ġðŀ¤² ðŀ¤¢ðŀ¤±
Ġðŀ¤´ ðŀ¤¢ðŀ¤±ðŀ¤¼ðŀ¤Ń
Ġðŀ¤ĥ ðŀ¤¢ðŀ¤³
Ġðŀ¤ĸ ðŀ¤¢ðŀ¤´
Ġðŀ¤¶ðŀ¤® ðŀ¤º
Ġðŀ¤Į ðŀ¤²
Ġðŀ¤§ðŀ¤¢ðŀ¤¦ ðŀ¤µðŀ¤²ðŀ¤¢
Ġðŀ¥ Ķ
nðŀ¤ ĩ
Ġðŀ¥Ĵðŀ¥Ĳðŀ¥Ĵ ðŀ¥Ķ
Ġðŀ¤¶ðŀ¤«ðŀ¤´ ðŀ¤¢
a r
ðŀ¤® ðŀ¤¼ðŀ¤®
ðŀ¤£ ðŀ¤¢ðŀ¤¤
ðŀ¤Ńðŀ¤² ðŀ¤£ðŀ¤«
Ġðŀ¤¬ ðŀ¤¢ðŀ¤±
Ġðŀ¤¼ ðŀ¤¢ðŀ¤²
ðŀ¤§ ðŀ¤¼ðŀ¤«ðŀ¤ªðŀ¤«
ðŀ¤¢ðŀ¤© ðŀ¤¢ðŀ¤¤
Ġðŀ¤Ħ ðŀ¤µðŀ¤ªðŀ¤³ðŀ¤Ńðŀ¤²ðŀ¤¢
Ġðŀ¤²ðŀ¤£ ðŀ¤µ
Ġðŀ¤ĸ ðŀ¤¢ðŀ¤ªðŀ¤Ń
Ġðŀ¤Ń ðŀ¤±
Ġðŀ¤²ðŀ¤¢ðŀ¤´ ðŀ¤Ń
) â¹ģ
Ġðŀ¤ħ ðŀ¤¢
Ġðŀ¤Ĭ ðŀ¤µðŀ¤¤
Ġðŀ¤Ķ ðŀ¤¢
Ġðŀ¥Ĵðŀ¥Ĳðŀ¥Ĵ ðŀ¥ĳ
i s
Ù ĥ
Ù ĦÙ
Ġðŀ¤± ðŀ¤¢ðŀ¤³
ðŀ¤¢ðŀ¤¯ ðŀ¤«
Ġðŀ¥Ĵðŀ¥Ĳðŀ¥Ĵ ðŀ¥Ĵ
ģ ÙĬ
Ġðŀ¤ ½
ðŀ¤µ ðŀ¤³
Ġðŀ¤³ ðŀ¤«ðŀ¤§
Ġðŀ¤¥ ðŀ¤¢ðŀ¤´
Ġðŀ¤§ ðŀ¤Ńðŀ¤²
Ġðŀ¤ĺ ðŀ¤ĭðŀ¤Ĳðŀ¤ī
ðŀ¤ĳ ðŀ¤Į
Ġðŀ¥Ĵðŀ¥Ĳ ðŀ¥Ĳ
ðŀ¤ºðŀ¤®ðŀ¤ª ðŀ¤¢
ĠÙ ģÙĬ
Ġðŀ¤Ģðŀ¤¥ðŀ¤« ðŀ¤ªðŀ¤Ńðŀ¤³
Ġðŀ¤¤ðŀ¤«ðŀ¤± ðŀ¤ªðŀ¤µ
ªØ Ń
r e
ðŀ¤¢ðŀ¤´ ðŀ¤¼ðŀ¤Ń
ðŀ¤§ ðŀ¤«
Ġðŀ¤¼ðŀ¤® ðŀ¤½
Ġðŀ¤Ĩ ðŀ¤µðŀ¤¤
ðŀ¤Ħ ðŀ¤ĭ
Ġðŀ¤µ ðŀ¤£
nðŀ¤Ĳ ðŀ¤®
ðŀ¥ Ļ
ðŀ¤® ðŀ¤º
ðŀ¤º ðŀ¤¢ðŀ¤´
Ġðŀ¤± ðŀ¤«ðŀ¤¤
Ġðŀ¤¬ ðŀ¤«ðŀ¤¼
ðŀ¤«ðŀ¤ ¦
Ġðŀ¤¤ ðŀ¤®
ðŀ¤®ðŀ¤ª ðŀ¤®
Ġðŀ¤±ðŀ¤¢ðŀ¤¯ ðŀ¤¢
Ġðŀ¤ª ðŀ¤¢
ðŀ¥ĳðŀ¥ Ļ
nðŀ¤Ĳ ðŀ¤£ðŀ¤«
Ġðŀ¤©ðŀ¤«ðŀ¤´ ðŀ¤£ðŀ¤Ń
Ġðŀ¤ĥðŀ¤µ ðŀ¤¸ðŀ¤¢ðŀ¤¥
Ġðŀ¤« ðŀ¤©
nðŀ¤ Ĵ
Ġðŀ¤¦ ðŀ¤¢
Ġðŀ¤´ðŀ¤® ðŀ¤ºðŀ¤¢
ðŀ¤Ģðŀ¤Ĥ ðŀ¤ĭ
ðĿ Ĺ
Ġðŀ¤§ðŀ¤Ńðŀ¤² ðŀ¤·
ðŀ¤¯ ðŀ¤¼ðŀ¤®
ðŀ¤µðŀ¤² ðŀ¤£ðŀ¤«
ðŀ¤¦ ðŀ¤¢ðŀ¤¤ðŀ¤Ń
ðŀ¤¢ðŀ¤³ ðŀ¤¢ðŀ¤ª
ðŀ¤ĵ ðŀ¤Ĥ
ðŀ¤¸ ðŀ¤¢
Ġðŀ¤¢ðŀ¤ª ðŀ¤¢ðŀ¤²
Ġðŀ¤¬ðŀ¤«ðŀ¤ ·
ðŀ¤¥ðŀ¤« ðŀ¤¯
Ġðŀ¤µ ðŀ¤¶ðŀ¤µðŀ¤²ðŀ¤«
Ġ ðŁĩ
Ġðŀ¤² ðŀ¤¢ðŀ¤¬
ðŀ¤¥ ðŀ¤¨
ðŀ¤«ðŀ¤² ðŀ¤£ðŀ¤Ń
ðŀ¤¢ðŀ¤¼ ðŀ¤«
Ġðŀ¤®ðŀ¤² ðŀ¤¼ðŀ¤µðŀ¤¥ðŀ¤¢
Ġðŀ¤ļ ðŀ¤µ
Ġðŀ¤§ðŀ¤µ ðŀ¤³ðŀ¤¢
Ġðŀ¤ĩ ðŀ¤¢
ðŀ¤¢ðŀ¤¶ ðŀ¤«
Ġðŀ¤©ðŀ¤¢ðŀ¤¤ ðŀ¤²ðŀ¤£ðŀ¤µ
Ġðŀ¤¼ðŀ¤¢ðŀ¤¦ ðŀ¤Ńðŀ¤²
Ġðŀ¤³ ðŀ¤¢ðŀ¤¥ðŀ¤©ðŀ¤«
Ġðŀ¤£ ðŀ¤¢ðŀ¤±
Ġðŀ¤²ðŀ¤® ðŀ¤£
Ġðŀ¤¢ ðŀ¤£ðŀ¤®
ðŀ¤¼ ðŀ¤®ðŀ¤ª
Ġðŀ¤² ðŀ¤¢ðŀ¤²
ðŀ¤¤ ðŀ¤¼ðŀ¤®
Ġðŀ¤ĥ ðŀ¤®ðŀ¤ªðŀ¤§ðŀ¤®
Ġðŀ¤¨ ðŀ¤«ðŀ¤¼
¬ Ø¯
° Ø©
± Ùĥ
´ Ø§Ø
¹ ÙĦÙ
ħ Ø
Ĩ Ø§
Ġðŀ¤¼ ðŀ¤µðŀ¤¥ðŀ¤¦
Ġðŀ¥ Ĺ
Ġðŀ¤¦ ðŀ¤µ
Ġðŀ¤¯ðŀ¤«ðŀ¤² ðŀ¤ºðŀ¤¢ðŀ¤¤
ðŀ¤īðŀ¤Ĳ ðŀ¤ī
ĠÙ ĨØ§
ÙĬ Ø¯
ĠØ ¬Ø¯
ĠØ ¹ÙĦÙ
ÙģØ ªØŃ
ÙģØ °Ø©
Ġðŀ¤¥ðŀ¤µðŀ¤ª ðŀ¤¢
´Ø§Ø ±Ùĥ
ĠÙĨØ§ ÙģØ°Ø©
ÙĬØ¯ Ø©
ĠØ¬Ø¯ ÙĬØ¯Ø©
ĠØ¹ÙĦÙ ī
o u
Ġ l
Ġ p
Ġðŀ¤§ ðŀ¤¢ðŀ¤³
ðŀ¤¢ðŀ¤´ ðŀ¤²ðŀ¤¢
ðŀ¤¯ðŀ¤Ń ðŀ¤¯ðŀ¤Ń
ðŀ¤Ī ðŀ¤Į
Ġðŀ¤¢ðŀ¤² ðŀ¤£ðŀ¤¢
ðŀ¤¢ðŀ¤§ ðŀ¤Ń
ðŀ¤ĸ ðŀ¤Ģ
ðŀ¤² ðŀ¤µðŀ¤ºðŀ¤®ðŀ¤¤
Ġðŀ¤± ðŀ¤µðŀ¤ª
ðŀ¤«ðŀ¤² ðŀ¤£ðŀ¤®
Ġðŀ¤ĥ ðŀ¤¢
Ġðŀ¤Ħ ðŀ¤Ģ
Ġðŀ¤¦ ðŀ¤®
Ġðŀ¤ª ðŀ¤«ðŀ¤¬
Ġðŀ¤´ðŀ¤«ðŀ¤± ðŀ¤¼ðŀ¤«ðŀ¤ªðŀ¤«
Ġðŀ¤Ĭðŀ¤µðŀ¤¤ ðŀ¤©ðŀ¤«
ðŀ¥ ģ
ðŀ¤£ ðŀ¤µðŀ¤ºðŀ¤®ðŀ¤¤
ðŀ¤¢ðŀ¤ª ðŀ¤µðŀ¤²
Ġðŀ¤Ĳ ðŀ¤¢ðŀ¤¶ðŀ¤«
ðŀ¤Ńðŀ¤ª ðŀ¤¯ðŀ¤«
Âł Ġ
Ġðŀ¤Ĭ ðŀ¤Ń
Ġðŀ¤ģ ðŀ¤®
Ġðŀ¤ī ðŀ¤ªðŀ¤®
nðŀ¤ĳ ðŀ¤®ðŀ¤²ðŀ¤®
Ġðŀ¤´ðŀ¤¢ðŀ¤¤ ðŀ¤¼ðŀ¤Ń
ðŀ¤ĭðŀ¤Ĳ ðŀ¤Ģ
Ġðŀ¤¼ðŀ¤Ń ðŀ¤¶
Ġðŀ¤¶ðŀ¤¢ðŀ¤² ðŀ¤¢ðŀ¤²ðŀ¤Ń
Ġðŀ¤ĳðŀ¤¢ðŀ¤¥ ðŀ¤¢ðŀ¤ªðŀ¤µðŀ¤²
Ġðŀ¤¤ðŀ¤¢ðŀ¤¼ ðŀ¤®
a t
ðŀ¤µ ðŀ¤£ðŀ¤Ń
ðŀ¤Ńðŀ¤² ðŀ¥ĭ
Ġðŀ¤± ðŀ¤µðŀ¤¤
ðŀ¤£ðŀ¤Ń ðŀ¤ªðŀ¤Ń
Ġðŀ¤º ðŀ¤Ńðŀ¤¦ðŀ¤Ń
ðŀ¤¢ðŀ¤¼ ðŀ¤¢ðŀ¤ªðŀ¤¢
Ġðŀ¤¨ ðŀ¤®
Ġðŀ¤· ðŀ¤¢ðŀ¤¯ðŀ¤«
Ġðŀ¤¶ðŀ¤Ń ðŀ¤¦
Ġðŀ¤²ðŀ¤® ðŀ¤³
Ġðŀ¤» ðŀ¤Ń
Ġðŀ¤Ĳ ðŀ¤Į
ðŀ¤¶ðŀ¤« ðŀ¤ª
Ġðŀ¤³ðŀ¤Ń ðŀ¤§
ðŀ¤² ðŀ¤¢ðŀ¤´
ðŀ¤¢ðŀ¤ ½
ðŀ¤®ðŀ¤² ðŀ¤¢
Ġðŀ¤ĳ ðŀ¤¢
ðŀ¤± ðŀ¤¼ðŀ¤Ń
ðŀ¤¤ðŀ¤Ń ðŀ¤¦ðŀ¤¢ðŀ¤¤ðŀ¤Ń
Ġðŀ¤ª ðŀ¤«
ðŀ¤ĺ ðŀ¤ĸðŀ¤Ģ
ĠÙ ĦÙ
Ġðŀ¤ĳðŀ¤µ ðŀ¤¤ðŀ¤Ńðŀ¤¦ðŀ¤¢ðŀ¤¤ðŀ¤Ń
nðŀ¤ĺ ðŀ¤Ńðŀ¤¤ðŀ¤¢
e s
ðŀ¤£ ðŀ¤¢ðŀ¤²
ðŀ¤¼ ðŀ¤µðŀ¤©ðŀ¤«
Ġðŀ¤¸ ðŀ¤¢ðŀ¤±
Ġðŀ¤¼ ðŀ¤«ðŀ¤£
Ġðŀ¤²ðŀ¤º ðŀ¤¢
Ġðŀ¤Ĳ ðŀ¤Ħ
Ġðŀ¤¶ðŀ¤® ðŀ¤³
Ġðŀ¤¸ðŀ¤«ðŀ¤ §
Ġðŀ¤ı ðŀ¤¢ðŀ¤¼ðŀ¤¢ðŀ¤ªðŀ¤¢
ðŀ¤Ģðŀ¤Ī ðŀ¤Į
ðŀ¤¾ ðŀ¤Ńðŀ¤£
Ġ A
Ġ a
ðŀ¤Ń ðŀ¤¼ðŀ¤«
ðŀ¤Ń ðŀ¤³ðŀ¤«
ðŀ¤¯ ðŀ¤¢ðŀ¤¤
Ġðŀ¤¬ ðŀ¤«ðŀ¤±
Ġðŀ¤¤ ðŀ¤Ńðŀ¤£
Ġðŀ¤£ ðŀ¤«
Ġðŀ¤£ ðŀ¤¢ðŀ¤¯
Ġðŀ¤Ģ ðŀ¤Ĥ
Ġðŀ¤Ģ ðŀ¤Ĭ
Ġðŀ¤Ĳ ðŀ¤ĺ
ðŀ¤¢ðŀ¤£ðŀ¤Ń ðŀ¤¦ðŀ¤¢
Ġðŀ¤ª ðŀ¤«ðŀ¤±
Ġðŀ¤ļ ðŀ¤ªðŀ¤®
Ġðŀ¤¢ðŀ¤ª ðŀ¤£ðŀ¤®
Ġðŀ¤¼ðŀ¤¢ðŀ¤¼ ðŀ¤®
Ġðŀ¤³ðŀ¤Ń ðŀ¤¨
Ġðŀ¤Ģðŀ¤¥ðŀ¤« ðŀ¤ªðŀ¤Ńðŀ¤³ðŀ¤¢
Ġðŀ¤ĳðŀ¤®ðŀ¤¼ðŀ¤£ðŀ¤Ń ðŀ¤¾
ħØ ´Ø§Ø±Ùĥ
ħØ´Ø§Ø±Ùĥ Ø©
ðŀ¤² ðŀ¤«
ðŀ¤¢ðŀ¤ ©ðŀ¤«
ðŀ¤¼ ðŀ¤¢ðŀ¤²
ðŀ¤®ðŀ¤² ðŀ¤¢ðŀ¤¤
ðŀ¤«ðŀ¤ ¨
Ġðŀ¤¼ ðŀ¤«ðŀ¤²
ðŀ¤Ģðŀ¤ ı
Ġðŀ¤±ðŀ¤®ðŀ¤² ðŀ¤µðŀ¤²ðŀ¤®
ðŀ¤ī ðŀ¤Ĥ
Ġðŀ¤ħ ðŀ¤ĵ
Ġðŀ¤Ģ ðŀ¤¦
Ġðŀ¤Ĳ ðŀ¤¦
ðŀ¤Ī ðŀ¤Ģ
Ġðŀ¤¦ ðŀ¤«
ðŀ¤¥ðŀ¤® ðŀ¤³
Ġðŀ¤¥ðŀ¤¢ðŀ¤± ðŀ¤²ðŀ¤£ðŀ¤«
Ġðŀ¤±ðŀ¤Ń ðŀ¤«ðŀ¤¼ðŀ¤«
Ġðŀ¤£ðŀ¤«ðŀ¤² ðŀ¤¼ðŀ¤¢ðŀ¤¤
) .\
Ġðŀ¤¸ ðŀ¤¢ðŀ¤ªðŀ¤¢
ðŀ¤¥ ðŀ¤¢ðŀ¤£ðŀ¤µ
Ġðŀ¤± ðŀ¤¢ðŀ¤ªðŀ¤Ń
Ġðŀ¤± ðŀ¤¢ðŀ¤ªðŀ¤¢
Ġðŀ¤ĳ ðŀ¤Įðŀ¤Ĳ
ðŀ¤± ðŀ¤¢ðŀ¤¼ðŀ¤¢
Ġðŀ¥ ĺ
nðŀ¤ į
Ġðŀ¤±ðŀ¤®ðŀ¤² ðŀ¤£ðŀ¤Ń
ðŀ¤§ ðŀ¤Ńðŀ¤´ðŀ¤¢
Ġðŀ¤£ ðŀ¤Ń
Ġðŀ¤Ĳ ðŀ¤¶
Ġðŀ¤»ðŀ¤¢ðŀ¤¤ ðŀ¤¢
ðŀ¤Ńðŀ¤§ ðŀ¤¢ðŀ¤±ðŀ¤®
ðŀ¥ĥ ðŀ¤¢
Ġðŀ¤£ðŀ¤¢ðŀ¤± ðŀ¤ªðŀ¤®
ðŀ¤īðŀ¤Ĳðŀ¤ī ðŀ¤ĺðŀ¤Ģðŀ¤Ĥ
Ġðŀ¤ļðŀ¤ªðŀ¤® ðŀ¤¥ðŀ¤¨
Ġ s
ðŀ¤®ðŀ¤¤ ðŀ¤®
ðŀ¤´ ðŀ¤¢ðŀ¤²
nðŀ¤ Ħ
Ġðŀ¤ħ ðŀ¤Į
Ġðŀ¤ħ ðŀ¤¢ðŀ¤£ðŀ¤Ńðŀ¤¦ðŀ¤¢
Ġðŀ¤Ģ ðŀ¤ģ
ðŀ¤Ńðŀ¤ª ðŀ¤£ðŀ¤µ
ðŀ¤Ī ðŀ¤ĵ
Ġðŀ¤¼ðŀ¤¢ðŀ¤± ðŀ¤¢ðŀ¤²ðŀ¤®
Ġðŀ¤¨ ðŀ¤Ń
o r
ðŀ¤ Ļ
ðŀ¤¼ ðŀ¤µðŀ¤²ðŀ¤®
Ġðŀ¤¸ ðŀ¤¢ðŀ¤¤
Ġðŀ¤¸ ðŀ¤¢ðŀ¤¯
Ġðŀ¤« ðŀ¤©ðŀ¤«
ðŀ¤± ðŀ¤¢ðŀ¤²
Ġðŀ¥ Ĳ
nðŀ¤ Ķ
ðŀ¤ĭ ðŀ¤ħ
ðŀ¤Ĳ ðŀ¤Ģ
Ġðŀ¤Ħ ðŀ¤Ńðŀ¤§ðŀ¤¢ðŀ¤±ðŀ¤®
ðŀ¤¸ ðŀ¤®
Ġðŀ¤§ðŀ¤Ń ðŀ¤³
Ġðŀ¤Ĩðŀ¤µðŀ¤¤ ðŀ¤¢ðŀ¤ª
Ġðŀ¤īðŀ¤ªðŀ¤® ðŀ¤¨
ðŀ¤ ľ
ðŀ¤¤ ðŀ¤µ
Ġðŀ¤³ ðŀ¤«
Ġðŀ¤³ ðŀ¤¢ðŀ¤´
Ġðŀ¤¸ ðŀ¤«ðŀ¤²
Ġðŀ¤¶ ðŀ¤µðŀ¤¤
ðŀ¤´ ðŀ¤«
ðŀ¤ĭ ðŀ¤Ĥ
Ġðŀ¤» ðŀ¤¢ðŀ¤±
Ġðŀ¤© ðŀ¤¢ðŀ¤²ðŀ¤º
ðŀ¤Ńðŀ¤ª ðŀ¤®
ðŀ¤¢ðŀ¤¦ ðŀ¤µ
Ġðŀ¤¼ðŀ¤¢ðŀ¤± ðŀ¤¼ðŀ¤Ń
Ġðŀ¤±ðŀ¤¢ðŀ¤¯ ðŀ¤µðŀ¤²ðŀ¤®
Ġðŀ¤Ķ ðŀ¤¢ðŀ¤¤
ðŀ¤Ģðŀ¤Ī ðŀ¤Ģ
Ġðŀ¤Ī ðŀ¤µ
ðŀ¤«ðŀ¤§ ðŀ¤¤ðŀ¤¢
Ġ P
ðŀ¤ª ðŀ¤¢ðŀ¤²
ðŀ¤¦ ðŀ¤µðŀ¤²ðŀ¤«
Ġðŀ¤Ģ ðŀ¤´
Ġðŀ¤ĥ ðŀ¤Ń
Ġðŀ¤ĺ ðŀ¤®
Ġðŀ¤ĳðŀ¤® ðŀ¤¾ðŀ¤Ńðŀ¤£
Ġðŀ¤±ðŀ¤¢ðŀ¤¯ ðŀ¤µðŀ¤£ðŀ¤«
ðŀ¤ºðŀ¤®ðŀ¤ª ðŀ¤¯ðŀ¤®
Ġðŀ¤´ðŀ¤¢ðŀ¤¤ ðŀ¤¼ðŀ¤Ńðŀ¤²
Ġðŀ¤¤ðŀ¤«ðŀ¤§ ðŀ¤¯ðŀ¤«
nðŀ¤Ĭ ðŀ¤Ń
ĠÙĦÙ ĦÙ
Ġðŀ¤Ģðŀ¤ģ ðŀ¤Ĥ
ðŀ¤µðŀ¤² ðŀ¤¢ðŀ¤´
Ġðŀ¤¤ ðŀ¤µðŀ¤¥ðŀ¤¦
Ġðŀ¤ĳ ðŀ¤¢ðŀ¤¼
Ġðŀ¤¶ ðŀ¤¢ðŀ¤±
ðŀ¤´ ðŀ¤£ðŀ¤«
nðŀ¤ Į
ðŀ¤© ðŀ¤¢ðŀ¤¤
ðŀ¤¶ðŀ¤® ðŀ¤¦
Ġðŀ¤©ðŀ¤¢ðŀ¤¤ ðŀ¤«
ðŀ¤«ðŀ¤¸ ðŀ¤«
: \
e n
Ġðŀ¤² ðŀ¤«ðŀ¤±
Ġðŀ¤¸ ðŀ¤µðŀ¤¥ðŀ¤¨
ðŀ¤¥ ðŀ¤©ðŀ¤«
Ġðŀ¤ĳ ðŀ¤Ģ
Ġðŀ¤¶ ðŀ¤µðŀ¤²
nðŀ¤ ı
Ġðŀ¤ĥ ðŀ¤ĵ
Ġðŀ¤ºðŀ¤® ðŀ¤¥
Ġðŀ¤¼ðŀ¤® ðŀ¤©
Ġðŀ¤ĭ ðŀ¤§
ðŀ¤Īðŀ¤ĭ ðŀ¤ĳ
Ġðŀ¥ĳðŀ¥Ļðŀ¥ Ļðŀ¥
Ġðŀ¤Ĳðŀ¤¢ðŀ¤¶ðŀ¤« ðŀ¤ªðŀ¤Ńðŀ¤´ðŀ¤¢
ĠÙĦÙĦÙ ħØ´Ø§Ø±ÙĥØ©
ðŀ¤¼ ðŀ¤¢ðŀ¤²ðŀ¤Ń
Ġðŀ¤² ðŀ¤Ń
Ġðŀ¤§ ðŀ¤¢ðŀ¤¤
Ġðŀ¤¥ðŀ¤¢ðŀ¤± ðŀ¤¯ðŀ¤®
Ġðŀ¤²ðŀ¤¶ ðŀ¤µðŀ¤©
Ġðŀ¤¦ðŀ¤Ńðŀ¤² ðŀ¤£ðŀ¤Ń
e t
Ġ U
ðŀ¤® ðŀ¤ªðŀ¤Ń
ðŀ¤« ðŀ¤¥
ðŀ¤£ ðŀ¤Ńðŀ¤²ðŀ¤®
ðŀ¤¼ ðŀ¤¢ðŀ¤´
ðŀ¤Ńðŀ¤² ðŀ¤¢ðŀ¤¤
Ġðŀ¤¤ ðŀ¤Ńðŀ¤¥
Ġðŀ¤ĳ ðŀ¤«ðŀ¤´
ðŀ¤¦ ðŀ¤ªðŀ¤¢
Ġðŀ¤±ðŀ¤®ðŀ¤² ðŀ¤¢ðŀ¤²ðŀ¤£ðŀ¤«
ðŀ¤§ ðŀ¤µ
Ġðŀ¤£ ðŀ¤«ðŀ¤¬
Ġðŀ¤¢ ðŀ¤¤
Ġðŀ¤ĥ ðŀ¤Ģðŀ¤ĳ
ðŀ¤®ðŀ¤ª ðŀ¤¯ðŀ¤«
Ġðŀ¤Ĳ ðŀ¤¦ðŀ¤®
ðŀ¤¬ ðŀ¤µ
ðŀ¤µðŀ¤ª ðŀ¤Ńðŀ¤²
Ġðŀ¤Ķ ðŀ¤µ
ðŀ¤ļ ðŀ¤ī
Ġðŀ¤¢ðŀ¤² ðŀ¤£ðŀ¤Ńðŀ¤ªðŀ¤¢
Ġðŀ¤Ģðŀ¤¤ ðŀ¤¤ðŀ¤¢
ðŀ¤Ķ ðŀ¤Į
Ġðŀ¤Ĳðŀ¤£ðŀ¤« ðŀ¤²
Ġðŀ¤¼ðŀ¤¢ðŀ¤¥ ðŀ¤¨
Ġt h
ÂłĠ ÂłĠ
ðŀ¤ Ł
Ġðŀ¤ ľ
ðŀ¤¢ðŀ¤ ĥ
ðŀ¤£ ðŀ¤¢ðŀ¤²ðŀ¤Ń
ðŀ¤¼ ðŀ¤®ðŀ¤²
Ġðŀ¤¸ ðŀ¤Ńðŀ¤ªðŀ¤²ðŀ¤¢
ðŀ¤¥ ðŀ¤¢ðŀ¤ª
Ġðŀ¤¯ ðŀ¤¢ðŀ¤©
ðŀ¤± ðŀ¤®ðŀ¤¤
ðŀ¤¦ ðŀ¤¢ðŀ¤³ðŀ¤¢ðŀ¤ª
ðŀ¤Ģðŀ¤ Ĩ
ðŀ¤ĭ ðŀ¤ĥ
Ġðŀ¤¢ ðŀ¤´
Ġðŀ¤Ģ ðŀ¤ª
Ġðŀ¤º ðŀ¤«
Ġðŀ¤¸ðŀ¤® ðŀ¤¯ðŀ¤®
ðŀ¤¢ðŀ¤© ðŀ¤®
Ġðŀ¤· ðŀ¤®ðŀ¤º
ðŀ¤¢ðŀ¤§ ðŀ¤¢
Ġðŀ¤©ðŀ¤Ń ðŀ¤¯
Ġðŀ¤ĳðŀ¤«ðŀ¤´ ðŀ¤¼ðŀ¤¢
u n
Ġðŀ¤ Ł
ðŀ¤Ń ðŀ¤³
ðŀ¤² ðŀ¤£ðŀ¤¢
ðŀ¥ħ ",
ðŀ¤ª ðŀ¤¢ðŀ¤¤
ðŀ¤¼ ðŀ¤®ðŀ¤¤
Ġðŀ¤§ ðŀ¤«ðŀ¤²
Ġðŀ¤¶ ðŀ¤®ðŀ¤²
Ġðŀ¤Ģ ðŀ¤Ī
ðŀ¤¢ðŀ¤¼ ðŀ¤µ
Ġðŀ¤¤ðŀ¤«ðŀ¤ ¦
Ġðŀ¤ĸ ðŀ¤Į
Ġðŀ¤£ðŀ¤µ ðŀ¤¦ðŀ¤µðŀ¤²ðŀ¤«
Ġðŀ¥ĳðŀ¥ ĺ
ðŀ¤³ðŀ¤Ń ðŀ¤ªðŀ¤Ń
Ġðŀ¤ı ðŀ¤ĵ
Ġðŀ¤ĳðŀ¤®ðŀ¤² ðŀ¤¢
Ġðŀ¤´ðŀ¤¢ðŀ¤¸ ðŀ¤Ń
ðŀ¤®ðŀ¤± ðŀ¤¢ðŀ¤²ðŀ¤Ń
Ġðŀ¤±ðŀ¤¢ðŀ¤´ ðŀ¤¤
ðŀ¤¼ðŀ¤¢ðŀ¤¼ ðŀ¤Ń
Ġðŀ¤²ðŀ¤¢ðŀ¤¬ ðŀ¤®
Ġðŀ¤¶ðŀ¤Ńðŀ¤¦ ðŀ¤Ńðŀ¤²ðŀ¤¢
ðŀ¤¶ðŀ¤®ðŀ¤¦ ðŀ¤«ðŀ¤ªðŀ¤«
i on
â ı
Ġðŀ¤² ðŀ¤µðŀ¤²
ðŀ¤¯ ðŀ¤Ńðŀ¤²
ðŀ¤Ńðŀ¤² ðŀ¤¤ðŀ¤«
ðŀ¤¢ðŀ¤ª ðŀ¤¢ðŀ¤¤
Ġðŀ¤£ ðŀ¤«ðŀ¤¦
ðŀ¤ī ðŀ¤ħ
Ġðŀ¤ħ ðŀ¤īðŀ¤Ĳðŀ¤īðŀ¤ĺðŀ¤Ģðŀ¤Ĥ
Ġðŀ¤Ģ ðŀ¤¸
Ġðŀ¤ĺ ðŀ¤Ńðŀ¤¤ðŀ¤¢
Ġðŀ¥ĳðŀ¥ Ĺ
Ġðŀ¥Ĵðŀ¥Ĳðŀ¥Ĵ ðŀ¥ĵ
ðŀ¤«ðŀ¤´ ðŀ¤¢
ðŀ¤į ðŀ¤Į
âĢĿ \
ðŀ¤®ðŀ¤± ðŀ¤¼ðŀ¤®
Ġðŀ¤Ļ ðŀ¤¢
âı °
ðŀ¤² ðŀ¤ºðŀ¤®ðŀ¤¤
ðŀ¤¢ðŀ¤ °
ðŀ¤¥ ðŀ¤¦ðŀ¤®
Ġðŀ¤¤ ðŀ¤µðŀ¤¼
Ġðŀ¤ĳ ðŀ¤Ģðŀ¤ĥ
ðŀ¤¢ðŀ¤³ ðŀ¤¢
Ġðŀ¤Ħ ðŀ¤®ðŀ¤±ðŀ¤¼ðŀ¤®
Ġðŀ¤¬ðŀ¤® ðŀ¤±
Ġðŀ¤¢ðŀ¤ª ðŀ¤£ðŀ¤Ń
Ġðŀ¤¼ðŀ¤® ðŀ¤ªðŀ¤Ń
ðŀ¤Ńðŀ¤¼ ðŀ¤¢ðŀ¤ºðŀ¤®ðŀ¤¤
Ġðŀ¤£ðŀ¤® ðŀ¤§ðŀ¤¼ðŀ¤«ðŀ¤ªðŀ¤«
Ġðŀ¥Ĵðŀ¥Ĳðŀ¥ĳðŀ¥ Ļ
Ġðŀ¤±ðŀ¤¢ðŀ¤´ ðŀ¤¤ðŀ¤Ń
Ġðŀ¤¸ðŀ¤¢ðŀ¤ª ðŀ¤¢ðŀ¤´
Ġðŀ¤¼ðŀ¤«ðŀ¤² ðŀ¤¼ðŀ¤Ńðŀ¤²ðŀ¤Ń
ðŀ¤¥ðŀ¤®ðŀ¤³ ðŀ¤¢ðŀ¤ªðŀ¤¢
Ġðŀ¤Ģðŀ¤´ ðŀ¥ĥðŀ¤¢
Ġ M
Ġðŀ¤² ðŀ¤¶ðŀ¤«
ðŀ¤¤ ðŀ¤Ńðŀ¤ªðŀ¤£ðŀ¤«
ðŀ¤¢ðŀ¤ª ðŀ¤³ðŀ¤®
Ġðŀ¤²ðŀ¤£ ðŀ¤¢
Ġðŀ¤¨ ðŀ¤«ðŀ¤¸ðŀ¤«
Ġðŀ¤Ĥ ðŀ¤¢ðŀ¤¦
Ġðŀ¤¢ðŀ¤£ ðŀ¤µðŀ¤²ðŀ¤¢
Ġðŀ¤´ðŀ¤¢ðŀ¤¥ ðŀ¤Ńðŀ¤ªðŀ¤Ń
ðŀ¤¢ðŀ¤¥ðŀ¤¦ ðŀ¤Ńðŀ¤´ðŀ¤¢
Ġðŀ¤¦ðŀ¤µ ðŀ¤´
ðŀ¤¢ðŀ¤©ðŀ¤« ðŀ¤ªðŀ¤«
Ġðŀ¤³ðŀ¤¢ðŀ¤´ ðŀ¤£ðŀ¤Ń
¶ Ø
º Ø
ðŀ¤² ðŀ¤µðŀ¤£ðŀ¤«
ðŀ¤ª ðŀ¤µðŀ¤ºðŀ¤®ðŀ¤¤
ðŀ¤£ðŀ¤« ðŀ¤²
Ġðŀ¤¬ ðŀ¤µ
ðŀ¤§ ðŀ¤Ńðŀ¤²
ðŀ¤© ðŀ¤¢
Ġðŀ¤ħ ðŀ¤Ģðŀ¤Ĥ
Ġðŀ¥Ĵ ðŀ¥ĳ
Ġðŀ¤¼ðŀ¤¢ðŀ¤± ðŀ¤«
Ġðŀ¤£ðŀ¤µ ðŀ¤½
Ġðŀ¤¢ðŀ¤² ðŀ¤£ðŀ¤Ń
Ġðŀ¤Ĥ ðŀ¤¢
ðŀ¤Ĭ ðŀ¤Ģ
Ø§Ø ¶Ø
ðŀ¤Ģðŀ¤Īðŀ¤Į ðŀ¤ĳ
Ġðŀ¤Ģðŀ¤ģðŀ¤Ĥ ðŀ¤¢ðŀ¤ĥ
Ġðŀ¤ĳðŀ¤¢ðŀ¤¼ ðŀ¤¢ðŀ¤ª
ºØ ·
Ø§Ø¶Ø ºØ·
Ġ F
ðŀ¤¼ ðŀ¤®ðŀ¤ªðŀ¤¢
Ġðŀ¤² ðŀ¤¶ðŀ¤®
Ġðŀ¤² ðŀ¤¦ðŀ¤µ
Ġðŀ¤¥ ðŀ¤¢ðŀ¤ª
ðŀ¤«ðŀ¤ ©
Ġðŀ¤§ ðŀ¤«ðŀ¤¨
Ġðŀ¤©ðŀ¤« ðŀ¤ª
ðŀ¤¢ðŀ¤± ðŀ¤Ń
ðŀ¤¢ðŀ¤´ ðŀ¤©ðŀ¤«
Ġðŀ¤ĥ ðŀ¤Į
Ġðŀ¤Ĳ ðŀ¤ģ
ðŀ¤¤ðŀ¤Ń ðŀ¤´
Ġðŀ¤¦ ðŀ¤¢ðŀ¤¤
Ġðŀ¤· ðŀ¤«
Ġðŀ¤· ðŀ¤µðŀ¤³
ðŀ¤ļ ðŀ¤Ģ
ðŀ¤Ģðŀ¤Ĳ ðŀ¤Ģ
ðŀ¤Ńðŀ¤¼ ðŀ¤µðŀ¤ºðŀ¤®ðŀ¤¤
Ġðŀ¤ĭ ðŀ¤¦ðŀ¤ªðŀ¤¢
Ġðŀ¤ķ ðŀ¤¢ðŀ¤´ðŀ¤²ðŀ¤¢
ðŀ¤» ðŀ¤Ń
ðŀ¤į ðŀ¤ī
Ġðŀ¤±ðŀ¤Ńðŀ¤² ðŀ¤£ðŀ¤Ń
Ġðŀ¤ªðŀ¤«ðŀ¤± ðŀ¤©ðŀ¤«
ðŀ¤² ðŀ¤£
ðŀ¤¤ ðŀ¤¯ðŀ¤«
Ġðŀ¤¥ ðŀ¤¢ðŀ¤¶
Ġðŀ¤¤ ðŀ¤Ń
Ġðŀ¤¼ ðŀ¤Ńðŀ¤²
Ġðŀ¤´ ðŀ¤®ðŀ¤²
ðŀ¤¢ðŀ¤´ ðŀ¤«
ðŀ¤ĵ ðŀ¤ĥ
Ġðŀ¤¥ðŀ¤® ðŀ¤¶ðŀ¤®ðŀ¤¦ðŀ¤«ðŀ¤ªðŀ¤«
ðŀ¤«ðŀ¤± ðŀ¤¢ðŀ¤¤
Ġðŀ¤ºðŀ¤® ðŀ¤®
Ġðŀ¤ı ðŀ¤µðŀ¤ªðŀ¤Ńðŀ¤²
Ġðŀ¤Ĩ ðŀ¤®ðŀ¤¼
ðŀ¤Ħ ðŀ¤ĵ
Ġðŀ¤´ðŀ¤¢ðŀ¤¤ ðŀ¤¼ðŀ¤Ńðŀ¤²ðŀ¤Ń
ðŀ¤«ðŀ¤ª ðŀ¤²ðŀ¤®
Ġðŀ¤Ī ðŀ¤«ðŀ¤¬
Ġðŀ¤³ðŀ¤Ń ðŀ¤¯
Ġðŀ¤£ðŀ¤® ðŀ¤±
Ġðŀ¥ĳðŀ¥Ļðŀ¥ ĺ
ðŀ¤®ðŀ¤²ðŀ¥ĭ ðŀ¤£ðŀ¤Ńðŀ¤ª
Ġðŀ¤±ðŀ¤Ńðŀ¤´ ðŀ¤Ń
Ġðŀ¤ĺðŀ¤«ðŀ¤² ðŀ¤¯ðŀ¤Ń
Ġ T
Ġðŀ¤ ¡
ðŀ¤¢ðŀ¤¤ ðŀ¤«ðŀ¤²
ðŀ¤¯ ðŀ¤®ðŀ¤¤
Ġðŀ¤¼ ðŀ¤¢
Ġðŀ¤£ ðŀ¤¢ðŀ¤ªðŀ¤Ń
Ġðŀ¤¬ðŀ¤Ń ðŀ¤ª
Ġðŀ¤© ðŀ¤¢ðŀ¤£ðŀ¤Ń
Ġðŀ¤ĺ ðŀ¤¢ðŀ¤¥ðŀ¤¦ðŀ¤Ńðŀ¤´ðŀ¤¢
ðŀ¤ģ ðŀ¤ĵ
Ġðŀ¤ª ðŀ¤«ðŀ¤²ðŀ¤£ðŀ¤®
Ġðŀ¥ĳðŀ¥ ķ
ðŀ¤ļ ðŀ¤ģðŀ¤ĭ
ðŀ¥ĳ ðŀ¥Ĳ
ðŀ¤Ģðŀ¤ĥ ðŀ¤Ħðŀ¤ĭ
Ġðŀ¥ĵ ðŀ¥Ĳ
ðŀ¤¥ðŀ¤¦ ðŀ¤«ðŀ¤ªðŀ¤«
Ġðŀ¤´ðŀ¤¢ðŀ¤¥ ðŀ¤Ńðŀ¤ªðŀ¤®
Ġðŀ¤¸ðŀ¤¢ðŀ¤© ðŀ¤µðŀ¤ºðŀ¤®ðŀ¤¤
Ġðŀ¤Ģðŀ¤¦ ðŀ¤£ðŀ¤µ
Ġðŀ¤¸ ðŀ¤Ńðŀ¤²ðŀ¤¤ðŀ¤«
Ġðŀ¤« ðŀ¤¥ðŀ¤¦ðŀ¤«ðŀ¤ªðŀ¤«
ðŀ¤¯ ðŀ¤®ðŀ¤²
ðŀ¤¯ ðŀ¤µðŀ¤¯ðŀ¤Ń
Ġðŀ¤¼ ðŀ¤¢ðŀ¤°
Ġðŀ¤§ ðŀ¤¢ðŀ¤¯
Ġðŀ¤¶ ðŀ¤¢ðŀ¤¥
Ġðŀ¤²ðŀ¤º ðŀ¤¢ðŀ¤´
ðŀ¤± ðŀ¤µ
ðŀ¤«ðŀ¤² ðŀ¤¢
Ġðŀ¤±ðŀ¤®ðŀ¤² ðŀ¤µ
Ġðŀ¤£ ðŀ¤¢
ðŀ¤Į ðŀ¤Ī
Ġðŀ¤Ģ ðŀ¤£ðŀ¤®
Ġðŀ¤ĥ ðŀ¤¢ðŀ¤ªðŀ¤®
Ġðŀ¤© ðŀ¤¢ðŀ¤£
ðŀ¤Ńðŀ¤ª ðŀ¤¼ðŀ¤¢
Ġðŀ¤Ħ ðŀ¤¢ðŀ¤´
Ġðŀ¤Ĭ ðŀ¤®ðŀ¤¼
Ġðŀ¤Ķ ðŀ¤®ðŀ¤¤ðŀ¤®
Ġðŀ¤¸ðŀ¤Ń ðŀ¤±
Ġðŀ¤ª ðŀ¤®ðŀ¤²
ðŀ¤Ħ ðŀ¤Ģ
Ġðŀ¤©ðŀ¤«ðŀ¤´ ðŀ¤²ðŀ¤ºðŀ¤µ
Ġðŀ¤¤ðŀ¤¢ðŀ¤² ðŀ¤£ðŀ¤Ń
ðĿ Ļ
an d
Ġd e
Ġðŀ¤Ĳðŀ¤¦ ðŀ¤¢ðŀ¤¤
Ġðŀ¤Ģðŀ¤¸ ðŀ¤¥ðŀ¤¢ðŀ¤£ðŀ¤µ
a l
r i
u l
ðŀ¤ ķ
Ġðŀ¤ Ĺ
ðŀ¤£ðŀ¤« ðŀ¤ªðŀ¤«
Ġðŀ¤´ ðŀ¤¢ðŀ¤²
ðŀ¤¼ðŀ¤Ń ðŀ¤ªðŀ¤¢
Ġðŀ¤ħ ðŀ¤«ðŀ¤¤
Ġðŀ¤ĥ ðŀ¤¢ðŀ¤²
Ġðŀ¤º ðŀ¤¢ðŀ¤¤
ðŀ¤µðŀ¤¥ ðŀ¤¦ðŀ¤µ
ðŀ¤¼ðŀ¤« ðŀ¤ª
Ġðŀ¤Į ðŀ¤Ĳ
ðŀ¤ļ ðŀ¤ĭðŀ¤Ĳðŀ¤Ģ
ðŀ¤Ģðŀ¤Ī ðŀ¤Ģðŀ¤Ĳ
ðŀ¤Ĵ ðŀ¤ĭ
Ġðŀ¤¢ðŀ¤² ðŀ¤£ðŀ¤Ńðŀ¤²
Ġðŀ¤¸ðŀ¤«ðŀ¤© ðŀ¤¢
ðŀ¤µðŀ¤²ðŀ¥ĭ ðŀ¤ºðŀ¤¢ðŀ¤¤
Ġðŀ¤¥ðŀ¤« ðŀ¤«ðŀ¤²
Ġðŀ¤²ðŀ¤¢ðŀ¤²ðŀ¤º ðŀ¤¢
Ġðŀ¤¨ðŀ¤Ńðŀ¤´ ðŀ¤Ń
Ġðŀ¤¤ðŀ¤®ðŀ¤² ðŀ¤¼ðŀ¤®
Ġðŀ¤³ðŀ¤Ńðŀ¤§ ðŀ¤¢ðŀ¤¤
Ġðŀ¤Ĳðŀ¤ĺ ðŀ¤Įðŀ¤Ĳ
Ù Ī
Ġ m
ðŀ¤Ń ðŀ¤¦
ðŀ¤µ ðŀ¤¤ðŀ¤«
ðŀ¤¢ðŀ¤¤ ðŀ¤²ðŀ¤£ðŀ¤«
Ġðŀ¤« ðŀ¤¯ðŀ¤«ðŀ¤²
ðŀ¤Ńðŀ¤² ðŀ¤¢ðŀ¤²ðŀ¤£ðŀ¤«
Ġðŀ¤¥ ðŀ¤¢ðŀ¤²ðŀ¤³
Ġðŀ¤§ ðŀ¤µðŀ¤¥
Ġðŀ¤§ ðŀ¤¢ðŀ¤¬
Ġðŀ¤´ ðŀ¤¢ðŀ¤²ðŀ¤Ń
ðŀ¤Ģðŀ¤ Ħ
ðŀ¤ĭ ðŀ¤ĳ
Ġðŀ¤ĥ ðŀ¤¢ðŀ¤¥
Ġðŀ¤ĥ ðŀ¤Ģðŀ¤Īðŀ¤Įðŀ¤ĳ
Ġðŀ¤ĸ ðŀ¤¢
Ġðŀ¤ģ ðŀ¤«ðŀ¤²
Ġðŀ¤· ðŀ¤«ðŀ¤¤
Ġðŀ¤¶ðŀ¤® ðŀ¤ºðŀ¤Ń
Ġðŀ¤ª ðŀ¤®ðŀ¤±ðŀ¤¢ðŀ¤²ðŀ¤Ń
Ġðŀ¤´ðŀ¤® ðŀ¤±
Ġðŀ¤¯ðŀ¤® ðŀ¤±
ðŀ¤Ńðŀ¤¼ ðŀ¤®ðŀ¤ª
ðŀ¤° ðŀ¤Ń
ðŀ¤µðŀ¤© ðŀ¤¢ðŀ¤¤
ðŀ¤Ģðŀ¤ģ ðŀ¤ĵ
Ġðŀ¤¸ðŀ¤«ðŀ¤± ðŀ¤¼ðŀ¤Ń
in g
Ġðŀ¤ĳðŀ¤®ðŀ¤¼ðŀ¤£ðŀ¤Ńðŀ¤¾ ðŀ¤¢
Ġth e
F D
i l
Ġ C
ðŀ¤® ðŀ¤³
Ġðŀ¤¸ ðŀ¤«ðŀ¤ª
Ġðŀ¤¤ ðŀ¤µ
Ġðŀ¤¤ ðŀ¤¢ðŀ¤±
Ġðŀ¤§ ðŀ¤«ðŀ¤ª
ðŀ¤¶ ðŀ¤¢ðŀ¤²
nðŀ¤ Ĥ
ðŀ¤§ ðŀ¤¢ðŀ¤²
Ġðŀ¤ħ ðŀ¤®ðŀ¤²
Ġðŀ¤º ðŀ¤¢ðŀ¤´
ðŀ¤¼ðŀ¤Ńðŀ¤² ðŀ¤£ðŀ¤«
Ġðŀ¤Ĭ ðŀ¤¢
Ġðŀ¤¼ðŀ¤¢ðŀ¤± ðŀ¤²ðŀ¤®
Ġðŀ¤ĸ ðŀ¤Ńðŀ¤ªðŀ¤²ðŀ¤¢
ðŀ¤¢ðŀ¤º ðŀ¤®
Ġðŀ¤ļ ðŀ¤®
Ġðŀ¤§ðŀ¤µ ðŀ¤©ðŀ¤Ń
Ġðŀ¤į ðŀ¤īðŀ¤Ĳ
ðŀ¤īðŀ¤Ĳ ðŀ¤ĺðŀ¤ĸðŀ¤Ģ
Ġðŀ¤¶ðŀ¤¢ðŀ¤²ðŀ¤º ðŀ¤µðŀ¤£ðŀ¤«
ðŀ¤«ðŀ¤±ðŀ¤² ðŀ¤£ðŀ¤®
Ġðŀ¤ĳðŀ¤Į ðŀ¤ļðŀ¤ģðŀ¤ĭ
ðŀ¤¤ðŀ¤®ðŀ¤¼ðŀ¤Ń ðŀ¤ªðŀ¤¢ðŀ¤¤
Ġðŀ¤¶ðŀ¤¢ðŀ¤© ðŀ¤¢
Ġðŀ¤²ðŀ¤¢ðŀ¤© ðŀ¤¢
Ġðŀ¤²ðŀ¤¢ðŀ¤± ðŀ¤²ðŀ¤¢
Ġðŀ¤ĥðŀ¤¢ðŀ¤³ ðŀ¤Ń
nðŀ¤ĩ ðŀ¤¢
Ġðŀ¤ªðŀ¤«ðŀ¤¬ ðŀ¤¼ðŀ¤Ń
a b
u e
Ġ .
Ġ â¹ģ
Ġðŀ¤¸ ðŀ¤¢ðŀ¤¦
Ġðŀ¤¥ ðŀ¤®ðŀ¤²
ðŀ¤®ðŀ¤¤ ðŀ¤¢
ðŀ¤´ ðŀ¤Ńðŀ¤²ðŀ¤®
ðŀ¤´ ðŀ¤¢ðŀ¤²ðŀ¤³ðŀ¤®
Ġðŀ¤±ðŀ¤®ðŀ¤² ðŀ¤£ðŀ¤µðŀ¤£ðŀ¤«
Ġðŀ¤¢ ðŀ¤¥
Ġðŀ¤ħ ðŀ¤¢ðŀ¤ª
ðŀ¤¬ ðŀ¤Ńðŀ¤²ðŀ¤¢
Ġðŀ¤¦ ðŀ¤¢ðŀ¤ª
Ġðŀ¤¸ðŀ¤Ń ðŀ¤¼
Ġðŀ¤¢ðŀ¤ª ðŀ¤¢ðŀ¤²ðŀ¤®
Ġðŀ¤³ðŀ¤µ ðŀ¤©
Ġðŀ¤į ðŀ¤«ðŀ¤²
Ġðŀ¥ĳðŀ¥Ļðŀ¥ ĸ
Ġðŀ¤§ðŀ¤¢ðŀ¤ª ðŀ¤Ńðŀ¤´ðŀ¤¢
Ġðŀ¤²ðŀ¤¢ðŀ¤´ ðŀ¤®
ðŀ¤²ðŀ¤ºðŀ¤« ðŀ¤¤ðŀ¤«
Ġðŀ¤ĥðŀ¤¢ðŀ¤± ðŀ¤¦ðŀ¤¢
Ġðŀ¤Ķðŀ¤µ ðŀ¤³ðŀ¤®
ðŀ¤² ðŀ¤£ðŀ¤®
Ġðŀ¤¥ ðŀ¤¢ðŀ¤§ðŀ¤Ń
ðŀ¤³ ðŀ¤µðŀ¤²
ðŀ¤¢ðŀ¤ª ðŀ¤«
ðŀ¤£ðŀ¤Ń ðŀ¤ªðŀ¤«
ðŀ¤¼ðŀ¤Ń ðŀ¤ªðŀ¤Ń
Ġðŀ¤¢ ðŀ¤ªðŀ¤Ń
Ġðŀ¤ħ ðŀ¤¢ðŀ¤¤
ðŀ¤®ðŀ¤ª ðŀ¤£ðŀ¤µ
Ġðŀ¥Ĵ ðŀ¥ķ
Ġðŀ¤¦ ðŀ¤¢ðŀ¤²
Ġðŀ¤£ðŀ¤µ ðŀ¤¯ðŀ¤¢ðŀ¤¤
Ġðŀ¥ĳðŀ¥ ĵ
Ġðŀ¤¢ðŀ¤ª ðŀ¤£
Ġðŀ¤¤ðŀ¤« ðŀ¤³
Ġðŀ¤ĵ ðŀ¤¥ðŀ¤¢ðŀ¤ª
nðŀ¤ĸ ðŀ¤®
Ġðŀ¤±ðŀ¤Ńðŀ¤´ ðŀ¤«ðŀ¤¼ðŀ¤«
Ġðŀ¤¼ðŀ¤¢ðŀ¤¥ ðŀ¤°
Ġðŀ¤½ ðŀ¤¢ðŀ¤¤
Ġðŀ¤ģðŀ¤® ðŀ¤§ðŀ¤¼ðŀ¤«ðŀ¤ªðŀ¤«
Ġðŀ¤ĥðŀ¤Ģðŀ¤ĳ ðŀ¤ĭ
ðŀ¤Ģðŀ¤Īðŀ¤Ģðŀ¤Ĳ ðŀ¤ħðŀ¤ĭ
Ġðŀ¤¸ ðŀ¤µðŀ¤©ðŀ¤«
Ġðŀ¤¸ ðŀ¤¢ðŀ¤¶
ðŀ¤¥ ðŀ¤¯ðŀ¤®
ðŀ¤¯ ðŀ¤µðŀ¤£ðŀ¤«
Ġðŀ¤¤ ðŀ¤µðŀ¤¥
ðŀ¤± ðŀ¤«
Ġðŀ¤¢ ðŀ¤£ðŀ¤Ń
Ġðŀ¤ĥ ðŀ¤Ģ
Ġðŀ¤ĥ ðŀ¤Ģðŀ¤Ĥðŀ¤ĭ
Ġðŀ¤© ðŀ¤¢ðŀ¤´ðŀ¤¼ðŀ¤Ń
ðŀ¤¤ðŀ¤Ń ðŀ¤§ðŀ¤Ń
Ġðŀ¤¬ðŀ¤® ðŀ¤¬
ðŀ¤ĳ ðŀ¤®ðŀ¤²ðŀ¤®
ðŀ¤µðŀ¤ª ðŀ¤¢
Ġðŀ¤ģ ðŀ¤µðŀ¤¥ðŀ¤¦ðŀ¤µ
Ġðŀ¤ī ðŀ¤²ðŀ¤ºðŀ¤«ðŀ¤¤ðŀ¤«
Ġðŀ¥ĳðŀ¥ Ļ
ðŀ¤ĥ ðŀ¤ĵ
ðŀ¤¢ðŀ¤¸ ðŀ¤ªðŀ¤«
Ġðŀ¤¥ðŀ¤Ń ðŀ¤¯ðŀ¤®
Ġðŀ¤Ĵ ðŀ¤¢ðŀ¤ªðŀ¤³ðŀ¤®
Ġðŀ¤ĭ ðŀ¤ªðŀ¤¢ðŀ¤²
Ġðŀ¤¥ðŀ¤¢ðŀ¤± ðŀ¤¯ðŀ¤«
ðŀ¤µðŀ¤¼ ðŀ¤µðŀ¤ºðŀ¤®ðŀ¤¤
ðŀ¤ĸ ðŀ¤Ģðŀ¤ĥ
ðŀ¤Ķ ðŀ¤Ģðŀ¤Ĳ
Ġðŀ¤²ðŀ¤¢ðŀ¤²ðŀ¤º ðŀ¤Ń
ðŀ¤Ģðŀ¤ħ ðŀ¤ĭ
Ġðŀ¤£ðŀ¤« ðŀ¤¥ðŀ¤®ðŀ¤³ðŀ¤¢ðŀ¤ªðŀ¤¢
Ġðŀ¤Ģðŀ¤Ĭ ðŀ¤Īðŀ¤ĭðŀ¤ĳ
Ġðŀ¤¶ðŀ¤¢ðŀ¤± ðŀ¤¤ðŀ¤«
ðŀ¤¤ðŀ¤Ńðŀ¤´ ðŀ¤®ðŀ¤²
Ġðŀ¤Ģðŀ¤¦ðŀ¤£ðŀ¤µ ðŀ¤¤
Ġðŀ¤ģðŀ¤µðŀ¤¥ðŀ¤¦ðŀ¤µ ðŀ¤´ðŀ¤¢
C O
e d
Ø ±
Ġ w
Ġðŀ¤ Ŀ
Ġðŀ¤« ðŀ¤±
ðŀ¤«ðŀ¤ Ĳ
nðŀ¤ ļ
ðŀ¤§ ðŀ¤¥ðŀ¤¢
ðŀ¤ī ðŀ¤ı
ðŀ¤®ðŀ¤ª ðŀ¤¦ðŀ¤Ńðŀ¤ª
Ġðŀ¥Ĵðŀ¥Ĳ ðŀ¥ĳðŀ¥Ĳ
ðŀ¤£ðŀ¤® ðŀ¤¼ðŀ¤®
Ġðŀ¤· ðŀ¤¢
Ġðŀ¤¸ðŀ¤«ðŀ¤ ¦
Ġðŀ¤ı ðŀ¤®
ðŀ¤Ģðŀ¤Ĳ ðŀ¤ģ
ðŀ¤«ðŀ¤ª ðŀ¤µðŀ¤²
Ġðŀ¤Ģðŀ¤¤ ðŀ¤¸
Ġðŀ¤¶ðŀ¤¢ðŀ¤²ðŀ¤º ðŀ¤£ðŀ¤«
ðŀ¤Ńðŀ¤ªðŀ¤Ń ðŀ¤´ðŀ¤¢
ðŀ¥Ĳðŀ¥Ĳ ðŀ¥Ĳ
Ġðŀ¤ĺðŀ¤«ðŀ¤² ðŀ¤®
Ġðŀ¤ĥðŀ¤¢ðŀ¤± ðŀ¤²ðŀ¤£ðŀ¤«
Ġðŀ¤Ģðŀ¤Ĥ ðŀ¤Ĭðŀ¤Ģ
Ġðŀ¤Ĳðŀ¤¶ ðŀ¤µðŀ¤©
Ġðŀ¤ĥðŀ¤¢ðŀ¤ªðŀ¤® ðŀ¤³
Ġðŀ¤©ðŀ¤¢ðŀ¤£ ðŀ¤²ðŀ¤Ń
Ġðŀ¤Ħðŀ¤¢ðŀ¤´ ðŀ¤£ðŀ¤«ðŀ¤²
) -
Ġ c
Ġ f
Ġðŀ¤² ðŀ¤«ðŀ¤±ðŀ¤²
ðŀ¤¤ ðŀ¤®ðŀ¤²
Ġðŀ¤³ ðŀ¤µðŀ¤²
Ġðŀ¤¸ ðŀ¤µðŀ¤²
ðŀ¤¯ ðŀ¤Ńðŀ¤²ðŀ¤Ń
ðŀ¤¢ðŀ¤² ðŀ¤£ðŀ¤¢ðŀ¤¤
Ġðŀ¤¥ ðŀ¤¢ðŀ¤º
Ġðŀ¤¬ ðŀ¤¢ðŀ¤²
Ġðŀ¤´ ðŀ¤µðŀ¤ª
Ġðŀ¤³ðŀ¤® ðŀ¤´
Ġðŀ¤±ðŀ¤®ðŀ¤² ðŀ¤µðŀ¤ºðŀ¤®ðŀ¤¤
ðŀ¤© ðŀ¤µðŀ¤²ðŀ¥ĭðŀ¤£ðŀ¤«
Ġðŀ¤£ ðŀ¤¢ðŀ¤¤ðŀ¤¢
Ġðŀ¤º ðŀ¤«ðŀ¤²ðŀ¤£ðŀ¤Ń
Ġðŀ¤Ĳ ðŀ¤ºðŀ¤µ
Ġðŀ¤© ðŀ¤®
Ġðŀ¥Ĵ ðŀ¥Ĵ
Ġðŀ¥Ĵ ðŀ¥ĵ
Ġðŀ¤Ħ ðŀ¤«ðŀ¤²
Ġðŀ¤Ĭ ðŀ¤ĭ
Ġðŀ¤¼ðŀ¤¢ðŀ¤± ðŀ¤£ðŀ¤«
Ġðŀ¤· ðŀ¤µðŀ¤©ðŀ¤¢ðŀ¤¤
Ġðŀ¤¸ðŀ¤Ń ðŀ¤©ðŀ¤«
Ġðŀ¤§ðŀ¤® ðŀ¤³
Ġðŀ¤ı ðŀ¤®ðŀ¤²ðŀ¤¢
ðŀ¤Ģðŀ¤Ī ðŀ¤ĭ
Ġðŀ¤¯ðŀ¤« ðŀ¤¥
ðŀ¤«ðŀ¤´ ðŀ¤¢ðŀ¤²ðŀ¤³ðŀ¤®
Ġðŀ¤³ðŀ¤®ðŀ¤² ðŀ¤ºðŀ¤®ðŀ¤¤
ðŀ¤±ðŀ¤Ń ðŀ¤ªðŀ¤Ń
Ġðŀ¤¥ðŀ¤¢ðŀ¤± ðŀ¤©ðŀ¤«
Ġðŀ¤£ðŀ¤¢ðŀ¤ª ðŀ¤¢ðŀ¤ºðŀ¤®ðŀ¤¤
Ø§ Ù
Ġðŀ¤ĳðŀ¤¢ðŀ¤¥ ðŀ¤«ðŀ¤ªðŀ¤µðŀ¤²
Ġðŀ¤¨ðŀ¤Ńðŀ¤´ ðŀ¤µðŀ¤²ðŀ¤®
Ġðŀ¤¸ðŀ¤¢ðŀ¤ª ðŀ¤«
Ġðŀ¤¥ðŀ¤¢ðŀ¤´ ðŀ¤ªðŀ¤µ
Ġðŀ¤ĳðŀ¤Įðŀ¤Ĳ ðŀ¤ģðŀ¤ī
Ġðŀ¤²ðŀ¤¶ðŀ¤® ðŀ¤±ðŀ¤®
Ġðŀ¤¦ðŀ¤¢ðŀ¤¤ ðŀ¤¯ðŀ¤«
FD G
A S
ðŀ¤ª ðŀ¤£ðŀ¤®
ðŀ¤¢ðŀ¤² ðŀ¤¼ðŀ¤¢
Ġðŀ¤¬ ðŀ¤¢ðŀ¤ªðŀ¤¢ðŀ¤²
Ġðŀ¤¤ ðŀ¤¢ðŀ¤¥
ðŀ¤¶ ðŀ¤¢
ðŀ¤¶ ðŀ¤µ
Ġðŀ¤ĳ ðŀ¤®ðŀ¤ªðŀ¤§ðŀ¤®
ðŀ¤± ðŀ¤µðŀ¤²ðŀ¤®
Ġðŀ¤º ðŀ¤µ
Ġðŀ¤º ðŀ¤Ńðŀ¤²ðŀ¤«
Ġðŀ¤© ðŀ¤¢ðŀ¤¥
ðŀ¤Ńðŀ¤¥ ðŀ¤¦ðŀ¤Ń
Ġðŀ¤¦ ðŀ¤¢ðŀ¤½
Ġðŀ¤ģ ðŀ¤¢ðŀ¤¤ðŀ¤«ðŀ¤²
Ġðŀ¤ģ ðŀ¤«ðŀ¤Ĳ
ðŀ¤ħ ðŀ¤Į
ðŀ¤ļ ðŀ¤Į
Ġðŀ¤¯ðŀ¤® ðŀ¤¶
ðŀ¤Ńðŀ¤¼ ðŀ¤¢ðŀ¤²ðŀ¤Ń
Ġðŀ¤Ĵ ðŀ¤®
Ġðŀ¤Ĵ ðŀ¤µ
Ġðŀ¤° ðŀ¤«ðŀ¤±
Ġðŀ¤£ðŀ¤¢ðŀ¤ª ðŀ¤®ðŀ¤¼ðŀ¤®
Ġðŀ¤¶ðŀ¤µ ðŀ¤³
ðŀ¤½ ðŀ¤«
Ġðŀ¤²ðŀ¤¶ ðŀ¤«ðŀ¤§ðŀ¤¤ðŀ¤¢
ðŀ¤Ģðŀ¤ļ ðŀ¤Ģðŀ¤Ī
Ġðŀ¤Ĳðŀ¤Ħ ðŀ¤Ģðŀ¤Ĥ
ðŀ¤±ðŀ¤¢ðŀ¤² ðŀ¤£ðŀ¤¢
Ġðŀ¤²ðŀ¤ºðŀ¤¢ðŀ¤´ ðŀ¤µ
Ġðŀ¤ħðŀ¤®ðŀ¤² ðŀ¤³ðŀ¤®
Ĥ Ø±
ðŀ¤ ¹
ðŀ¤² ðŀ¤µðŀ¤²ðŀ¤®
ðŀ¤¤ ðŀ¤©ðŀ¤«
Ġðŀ¤¸ ðŀ¤µðŀ¤¥
ðŀ¤®ðŀ¤² ðŀ¤ºðŀ¤®
ðŀ¤Ńðŀ¤² ðŀ¤¢ðŀ¤´
Ġðŀ¤± ðŀ¤«ðŀ¤ª
ðŀ¤®ðŀ¤¤ ðŀ¤Ń
ðŀ¤± ðŀ¤µðŀ¤£ðŀ¤«
ðŀ¤´ ðŀ¤¼ðŀ¤Ń
Ġðŀ¤ĺ ðŀ¤¢ðŀ¤²ðŀ¤¢
Ġðŀ¤ĺ ðŀ¤Ģðŀ¤Ĳðŀ¤Ģ
Ġðŀ¤Ħ ðŀ¤ĵ
Ġðŀ¤¬ðŀ¤® ðŀ¤£ðŀ¤Ń
ðŀ¤ģ ðŀ¤Į
Ġðŀ¤¸ðŀ¤Ń ðŀ¤¤
ðŀ¤µðŀ¤¤ ðŀ¤µ
ðŀ¤ħ ðŀ¤Ģ
Ġðŀ¤Į ðŀ¤¥ðŀ¤®
ðŀ¤Ģðŀ¤Ĳ ðŀ¤ģðŀ¤ī
Ġðŀ¤ħðŀ¤Ń ðŀ¤¤ðŀ¤¼ðŀ¤®
Ġðŀ¤¶ðŀ¤« ðŀ¤¥
Ġðŀ¤µ ðŀ¤§
Ġðŀ¤¼ðŀ¤Ń ðŀ¤³
ðŀ¤ı ðŀ¤Ģðŀ¤ħðŀ¤ĭ
ðŀ¤¢ðŀ¤±ðŀ¤µ ðŀ¤£ðŀ¤Ń
Ġðŀ¤²ðŀ¤£ðŀ¤Ń ðŀ¤¥ðŀ¤µ
Ġðŀ¤ĵ ðŀ¤§ðŀ¤¥ðŀ¤¢
Ġðŀ¤¶ðŀ¤¢ðŀ¤² ðŀ¤ºðŀ¤®
nðŀ¤ħ ðŀ¤Ń
ðŀ¤¼ðŀ¤¢ðŀ¤¼ ðŀ¤¢ðŀ¤©ðŀ¤¢ðŀ¤¤
ðŀ¤Ńðŀ¤¼ðŀ¤® ðŀ¤ªðŀ¤Ń
Ġðŀ¤¬ðŀ¤¢ðŀ¤± ðŀ¤Ń
nðŀ¤Ĵ ðŀ¤®
Ġðŀ¤¼ðŀ¤¢ðŀ¤¦ðŀ¤Ńðŀ¤² ðŀ¤¼ðŀ¤Ńðŀ¤²ðŀ¤Ń
Ġðŀ¤ªðŀ¤«ðŀ¤¬ ðŀ¤¦ðŀ¤Ńðŀ¤ª
Ġðŀ¤ĭðŀ¤§ ðŀ¤¤ðŀ¤¢
Ġðŀ¤Ĥðŀ¤¢ðŀ¤¦ ðŀ¤Ńðŀ¤ªðŀ¤Ńðŀ¤´ðŀ¤¢
Ġðŀ¤©ðŀ¤«ðŀ¤ª ðŀ¤²ðŀ¤£ðŀ¤«
ðŀ¤Ķðŀ¤Ģðŀ¤Ĳ ðŀ¤ļðŀ¤ĭðŀ¤Ĳðŀ¤Ģ
D E
E CO
W AS
Ġðŀ¤³ ðŀ¤®ðŀ¤¤
Ġðŀ¤³ ðŀ¤µðŀ¤¤
ðŀ¤¥ ðŀ¤¢ðŀ¤²
ðŀ¤¥ ðŀ¤£ðŀ¤µ
ðŀ¤¢ðŀ¤² ðŀ¤³ðŀ¤«
ðŀ¤Ńðŀ¤² ðŀ¤«ðŀ¤²ðŀ¤¢
ðŀ¤«ðŀ¤ ·
Ġðŀ¤¤ ðŀ¤¢ðŀ¤ªðŀ¤¢ðŀ¤¤
ðŀ¤¦ ðŀ¤«
ðŀ¤Ģðŀ¤ ĸ
nðŀ¤ ģ
ðŀ¤© ðŀ¤µðŀ¤²
Ġðŀ¤£ ðŀ¤Ńðŀ¤¤
Ġðŀ¤ħ ðŀ¤¢ðŀ¤±ðŀ¤µðŀ¤£ðŀ¤Ń
Ġðŀ¤Ģ ðŀ¤ĥ
âĢ ľ
ðŀ¤¬ ðŀ¤Ń
ðŀ¤¢ðŀ¤¦ ðŀ¤¢
Ġðŀ¤¦ ðŀ¤¢ðŀ¤¯
Ġðŀ¤Ĭ ðŀ¤Ģðŀ¤Īðŀ¤Ģðŀ¤Ĳðŀ¤ħðŀ¤ĭ
ðŀ¤¨ ðŀ¤Ń
Ġðŀ¤· ðŀ¤«ðŀ¤ªðŀ¤²ðŀ¤®
Ġðŀ¤¸ðŀ¤Ń ðŀ¤±ðŀ¤®
Ġðŀ¤§ðŀ¤® ðŀ¤³ðŀ¤«
Ġðŀ¤£ðŀ¤µ ðŀ¤¶ðŀ¤µðŀ¤²ðŀ¤«
Ġðŀ¤ı ðŀ¤µ
ðŀ¤Ģðŀ¤Ĳ ðŀ¤ĭ
Ġðŀ¤¶ðŀ¤¢ðŀ¤²ðŀ¤º ðŀ¤µðŀ¤ºðŀ¤®ðŀ¤¤
ðŀ¤» ðŀ¤¢
Ġðŀ¤§ðŀ¤¢ðŀ¤ª ðŀ¤´ðŀ¤Ńðŀ¤²ðŀ¤®
Ġðŀ¤¯ðŀ¤Ńðŀ¤¯ ðŀ¤¥
ðŀ¤¢ðŀ¤±ðŀ¤® ðŀ¤ªðŀ¤«
Ġðŀ¤¼ðŀ¤µðŀ¤¥ðŀ¤¦ ðŀ¤®ðŀ¤²
Ġðŀ¤¸ðŀ¤¢ðŀ¤¯ ðŀ¤¢
Ġðŀ¤£ðŀ¤«ðŀ¤¬ ðŀ¤¼ðŀ¤«ðŀ¤ªðŀ¤«
Ġðŀ¤©ðŀ¤Ńðŀ¤¯ ðŀ¤©ðŀ¤«
Ġðŀ¤Īðŀ¤«ðŀ¤¬ ðŀ¤¦ðŀ¤Ńðŀ¤ª
Ġðŀ¤ĥðŀ¤¢ðŀ¤¥ ðŀ¤¢ðŀ¤£ðŀ¤Ń
ECO WAS
i d
Ù ĤØ±
â ģ
Ġ et
Ġ and
Ĩ ÙĤØ±
ðŀ¤¢ðŀ¤ ¾
ðŀ¤¼ ðŀ¤¢ðŀ¤²ðŀ¤®
Ġðŀ¤³ ðŀ¤µðŀ¤¥ðŀ¤¨
Ġðŀ¤¸ ðŀ¤¢ðŀ¤¼
Ġðŀ¤¸ ðŀ¤«ðŀ¤¤
ðŀ¤«ðŀ¤ °
Ġðŀ¤¤ ðŀ¤®ðŀ¤¤
Ġðŀ¤¼ ðŀ¤¢ðŀ¤§
Ġðŀ¤§ ðŀ¤¢ðŀ¤¸ðŀ¤ªðŀ¤«
Ġðŀ¤ĳ ðŀ¤¢ðŀ¤¤ðŀ¤¢
ðŀ¤¢ðŀ¤ª ðŀ¤¤ðŀ¤«
ðŀ¤£ðŀ¤Ń ðŀ¤´ðŀ¤«
Ġðŀ¤²ðŀ¤º ðŀ¤«
ðŀ¤ī ðŀ¤Īðŀ¤ī
ðŀ¤¢ðŀ¤¼ ðŀ¤Ńðŀ¤ªðŀ¤£ðŀ¤µ
Ġðŀ¤» ðŀ¤¢ðŀ¤¥
Ġðŀ¤¬ðŀ¤Ń ðŀ¤¤
ðŀ¤Ńðŀ¤ª ðŀ¤ºðŀ¤®ðŀ¤¤
Ġðŀ¥Ĵ ðŀ¥Ķ
ðŀ¤¼ðŀ¤« ðŀ¤£
Ġðŀ¤Ħ ðŀ¤¢ðŀ¤¥
Ġðŀ¤Ĭ ðŀ¤®
Ġðŀ¤Ĭ ðŀ¤µ
Ġðŀ¤Ĭ ðŀ¤ĵ
Ġðŀ¤ģ ðŀ¤Ń
Ġðŀ¤ģ ðŀ¤īðŀ¤Ĳðŀ¤ĺðŀ¤ĸðŀ¤Ģ
Ġðŀ¤§ðŀ¤® ðŀ¤³ðŀ¤¢
Ġðŀ¤§ðŀ¤® ðŀ¤³ðŀ¤Ń
ðŀ¤ĺ ðŀ¤Įðŀ¤Ĥ
Ġðŀ¥ĳðŀ¥ ĳ
Ġðŀ¥ĳðŀ¥ Ĵ
Ġðŀ¤¢ðŀ¤ª ðŀ¤®
ðŀ¤Ńðŀ¤¼ðŀ¤Ń ðŀ¤³ðŀ¤«
Ġðŀ¤ĩ ðŀ¤¢ðŀ¤´ðŀ¤¼ðŀ¤Ń
ðŀ¤¥ðŀ¤« ðŀ¤£ðŀ¤«ðŀ¤ªðŀ¤«
Ġðŀ¤¸ðŀ¤«ðŀ¤© ðŀ¤¼ðŀ¤Ń
ðŀ¤· ðŀ¤¢ðŀ¤¨
Ġðŀ¤¥ðŀ¤¢ðŀ¤± ðŀ¤¦ðŀ¤¢
Ġðŀ¤¼ðŀ¤¢ðŀ¤¼ ðŀ¤¢ðŀ¤©
Ġðŀ¤¸ðŀ¤µ ðŀ¤©
ðŀ¤ĭðŀ¤Ĳ ðŀ¤ĭ
ðŀ¤ĸ ðŀ¤®
Ġðŀ¤£ðŀ¤¢ðŀ¤ª ðŀ¤®
Ġðŀ¤©ðŀ¤«ðŀ¤´ ðŀ¤£
Ġðŀ¤¢ðŀ¤£ ðŀ¤µðŀ¤²ðŀ¤¢ðŀ¤´
Ġðŀ¤ĳðŀ¤¢ðŀ¤¥ ðŀ¤¢ðŀ¤ªðŀ¤¢
Ġðŀ¤¯ðŀ¤Ńðŀ¤¯ ðŀ¤¢ðŀ¤©ðŀ¤«ðŀ¤ªðŀ¤«
Ġðŀ¥ĳ ðŀ¥Ĳ
ØŁ \
nðŀ¤Ģ ðŀ¤£ðŀ¤®
ðŀ¤®ðŀ¤´ ðŀ¤¼ðŀ¤¢
Ġðŀ¤½ ðŀ¤Ń
Ġðŀ¤¢ðŀ¤ªðŀ¤¢ðŀ¤² ðŀ¤«ðŀ¤ªðŀ¤«
ðŀ¤Īðŀ¤Į ðŀ¤ıðŀ¤Ģðŀ¤ħðŀ¤ĭ
Ġðŀ¤¸ðŀ¤¢ðŀ¤¤ ðŀ¤¬ðŀ¤Ńðŀ¤²ðŀ¤¢
nðŀ¤Ķ ðŀ¤®
Ġðŀ¤Īðŀ¤µ ðŀ¤±ðŀ¤¢ðŀ¤²ðŀ¤£ðŀ¤¢
Ġðŀ¤ĥðŀ¤ĵ ðŀ¤ĸðŀ¤Ģðŀ¤ĥ
ðŀ¤Ģðŀ¤ĥðŀ¤Ħðŀ¤ĭ ðŀ¤Ĵðŀ¤Ģ
Ø§Ù ĨÙĤØ±
Ġðŀ¤ģðŀ¤«ðŀ¤Ĳ ðŀ¤ĺðŀ¤ĸðŀ¤Ģ
âģ ı
. âĢĿ\
L a
ðŀ¤² ðŀ¤¢ðŀ¤¼ðŀ¤«
ðŀ¤¢ðŀ¤ µ
ðŀ¤ª ðŀ¤£ðŀ¤«
ðŀ¤ª ðŀ¤²ðŀ¤¢
ðŀ¤¼ ðŀ¤¯ðŀ¤®
ðŀ¤¼ ðŀ¤¢ðŀ¤²ðŀ¤¢
Ġðŀ¤³ ðŀ¤¢ðŀ¤¬
Ġðŀ¤¸ ðŀ¤¢ðŀ¤²
ðŀ¤¢ðŀ¤² ðŀ¤£
ðŀ¤³ ðŀ¤®ðŀ¤ªðŀ¤£ðŀ¤«
Ġðŀ¤¼ ðŀ¤¢ðŀ¤³
Ġðŀ¤§ ðŀ¤®ðŀ¤ª
Ġðŀ¤ĳ ðŀ¤Ģðŀ¤ļðŀ¤Ģðŀ¤Ī
ðŀ¤± ðŀ¤®ðŀ¤²
nðŀ¤ Ļ
Ġðŀ¤ħ ðŀ¤Ģ
Ġðŀ¤ħ ðŀ¤ī
Ġðŀ¤ĥ ðŀ¤¢ðŀ¤´
ðŀ¤¢ðŀ¤¥ ðŀ¤Ń
Ġðŀ¤Ĳ ðŀ¤Ķ
âĢ ¦
Ġðŀ¥Ĵ ðŀ¥Ĺ
Ġðŀ¥Ĵ ðŀ¥Ļ
Ġðŀ¤Ħ ðŀ¤«
Ġðŀ¤ĸ ðŀ¤¢ðŀ¤²ðŀ¤£ðŀ¤«
Ġðŀ¤ģ ðŀ¤«
Ġðŀ¤· ðŀ¤¢ðŀ¤º
Ġðŀ¤¶ðŀ¤® ðŀ¤¯
ðŀ¤¸ ðŀ¤µ
Ġðŀ¤Ĩ ðŀ¤®ðŀ¤¤
Ġðŀ¤Ĩ ðŀ¤¢ðŀ¤ªðŀ¤Ń
Ġðŀ¤£ðŀ¤¢ðŀ¤ª ðŀ¤²ðŀ¤£ðŀ¤«
Ġðŀ¥ĳðŀ¥Ļðŀ¥ Ļ
Ġðŀ¤²ðŀ¤£ðŀ¤Ń ðŀ¤´ðŀ¤¢ðŀ¤²
Ġðŀ¤§ðŀ¤¢ðŀ¤ª ðŀ¤¼ðŀ¤Ń
Ġðŀ¤²ðŀ¤¶ ðŀ¤¢ðŀ¤¥
ðŀ¤Ńðŀ¤§ ðŀ¤ªðŀ¤¢
nðŀ¤ħ ðŀ¤®
Ġðŀ¤§ðŀ¤Ńðŀ¤²ðŀ¤· ðŀ¤Ń
Ġðŀ¤Ģðŀ¤Ī ðŀ¤Ķðŀ¤Ģðŀ¤Ĳðŀ¤ļðŀ¤ĭðŀ¤Ĳðŀ¤Ģ
Ġðŀ¤¥ðŀ¤¢ðŀ¤²ðŀ¤³ ðŀ¤Ńðŀ¤ªðŀ¤¯ðŀ¤«
Ġðŀ¤§ðŀ¤«ðŀ¤ª ðŀ¤¢
Ġðŀ¤ĵðŀ¤¥ðŀ¤¢ðŀ¤ª ðŀ¤µ
Ġðŀ¤«ðŀ¤± ðŀ¤²
A O
N U
a m
i c
Ġ re
ðŀ¤¼ ðŀ¤«ðŀ¤²
Ġðŀ¤¸ ðŀ¤µðŀ¤¤
ðŀ¤¯ ðŀ¤¢ðŀ¤²
ðŀ¤¢ðŀ¤² ðŀ¤©ðŀ¤«
ðŀ¤Ńðŀ¤² ðŀ¤¢ðŀ¤²ðŀ¤¢
Ġðŀ¤¥ ðŀ¤«ðŀ¤¼
Ġðŀ¤´ ðŀ¤Ńðŀ¤´
Ġðŀ¤¶ ðŀ¤¢ðŀ¤ªðŀ¤Ń
ðŀ¤Ģðŀ¤ Ķ
ðŀ¤© ðŀ¤¼ðŀ¤µ
Ġðŀ¤£ ðŀ¤Ńðŀ¤ª
ðŀ¤ī ðŀ¤Ĵ
Ġðŀ¤ħ ðŀ¤¢ðŀ¤¦
Ġðŀ¤Ģ ðŀ¤£
Ġðŀ¤º ðŀ¤Ń
Ġðŀ¤» ðŀ¤«ðŀ¤¥
ðŀ¤Ńðŀ¤ª ðŀ¤ºðŀ¤¢ðŀ¤¤
Ġðŀ¥Ĵ ðŀ¥ĺ
Ġðŀ¥Ĵ ðŀ¥ĸ
ðŀ¤ĵ ðŀ¤ı
ðŀ¤¬ ðŀ¤®
Ġðŀ¤ĸ ðŀ¤Ń
Ġðŀ¤ī ðŀ¤²
Ġðŀ¤ī ðŀ¤ªðŀ¤£ðŀ¤®
Ġðŀ¤· ðŀ¤µ
ðŀ¤Ĥ ðŀ¤Ģ
ðŀ¤Ĥ ðŀ¤ĭ
nðŀ¤ĳ ðŀ¤¢
Ġðŀ¤¬ðŀ¤«ðŀ¤ §
ðŀ¤Ńðŀ¤²ðŀ¤Ń ðŀ¤ªðŀ¤Ń
ðŀ¤Ģðŀ¤Ī ðŀ¤ĵðŀ¤Ĳ
Ġðŀ¤´ðŀ¤¢ðŀ¤¤ ðŀ¤¼ðŀ¤Ńðŀ¤²ðŀ¤ºðŀ¤®ðŀ¤¤
Ġðŀ¤ħðŀ¤Ń ðŀ¤¤ðŀ¤Ń
ðŀ¤µðŀ¤¼ ðŀ¤µ
ðŀ¤Īðŀ¤ĭ ðŀ¤Ĵðŀ¤Ģ
Ġðŀ¥ĳðŀ¥Ļðŀ¥ Ĺ
Ġðŀ¤´ðŀ¤¢ðŀ¤¸ ðŀ¤µðŀ¤²ðŀ¤®
Ġðŀ¤ĳðŀ¤Į ðŀ¤Īðŀ¤Įðŀ¤ıðŀ¤Ģðŀ¤ħðŀ¤ĭ
Ġðŀ¤ĥðŀ¤® ðŀ¤ªðŀ¤Ń
Ġðŀ¤¬ðŀ¤«ðŀ¤¤ ðŀ¤²ðŀ¤ºðŀ¤®
Ġðŀ¤¶ðŀ¤®ðŀ¤º ðŀ¤²ðŀ¤Ń
Ġðŀ¤Įðŀ¤² ðŀ¤¼ðŀ¤Ńðŀ¤ºðŀ¤Ń
Ġðŀ¤Įðŀ¤² ðŀ¤¼ðŀ¤µðŀ¤¥ðŀ¤¢
Ġðŀ¤³ðŀ¤«ðŀ¤§ ðŀ¤¢ðŀ¤¤
Ġðŀ¤³ðŀ¤Ńðŀ¤§ ðŀ¤¢ðŀ¤²
Ġðŀ¥Ĳ ðŀ¥Ĳðŀ¥Ĳ
ĠU FDG
Ġðŀ¤§ðŀ¤¢ðŀ¤¬ ðŀ¤ª
E DE
O NU
t er
Ġ =
Ġ un
ðŀ¥ Ĭ
ðŀ¤µ ðŀ¤¤ðŀ¤Ń
ðŀ¤µ ðŀ¤¤ðŀ¤¢
ðŀ¤£ ðŀ¤®ðŀ¤¤
ðŀ¤¼ ðŀ¤¢ðŀ¤¼ðŀ¤¢
ðŀ¤¼ ðŀ¤®ðŀ¤ªðŀ¤£ðŀ¤«
ðŀ¤¤ ðŀ¤£ðŀ¤Ń
ðŀ¤¤ ðŀ¤µðŀ¤£ðŀ¤«
ðŀ¤¢ðŀ¤² ðŀ¤ºðŀ¤®
ðŀ¤Ńðŀ¤² ðŀ¤º
Ġðŀ¤¤ ðŀ¤«ðŀ¤¼
ðŀ¤ªðŀ¤« ðŀ¤²
ðŀ¤± ðŀ¤¢ðŀ¤¼ðŀ¤«
ðŀ¤ªðŀ¤Ń ðŀ¤§
ðŀ¤© ðŀ¤²ðŀ¤µðŀ¤ºðŀ¤®ðŀ¤¤
Ġðŀ¤ĥ ðŀ¤Ńðŀ¤§ðŀ¤ªðŀ¤¢
ðŀ¤¢ðŀ¤³ ðŀ¤®
ðŀ¤Ĳ ðŀ¤ģðŀ¤ī
Ġðŀ¤Ĳ ðŀ¤¢
Ġðŀ¤Ĳ ðŀ¤ĺðŀ¤Ģðŀ¤Ĥ
Ġðŀ¤¬ðŀ¤Ń ðŀ¤©
ðŀ¤¼ðŀ¤® ðŀ¤ªðŀ¤Ń
Ġðŀ¤Ħ ðŀ¤¢ðŀ¤ª
ðŀ¤Ī ðŀ¤ĳ
Ġðŀ¤²ðŀ¤ºðŀ¤¢ðŀ¤¤ ðŀ¤µ
Ġðŀ¤Ĭ ðŀ¤Į
Ġðŀ¤¨ ðŀ¤Ńðŀ¤²ðŀ¤«
Ġðŀ¤¨ ðŀ¤Ńðŀ¤´ðŀ¤¢
Ġðŀ¤ª ðŀ¤«ðŀ¤²
ðŀ¤£ðŀ¤Ńðŀ¤ª ðŀ¤®
Ġðŀ¤³ðŀ¤µ ðŀ¤¯ðŀ¤®ðŀ¤¤
Ġðŀ¤¥ðŀ¤µ ðŀ¤§ðŀ¤Ń
ðŀ¤«ðŀ¤´ ðŀ¤£ðŀ¤Ń
Ġðŀ¤ĩ ðŀ¤«ðŀ¤²
Ġðŀ¤¸ðŀ¤«ðŀ¤© ðŀ¤µðŀ¤²ðŀ¤®
Ġðŀ¤Ī ðŀ¤®ðŀ¤²ðŀ¤¢ðŀ¤¤
Ġðŀ¤µ ðŀ¤³
ðŀ¤ı ðŀ¤Ģðŀ¤Ī
ðŀ¤µðŀ¤© ðŀ¤®
Ġðŀ¤§ðŀ¤¢ðŀ¤ª ðŀ¤®
Ġðŀ¤©ðŀ¤Ń ðŀ¤©
Ġðŀ¤±ðŀ¤µ ðŀ¤¶
ðŀ¤Ģðŀ¤ħ ðŀ¤ĭðŀ¤Ĥ
ðŀ¤¼ðŀ¤Ńðŀ¤ª ðŀ¤£ðŀ¤«
Ġðŀ¤¬ðŀ¤¢ðŀ¤± ðŀ¤¢
Ġðŀ¤¢ðŀ¤ªðŀ¤¢ðŀ¤² ðŀ¤¢ðŀ¤¤
Ġðŀ¤¶ðŀ¤¢ðŀ¤²ðŀ¤¢ðŀ¤²ðŀ¤Ń ðŀ¤ªðŀ¤Ń
at ion
Ġðŀ¤ĳðŀ¤®ðŀ¤¼ðŀ¤£ðŀ¤Ńðŀ¤¾ ðŀ¤¢ðŀ¤ª
ðŀ¤µðŀ¤²ðŀ¤¢ðŀ¤´ ðŀ¤¼ðŀ¤«ðŀ¤£
Ġðŀ¤¼ðŀ¤¢ðŀ¤¥ðŀ¤¨ ðŀ¤«ðŀ¤ªðŀ¤«
Ġðŀ¤´ðŀ¤®ðŀ¤± ðŀ¤Ńðŀ¤¼ðŀ¤Ń
Ġðŀ¤¦ðŀ¤¢ðŀ¤² ðŀ¤½ðŀ¤«
EDE AO
q ue
u s
Ġ le
Ġ co
ðŀ¤² ðŀ¤ºðŀ¤¢
Ġðŀ¤² ðŀ¤Ńðŀ¤¤
ðŀ¤¥ ðŀ¤²ðŀ¤¢
Ġðŀ¤« ðŀ¤º
Ġðŀ¤« ðŀ¤³
ðŀ¤¢ðŀ¤² ðŀ¤£ðŀ¤Ń
ðŀ¤¢ðŀ¤² ðŀ¤ºðŀ¤®ðŀ¤¤
ðŀ¤Ńðŀ¤² ðŀ¤¢ðŀ¤²ðŀ¤®
ðŀ¤³ ðŀ¤®ðŀ¤ªðŀ¤¢
Ġðŀ¤¬ ðŀ¤¢ðŀ¤¥
ðŀ¤«ðŀ¤ ¶
Ġðŀ¤¤ ðŀ¤µðŀ¤ª
ðŀ¤± ðŀ¤¢ðŀ¤²ðŀ¤¯ðŀ¤«
ðŀ¤Ģðŀ¤ Ļ
Ġðŀ¥ Ļ
ðŀ¤ĭ ðŀ¤įðŀ¤Į
ðŀ¤© ðŀ¤²
ðŀ¤ī ðŀ¤ģ
Ġðŀ¤¢ ðŀ¤§
Ġðŀ¤Ģ ðŀ¤¦ðŀ¤µ
ðŀ¤Ĳ ðŀ¤®
ðŀ¤Ĳ ðŀ¤ĭ
Ġðŀ¤¬ðŀ¤Ń ðŀ¤©ðŀ¤Ń
Ġðŀ¤© ðŀ¤¢ðŀ¤¼ðŀ¤¢
Ġðŀ¤ĺ ðŀ¤Ńðŀ¤¦ðŀ¤Ń
Ġðŀ¤¬ðŀ¤® ðŀ¤£ðŀ¤µðŀ¤²ðŀ¤®
Ġðŀ¤¦ ðŀ¤Ńðŀ¤¥ðŀ¤¦ðŀ¤Ń
Ġðŀ¤Ĭ ðŀ¤«ðŀ¤±ðŀ¤²ðŀ¤£ðŀ¤®
Ġðŀ¤ģ ðŀ¤®ðŀ¤²ðŀ¤¢ðŀ¤¤
Ġðŀ¤ģ ðŀ¤Ńðŀ¤³
Ġðŀ¤ī ðŀ¤³
Ġðŀ¤ī ðŀ¤©ðŀ¤«
Ġðŀ¤¨ ðŀ¤«ðŀ¤¤
Ġðŀ¥ĳðŀ¥ Ķ
ðŀ¤¢ðŀ¤¸ ðŀ¤«
Ġðŀ¤Ĵ ðŀ¤Ńðŀ¤¥ðŀ¤©ðŀ¤«
ðŀ¤µðŀ¤²ðŀ¥ĭ ðŀ¤ºðŀ¤®
Ġðŀ¤´ðŀ¤Ń ðŀ¤¤
ðŀ¤Ķ ðŀ¤®
ðŀ¤Ĭ ðŀ¤Ń
Ġðŀ¥ĳðŀ¥Ļðŀ¥ ķ
Ġðŀ¤Ģðŀ¤¬ðŀ¤ªðŀ¤Ńðŀ¤³ ðŀ¤²ðŀ¤¢
Ġðŀ¥Ĵðŀ¥Ĳðŀ¥ĳðŀ¥ ķ
ðŀ¤¥ðŀ¤¦ ðŀ¤«
Ġðŀ¤¼ðŀ¤¢ðŀ¤¦ ðŀ¤Ńðŀ¤¼ðŀ¤Ń
Ġðŀ¤¯ðŀ¤Ńðŀ¤¯ ðŀ¤¢ðŀ¤©ðŀ¤®
Ġðŀ¤ħðŀ¤µ ðŀ¤£ðŀ¤¢ðŀ¤²
Ġðŀ¤²ðŀ¤¦ ðŀ¤¢ðŀ¤ªðŀ¤¤ðŀ¤«
is t
Ġðŀ¤¸ðŀ¤¢ðŀ¤± ðŀ¤ªðŀ¤Ń
Ġðŀ¤Ĳðŀ¤ģ ðŀ¤ĵðŀ¤Ĳ
Ġðŀ¤¼ðŀ¤Ńðŀ¤² ðŀ¤¼ðŀ¤µ
Ġðŀ¤´ðŀ¤®ðŀ¤² ðŀ¤¼ðŀ¤«ðŀ¤ªðŀ¤«
Ġðŀ¤Ħðŀ¤¢ðŀ¤¥ ðŀ¤¢ðŀ¤³ðŀ¤®
Ġðŀ¤¢ðŀ¤£ðŀ¤µðŀ¤²ðŀ¤¢ðŀ¤´ ðŀ¤¢ðŀ¤²ðŀ¤³ðŀ¤®
f ri
h ab
i v
p hab
u r
ðŀ¤ ¡
ðŀ¤Ń ðŀ¤¤ðŀ¤Ń
Ġðŀ¤² ðŀ¤¦ðŀ¤®
Ġðŀ¤³ ðŀ¤¢ðŀ¤±
ðŀ¤¥ ðŀ¤µðŀ¤ºðŀ¤®ðŀ¤¤
ðŀ¤®ðŀ¤² ðŀ¤³
ðŀ¤®ðŀ¤² ðŀ¤¶
ðŀ¤Ńðŀ¤² ðŀ¤£ðŀ¤®
ðŀ¤³ ðŀ¤®ðŀ¤¤
ðŀ¤µðŀ¤² ðŀ¤«ðŀ¤ªðŀ¤«
Ġðŀ¤§ ðŀ¤«ðŀ¤¤
Ġðŀ¤ĳ ðŀ¤ĭ
Ġðŀ¤ĳ ðŀ¤¢ðŀ¤²ðŀ¤³ðŀ¤®
ðŀ¤¢ðŀ¤ª ðŀ¤¢ðŀ¤²ðŀ¤³ðŀ¤®
ðŀ¤± ðŀ¤µðŀ¤¯ðŀ¤Ń
ðŀ¤´ ðŀ¤²ðŀ¤¢
ðŀ¤Ģðŀ¤ ĩ
ðŀ¤Ģðŀ¤ ĺ
ðŀ¤¢ðŀ¤± ðŀ¤¢ðŀ¤¤
ðŀ¤ĭ ðŀ¤Ĵ
Ġðŀ¤Ĳ ðŀ¤º
ðŀ¤¯ðŀ¤Ń ðŀ¤¯ðŀ¤®
Ġðŀ¤ĺ ðŀ¤µ
Ġðŀ¤Ħ ðŀ¤¢ðŀ¤ªðŀ¤®
Ġðŀ¤¼ðŀ¤¢ðŀ¤± ðŀ¤µðŀ¤£ðŀ¤«
Ġðŀ¤ĸ ðŀ¤®ðŀ¤¤
ðŀ¤ĳ ðŀ¤ĭ
Ġðŀ¤±ðŀ¤¢ðŀ¤¯ ðŀ¤µðŀ¤ºðŀ¤®ðŀ¤¤
ðŀ¤£ðŀ¤µ ðŀ¤³ðŀ¤®
Ġðŀ¤ģ ðŀ¤¢ðŀ¤³ðŀ¤¢ðŀ¤ª
Ġðŀ¤ī ðŀ¤ĳ
Ġðŀ¤ļ ðŀ¤¢ðŀ¤ª
Ġðŀ¤ļ ðŀ¤Į
ðŀ¤ħ ðŀ¤ĵ
ðŀ¤ĥ ðŀ¤Ģðŀ¤ģðŀ¤ĵ
ðŀ¤µðŀ¤¯ ðŀ¤¢ðŀ¤²
ðŀ¤µðŀ¤¯ ðŀ¤®ðŀ¤¤
Ġðŀ¤´ðŀ¤¢ðŀ¤¤ ðŀ¤¼ðŀ¤µðŀ¤²ðŀ¤®
Ġðŀ¤¸ðŀ¤«ðŀ¤© ðŀ¤µðŀ¤£ðŀ¤«
Ġðŀ¤Ī ðŀ¤®
Ġðŀ¤¼ðŀ¤Ń ðŀ¤¨
Ġðŀ¤¶ðŀ¤¢ðŀ¤²ðŀ¤º ðŀ¤Ń
ðŀ¤ı ðŀ¤Į
Ġðŀ¤ĳðŀ¤®ðŀ¤² ðŀ¤ºðŀ¤®
ðŀ¤ĩ ðŀ¤ĭ
Ġðŀ¥Ĵðŀ¥Ĳðŀ¥ĳðŀ¥ Ķ
Ġðŀ¥ĵ ðŀ¥ĳ
Ġðŀ¤¶ðŀ¤¢ðŀ¤² ðŀ¤¢ðŀ¤²ðŀ¤«
ðŀ¤®ðŀ¤± ðŀ¤ªðŀ¤«
ðŀ¤Īðŀ¤ī ðŀ¤Ĵðŀ¤Ģ
Ġðŀ¤¬ðŀ¤Ńðŀ¤¶ ðŀ¤¢ðŀ¤²ðŀ¤®
nðŀ¤ĥ ðŀ¤Ń
Ġðŀ¤¥ðŀ¤¢ðŀ¤´ ðŀ¤ªðŀ¤«
Ġðŀ¤¥ðŀ¤¢ðŀ¤´ ðŀ¤ªðŀ¤Ń
ðŀ¤ºðŀ¤¢ðŀ¤´ ðŀ¤µ
ou r
es t
Ġðŀ¤¸ðŀ¤«ðŀ¤§ ðŀ¤ªðŀ¤«
Ġðŀ¤ºðŀ¤®ðŀ¤¥ ðŀ¤²ðŀ¤¢ðŀ¤¼ðŀ¤«
Ġðŀ¤¤ðŀ¤Ńðŀ¤¥ ðŀ¤®
Ġðŀ¤§ðŀ¤«ðŀ¤² ðŀ¤ºðŀ¤®
Ġðŀ¤¼ðŀ¤®ðŀ¤ªðŀ¤Ń ðŀ¤³ðŀ¤«
ðŀ¤Įðŀ¤Ī ðŀ¤ļðŀ¤ĭ
ul ar
nðŀ¤Ĥ ðŀ¤¢
Ġðŀ¤¤ðŀ¤µðŀ¤¥ ðŀ¤¦ðŀ¤Ń
Ġðŀ¤°ðŀ¤«ðŀ¤± ðŀ¤¤ðŀ¤µ
ðŀ¤¢ðŀ¤¾ ðŀ¤Ńðŀ¤ªðŀ¤Ń
Ġðŀ¤ħðŀ¤¢ðŀ¤¦ ðŀ¤µðŀ¤²ðŀ¤¢
phab et
D C
D La
U N
a s
r an
r Ã©
¸ ðŀ¤ªðŀ¤«
Ø ¹
ðŀ¤ İ
ðŀ¥ ĩ
ðŀ¤Ń ðŀ¤¨
ðŀ¤£ ðŀ¤¢ðŀ¤¥ðŀ¤¢
ðŀ¤¼ ðŀ¤¢ðŀ¤²ðŀ¤£ðŀ¤«
ðŀ¤¤ ðŀ¤¢ðŀ¤²ðŀ¤®
ðŀ¤¢ðŀ¤¤ ðŀ¤£ðŀ¤«
ðŀ¤¥ ðŀ¤¢ðŀ¤´ðŀ¤«
Ġðŀ¤²ðŀ¤º ðŀ¤«ðŀ¤²
ðŀ¤± ðŀ¤¢ðŀ¤´
ðŀ¤«ðŀ¤² ðŀ¤«ðŀ¤²
ðŀ¤¦ ðŀ¤Ńðŀ¤´ðŀ¤¢
ðŀ¤¢ðŀ¤´ ðŀ¤³ðŀ¤µðŀ¤²
ðŀ¤¼ðŀ¤Ń ðŀ¤³ðŀ¤«
ðŀ¤ĭ ðŀ¤ģ
Ġðŀ¤±ðŀ¤®ðŀ¤² ðŀ¤µðŀ¤©ðŀ¤«
Ġðŀ¤Ģ ðŀ¤¥
ðŀ¤®ðŀ¤ª ðŀ¤²ðŀ¤®
Ġðŀ¤º ðŀ¤¢ðŀ¤²ðŀ¤£ðŀ¤¢ðŀ¤¤
Ġðŀ¤¸ðŀ¤® ðŀ¤´
ðŀ¤¢ðŀ¤¥ ðŀ¤«
Ġðŀ¤¤ðŀ¤«ðŀ¤ °
ðŀ¤Ńðŀ¤ª ðŀ¤¤ðŀ¤«
ðŀ¤Ńðŀ¤ª ðŀ¤²ðŀ¤®
ðŀ¤¼ðŀ¤® ðŀ¤¼ðŀ¤®
Ġðŀ¤Ĭ ðŀ¤ĵðŀ¤Ĥ
ðŀ¤ĳ ðŀ¤¢
Ġðŀ¤±ðŀ¤¢ðŀ¤¯ ðŀ¤¢ðŀ¤¼ðŀ¤¢
Ġðŀ¤ģ ðŀ¤Į
Ġðŀ¤ģ ðŀ¤Ńðŀ¤¤
Ġðŀ¤¨ ðŀ¤«ðŀ¤£
Ġðŀ¤Ķ ðŀ¤®ðŀ¤²
ðŀ¤©ðŀ¤Ń ðŀ¤¼ðŀ¤Ń
Ġðŀ¤ļ ðŀ¤¢ðŀ¤²
Ġðŀ¤ļ ðŀ¤ĭðŀ¤ĥ
Ġðŀ¤´ðŀ¤® ðŀ¤¼
Ġðŀ¤±ðŀ¤® ðŀ¤¯
ðŀ¤ĥ ðŀ¤Į
Ġðŀ¤Į ðŀ¤§
Ġðŀ¤¢ðŀ¤ª ðŀ¤£ðŀ¤¢
Ġðŀ¤ı ðŀ¤Įðŀ¤Ĳ
Ġðŀ¤¬ðŀ¤«ðŀ¤ ¸ðŀ¤ªðŀ¤«
Ġðŀ¤¢ðŀ¤² ðŀ¤£
Ġðŀ¤´ðŀ¤¢ðŀ¤¤ ðŀ¤¼ðŀ¤µðŀ¤ºðŀ¤®ðŀ¤¤
Ġðŀ¤ĭ ðŀ¤¼
Ġðŀ¤¥ðŀ¤¢ðŀ¤± ðŀ¤²ðŀ¤ºðŀ¤®
Ġðŀ¤¥ðŀ¤¢ðŀ¤± ðŀ¤²ðŀ¤ºðŀ¤¢ðŀ¤¤
Ġðŀ¤´ðŀ¤Ń ðŀ¤¢
Ġðŀ¤±ðŀ¤Ń ðŀ¤³
Ġðŀ¤§ðŀ¤µðŀ¤© ðŀ¤²ðŀ¤ºðŀ¤®
Ġðŀ¤¼ðŀ¤Ń ðŀ¤ºðŀ¤Ń
nðŀ¤Ĳ ðŀ¤ºðŀ¤µ
Ġðŀ¤¶ðŀ¤Ń ðŀ¤¸ðŀ¤¢
Ġðŀ¤¤ðŀ¤¢ðŀ¤² ðŀ¤·
ðŀ¤®ðŀ¤²ðŀ¥ĭ ðŀ¤£ðŀ¤Ńðŀ¤ªðŀ¤«
ðŁĩ ·
Ġðŀ¤ĵ ðŀ¤Īðŀ¤ĵ
Ġðŀ¤¬ðŀ¤«ðŀ¤±ðŀ¤² ðŀ¤£ðŀ¤Ń
Ġðŀ¤Ńðŀ¤² ðŀ¤¯ðŀ¤«
ðŀ¤Ģðŀ¤ģ ðŀ¤ĭ
ðŀ¤ĺðŀ¤Į ðŀ¤Ĵ
Ġðŀ¤³ðŀ¤«ðŀ¤§ ðŀ¤Ń
Ġðŀ¤¼ðŀ¤®ðŀ¤½ ðŀ¤Ń
Ġðŀ¤Ĳðŀ¤¶ ðŀ¤«ðŀ¤§ðŀ¤¤ðŀ¤¢
ðŀ¤¢ðŀ¤¦ðŀ¤µ ðŀ¤¼ðŀ¤¢
ÂłĠÂłĠ ÂłĠÂłĠ
Ġðŀ¤ģðŀ¤«ðŀ¤² ðŀ¤¼ðŀ¤¢ðŀ¤¤
Ġðŀ¤¸ðŀ¤µðŀ¤² ðŀ¤£ðŀ¤µðŀ¤³ðŀ¤®
Ġðŀ¤¸ðŀ¤¢ðŀ¤¼ ðŀ¤®ðŀ¤²ðŀ¤¶
Ġðŀ¤Īðŀ¤®ðŀ¤²ðŀ¤¢ðŀ¤¤ ðŀ¤£ðŀ¤®
ðŀ¤Įðŀ¤Īðŀ¤ļðŀ¤ĭ ðŀ¤ĺðŀ¤Ģðŀ¤Ĥ
DLa M
Ġðŀ¤ĵðŀ¤Īðŀ¤ĵ ðŀ¤ĺðŀ¤Įðŀ¤Ĵ
g e
o c
p p
r o
ðŀ¤Ń ðŀ¤¬ðŀ¤¢
ðŀ¥Ħ ",
Ġðŀ¤³ ðŀ¤¢ðŀ¤ª
Ġðŀ¤³ ðŀ¤«ðŀ¤²ðŀ¤«
Ġðŀ¤¸ ðŀ¤®ðŀ¤ªðŀ¤¦ðŀ¤Ńðŀ¤ª
ðŀ¤¥ ðŀ¤¢ðŀ¤¤
ðŀ¤¢ðŀ¤² ðŀ¤¢ðŀ¤²ðŀ¤®
Ġðŀ¤¥ ðŀ¤«ðŀ¤¸
Ġðŀ¤¤ ðŀ¤®ðŀ¤±ðŀ¤ªðŀ¤«
ðŀ¤®ðŀ¤¤ ðŀ¤£ðŀ¤µ
Ġðŀ¤§ ðŀ¤¢ðŀ¤¤ðŀ¤Ń
Ġðŀ¤ĳ ðŀ¤®ðŀ¤ªðŀ¤®
Ġðŀ¤´ ðŀ¤«ðŀ¤¶
Ġðŀ¤²ðŀ¤º ðŀ¤Ńðŀ¤¤
ðŀ¤± ðŀ¤µðŀ¤©ðŀ¤«
ðŀ¤± ðŀ¤¼ðŀ¤®ðŀ¤ª
ðŀ¤± ðŀ¤Ńðŀ¤²ðŀ¥ĭ
ðŀ¤´ ðŀ¤¼ðŀ¤¢
ðŀ¤© ðŀ¤²ðŀ¤Ń
ðŀ¤© ðŀ¤¼ðŀ¤®ðŀ¤²
Ġðŀ¤£ ðŀ¤¢ðŀ¤»
ðŀ¤ī ðŀ¤Ĩ
Ġðŀ¤ħ ðŀ¤«ðŀ¤²ðŀ¤«
Ġðŀ¤ĥ ðŀ¤¢ðŀ¤¤
Ġðŀ¤ĥ ðŀ¤¢ðŀ¤¸
ðŀ¤®ðŀ¤ª ðŀ¤¼ðŀ¤®
Ġðŀ¤º ðŀ¤«ðŀ¤²
Ġðŀ¤º ðŀ¤¢ðŀ¤§ðŀ¤¢
Ġðŀ¤ĺ ðŀ¤¢
ðŀ¤Ī ðŀ¤Ģðŀ¤Ĥ
Ġðŀ¤¬ðŀ¤® ðŀ¤¼ðŀ¤Ń
Ġðŀ¤¬ðŀ¤® ðŀ¤£ðŀ¤®
ðŀ¤¼ðŀ¤Ńðŀ¤² ðŀ¤«
ðŀ¤¼ðŀ¤Ńðŀ¤² ðŀ¤¢ðŀ¤²ðŀ¤®
ðŀ¤¢ðŀ¤¦ ðŀ¤«
ðŀ¤¨ ðŀ¤¢
Ġðŀ¤ĸ ðŀ¤¢ðŀ¤³
Ġðŀ¤ģ ðŀ¤¢ðŀ¤¤ðŀ¤¢
Ġðŀ¤¨ ðŀ¤¢ðŀ¤±
Ġðŀ¤Ķ ðŀ¤Į
Ġðŀ¤Ķ ðŀ¤Ģðŀ¤Ĥ
ðŀ¤¶ðŀ¤Ń ðŀ¤¨
ðŀ¤ĥ ðŀ¤Ń
ðŀ¤Ģðŀ¤Ĥ ðŀ¤Ģ
Ġðŀ¤¢ðŀ¤ª ðŀ¤£ðŀ¤µ
ðŀ¤Ħ ðŀ¤¢ðŀ¤¯ðŀ¤¼ðŀ¤¢ðŀ¤²ðŀ¤«
Ġðŀ¤ĩ ðŀ¤īðŀ¤Ĳ
ðŀ¤ºðŀ¤®ðŀ¤ª ðŀ¤©ðŀ¤«
Ġðŀ¤¢ðŀ¤² ðŀ¤¼ðŀ¤µðŀ¤©ðŀ¤«
Ġðŀ¤Ĥ ðŀ¤Ń
Ġðŀ¤´ðŀ¤¢ðŀ¤¤ ðŀ¤¼ðŀ¤¢ðŀ¤´
Ġðŀ¤Ī ðŀ¤«ðŀ¤²ðŀ¤£ðŀ¤®
ðŀ¤µðŀ¤¼ ðŀ¤µðŀ¤£ðŀ¤«
ðŀ¤ºðŀ¤µ ðŀ¤¯ðŀ¤Ń
ðŀ¤Ķ ðŀ¤ĭ
Ġðŀ¤¬ðŀ¤µðŀ¤¯ ðŀ¤²ðŀ¤¢
Ġðŀ¤¶ðŀ¤¢ðŀ¤²ðŀ¤º ðŀ¤Ńðŀ¤²ðŀ¤®
ðŀ¤ı ðŀ¤Ģðŀ¤ļ
ðŀ¤¥ðŀ¤Ń ðŀ¤¤ðŀ¤Ńðŀ¤´ðŀ¤®ðŀ¤²
ðŀ¤®ðŀ¤²ðŀ¥ĭ ðŀ¤£ðŀ¤Ńðŀ¤ªðŀ¤Ń
Ġðŀ¤§ðŀ¤« ðŀ¤¥ðŀ¤¦
Ġðŀ¤²ðŀ¤¶ ðŀ¤¢ðŀ¤º
âĢĿ .
Ġðŀ¤²ðŀ¤¢ðŀ¤²ðŀ¤º ðŀ¤«
Ġðŀ¤Ļ ðŀ¤Ģ
Ġðŀ¤Ļ ðŀ¤¢ðŀ¤¤ðŀ¤²ðŀ¤£ðŀ¤«
Ġðŀ¤¬ðŀ¤Ńðŀ¤¶ ðŀ¤¢ðŀ¤²ðŀ¤£ðŀ¤«
Ġt o
Ġðŀ¤±ðŀ¤¢ðŀ¤ª ðŀ¤¢ðŀ¤²ðŀ¤®
Ġðŀ¤±ðŀ¤¢ðŀ¤ª ðŀ¤²ðŀ¤ºðŀ¤®
Ġðŀ¤¸ðŀ¤¢ðŀ¤© ðŀ¤ªðŀ¤«
nðŀ¤Ģ ðŀ¤¤
ĠA fri
Ġðŀ¤¬ðŀ¤«ðŀ¤± ðŀ¤¶ðŀ¤®
ðŀ¤©ðŀ¤¢ðŀ¤¤ ðŀ¤¶ðŀ¤®
Ġðŀ¤§ðŀ¤¢ðŀ¤¤ ðŀ¤²ðŀ¤£ðŀ¤µ
ðŀ¤ĭðŀ¤ĥ ðŀ¤ĩðŀ¤ī
Ġðŀ¤Ģðŀ¤ª ðŀ¤£ðŀ¤®
Ġðŀ¤²ðŀ¤µðŀ¤² ðŀ¤¯ðŀ¤¢ðŀ¤¤
Ġðŀ¤ĳðŀ¤Ģðŀ¤ĥ ðŀ¤Ģðŀ¤Īðŀ¤ĵðŀ¤Ĳ
Ġðŀ¤¬ðŀ¤Ńðŀ¤ª ðŀ¤¼ðŀ¤Ń
Ġðŀ¤¼ðŀ¤¢ðŀ¤¥ðŀ¤° ðŀ¤Ńðŀ¤²ðŀ¤¢
Ġðŀ¤ıðŀ¤® ðŀ¤¼ðŀ¤¢
ðŀ¤Īðŀ¤ĳ ðŀ¤ĭðŀ¤Ĳðŀ¤Ģ
Ġðŀ¤īðŀ¤³ ðŀ¤±ðŀ¤¢ðŀ¤¼ðŀ¤«
Ġðŀ¤ļðŀ¤¢ðŀ¤ª ðŀ¤¢ðŀ¤±ðŀ¤®ðŀ¤ªðŀ¤«
Ġðŀ¤Ĭðŀ¤ĵðŀ¤Ĥ ðŀ¤ĩðŀ¤ī
Ġðŀ¤ħðŀ¤«ðŀ¤²ðŀ¤« ðŀ¤ºðŀ¤¢
i e
i r
o s
» ðŀ¤®ðŀ¤¤
Ø ¨
Ø ¬
Ø ªØ
Ù ĩ
Ġ v
ðŀ¤Ń ðŀ¤¼ðŀ¤Ńðŀ¤²ðŀ¤®
ðŀ¤² ðŀ¤£ðŀ¤Ńðŀ¤²
ðŀ¤² ðŀ¤¢ðŀ¤¾ðŀ¤Ńðŀ¤ªðŀ¤Ń
ðŀ¤ª ðŀ¤¼ðŀ¤Ń
ðŀ¤ª ðŀ¤²ðŀ¤£
Ġðŀ¤² ðŀ¤«ðŀ¤¤
ðŀ¤¢ðŀ¤¤ ðŀ¤¯ðŀ¤Ń
ðŀ¤¥ ðŀ¤Ńðŀ¤²ðŀ¤®
ðŀ¤¥ ðŀ¤¦ðŀ¤Ń
ðŀ¤¥ ðŀ¤®ðŀ¤ªðŀ¤£ðŀ¤µ
Ġðŀ¤« ðŀ¤¤
ðŀ¤Ńðŀ¤² ðŀ¤¼ðŀ¤¢
ðŀ¤Ńðŀ¤² ðŀ¤¼ðŀ¤«
Ġðŀ¤± ðŀ¤«ðŀ¤²
ðŀ¤µðŀ¤² ðŀ¤Ń
ðŀ¤µðŀ¤² ðŀ¤£ðŀ¤®
Ġðŀ¤¬ ðŀ¤¢ðŀ¤´ðŀ¤©ðŀ¤«
Ġðŀ¤¤ ðŀ¤¢ðŀ¤¦ðŀ¤µðŀ¤¼ðŀ¤¢
Ġðŀ¤¼ ðŀ¤µðŀ¤¥
Ġðŀ¤¼ ðŀ¤«ðŀ¤¬
Ġðŀ¤§ ðŀ¤®ðŀ¤²
Ġðŀ¤§ ðŀ¤µðŀ¤²ðŀ¤®
ðŀ¤©ðŀ¤« ðŀ¤ªðŀ¤«
Ġðŀ¤ĳ ðŀ¤¢ðŀ¤¤
Ġðŀ¤ĳ ðŀ¤¢ðŀ¤²
ðŀ¤± ðŀ¤²ðŀ¤Ń
ðŀ¤¦ ðŀ¤µðŀ¤²ðŀ¤£ðŀ¤«
ðŀ¤Ģðŀ¤ Ĭ
ðŀ¤§ ðŀ¤®ðŀ¤²
ðŀ¤© ðŀ¤¢ðŀ¤¼ðŀ¤¢
ðŀ¤© ðŀ¤µðŀ¤¯ðŀ¤¢ðŀ¤²
ðŀ¤© ðŀ¤®ðŀ¤¤ðŀ¤£ðŀ¤µ
Ġðŀ¤¢ ðŀ¤¬
Ġðŀ¤ħ ðŀ¤«ðŀ¤²
Ġðŀ¤ħ ðŀ¤¢ðŀ¤¦ðŀ¤µ
Ġðŀ¤ħ ðŀ¤µðŀ¤©ðŀ¤®
Ġðŀ¤Ģ ðŀ¤²
Ġðŀ¤Ģ ðŀ¤¤ðŀ¤Ń
Ġðŀ¤Ģ ðŀ¤Ħ
Ġðŀ¤Ģ ðŀ¤¸ðŀ¤Ń
Ġðŀ¤ĥ ðŀ¤¢ðŀ¤ª
ðŀ¤®ðŀ¤ª ðŀ¤©ðŀ¤«
ðŀ¤¢ðŀ¤³ ðŀ¤Ńðŀ¤§
ðŀ¤Ĳ ðŀ¤ī
Ġðŀ¤Ĳ ðŀ¤ī
Ġðŀ¤ĺ ðŀ¤ĭðŀ¤įðŀ¤Į
ðŀ¤Ńðŀ¤ª ðŀ¤¯ðŀ¤Ń
Ġðŀ¤²ðŀ¤£ ðŀ¤¢ðŀ¤´
ðŀ¤Ńðŀ¤´ ðŀ¤«
ðŀ¤³ðŀ¤® ðŀ¤±ðŀ¤¢ðŀ¤¤
Ġðŀ¤¨ ðŀ¤®ðŀ¤¼
Ġðŀ¤Ķ ðŀ¤Ģ
Ġðŀ¤Ķ ðŀ¤ĵ
Ġðŀ¤Ń ðŀ¤±ðŀ¤Ń
Ġðŀ¤ļ ðŀ¤¢ðŀ¤¦
ðŀ¤ĺ ðŀ¤Ģ
Ġðŀ¥ĳðŀ¥ ĸ
ðŀ¤¢ðŀ¤¸ ðŀ¤´ðŀ¤¢
Ġðŀ¤Ĩ ðŀ¤Įðŀ¤Īðŀ¤ļðŀ¤ĭðŀ¤ĺðŀ¤Ģðŀ¤Ĥ
Ġðŀ¤Ĩ ðŀ¤¢ðŀ¤³ðŀ¤Ńðŀ¤§
Ġðŀ¤Ĥ ðŀ¤Ģ
Ġðŀ¤Ĵ ðŀ¤Ģðŀ¤Ĥ
Ġðŀ¤³ðŀ¤®ðŀ¤² ðŀ¤ºðŀ¤µðŀ¤¯ðŀ¤Ń
Ġðŀ¤ĭ ðŀ¤²ðŀ¤£ðŀ¤Ń
Ġðŀ¤į ðŀ¤µ
Ġðŀ¤´ðŀ¤Ń ðŀ¤¯ðŀ¤Ń
Ġðŀ¤£ðŀ¤¢ðŀ¤ª ðŀ¤Ńðŀ¤²ðŀ¤®
Ġðŀ¤£ðŀ¤® ðŀ¤ºðŀ¤Ń
Ġðŀ¤¶ðŀ¤Ń ðŀ¤³
Ġðŀ¤¶ðŀ¤Ń ðŀ¤±ðŀ¤®
Ġðŀ¤©ðŀ¤«ðŀ¤´ ðŀ¤£ðŀ¤¢
Ġðŀ¥Ĵðŀ¥Ĳðŀ¥ĳðŀ¥ ĸ
Ġðŀ¤²ðŀ¤¢ðŀ¤´ ðŀ¤¢ðŀ¤©ðŀ¤¢ðŀ¤¤
ðŀ¤ĵðŀ¤Ĳ ðŀ¥ĭ
Ġðŀ¤ĳðŀ¤Į ðŀ¤Īðŀ¤īðŀ¤Ĵðŀ¤Ģ
Ġðŀ¤´ðŀ¤¢ðŀ¤¥ ðŀ¤Ńðŀ¤ªðŀ¤¢
Ġðŀ¤¤ðŀ¤®ðŀ¤² ðŀ¤¼ðŀ¤Ń
Ġðŀ¤Ħðŀ¤µ ðŀ¤¸ðŀ¤¢
Ġðŀ¤²ðŀ¤¦ ðŀ¤¢ðŀ¤¼ðŀ¤Ńðŀ¤ªðŀ¤£ðŀ¤µ
Ġðŀ¤£ðŀ¤«ðŀ¤² ðŀ¤¼ðŀ¤«
Ġðŀ¤¶ðŀ¤®ðŀ¤º ðŀ¤Ńðŀ¤²ðŀ¤®
Ġðŀ¤³ðŀ¤«ðŀ¤§ ðŀ¤®
Ġðŀ¤²ðŀ¤¢ðŀ¤² ðŀ¤£ðŀ¤Ń
Ġðŀ¤¼ðŀ¤µðŀ¤¥ðŀ¤¦ ðŀ¤®ðŀ¤²ðŀ¥ĭðŀ¤£ðŀ¤Ńðŀ¤ªðŀ¤¢ðŀ¤¤
ðŀ¤²ðŀ¤¢ðŀ¤´ ðŀ¤®
ðŀ¤²ðŀ¤¢ðŀ¤´ ðŀ¤Ń
Ġðŀ¤¸ðŀ¤¢ðŀ¤± ðŀ¤ª
Ġðŀ¤ħðŀ¤ĵ ðŀ¤ı
nðŀ¤į ðŀ¤µðŀ¤¥
Ġðŀ¤ħðŀ¤Į ðŀ¤ĭ
ĠP ular
Ġðŀ¤¶ðŀ¤¢ðŀ¤± ðŀ¤£ðŀ¤Ń
Ġðŀ¤±ðŀ¤¢ðŀ¤´ðŀ¤¤ ðŀ¤µðŀ¤ºðŀ¤®ðŀ¤¤
ðŀ¤ĭðŀ¤ĳ ðŀ¤ī
Ġðŀ¤ºðŀ¤¢ðŀ¤´ ðŀ¤²ðŀ¤Ń
Ġðŀ¤ĳðŀ¤Įðŀ¤ļðŀ¤ģðŀ¤ĭ ðŀ¤ıðŀ¤Ģðŀ¤Ī
Ġðŀ¤¦ðŀ¤¢ðŀ¤ª ðŀ¤¥
Ġf or
Ġðŀ¤³ðŀ¤µðŀ¤¥ðŀ¤¨ ðŀ¤Ńðŀ¤¼ðŀ¤¢ðŀ¤¤
Ġðŀ¤½ðŀ¤Ń ðŀ¤»
ðŀ¤¢ðŀ¤µ ðŀ¤£ðŀ¤Ń
Ġðŀ¤²ðŀ¤¶ðŀ¤¢ðŀ¤¥ ðŀ¤£ðŀ¤Ń
Ġðŀ¤īðŀ¤ªðŀ¤£ðŀ¤® ðŀ¤±ðŀ¤¢ðŀ¤²
Ġðŀ¤ļðŀ¤¢ðŀ¤² ðŀ¤§ðŀ¤¢ðŀ¤²
Ġðŀ¤Ĩðŀ¤¢ðŀ¤³ðŀ¤Ńðŀ¤§ ðŀ¤¼ðŀ¤¢ðŀ¤²
Ġðŀ¤ĭðŀ¤²ðŀ¤£ðŀ¤Ń ðŀ¤´ðŀ¤¢
N DC
d e
u m
ðŀ¤¢ðŀ¤ ¹
ðŀ¥ħ -
ðŀ¤ª ðŀ¤²
ðŀ¤ª ðŀ¤²ðŀ¤Ń
ðŀ¤¼ ðŀ¤©ðŀ¤«
Ġðŀ¤² ðŀ¤¢ðŀ¤²ðŀ¤Ń
ðŀ¤¤ ðŀ¤£ðŀ¤«
ðŀ¤¤ ðŀ¤ºðŀ¤¢ðŀ¤¤
ðŀ¤¤ ðŀ¤Ńðŀ¤²ðŀ¤®
Ġðŀ¤³ ðŀ¤«ðŀ¤·
Ġðŀ¤« ðŀ¤¤ðŀ¤¼ðŀ¤®
ðŀ¤¯ ðŀ¤¢ðŀ¤²ðŀ¤¯ðŀ¤«
ðŀ¤¢ðŀ¤² ðŀ¤£ðŀ¤®
ðŀ¤Ńðŀ¤² ðŀ¤£ðŀ¤Ń
ðŀ¤Ńðŀ¤² ðŀ¤£ðŀ¤Ńðŀ¤²
ðŀ¤³ ðŀ¤µðŀ¤ªðŀ¤µ
Ġðŀ¤§ ðŀ¤«ðŀ¤²ðŀ¤£ðŀ¤Ń
Ġðŀ¤©ðŀ¤« ðŀ¤¤
Ġðŀ¤ĳ ðŀ¤µðŀ¤²
ðŀ¤± ðŀ¤¢ðŀ¤ª
ðŀ¤± ðŀ¤¯ðŀ¤«
ðŀ¤± ðŀ¤®ðŀ¤²ðŀ¥ĭðŀ¤£ðŀ¤Ńðŀ¤ªðŀ¤¢ðŀ¤¤
ðŀ¤´ ðŀ¤µðŀ¤ºðŀ¤®ðŀ¤¤
ðŀ¤´ ðŀ¤µðŀ¤²ðŀ¤®
nðŀ¤ ķ
ðŀ¤ĭ ðŀ¤Ī
ðŀ¤© ðŀ¤µðŀ¤ºðŀ¤®ðŀ¤¤
ðŀ¤© ðŀ¤µðŀ¤£ðŀ¤«
ðŀ¤ī ðŀ¤ĳ
ðŀ¤ī ðŀ¤Īðŀ¤ĭðŀ¤Ĵðŀ¤Ģ
Ġðŀ¤ħ ðŀ¤¢ðŀ¤¥
ðŀ¤®ðŀ¤ª ðŀ¤®ðŀ¤²
Ġðŀ¤º ðŀ¤¢ðŀ¤§
ðŀ¤¢ðŀ¤¼ ðŀ¤®
Ġðŀ¤Ĳ ðŀ¤¢ðŀ¤²ðŀ¤£ðŀ¤Ń
Ġðŀ¤¤ðŀ¤«ðŀ¤ »ðŀ¤®ðŀ¤¤
Ġðŀ¤© ðŀ¤®ðŀ¤¤
ðŀ¤¢ðŀ¤¯ ðŀ¤¢
Ġðŀ¤Ħ ðŀ¤®ðŀ¤²ðŀ¤ºðŀ¤®
Ġðŀ¤¦ ðŀ¤¢ðŀ¤¥ðŀ¤¦
Ġðŀ¤Ĭ ðŀ¤µðŀ¤¯
ðŀ¤ĳ ðŀ¤Įðŀ¤Ĳ
ðŀ¤ºðŀ¤¢ðŀ¤¤ ðŀ¤Ń
Ġðŀ¤¨ ðŀ¤¢ðŀ¤´ðŀ¤³ðŀ¤µðŀ¤²
Ġðŀ¤ª ðŀ¤µ
Ġðŀ¤ª ðŀ¤®ðŀ¤³
ðŀ¤¸ ðŀ¤Ńðŀ¤²
nðŀ¤ĳ ðŀ¤µðŀ¤¯ðŀ¤®ðŀ¤¤
ðŀ¤ĥ ðŀ¤Ģðŀ¤Ī
ðŀ¤Ħ ðŀ¤ĳ
ðŀ¤µðŀ¤¯ ðŀ¤®ðŀ¤²
Ġðŀ¤Ĥ ðŀ¤Ńðŀ¤¦
Ġðŀ¤Ĵ ðŀ¤µðŀ¤²ðŀ¤¢ðŀ¤´ðŀ¤¼ðŀ¤«ðŀ¤£
Ġðŀ¤´ðŀ¤¢ðŀ¤¤ ðŀ¤¼ðŀ¤¢
Ġðŀ¤´ðŀ¤¢ðŀ¤¤ ðŀ¤¼ðŀ¤Ńðŀ¤²ðŀ¤¢
Ġðŀ¤ķ ðŀ¤¢
Ġðŀ¤´ðŀ¤Ń ðŀ¤¯ðŀ¤¢
Ġðŀ¤£ðŀ¤¢ðŀ¤ª ðŀ¤¼ðŀ¤¢ðŀ¤ºðŀ¤®ðŀ¤¤
Ġðŀ¤¼ðŀ¤Ń ðŀ¤º
ðŀ¤¼ðŀ¤Ńðŀ¤²ðŀ¤® ðŀ¤´ðŀ¤Ń
ðŀ¤¾ ðŀ¤«ðŀ¤ª
Ġðŀ¥Ĵðŀ¥Ĳðŀ¥ĳðŀ¥ ĺ
Ġðŀ¤´ðŀ¤¢ðŀ¤¸ ðŀ¤µðŀ¤ºðŀ¤®ðŀ¤¤
Ġðŀ¤´ðŀ¤¢ðŀ¤¸ ðŀ¤£ðŀ¤µ
ðŀ¤ĵðŀ¤Ĳ ðŀ¤Į
ðŀ¤Ĩ ðŀ¤Ģðŀ¤Ļ
Ġðŀ¤¬ðŀ¤Ńðŀ¤¶ ðŀ¤Ńðŀ¤ªðŀ¤£ðŀ¤«
Ġðŀ¤©ðŀ¤µðŀ¤ª ðŀ¤²ðŀ¤Ń
Ġðŀ¤ĺðŀ¤«ðŀ¤² ðŀ¤£ðŀ¤Ń
ØŁ ",
Ġðŀ¤¦ðŀ¤Ńðŀ¤² ðŀ¤£ðŀ¤®ðŀ¤¤
nðŀ¤ĥ ðŀ¤®
Ġðŀ¤²ðŀ¤¦ ðŀ¤¢ðŀ¤¼ðŀ¤µ
Ġðŀ¤ĳðŀ¤®ðŀ¤¼ðŀ¤£ðŀ¤Ń ðŀ¤±ðŀ¤¢ðŀ¤ª
Ġðŀ¥Ĵðŀ¥Ĳðŀ¥Ĳ ðŀ¥Ĺ
Ġðŀ¤§ðŀ¤Ńðŀ¤²ðŀ¤· ðŀ¤¢
ðŀ¤¼ðŀ¤®ðŀ¤ª ðŀ¤¯ðŀ¤«
Ġðŀ¤¸ðŀ¤«ðŀ¤§ ðŀ¤¤ðŀ¤®
ðŀ¤Ģðŀ¤ı ðŀ¤ĵ
ðŀ¤´ðŀ¤¢ðŀ¤² ðŀ¤³ðŀ¤«
ðŀ¤ľ ðŀ¤Ģ
Ġðŀ¤¤ðŀ¤µðŀ¤¥ðŀ¤¦ ðŀ¤Ńðŀ¤²ðŀ¤¢ðŀ¤¤
Ġðŀ¥ĳðŀ¥Ļðŀ¥Ļðŀ¥ Ļ
Ġðŀ¤¬ðŀ¤µ ðŀ¤§
Ġðŀ¤¼ðŀ¤¢ðŀ¤±ðŀ¤« ðŀ¤ºðŀ¤®ðŀ¤¤
Ġðŀ¤¸ðŀ¤Ńðŀ¤± ðŀ¤µðŀ¤ºðŀ¤®ðŀ¤¤
il l
Ġðŀ¤¢ðŀ¤¥ ðŀ¤«ðŀ¤²
Ġðŀ¤·ðŀ¤¢ ðŀ¤«
Ġðŀ¤Ħðŀ¤ĵ ðŀ¤Īðŀ¤ĳðŀ¤ĭðŀ¤Ĳðŀ¤Ģ
âĢ¦ \
Ġðŀ¤¨ðŀ¤«ðŀ¤£ ðŀ¤¤ðŀ¤«
Ġðŀ¤ħðŀ¤ĵðŀ¤ı ðŀ¤ĭðŀ¤ħ
Ġðŀ¤ļðŀ¤¢ðŀ¤²ðŀ¤§ðŀ¤¢ðŀ¤² ðŀ¤Ńðŀ¤´ðŀ¤¢
Ġðŀ¤Ĭðŀ¤µðŀ¤¯ ðŀ¤²ðŀ¤¢
) \
. âĢĿ
I n
c h
l phabet
Ġ :
Ġ B
Ġ R
ðŀ¤¢ðŀ¤ ·
ðŀ¥ħ :
ðŀ¤ª ðŀ¤«ðŀ¤´ðŀ¤¢
ðŀ¤¤ ðŀ¤¢ðŀ¤¥
ðŀ¤¤ ðŀ¤µðŀ¤ºðŀ¤®ðŀ¤¤
Ġðŀ¤¸ ðŀ¤®ðŀ¤²
Ġðŀ¤¸ ðŀ¤¢ðŀ¤ªðŀ¤®
ðŀ¤¥ ðŀ¤¢ðŀ¤²ðŀ¤Ń
ðŀ¤¯ ðŀ¤µðŀ¤²ðŀ¤®
ðŀ¤¯ ðŀ¤¼ðŀ¤Ńðŀ¤ªðŀ¤£ðŀ¤«
ðŀ¤Ńðŀ¤² ðŀ¤¢ðŀ¤²ðŀ¤Ń
ðŀ¤Ńðŀ¤² ðŀ¤Ńðŀ¤ªðŀ¤¢
Ġðŀ¤¤ ðŀ¤µðŀ¤²
Ġðŀ¤¤ ðŀ¤¢ðŀ¤©
Ġðŀ¤¤ ðŀ¤¢ðŀ¤ªðŀ¤«
Ġðŀ¤¼ ðŀ¤µðŀ¤¤
ðŀ¤¶ ðŀ¤¢ðŀ¤¥
ðŀ¤¶ ðŀ¤µðŀ¤²ðŀ¤«ðŀ¤ªðŀ¤«
Ġðŀ¤ĳ ðŀ¤Ģðŀ¤Ĳ
Ġðŀ¤¶ ðŀ¤¢ðŀ¤¤
ðŀ¤´ ðŀ¤µðŀ¤£ðŀ¤«
ðŀ¤´ ðŀ¤Ńðŀ¤ªðŀ¤¼ðŀ¤¢
ðŀ¤¦ ðŀ¤Ńðŀ¤²ðŀ¤¢
ðŀ¤¦ ðŀ¤¼ðŀ¤Ńðŀ¤²ðŀ¤®ðŀ¤´ðŀ¤Ń
ðŀ¤¢ðŀ¤´ ðŀ¤ªðŀ¤«
Ġðŀ¤±ðŀ¤®ðŀ¤² ðŀ¤£ðŀ¤µðŀ¤²ðŀ¤®
ðŀ¤§ ðŀ¤Ńðŀ¤¥
ðŀ¤© ðŀ¤¼
Ġðŀ¤¢ ðŀ¤¥ðŀ¤«
Ġðŀ¤¢ ðŀ¤¯ðŀ¤¢
Ġðŀ¤ħ ðŀ¤ĭ
Ġðŀ¤ħ ðŀ¤¢ðŀ¤µðŀ¤£ðŀ¤Ń
ðŀ¤®ðŀ¤ª ðŀ¤¢ðŀ¤¤
ðŀ¤®ðŀ¤ª ðŀ¤³
ðŀ¤¢ðŀ¤£ ðŀ¤¢
Ġðŀ¤º ðŀ¤Ńðŀ¤²ðŀ¤«ðŀ¤²ðŀ¤¢
Ġðŀ¤º ðŀ¤µðŀ¤²ðŀ¤£ðŀ¤®
Ġðŀ¤¸ðŀ¤® ðŀ¤¥ðŀ¤¦ðŀ¤®
Ġðŀ¤Ĳ ðŀ¤ºðŀ¤¢ðŀ¤¤
Ġðŀ¤Ĳ ðŀ¤ºðŀ¤¢ðŀ¤´ðŀ¤µ
Ġðŀ¤¬ðŀ¤Ń ðŀ¤¶ðŀ¤Ń
Ġðŀ¤© ðŀ¤¢ðŀ¤²
Ġðŀ¤© ðŀ¤¢ðŀ¤½
Ġðŀ¤ĺ ðŀ¤Ģðŀ¤ĥðŀ¤Ħðŀ¤ĭðŀ¤Ĵðŀ¤Ģ
Ġðŀ¤Ħ ðŀ¤Ģðŀ¤Ī
Ġðŀ¤Ħ ðŀ¤Ńðŀ¤²ðŀ¤£ðŀ¤®
Ġðŀ¤¥ðŀ¤® ðŀ¤¬
Ġðŀ¤Ĭ ðŀ¤ī
Ġðŀ¤¼ðŀ¤¢ðŀ¤± ðŀ¤¢ðŀ¤´
ðŀ¤ĳ ðŀ¤ħ
ðŀ¤Ńðŀ¤´ ðŀ¤¢ðŀ¤²ðŀ¤³ðŀ¤®
Ġðŀ¤ģ ðŀ¤¢
Ġðŀ¤ģ ðŀ¤¢ðŀ¤ª
Ġðŀ¤ī ðŀ¤ħ
Ġðŀ¤Ķ ðŀ¤®ðŀ¤ª
Ġðŀ¤Ķ ðŀ¤Ńðŀ¤¦ðŀ¤Ń
Ġðŀ¤· ðŀ¤«ðŀ¤²
Ġðŀ¤§ðŀ¤® ðŀ¤º
Ġðŀ¤¶ðŀ¤® ðŀ¤±
Ġðŀ¤¶ðŀ¤® ðŀ¤ºðŀ¤¢
Ġðŀ¤ļ ðŀ¤µðŀ¤ª
Ġðŀ¤ļ ðŀ¤¢ðŀ¤±ðŀ¤Ń
ðŀ¤ĺ ðŀ¤ĭðŀ¤Ĳðŀ¤ī
ðŀ¤ħ ðŀ¤ī
ðŀ¤ħ ðŀ¤ĥðŀ¤Ģ
Ġðŀ¤¸ðŀ¤«ðŀ¤ ´
ðŀ¤Ńðŀ¤¼ðŀ¤Ń ðŀ¤ª
Ġðŀ¤Ĵ ðŀ¤¢ðŀ¤¸ðŀ¤´ðŀ¤¢
ðŀ¤ªðŀ¤Ńðŀ¤³ ðŀ¤²ðŀ¤¢
Ġðŀ¤ĭ ðŀ¤¥
Ġðŀ¤ĭ ðŀ¤Ħðŀ¤ĳ
Ġðŀ¤ħðŀ¤Ń ðŀ¤£ðŀ¤Ń
Ġðŀ¤į ðŀ¤«
Ġðŀ¤° ðŀ¤«
Ġðŀ¤° ðŀ¤¢ðŀ¤±ðŀ¤Ń
ðŀ¤ĸ ðŀ¤Į
ðŀ¤«ðŀ¤§ ðŀ¤Ń
Ġðŀ¤Ĭðŀ¤¢ðŀ¤ªðŀ¤¢ðŀ¤² ðŀ¤¶ðŀ¤Ń
Ġðŀ¤¶ðŀ¤Ń ðŀ¤¨
Ġðŀ¥Ĵðŀ¥Ĳðŀ¥ĳðŀ¥ ĳ
Ġðŀ¤ĵ ðŀ¤³
Ġðŀ¤¶ðŀ¤«ðŀ¤´ ðŀ¤Ń
Ġðŀ¤¥ðŀ¤µðŀ¤ª ðŀ¤¼ðŀ¤µðŀ¤©ðŀ¤«
Ġðŀ¤ĸðŀ¤® ðŀ¤¶ðŀ¤®ðŀ¤¥ðŀ¤¢
nðŀ¤ĸ ðŀ¤¢ðŀ¤²ðŀ¤£ðŀ¤«
nðŀ¤ĸ ðŀ¤¢ðŀ¤ªðŀ¤Ń
an g
nðŀ¤Ĭ ðŀ¤¢
Ġðŀ¤ĥðŀ¤¢ðŀ¤± ðŀ¤¯ðŀ¤®
ðŀ¤īðŀ¤Ī ðŀ¤ģðŀ¤ī
ðŀ¤¼ðŀ¤¢ðŀ¤¼ ðŀ¤®
Ġðŀ¤¬ðŀ¤«ðŀ¤¤ ðŀ¤ºðŀ¤®
Ġðŀ¤²ðŀ¤¢ðŀ¤± ðŀ¤²ðŀ¤µðŀ¤£ðŀ¤«
nðŀ¤ĩ ðŀ¤«
Ġðŀ¤Ńðŀ¤± ðŀ¤£ðŀ¤Ń
nðŀ¤Ĵ ðŀ¤®ðŀ¤¼
ðŀ¤¼ðŀ¤®ðŀ¤ª ðŀ¤¼ðŀ¤¢
Ġl a
Ġðŀ¤¦ðŀ¤® ðŀ¤¼ðŀ¤«
ĠA DLaM
nðŀ¤Ħ ðŀ¤¢ðŀ¤¯ðŀ¤¼ðŀ¤¢ðŀ¤²ðŀ¤«
Ġðŀ¤¨ðŀ¤Ń ðŀ¤º
Ġðŀ¤¸ðŀ¤µðŀ¤¥ðŀ¤¨ ðŀ¤Ńðŀ¤¼ðŀ¤µðŀ¤ºðŀ¤®ðŀ¤¤
Ġðŀ¤ºðŀ¤®ðŀ¤¥ ðŀ¤²ðŀ¤¢
ðŀ¤Ģðŀ¤Ĩ ðŀ¤Ģðŀ¤Ĳ
Ġðŀ¤¶ðŀ¤®ðŀ¤² ðŀ¤¼ðŀ¤«
Ġðŀ¤Ĥðŀ¤¢ðŀ¤¦ ðŀ¤«
Ġðŀ¤¢ðŀ¤²ðŀ¤£ðŀ¤Ńðŀ¤² ðŀ¤¼ðŀ¤Ńðŀ¤²ðŀ¤£ðŀ¤«
Ġðŀ¤§ðŀ¤µðŀ¤¥ ðŀ¤®
Ġðŀ¤ħðŀ¤¢ðŀ¤ª ðŀ¤¤ðŀ¤®ðŀ¤²
Ġðŀ¤¢ðŀ¤ªðŀ¤£ ðŀ¤Ńðŀ¤²ðŀ¤¢
Ġðŀ¤½ðŀ¤¢ðŀ¤¤ ðŀ¤¯ðŀ¤Ńðŀ¤²ðŀ¤Ń
Ġðŀ¤³ðŀ¤®ðŀ¤´ ðŀ¤¯ðŀ¤«
Ġðŀ¤¯ðŀ¤«ðŀ¤¥ ðŀ¤¯ðŀ¤«
Ġðŀ¤¯ðŀ¤«ðŀ¤¥ ðŀ¤ºðŀ¤¢ðŀ¤¤
Ġðŀ¤Ħðŀ¤« ðŀ¤£ðŀ¤Ńðŀ¤´ðŀ¤«
Ġðŀ¤Įðŀ¤§ ðŀ¤¼
ðŀ¤±ðŀ¤Ńðŀ¤²ðŀ¥ĭ ðŀ¤£ðŀ¤®ðŀ¤¼ðŀ¤®
ðŀ¤ªðŀ¤²ðŀ¤£ ðŀ¤¢ðŀ¤¥
Ġðŀ¤ļðŀ¤¢ðŀ¤¦ ðŀ¤¢ðŀ¤¤ðŀ¤£ðŀ¤«
ðŀ¤ĵðŀ¤Ĳðŀ¥ĭ ðŀ¤ģðŀ¤ĵ
A pp
R D
a nt
a ge
c e
n P
Ġ b
Ġðŀ¤ ¹
ðŀ¤µ ðŀ¤´
ðŀ¤ª ðŀ¤¢ðŀ¤´ðŀ¤²ðŀ¤¢
ðŀ¤¼ ðŀ¤µðŀ¤¥
ðŀ¤¤ ðŀ¤²ðŀ¤Ń
ðŀ¤¢ðŀ¤¤ ðŀ¤«
ðŀ¤¥ ðŀ¤«ðŀ¤ªðŀ¤«
ðŀ¤¥ ðŀ¤Ńðŀ¤ªðŀ¤¢
Ġðŀ¤« ðŀ¤¼ðŀ¤Ń
ðŀ¤¯ ðŀ¤µ
ðŀ¤¯ ðŀ¤µðŀ¤ºðŀ¤®ðŀ¤¤
ðŀ¤®ðŀ¤² ðŀ¤Ń
Ġðŀ¤¬ ðŀ¤¢ðŀ¤º
Ġðŀ¤¬ ðŀ¤µðŀ¤³
Ġðŀ¤¯ ðŀ¤µðŀ¤¯
Ġðŀ¤¯ ðŀ¤«ðŀ¤´ðŀ¤¢
Ġðŀ¤§ ðŀ¤«ðŀ¤²ðŀ¤«ðŀ¤ºðŀ¤¢ðŀ¤¤
Ġðŀ¤§ ðŀ¤«ðŀ¤©
Ġðŀ¤§ ðŀ¤¢ðŀ¤ºðŀ¤®
Ġðŀ¤ĳ ðŀ¤¢ðŀ¤²ðŀ¤³
Ġðŀ¤ĳ ðŀ¤Ģðŀ¤Ĩ
Ġðŀ¤ĳ ðŀ¤īðŀ¤ħ
ðŀ¤¢ðŀ¤´ ðŀ¤¯ðŀ¤«
ðŀ¤§ ðŀ¤¤
ðŀ¤ī ðŀ¤²
ðŀ¤ī ðŀ¤Īðŀ¤ĭðŀ¤ĳ
Ġðŀ¤Ģ ðŀ¤¥ðŀ¤Ń
Ġðŀ¤ĥ ðŀ¤¢ðŀ¤º
Ġðŀ¤ĥ ðŀ¤Ģðŀ¤ĥ
ðŀ¤®ðŀ¤ª ðŀ¤ºðŀ¤¢ðŀ¤¤
Ġðŀ¤º ðŀ¤¢
Ġðŀ¤º ðŀ¤«ðŀ¤ª
Ġðŀ¤» ðŀ¤«
ðŀ¤Ĳ ðŀ¤ĺ
ðŀ¤Ńðŀ¤ª ðŀ¤¢ðŀ¤²ðŀ¤Ń
ðŀ¤¢ðŀ¤© ðŀ¤Ńðŀ¤ªðŀ¤Ń
ðŀ¤¼ðŀ¤« ðŀ¤¼ðŀ¤«
ðŀ¤ĵ ðŀ¤ĺðŀ¤Įðŀ¤Ĥ
Ġðŀ¤²ðŀ¤£ ðŀ¤¢ðŀ¤ª
Ġðŀ¤¦ ðŀ¤«ðŀ¤²
ðŀ¤ĳ ðŀ¤Ģ
ðŀ¤ĳ ðŀ¤ī
ðŀ¤ĳ ðŀ¤ĵ
Ġðŀ¤±ðŀ¤¢ðŀ¤¯ ðŀ¤µðŀ¤²
ðŀ¤Ńðŀ¤´ ðŀ¤®
ðŀ¤ģ ðŀ¤ĵðŀ¤Ĥ
Ġðŀ¤¨ ðŀ¤®ðŀ¤¤ðŀ¤Ń
Ġðŀ¤¨ ðŀ¤«ðŀ¤°
Ġðŀ¤§ðŀ¤® ðŀ¤¥ðŀ¤¦ðŀ¤®
ðŀ¤«ðŀ¤ªðŀ¤« ðŀ¤²
Ġðŀ¤ļ ðŀ¤Ģðŀ¤ļ
Ġðŀ¤ļ ðŀ¤īðŀ¤Ĩ
Ġðŀ¤ļ ðŀ¤µðŀ¤²ðŀ¤Ń
ðŀ¤ĺ ðŀ¤ĭ
ðŀ¤ħ ðŀ¤ļ
ðŀ¤¢ðŀ¤¸ ðŀ¤¢ðŀ¤²
Ġðŀ¤ı ðŀ¤¢
Ġðŀ¤Ĵ ðŀ¤¢
Ġðŀ¤Ĵ ðŀ¤ī
Ġðŀ¤Ī ðŀ¤Ń
Ġðŀ¤į ðŀ¤µðŀ¤²
ðŀ¤ĸ ðŀ¤ĭ
ðŀ¤ĸ ðŀ¤¢ðŀ¤²ðŀ¤£ðŀ¤«
Ġðŀ¤£ðŀ¤® ðŀ¤º
ðŀ¤Įðŀ¤Ĳ ðŀ¤Ģðŀ¤Ĥ
ðŀ¤¾ ðŀ¤«ðŀ¤²
Ġðŀ¥Ĵðŀ¥Ĳðŀ¥ĳðŀ¥ ĵ
Ġðŀ¥Ĵðŀ¥Ĳðŀ¥ĳðŀ¥ Ĺ
Ġðŀ¤¨ðŀ¤Ńðŀ¤´ ðŀ¤µðŀ¤£ðŀ¤«
Ġðŀ¤±ðŀ¤Ńðŀ¤² ðŀ¤£ðŀ¤«
Ġðŀ¤©ðŀ¤µðŀ¤ª ðŀ¤µðŀ¤²ðŀ¤®
Ġðŀ¤©ðŀ¤µðŀ¤ª ðŀ¤µðŀ¤©ðŀ¤«
ðŀ¤Ģðŀ¤ĳ ðŀ¤ĭ
nðŀ¤Ĭ ðŀ¤«ðŀ¤±ðŀ¤²ðŀ¤£ðŀ¤®
Ġðŀ¥ĸ ðŀ¥ĳ
ðŀ¤ħðŀ¤ĭ ðŀ¤ĳ
Ġðŀ¤¸ðŀ¤«ðŀ¤± ðŀ¤¼ðŀ¤®
Ġðŀ¤²ðŀ¤¢ðŀ¤© ðŀ¤Ń
ðŀ¤¼ðŀ¤Ńðŀ¤ª ðŀ¤ºðŀ¤®ðŀ¤¤
Ġðŀ¤¶ðŀ¤®ðŀ¤º ðŀ¤²
Ġðŀ¤¬ðŀ¤¢ðŀ¤± ðŀ¤¢ðŀ¤²ðŀ¤®
ðŀ¤Ħðŀ¤ĭ ðŀ¤Ĵðŀ¤Ģ
Ġðŀ¤¢ðŀ¤ªðŀ¤¢ðŀ¤² ðŀ¤µðŀ¤²
ĠðŁĩ ¨
Ġðŀ¤¼ðŀ¤¢ðŀ¤¦ðŀ¤Ńðŀ¤² ðŀ¤¼ðŀ¤Ńðŀ¤²
Ġðŀ¤±ðŀ¤µðŀ¤ª ðŀ¤¼ðŀ¤Ń
Ġðŀ¤¬ðŀ¤«ðŀ¤± ðŀ¤¶
Ġðŀ¤ħðŀ¤Į ðŀ¤ĩ
Ġðŀ¤£ðŀ¤«ðŀ¤¬ ðŀ¤¼ðŀ¤«
ðŀ¤ļðŀ¤ī ðŀ¤Īðŀ¤ī
Ġðŀ¤¶ðŀ¤®ðŀ¤² ðŀ¤£ðŀ¤«
ðŀ¤²ðŀ¤ºðŀ¤®ðŀ¤¤ ðŀ¤¢
Ġðŀ¤ĳðŀ¤Ģðŀ¤ĥ ðŀ¤Ģðŀ¤Īðŀ¤Ģ
Ġðŀ¤©ðŀ¤«ðŀ¤ª ðŀ¤¯ðŀ¤«
Ġðŀ¤·ðŀ¤« ðŀ¤¥ðŀ¤¦ðŀ¤«
Ġðŀ¥ĳðŀ¥Ļðŀ¥ĺ ðŀ¥Ķ
ðŀ¤Ģðŀ¤ĥðŀ¤Ħðŀ¤ĭ ðŀ¤ĳ
Ġðŀ¤Ĺ ðŀ¤µðŀ¤ª
Ġðŀ¥ĳðŀ¥Ļðŀ¥ĸ ðŀ¥Ĳ
Ġðŀ¤Ģðŀ¤¤ðŀ¤¸ ðŀ¤¢ðŀ¤¶
Ġðŀ¤¸ðŀ¤µðŀ¤¥ ðŀ¤¢ðŀ¤¥ðŀ¤¦
Ġðŀ¤»ðŀ¤¢ðŀ¤¥ ðŀ¤£ðŀ¤µ
Ġðŀ¤Ģðŀ¤£ ðŀ¤¤ðŀ¤¢ðŀ¤¥
Ġðŀ¤¥ðŀ¤µðŀ¤§ðŀ¤Ń ðŀ¤£ðŀ¤¢ðŀ¤¤
Ġðŀ¤īðŀ¤ĳ ðŀ¤ıðŀ¤Ģðŀ¤ļ
Ġðŀ¤ıðŀ¤Įðŀ¤Ĳ ðŀ¤ĭ
Ġðŀ¤³ðŀ¤¢ðŀ¤ª ðŀ¤¢ðŀ¤¸ðŀ¤¢ðŀ¤²
Ġðŀ¤¨ðŀ¤¢ðŀ¤± ðŀ¤«
Ġðŀ¤¼ðŀ¤µðŀ¤¥ ðŀ¤¦ðŀ¤®
Ġðŀ¤ĳðŀ¤¢ðŀ¤¤ ðŀ¤µðŀ¤¥
Ġðŀ¤Ģðŀ¤Ħ ðŀ¤ģðŀ¤ĵðŀ¤Ĥ
Ġðŀ¤·ðŀ¤«ðŀ¤² ðŀ¤¯ðŀ¤«
Ġðŀ¤ļðŀ¤µðŀ¤ª ðŀ¤³ðŀ¤Ń
Ġðŀ¤ĵðŀ¤³ ðŀ¤ªðŀ¤¢ðŀ¤´ðŀ¤²ðŀ¤¢
Ġðŀ¤ļðŀ¤Ģðŀ¤ļ ðŀ¤ĭ
N P
h o
i b
i m
ó ł
Ġ L
Ġ ECOWAS
ðŀ¤² ðŀ¤µ
ðŀ¤² ðŀ¤µðŀ¤©ðŀ¤«
ðŀ¥ħ \
ðŀ¤µ ðŀ¤¬ðŀ¤µ
ðŀ¤£ ðŀ¤¢ðŀ¤¥
ðŀ¤ª ðŀ¤µðŀ¤£ðŀ¤«
ðŀ¤¼ ðŀ¤®ðŀ¤²ðŀ¤®
ðŀ¤¤ ðŀ¤®ðŀ¤¤
ðŀ¤¤ ðŀ¤µðŀ¤²ðŀ¤®
Ġðŀ¤³ ðŀ¤Ńðŀ¤²ðŀ¤¢ðŀ¤¤
Ġðŀ¤¸ ðŀ¤Ńðŀ¤¥
Ġðŀ¤¸ ðŀ¤¢ðŀ¤§ðŀ¤Ń
Ġðŀ¤« ðŀ¤¼ðŀ¤¢
Ġðŀ¤« ðŀ¤¼ðŀ¤Ńðŀ¤²ðŀ¤®
ðŀ¤¯ ðŀ¤®ðŀ¤ªðŀ¤¢
ðŀ¤Ńðŀ¤² ðŀ¤¼ðŀ¤Ńðŀ¤²
Ġðŀ¤¬ ðŀ¤¢ðŀ¤©
ðŀ¤Ģ ðŀ¤¤
Ġðŀ¤¤ ðŀ¤¢ðŀ¤²ðŀ¤£ðŀ¤«
Ġðŀ¤¼ ðŀ¤®ðŀ¤ª
Ġðŀ¤¼ ðŀ¤«ðŀ¤¤
Ġðŀ¤ĳ ðŀ¤Ń
Ġðŀ¤´ ðŀ¤«ðŀ¤¼
Ġðŀ¤²ðŀ¤º ðŀ¤¢ðŀ¤³
Ġðŀ¤²ðŀ¤º ðŀ¤«ðŀ¤²ðŀ¤£ðŀ¤Ń
ðŀ¤± ðŀ¤µðŀ¤²
ðŀ¤± ðŀ¤µðŀ¤¯ðŀ¤«
ðŀ¤± ðŀ¤µðŀ¤¯ðŀ¤®
ðŀ¤´ ðŀ¤µðŀ¤©ðŀ¤«
ðŀ¤¢ðŀ¤± ðŀ¤¢
nðŀ¤ ĭ
ðŀ¤¢ðŀ¤´ ðŀ¤¯ðŀ¤Ń
ðŀ¤ĭ ðŀ¤ļ
Ġðŀ¤±ðŀ¤®ðŀ¤² ðŀ¤¢ðŀ¤´
ðŀ¤§ ðŀ¤¢ðŀ¤¤
ðŀ¤§ ðŀ¤¼ðŀ¤«ðŀ¤ª
ðŀ¤© ðŀ¤¢ðŀ¤´
ðŀ¤© ðŀ¤µðŀ¤²ðŀ¤£ðŀ¤«
Ġðŀ¤£ ðŀ¤¢ðŀ¤¥
Ġðŀ¤Ģ ðŀ¤ĸ
Ġðŀ¤Ģ ðŀ¤²ðŀ¤ºðŀ¤®ðŀ¤¤ðŀ¤¢
Ġðŀ¤ĥ ðŀ¤¢ðŀ¤²ðŀ¤³
Ġðŀ¤ĥ ðŀ¤µðŀ¤ªðŀ¤¢
ðŀ¤®ðŀ¤ª ðŀ¤¼ðŀ¤Ń
Ġðŀ¤º ðŀ¤Ńðŀ¤¥
Ġðŀ¤¸ðŀ¤® ðŀ¤¥ðŀ¤®
Ġðŀ¤Ĳ ðŀ¤Ģðŀ¤Ķ
Ġðŀ¤© ðŀ¤¢ðŀ¤´
Ġðŀ¤ĺ ðŀ¤®ðŀ¤²
Ġðŀ¤ĺ ðŀ¤®ðŀ¤¤
Ġðŀ¤ĺ ðŀ¤ĵ
Ġðŀ¤ĺ ðŀ¤¢ðŀ¤¦
Ġðŀ¤ĺ ðŀ¤®ðŀ¤´ðŀ¤¼ðŀ¤¢
Ġðŀ¤Ħ ðŀ¤Ń
Ġðŀ¤Ħ ðŀ¤¢ðŀ¤³
Ġðŀ¤Ħ ðŀ¤Ńðŀ¤´ðŀ¤¢
Ġðŀ¤Ħ ðŀ¤¢ðŀ¤¯ðŀ¤¼ðŀ¤¢ðŀ¤²ðŀ¤«
Ġðŀ¤Ħ ðŀ¤Īðŀ¤ĵ
ðŀ¤¬ ðŀ¤«
ðŀ¤Ī ðŀ¤Ģðŀ¤Ĳ
nt er
ðŀ¤¢ðŀ¤¦ ðŀ¤®
ðŀ¤¢ðŀ¤¦ ðŀ¤®ðŀ¤¤ðŀ¤¢
ðŀ¤¨ ðŀ¤®
Ġðŀ¤ĸ ðŀ¤µ
Ġðŀ¥Ĵðŀ¥Ĳ ðŀ¥Ĳðŀ¥Ĳ
Ġðŀ¤±ðŀ¤¢ðŀ¤¯ ðŀ¤µðŀ¤²ðŀ¥ĭðŀ¤ºðŀ¤®
Ġðŀ¤ģ ðŀ¤¢ðŀ¤¥ðŀ¤Ń
Ġðŀ¤±ðŀ¤®ðŀ¤²ðŀ¤Ń ðŀ¤ªðŀ¤Ń
Ġðŀ¤ī ðŀ¤§
Ġðŀ¤ī ðŀ¤¯ðŀ¤«ðŀ¤²
Ġðŀ¤¨ ðŀ¤¢ðŀ¤£
Ġðŀ¤Ķ ðŀ¤¢ðŀ¤¥
Ġðŀ¤¶ðŀ¤® ðŀ¤ºðŀ¤«
Ġðŀ¤ļ ðŀ¤Ń
Ġðŀ¤ļ ðŀ¤«ðŀ¤²
Ġðŀ¤ļ ðŀ¤¢ðŀ¤¥
ðŀ¤¸ ðŀ¤¢ðŀ¤¤
Ġðŀ¤ı ðŀ¤¢ðŀ¤º
Ġðŀ¤ı ðŀ¤Ģðŀ¤Īðŀ¤Ģ
ðŀ¤£ðŀ¤Ńðŀ¤ª ðŀ¤²ðŀ¤®
Ġðŀ¤Ĩ ðŀ¤Įðŀ¤Ĥ
Ġðŀ¤§ðŀ¤Ń ðŀ¤¬ðŀ¤¢
ðŀ¤Ģðŀ¤Ī ðŀ¤Ĥ
Ġðŀ¤Ĵ ðŀ¤ĭðŀ¤ĥðŀ¤ĩðŀ¤ī
Ġðŀ¤´ðŀ¤¢ðŀ¤¤ ðŀ¤¼ðŀ¤µðŀ¤£ðŀ¤«
ðŀ¤«ðŀ¤ª ðŀ¤¦ðŀ¤Ńðŀ¤´ðŀ¤¢
ðŀ¥ħ. "
Ġðŀ¤¼ðŀ¤¢ðŀ¤¼ ðŀ¤¢ðŀ¤©ðŀ¤¢ðŀ¤¤
ðŀ¤µðŀ¤²ðŀ¥ĭ ðŀ¤£ðŀ¤µ
Ġðŀ¤µ ðŀ¤¦
ðŀ¤«ðŀ¤§ ðŀ¤®
Ġðŀ¤³ðŀ¤Ń ðŀ¤¦ðŀ¤Ńðŀ¤ª
Ġðŀ¤¶ðŀ¤¢ðŀ¤²ðŀ¤º ðŀ¤²ðŀ¤®
Ġðŀ¤©ðŀ¤µ ðŀ¤©ðŀ¤¼ðŀ¤µ
Ġðŀ¥ĳðŀ¥Ļðŀ¥ Ķ
Ġðŀ¤¶ðŀ¤Ń ðŀ¤©ðŀ¤Ń
ðŀ¤ĩ ðŀ¤¢
ðŁĩ ¦
Ġðŀ¤¶ðŀ¤¢ðŀ¤² ðŀ¤¢ðŀ¤²ðŀ¤©ðŀ¤«
Ġðŀ¤´ðŀ¤«ðŀ¤± ðŀ¤¼ðŀ¤Ń
Ġðŀ¤¨ðŀ¤Ńðŀ¤´ ðŀ¤Ńðŀ¤ªðŀ¤Ń
Ġðŀ¤¼ðŀ¤µ ðŀ¤ºðŀ¤¢ðŀ¤¤
ðŀ¤Ģðŀ¤ļ ðŀ¤Į
ðŀ¤Ģðŀ¤ĳ ðŀ¤Ģðŀ¤Ī
Ġðŀ¤¤ðŀ¤®ðŀ¤² ðŀ¤¼ðŀ¤Ńðŀ¤²
ðŀ¤īðŀ¤Ī ðŀ¤Ĳ
Ġðŀ¤¤ðŀ¤«ðŀ¤± ðŀ¤»
Ġðŀ¤²ðŀ¤¢ðŀ¤± ðŀ¤´ðŀ¤Ńðŀ¤ªðŀ¤¼ðŀ¤¢
Ġðŀ¥Ĵðŀ¥Ĳðŀ¥Ĳ ðŀ¥Ĵ
nðŀ¤Ĵ ðŀ¤Ńðŀ¤¥ðŀ¤©ðŀ¤«
ðĿĹ »
Ġðŀ¤¼ðŀ¤¢ðŀ¤¦ðŀ¤Ńðŀ¤² ðŀ¤¼ðŀ¤Ńðŀ¤²ðŀ¤ºðŀ¤®ðŀ¤¤
Ġðŀ¥Ĺ ðŀ¥Ĳ
ou s
Ġp ar
Ġp our
ðŀ¤Ģðŀ¤ı ðŀ¤Į
ðŀ¤īðŀ¤Ĥ ðŀ¤ī
ðŀ¤¥ðŀ¤®ðŀ¤³ ðŀ¤¢ðŀ¤ªðŀ¤¢ðŀ¤²ðŀ¤³ðŀ¤®
Ġs ur
Ġðŀ¤»ðŀ¤¢ðŀ¤± ðŀ¤²ðŀ¤£ðŀ¤®
Ġðŀ¤Ķðŀ¤¢ðŀ¤¤ ðŀ¤®
Ġðŀ¤ĭðŀ¤§ ðŀ¤ªðŀ¤¢
ðŀ¤§ðŀ¤µ ðŀ¤¬ðŀ¤µ
Ġðŀ¤Ģðŀ¤Ī ðŀ¤ģðŀ¤Į
ĠF NDC
Ġðŀ¤¼ðŀ¤Ńðŀ¤² ðŀ¤¼ðŀ¤Ń
Ġðŀ¤Ĺ ðŀ¤¢ðŀ¤ª
ðŀ¤Ńðŀ¤¦ ðŀ¤ªðŀ¤Ń
Ġðŀ¤¯ðŀ¤®ðŀ¤± ðŀ¤¤ðŀ¤Ń
ĠC EDEAO
Ġðŀ¤´ðŀ¤µðŀ¤ª ðŀ¤¥ðŀ¤«
Ġðŀ¤ģðŀ¤« ðŀ¤¥ðŀ¤®ðŀ¤³ðŀ¤¢ðŀ¤ªðŀ¤¢
Ġðŀ¤ĥðŀ¤®ðŀ¤ªðŀ¤Ń ðŀ¤¼ðŀ¤¢ðŀ¤²ðŀ¤Ń
Ġðŀ¤¼ðŀ¤Ńðŀ¤²ðŀ¤¼ðŀ¤µ ðŀ¤£ðŀ¤µðŀ¤²ðŀ¤®
Ġðŀ¤ĭðŀ¤¼ ðŀ¤¢ðŀ¤¤ðŀ¤Ń
Ġðŀ¤ģðŀ¤¢ðŀ¤ª ðŀ¤¬ðŀ¤µ
Ġðŀ¤īðŀ¤ħ ðŀ¤Ĩðŀ¤Ģðŀ¤Ļ
Ġðŀ¤Ķðŀ¤Ńðŀ¤¦ðŀ¤Ń ðŀ¤ªðŀ¤Ń
Ġðŀ¤¹ ðŀ¤Ńðŀ¤ª
ół ģ
ðŀ¤µðŀ¤¬ðŀ¤µ ðŀ¤¤ðŀ¤Ń
ðŀ¤§ðŀ¤¼ðŀ¤«ðŀ¤ª ðŀ¤«ðŀ¤´ðŀ¤¢ðŀ¤²ðŀ¤³ðŀ¤®
Ġðŀ¤Ħðŀ¤Īðŀ¤ĵ ðŀ¤ĳðŀ¤ħ
Ġðŀ¤ģðŀ¤¢ðŀ¤¥ðŀ¤Ń ðŀ¤¦ðŀ¤¢
J e
a v
Ġ W
Ġ o
Ġ in
ðŀ¤² ðŀ¤º
ðŀ¤² ðŀ¥ĭ
ðŀ¤² ðŀ¤µðŀ¤¯ðŀ¤®
ðŀ¥ħ "
ðŀ¤µ ðŀ¤¼ðŀ¤Ńðŀ¤²
ðŀ¤£ ðŀ¤¢ðŀ¤²ðŀ¤®
ðŀ¤£ ðŀ¤¢ðŀ¤¼ðŀ¤¢
ðŀ¤ª ðŀ¤®ðŀ¤¤
ðŀ¤ª ðŀ¤¢ðŀ¤¦ðŀ¤«
ðŀ¤¼ ðŀ¤µðŀ¤¯ðŀ¤«
ðŀ¤¼ ðŀ¤µðŀ¤ªðŀ¤µ
Ġðŀ¤² ðŀ¤µðŀ¤¤ðŀ¤¢
ðŀ¤¤ ðŀ¤¢ðŀ¤²
ðŀ¤¤ ðŀ¤Ńðŀ¤²
ðŀ¤¤ ðŀ¤¢ðŀ¤²ðŀ¤£ðŀ¤«
ðŀ¤¤ ðŀ¤¢ðŀ¤ºðŀ¤®ðŀ¤¤
ðŀ¤¤ ðŀ¤¢ðŀ¤²ðŀ¤¢
Ġðŀ¤³ ðŀ¤Ńðŀ¤²
Ġðŀ¤¸ ðŀ¤Ńðŀ¤²ðŀ¤®
ðŀ¤¥ ðŀ¤®ðŀ¤ª
ðŀ¤¯ ðŀ¤¢ðŀ¤²ðŀ¤®
ðŀ¤¢ðŀ¤² ðŀ¤ªðŀ¤Ń
ðŀ¤Ńðŀ¤² ðŀ¤Ńðŀ¤ª
Ġðŀ¤¥ ðŀ¤¢ðŀ¤²
ðŀ¤³ ðŀ¤«ðŀ¤±ðŀ¤¢ðŀ¤¤
ðŀ¤µðŀ¤² ðŀ¤³ðŀ¤«ðŀ¤±ðŀ¤¢ðŀ¤¤
ðŀ¤«ðŀ¤ ½
Ġðŀ¤¼ ðŀ¤¢ðŀ¤´ðŀ¤ªðŀ¤«
Ġðŀ¤´ ðŀ¤µðŀ¤¥
Ġðŀ¤²ðŀ¤º ðŀ¤«ðŀ¤´
ðŀ¤± ðŀ¤¢ðŀ¤³
ðŀ¤± ðŀ¤¼ðŀ¤®
ðŀ¤± ðŀ¤µðŀ¤ºðŀ¤®ðŀ¤¤
ðŀ¤¦ ðŀ¤¢ðŀ¤ºðŀ¤®ðŀ¤¤
ðŀ¤Ģðŀ¤ ¸
ðŀ¤¢ðŀ¤± ðŀ¤®ðŀ¤¤
nðŀ¤ Ĩ
nðŀ¤ Ī
ðŀ¤¢ðŀ¤´ ðŀ¤®
Ġðŀ¤±ðŀ¤®ðŀ¤² ðŀ¤¼ðŀ¤Ń
ðŀ¤© ðŀ¤®
Ġðŀ¤£ ðŀ¤Ńðŀ¤¥
Ġðŀ¤ħ ðŀ¤īðŀ¤Ĥ
Ġðŀ¤ħ ðŀ¤«ðŀ¤ªðŀ¤¦ðŀ¤Ńðŀ¤´ðŀ¤¢
Ġðŀ¤Ģ ðŀ¤Ĳ
Ġðŀ¤ĥ ðŀ¤«
Ġðŀ¤ĥ ðŀ¤«ðŀ¤²
Ġðŀ¤ĥ ðŀ¤Ńðŀ¤ª
Ġðŀ¤ĥ ðŀ¤¢ðŀ¤£ðŀ¤Ń
Ġðŀ¤ĥ ðŀ¤¢ðŀ¤¬
ðŀ¤®ðŀ¤ª ðŀ¤¼ðŀ¤¢
Ġðŀ¤º ðŀ¤®ðŀ¤ª
Ġðŀ¤¸ðŀ¤® ðŀ¤¶ðŀ¤®
Ġðŀ¤¸ðŀ¤® ðŀ¤¥ðŀ¤¦
ðŀ¤¢ðŀ¤¼ ðŀ¤Ń
Ġðŀ¤» ðŀ¤®
ðŀ¤¼ðŀ¤« ðŀ¤¤
Ġðŀ¤Ħ ðŀ¤¢ðŀ¤ªðŀ¤Ń
Ġðŀ¤Ħ ðŀ¤«ðŀ¤¤
Ġðŀ¤Ħ ðŀ¤«ðŀ¤ª
ðŀ¤¬ ðŀ¤¢ðŀ¤²ðŀ¤¢
ðŀ¤¨ ðŀ¤¢ðŀ¤»
Ġðŀ¤¼ðŀ¤¢ðŀ¤± ðŀ¤«ðŀ¤¼ðŀ¤«
Ġ( $
Ġðŀ¤ĸ ðŀ¤¢ðŀ¤ª
Ġðŀ¤ĸ ðŀ¤Įðŀ¤Ĥ
Ġðŀ¤ĸ ðŀ¤Ģðŀ¤Ĳðŀ¤ģðŀ¤ī
ðŀ¤«ðŀ¤± ðŀ¤®ðŀ¤¤
Ġðŀ¤±ðŀ¤¢ðŀ¤¯ ðŀ¤µ
ðŀ¤£ðŀ¤µ ðŀ¤¯ðŀ¤®
Ġðŀ¤ģ ðŀ¤¢ðŀ¤£ðŀ¤Ń
Ġðŀ¤¨ ðŀ¤µðŀ¤¼
Ġðŀ¤¨ ðŀ¤®ðŀ¤ªðŀ¤¼ðŀ¤®
ðŀ¤²ðŀ¤Ń ðŀ¤¼ðŀ¤®ðŀ¤ªðŀ¤¯ðŀ¤«
Ġðŀ¤£ðŀ¤µ ðŀ¤¯ðŀ¤«
Ġðŀ¤£ðŀ¤µ ðŀ¤¦ðŀ¤µ
Ġðŀ¤ļ ðŀ¤µðŀ¤¥ðŀ¤¢
ðŀ¤ħ ðŀ¤īðŀ¤Ĳðŀ¤īðŀ¤ĺðŀ¤Ģðŀ¤Ĥ
ðŀ¤¢ðŀ¤¨ ðŀ¤¢ðŀ¤²
Ġðŀ¤Į ðŀ¤Ĩ
Ġðŀ¤¢ðŀ¤ª ðŀ¤¼ðŀ¤Ń
Ġðŀ¤¢ðŀ¤ª ðŀ¤µðŀ¤²ðŀ¤®
Ġðŀ¤¸ðŀ¤«ðŀ¤ ·
ðŀ¤§ðŀ¤Ń ðŀ¤³
ðŀ¤Ħ ðŀ¤Ģðŀ¤ĳðŀ¤Ģðŀ¤Ī
ðŀ¤ºðŀ¤®ðŀ¤ª ðŀ¤£ðŀ¤«
ðŀ¤Ńðŀ¤¼ ðŀ¤®ðŀ¤ªðŀ¤¢
Ġðŀ¤ĭ ðŀ¤²
Ġðŀ¤ĭ ðŀ¤ħ
ðŀ¤¦ðŀ¤Ń ðŀ¤¶ðŀ¤¢ðŀ¤²
Ġðŀ¤¼ðŀ¤¢ðŀ¤¼ ðŀ¤¢ðŀ¤©ðŀ¤®
Ġðŀ¤į ðŀ¤Ń
Ġðŀ¤ķ ðŀ¤«ðŀ¤ªðŀ¤²ðŀ¤®
ðŀ¤¢ðŀ¤§ ðŀ¤¢ðŀ¤²
Ġðŀ¤° ðŀ¤Ń
ðŀ¤µðŀ¤¼ ðŀ¤µðŀ¤²ðŀ¤®
Ġðŀ¤´ðŀ¤Ń ðŀ¤Ń
Ġðŀ¤±ðŀ¤Ń ðŀ¤¢
Ġðŀ¤£ðŀ¤¢ðŀ¤ª ðŀ¤¼ðŀ¤Ń
Ġðŀ¤Ĭðŀ¤¢ðŀ¤ªðŀ¤¢ðŀ¤² ðŀ¤§ðŀ¤«
Ġðŀ¤¶ðŀ¤¢ðŀ¤²ðŀ¤º ðŀ¤¢ðŀ¤²ðŀ¤¢
Ġðŀ¤ĳðŀ¤®ðŀ¤² ðŀ¤µ
Ġðŀ¤´ðŀ¤« ðŀ¤ªðŀ¤µ
ðŀ¤» ðŀ¤®
ðŀ¤ĩ ðŀ¤Į
nðŀ¤ī ðŀ¤²
Ġðŀ¤¤ðŀ¤¢ðŀ¤² ðŀ¤£ðŀ¤¢
ðŀ¤į ðŀ¤ĭ
Ġðŀ¤¶ðŀ¤«ðŀ¤´ ðŀ¤¢ðŀ¤¤
Ġðŀ¤¶ðŀ¤«ðŀ¤´ ðŀ¤¢ðŀ¤²ðŀ¤®
âĢĿ â¹ģ
Ġðŀ¤ĳðŀ¤¢ðŀ¤¥ ðŀ¤©ðŀ¤«
Ġðŀ¤¥ðŀ¤µðŀ¤ª ðŀ¤¼ðŀ¤¢ðŀ¤¤
Ġðŀ¤¸ðŀ¤« ðŀ¤¯ðŀ¤¢
nðŀ¤ĸ ðŀ¤®ðŀ¤¤
Ġðŀ¤´ðŀ¤«ðŀ¤± ðŀ¤¼ðŀ¤¢
Ġðŀ¤±ðŀ¤Ńðŀ¤´ ðŀ¤µðŀ¤²ðŀ¤®
Ġðŀ¤©ðŀ¤µðŀ¤ª ðŀ¤¢
Ġðŀ¤¼ðŀ¤¢ðŀ¤¦ ðŀ¤Ńðŀ¤¼ðŀ¤¢
Ġðŀ¤ĺðŀ¤«ðŀ¤² ðŀ¤¯ðŀ¤«
Ġðŀ¤¤ðŀ¤¢ðŀ¤¼ ðŀ¤«ðŀ¤ªðŀ¤«
Ġðŀ¤±ðŀ¤¢ðŀ¤ª ðŀ¤«
ðŀ¤īðŀ¤Ī ðŀ¤ĵðŀ¤Ĳ
Ġðŀ¥ķ ðŀ¥ķ
Ġðŀ¥ĸ ðŀ¥Ĳ
ðŀ¤Ńðŀ¤¼ðŀ¤® ðŀ¤¼ðŀ¤®
ðŀ¤ĺðŀ¤Į ðŀ¤Īðŀ¤Ģðŀ¤Ĥ
Ġðŀ¤Ńðŀ¤± ðŀ¤ª
Ġðŀ¥Ĵðŀ¥Ĳðŀ¥Ĳ ðŀ¥ĺ
ðĿĹ ®
Ġðŀ¤±ðŀ¤µðŀ¤ª ðŀ¤Ńðŀ¤²
ðŀ¥ģ ðŀ¤Ń
Ġðŀ¤£ðŀ¤¢ðŀ¤¯ ðŀ¤²ðŀ¤Ńðŀ¤¼ðŀ¤®ðŀ¤ªðŀ¤¯ðŀ¤«
Ġðŀ¤ĳðŀ¤Įðŀ¤Ĳ ðŀ¤ĺðŀ¤Į
nðŀ¤į ðŀ¤µðŀ¤²
Ġðŀ¤©ðŀ¤¢ðŀ¤²ðŀ¤º ðŀ¤Ńðŀ¤²ðŀ¤Ń
ĠP ar
Ġðŀ¤ĥðŀ¤Ń ðŀ¤¯ðŀ¤®
Ġðŀ¤´ðŀ¤¢ðŀ¤¤ðŀ¤¼ðŀ¤Ńðŀ¤² ðŀ¤«
nðŀ¤ı ðŀ¤®ðŀ¤²ðŀ¤¢
un e
Ġðŀ¤±ðŀ¤¢ðŀ¤´ðŀ¤¤ðŀ¤Ń ðŀ¤¼ðŀ¤Ń
ðŀ¤ĵðŀ¤ĥ ðŀ¤Ħðŀ¤ĵ
Ġðŀ¤¼ðŀ¤¢ðŀ¤° ðŀ¤¢
Ġðŀ¤¥ðŀ¤¢ðŀ¤²ðŀ¤³ ðŀ¤Ńðŀ¤ªðŀ¤ºðŀ¤¢ðŀ¤¤
Ġðŀ¤¯ðŀ¤®ðŀ¤± ðŀ¤¤ðŀ¤µ
Ġðŀ¤¢ðŀ¤ªðŀ¤£ ðŀ¤¢ðŀ¤ºðŀ¤®ðŀ¤¤
Ġðŀ¤Ģðŀ¤¤ðŀ¤¸ ðŀ¤¢ðŀ¤§ðŀ¤¢
Ġðŀ¤ºðŀ¤«ðŀ¤²ðŀ¤£ðŀ¤Ń ðŀ¤´ðŀ¤¢ðŀ¤²ðŀ¤³ðŀ¤®
Ġðŀ¤¯ðŀ¤Ńðŀ¤¯ðŀ¤¥ ðŀ¤Ńðŀ¤¼ðŀ¤¢ðŀ¤²ðŀ¤Ń
Ġðŀ¤Ĭðŀ¤® ðŀ¤¬ðŀ¤¢ðŀ¤²ðŀ¤¢
Ġðŀ¥ĳðŀ¥Ļðŀ¥Ļ ðŀ¥ĳ
Ġðŀ¤«ðŀ¤±ðŀ¤² ðŀ¤®ðŀ¤ªðŀ¤ºðŀ¤¢ðŀ¤¤
Ġðŀ¤ģðŀ¤Ńðŀ¤³ ðŀ¤§ðŀ¤Ńðŀ¤²
Ġðŀ¤²ðŀ¤£ðŀ¤¢ðŀ¤´ ðŀ¤ºðŀ¤µ
ðŀ¤¾ðŀ¤«ðŀ¤ª ðŀ¤¨
ðŀ¤Ģðŀ¤ıðŀ¤ĵ ðŀ¤ģðŀ¤ĭ
Ġðŀ¤¤ðŀ¤µðŀ¤² ðŀ¤£ðŀ¤Ń
Ġðŀ¤Ħðŀ¤Ģðŀ¤Ī ðŀ¤Ģðŀ¤ħðŀ¤ĭðŀ¤Ĥ
Ġðŀ¤ĥðŀ¤¢ðŀ¤º ðŀ¤µðŀ¤¬ðŀ¤µðŀ¤¤ðŀ¤Ń
Ġðŀ¤Ĳðŀ¤Ģðŀ¤Ķ ðŀ¤īðŀ¤Īðŀ¤ĭðŀ¤Ĵðŀ¤Ģ
Ġðŀ¤ĥðŀ¤¢ðŀ¤¬ ðŀ¤¢ðŀ¤²ðŀ¤³ðŀ¤®
E n
e le
o k
t e
Ø ¶
Ġ .\
Ġ an
Ġ Ã©
Ġ en
Ġðŀ¤ Ľ
ðŀ¤« ðŀ¤¯
ðŀ¤Ń ðŀ¤¬
ðŀ¤² ðŀ¤¼ðŀ¤¢
ðŀ¤² ðŀ¤³ðŀ¤¢
ðŀ¤£ ðŀ¤Ńðŀ¤²ðŀ¤¢
ðŀ¤ª ðŀ¤®ðŀ¤²
Ġðŀ¤² ðŀ¤¢ðŀ¤º
ðŀ¤º ðŀ¤¢ðŀ¤²
ðŀ¤¢ðŀ¤¤ ðŀ¤®
ðŀ¤¥ ðŀ¤¦ðŀ¤¢
ðŀ¤¯ ðŀ¤µðŀ¤¯ðŀ¤®
ðŀ¤Ńðŀ¤² ðŀ¤¢ðŀ¤²
ðŀ¤Ńðŀ¤² ðŀ¤³ðŀ¤¢
ðŀ¤Ńðŀ¤² ðŀ¤¢ðŀ¤ºðŀ¤®ðŀ¤¤
ðŀ¤³ ðŀ¤®ðŀ¤ªðŀ¤®
Ġðŀ¤¬ ðŀ¤«ðŀ¤ª
Ġðŀ¤¼ ðŀ¤¢ðŀ¤º
Ġðŀ¤§ ðŀ¤Ńðŀ¤¥
Ġðŀ¤ĳ ðŀ¤ĵ
Ġðŀ¤ĳ ðŀ¤¢ðŀ¤¤ðŀ¤Ń
Ġðŀ¤ĳ ðŀ¤Ńðŀ¤§
Ġðŀ¤ĳ ðŀ¤µðŀ¤¤ðŀ¤µ
Ġðŀ¤ĳ ðŀ¤¢ðŀ¤¦ðŀ¤®
Ġðŀ¤´ ðŀ¤¢ðŀ¤ª
Ġðŀ¤´ ðŀ¤«ðŀ¤£
ðŀ¤´ ðŀ¤©ðŀ¤«
ðŀ¤´ ðŀ¤¢ðŀ¤´
ðŀ¤ªðŀ¤Ń ðŀ¤¤
ðŀ¤ĭ ðŀ¤Ħ
ðŀ¤ĭ ðŀ¤ļðŀ¤ĭ
Ġðŀ¤±ðŀ¤®ðŀ¤² ðŀ¤³ðŀ¤Ń
ðŀ¤§ ðŀ¤¼ðŀ¤¢
ðŀ¤§ ðŀ¤¢ðŀ¤¨
ðŀ¤© ðŀ¤¼ðŀ¤Ńðŀ¤²
Ġðŀ¤£ ðŀ¤¢ðŀ¤£ðŀ¤Ń
Ġðŀ¤ħ ðŀ¤Ģðŀ¤ıðŀ¤ĵðŀ¤ģðŀ¤ĭ
ðŀ¤Į ðŀ¤Ļ
Ġðŀ¤Ģ ðŀ¤¼
Ġðŀ¤ĥ ðŀ¤®ðŀ¤ª
ðŀ¤®ðŀ¤ª ðŀ¤¢ðŀ¤²
ðŀ¤®ðŀ¤ª ðŀ¤¢ðŀ¤²ðŀ¤®
Ġðŀ¤º ðŀ¤µðŀ¤¤ðŀ¤µ
Ġðŀ¤¸ðŀ¤® ðŀ¤¥ðŀ¤¦ðŀ¤Ń
ðŀ¤¢ðŀ¤¼ ðŀ¤¢ðŀ¤²
Ġðŀ¤Ĳ ðŀ¤Ģ
Ġðŀ¤Ĳ ðŀ¤ģðŀ¤ī
Ġðŀ¤ĺ ðŀ¤Ńðŀ¤²ðŀ¤«ðŀ¤²ðŀ¤¢
ðŀ¤¼ðŀ¤® ðŀ¤¼ðŀ¤¢
ðŀ¤Ńðŀ¤¥ ðŀ¤¦ðŀ¤¢
Ġðŀ¤Ħ ðŀ¤ĭðŀ¤ħ
Ġðŀ¤¥ðŀ¤® ðŀ¤º
Ġðŀ¤¦ ðŀ¤¢ðŀ¤º
Ġðŀ¤Ĭ ðŀ¤«ðŀ¤¤
Ġðŀ¤Ĭ ðŀ¤«ðŀ¤§
Ġðŀ¤¼ðŀ¤¢ðŀ¤± ðŀ¤¢ðŀ¤¼ðŀ¤¢
Ġðŀ¤ĸ ðŀ¤¢ðŀ¤²ðŀ¤ªðŀ¤Ń
ðŀ¤Ńðŀ¤´ ðŀ¤®ðŀ¤¤
Ġðŀ¤ģ ðŀ¤ĵ
ðŀ¤ģ ðŀ¤Ģ
ðŀ¤ģ ðŀ¤ĺ
Ġðŀ¤¨ ðŀ¤µðŀ¤¤
Ġðŀ¤Ķ ðŀ¤Ńðŀ¤¦ðŀ¤ªðŀ¤Ń
Ġðŀ¤Ķ ðŀ¤¢ðŀ¤¨ðŀ¤¢ðŀ¤²
Ġðŀ¤§ðŀ¤® ðŀ¤¬
Ġðŀ¤§ðŀ¤® ðŀ¤°
Ġðŀ¤¶ðŀ¤® ðŀ¤¶
Ġðŀ¤ª ðŀ¤Ń
ðŀ¤Ĥ ðŀ¤Į
ðŀ¤ħ ðŀ¤Ń
Ġðŀ¤§ðŀ¤µ ðŀ¤³
ðŀ¤¢ðŀ¤¸ ðŀ¤Ń
Ġðŀ¤¢ðŀ¤ª ðŀ¤£ðŀ¤Ńðŀ¤²
Ġðŀ¤¢ðŀ¤ª ðŀ¤£ðŀ¤Ńðŀ¤²ðŀ¤®
Ġðŀ¤ı ðŀ¤Ģ
Ġðŀ¤ı ðŀ¤Į
Ġðŀ¤Ĩ ðŀ¤µðŀ¤¼ðŀ¤Ńðŀ¤²
ðŀ¤Ģðŀ¤Ĳ ðŀ¤ĳðŀ¤Į
ðŀ¤«ðŀ¤´ ðŀ¤¯ðŀ¤«
ðŀ¤Ńðŀ¤¼ ðŀ¤¢ðŀ¤²ðŀ¤®
ðŀ¤Ńðŀ¤¼ ðŀ¤¢ðŀ¤¼ðŀ¤¢
ðŀ¤Ĵ ðŀ¤Į
Ġðŀ¤¢ðŀ¤² ðŀ¤ºðŀ¤¢ðŀ¤¤
Ġðŀ¤Ĥ ðŀ¤«ðŀ¤´ðŀ¤£ðŀ¤Ń
ðŀ¤¤ðŀ¤® ðŀ¤³
ðŀ¤¤ðŀ¤® ðŀ¤¼ðŀ¤®
Ġðŀ¤³ðŀ¤®ðŀ¤² ðŀ¤Ń
Ġðŀ¤´ðŀ¤¢ðŀ¤¤ ðŀ¤¼ðŀ¤µ
Ġðŀ¤¸ðŀ¤«ðŀ¤© ðŀ¤µðŀ¤ºðŀ¤®ðŀ¤¤
Ġðŀ¤¸ðŀ¤«ðŀ¤© ðŀ¤Ńðŀ¤ªðŀ¤¢
Ġðŀ¤¯ðŀ¤µ ðŀ¤´
Ġðŀ¤į ðŀ¤ĭðŀ¤Ĳ
Ġðŀ¤Ģðŀ¤¤ ðŀ¤¥ðŀ¤¢
ðŀ¤¢ðŀ¤§ ðŀ¤µ
ðŀ¤¢ðŀ¤§ ðŀ¤Ńðŀ¤¤
Ġðŀ¤° ðŀ¤¢ðŀ¤¥
Ġðŀ¤±ðŀ¤Ń ðŀ¤µðŀ¤©ðŀ¤«
ðŀ¤īðŀ¤Ĳ ðŀ¤ĺ
ðŀ¤Ķ ðŀ¤Ģ
ðŀ¤Ķ ðŀ¤ī
nðŀ¤Ĳ ðŀ¤ºðŀ¤®
ðŀ¤Ģðŀ¤ĥ ðŀ¤ī
Ġðŀ¤´ðŀ¤« ðŀ¤¤ðŀ¤¢
ðŀ¤§ðŀ¤® ðŀ¤ªðŀ¤Ń
ðŀ¤¦ðŀ¤µ ðŀ¤³
Ġðŀ¤¤ðŀ¤« ðŀ¤¯
Ġðŀ¤§ðŀ¤¢ðŀ¤ª ðŀ¤¯ðŀ¤®
Ġðŀ¤²ðŀ¤¶ ðŀ¤¢
Ġðŀ¤ĵ ðŀ¤¥
Ġðŀ¤ĵ ðŀ¤ħðŀ¤ĥðŀ¤Ģ
ðŀ¥ķ ðŀ¥Ĳ
Ġðŀ¤±ðŀ¤Ńðŀ¤´ ðŀ¤¢ðŀ¤´
ðŀ¤Ģðŀ¤ģ ðŀ¤Ģ
ðŀ¤Ģðŀ¤ļ ðŀ¤Ģ
ðŀ¤Ģðŀ¤ļ ðŀ¤ĵ
Ġðŀ¤¸ðŀ¤«ðŀ¤©ðŀ¤Ń ðŀ¤£ðŀ¤Ń
Ġðŀ¤¯ðŀ¤Ńðŀ¤¯ ðŀ¤¢ðŀ¤©ðŀ¤¢ðŀ¤¤
Ġðŀ¤ĥðŀ¤® ðŀ¤¸ðŀ¤¢ðŀ¤¥
ðŀ¤īðŀ¤Ī ðŀ¤Ħðŀ¤ĭðŀ¤Ĵðŀ¤Ģ
er s
Ġðŀ¤¸ðŀ¤¢ðŀ¤ª ðŀ¤¢ðŀ¤´ðŀ¤²ðŀ¤®
Ġðŀ¤Ĳðŀ¤Ń ðŀ¤±
nðŀ¤ĩ ðŀ¤¢ðŀ¤´ðŀ¤¼ðŀ¤Ń
is s
re s
Ġðŀ¤±ðŀ¤«ðŀ¤¤ ðŀ¤§ðŀ¤Ńðŀ¤²
Ġðŀ¤©ðŀ¤«ðŀ¤´ðŀ¤£ðŀ¤Ń ðŀ¤¼ðŀ¤¢
ðĿĹ ²
Ġl i
Ġðŀ¤Ģðŀ¤Ĭ ðŀ¤ªðŀ¤Ńðŀ¤³
ðŀ¤Ļ ðŀ¤Ģðŀ¤Ĥðŀ¤Ģ
Ġðŀ¤Ģðŀ¤ģðŀ¤Ĥ ðŀ¤Ģðŀ¤ĥ
Ġðŀ¤ľ ðŀ¤īðŀ¤Īðŀ¤ģðŀ¤ī
Ġðŀ¤¢ðŀ¤´ ðŀ¤©ðŀ¤«
Ġðŀ¤¬ðŀ¤µ ðŀ¤ªðŀ¤«
Ġðŀ¤¥ðŀ¤¢ðŀ¤ª ðŀ¤µðŀ¤²ðŀ¤®
Ġðŀ¤£ðŀ¤®ðŀ¤± ðŀ¤ªðŀ¤Ń
ðŀ¤®ðŀ¤²ðŀ¥ĭðŀ¤£ðŀ¤Ńðŀ¤ª ðŀ¤ºðŀ¤®ðŀ¤¤
ĠT im
Ġðŀ¤£ðŀ¤¢ðŀ¤ªðŀ¤Ń ðŀ¤³ðŀ¤«
Ġðŀ¤¤ðŀ¤¢ðŀ¤²ðŀ¤£ðŀ¤Ń ðŀ¤³ðŀ¤«
ÙĪ ÙĬ
Ġðŀ¤§ðŀ¤¢ðŀ¤¬ ðŀ¤ªðŀ¤®
ĠC N
Ġðŀ¤ĳðŀ¤Įðŀ¤ļðŀ¤ģðŀ¤ĭ ðŀ¤ľðŀ¤Ģ
Ġðŀ¤¦ðŀ¤¢ðŀ¤ª ðŀ¤¥ðŀ¤Ń
Ġðŀ¤Ŀ ðŀ¤¢ðŀ¤£ðŀ¤Ń
ðŀ¤Ģðŀ¤Ĳðŀ¤ģ ðŀ¤Ģ
Ġðŀ¤ºðŀ¤µ ðŀ¤ªðŀ¤«
Ġðŀ¤ºðŀ¤µ ðŀ¤ªðŀ¤Ńðŀ¤¤
Ġðŀ¤Ĵðŀ¤® ðŀ¤ºðŀ¤¢
Ġðŀ¤Ĳðŀ¤Ħðŀ¤Ģðŀ¤Ĥ ðŀ¤ģðŀ¤ī
Ġðŀ¤¸ðŀ¤Ńðŀ¤¤ ðŀ¤²ðŀ¤Ń
Ġðŀ¤Ģðŀ¤ĥ ðŀ¤īðŀ¤Īðŀ¤ĭðŀ¤ĳ
Ġðŀ¤¦ðŀ¤¢ðŀ¤¯ ðŀ¤¼ðŀ¤«
Ġðŀ¤¼ðŀ¤¢ðŀ¤¼ðŀ¤¢ðŀ¤© ðŀ¤µðŀ¤²
Ġðŀ¤ĥðŀ¤¢ðŀ¤´ ðŀ¤ºðŀ¤¢
Ġðŀ¤¥ðŀ¤«ðŀ¤¼ ðŀ¤¢ðŀ¤¦ðŀ¤®ðŀ¤¤ðŀ¤¢
Ġðŀ¤´ðŀ¤Ńðŀ¤´ ðŀ¤£ðŀ¤µðŀ¤ºðŀ¤®ðŀ¤¤
ðŀ¤īðŀ¤Ĵ ðŀ¤ģðŀ¤ĭ
ðŀ¤®ðŀ¤²ðŀ¤³ ðŀ¤Ńðŀ¤²
nðŀ¤ĥðŀ¤Ń ðŀ¤¯ðŀ¤®
Ġðŀ¤ĥðŀ¤¢ðŀ¤¸ ðŀ¤¥ðŀ¤µ
ðŀ¤¶ðŀ¤Ńðŀ¤¨ ðŀ¤¼ðŀ¤µ
ĠAfri que
ðŀ¤¼ðŀ¤µðŀ¤¥ ðŀ¤¢ðŀ¤¼ðŀ¤¢
ðŀ¤ħðŀ¤ļ ðŀ¤Ģðŀ¤Ī
Ġðŀ¤Ģðŀ¤ĸ ðŀ¤ĥðŀ¤Ģðŀ¤ģðŀ¤ĵ
Ġðŀ¤īðŀ¤§ ðŀ¤¨ðŀ¤¢ðŀ¤»
Ġðŀ¤ļðŀ¤«ðŀ¤² ðŀ¤¼ðŀ¤Ńðŀ¤²ðŀ¤Ń
Ġðŀ¤Ĩðŀ¤Įðŀ¤Ĥ ðŀ¤Įðŀ¤Ļ
ðŀ¤Ģðŀ¤¸ ðŀ¤¥ðŀ¤¢ðŀ¤£ðŀ¤µ
ðŀ¤¢ðŀ¤´ðŀ¤® ðŀ¤³ðŀ¤®
Ġðŀ¤ģðŀ¤¢ðŀ¤£ðŀ¤Ń ðŀ¤§
Ġðŀ¤ĳðŀ¤µðŀ¤¤ðŀ¤µ ðŀ¤¦ðŀ¤¢ðŀ¤¤ðŀ¤Ń
Ġðŀ¤Ħðŀ¤ĭðŀ¤ħ ðŀ¤Ģðŀ¤ıðŀ¤Į
Ġðŀ¤Ĭðŀ¤«ðŀ¤§ ðŀ¤¦ðŀ¤µðŀ¤³
. .\
C EDEAO
D P
b l
l a
n L
Ù ħ
Ġ h
Ġ Ø§
Ġ on
Ġ or
ðŀ¤ Ľ
ðŀ¤Ń ðŀ¤ªðŀ¤«
ðŀ¤² ðŀ¤Ńðŀ¤´ðŀ¤¢
ðŀ¤² ðŀ¤Ńðŀ¤ªðŀ¤¢
ðŀ¤µ ðŀ¤ªðŀ¤Ń
ðŀ¤£ ðŀ¤¢ðŀ¤±
ðŀ¤£ ðŀ¤¢ðŀ¤ºðŀ¤®ðŀ¤¤
ðŀ¤£ ðŀ¤¤ðŀ¤®ðŀ¤³
ðŀ¤¼ ðŀ¤µðŀ¤²
Ġðŀ¤² ðŀ¤¦ðŀ¤¢
ðŀ¤¤ ðŀ¤¯ðŀ¤®
ðŀ¤º ðŀ¤µðŀ¤²
ðŀ¤º ðŀ¤µðŀ¤¤
Ġðŀ¤¸ ðŀ¤®ðŀ¤ª
ðŀ¤¥ ðŀ¤Ńðŀ¤²
ðŀ¤¥ ðŀ¤µðŀ¤²ðŀ¤®
ðŀ¤¯ ðŀ¤²ðŀ¤£ðŀ¤«
ðŀ¤¯ ðŀ¤Ńðŀ¤²ðŀ¤¢
ðŀ¤¯ ðŀ¤Ńðŀ¤²ðŀ¤®
ðŀ¤³ ðŀ¤µðŀ¤¼ðŀ¤µ
Ġðŀ¤¬ ðŀ¤¢ðŀ¤¸
ðŀ¤«ðŀ¤ ©ðŀ¤«
Ġðŀ¤¤ ðŀ¤¢ðŀ¤§
Ġðŀ¤¼ ðŀ¤¢ðŀ¤¨
Ġðŀ¤¼ ðŀ¤¢ðŀ¤¤ðŀ¤«ðŀ¤²
Ġðŀ¤©ðŀ¤« ðŀ¤´ðŀ¤¢
ðŀ¤¶ ðŀ¤¢ðŀ¤ªðŀ¤Ń
Ġðŀ¤ĳ ðŀ¤¢ðŀ¤£ðŀ¤Ń
Ġðŀ¤ĳ ðŀ¤¢ðŀ¤º
Ġðŀ¤ĳ ðŀ¤¢ðŀ¤¬
Ġðŀ¤´ ðŀ¤®ðŀ¤¤
Ġðŀ¤´ ðŀ¤¢ðŀ¤ªðŀ¤³ðŀ¤®
Ġðŀ¤¶ ðŀ¤Ńðŀ¤²
Ġðŀ¤¶ ðŀ¤¢ðŀ¤ª
Ġðŀ¤¶ ðŀ¤¢ðŀ¤º
Ġðŀ¤³ðŀ¤® ðŀ¤¯ðŀ¤¢ðŀ¤²ðŀ¤¯ðŀ¤«
ðŀ¤± ðŀ¤Ńðŀ¤ªðŀ¤¢
ðŀ¤± ðŀ¤¼ðŀ¤®ðŀ¤ªðŀ¤£ðŀ¤«
ðŀ¤´ ðŀ¤²
ðŀ¤´ ðŀ¤Ńðŀ¤ªðŀ¤¤ðŀ¤«
ðŀ¤Ģðŀ¤ Ł
ðŀ¤§ ðŀ¤³ðŀ¤Ń
ðŀ¤§ ðŀ¤«ðŀ¤´
Ġðŀ¤£ ðŀ¤µðŀ¤²
Ġðŀ¤£ ðŀ¤¢ðŀ¤ªðŀ¤¢
Ġðŀ¤£ ðŀ¤¢ðŀ¤ªðŀ¤¢ðŀ¤²
ðŀ¤ī ðŀ¤ħðŀ¤ĭ
Ġðŀ¤¢ ðŀ¤£ðŀ¤Ńðŀ¤ª
Ġðŀ¤ħ ðŀ¤¢ðŀ¤§ðŀ¤µ
Ġðŀ¤ħ ðŀ¤īðŀ¤Īðŀ¤Ħðŀ¤ĭðŀ¤Ĵðŀ¤Ģ
Ġ" "
Ġðŀ¤Ģ ðŀ¤²ðŀ¤£ðŀ¤¢
Ġðŀ¤ĥ ðŀ¤ĭðŀ¤ħ
ðŀ¤®ðŀ¤ª ðŀ¤²ðŀ¤£ðŀ¤«
ðŀ¤®ðŀ¤ª ðŀ¤ºðŀ¤®ðŀ¤¤
Ġðŀ¤º ðŀ¤Ńðŀ¤¼ðŀ¤«
Ġðŀ¤» ðŀ¤¢ðŀ¤¦
Ġðŀ¤» ðŀ¤¢ðŀ¤¥ðŀ¤¢
ðŀ¤Ĳ ðŀ¤£ðŀ¤«
Ġðŀ¤Ĳ ðŀ¤ĭ
ðŀ¤¯ðŀ¤® ðŀ¤¼ðŀ¤®
ðŀ¤¯ðŀ¤Ń ðŀ¤¼ðŀ¤¢ðŀ¤ºðŀ¤®ðŀ¤¤
Ġðŀ¤ĺ ðŀ¤¢ðŀ¤²ðŀ¤£ðŀ¤¢ðŀ¤¤
ðŀ¤Ńðŀ¤ª ðŀ¤¢ðŀ¤²ðŀ¤®
Ġðŀ¤ĳðŀ¤® ðŀ¤§ðŀ¤¼ðŀ¤¢
Ġðŀ¤Ħ ðŀ¤ĭ
ðŀ¤ĵ ðŀ¤ĩðŀ¤ī
ðŀ¤¤ðŀ¤Ń ðŀ¤³
ðŀ¤¬ ðŀ¤µðŀ¤¤
ðŀ¤¬ ðŀ¤µðŀ¤²ðŀ¤£ðŀ¤«
ðŀ¤Ī ðŀ¤Ģðŀ¤ħðŀ¤ĭðŀ¤Ĥ
Ġðŀ¤¦ ðŀ¤«ðŀ¤¼ðŀ¤«
Ġðŀ¤Ĭ ðŀ¤Ģ
Ġðŀ¤ĸ ðŀ¤ĭ
Ġðŀ¤ĸ ðŀ¤®ðŀ¤ªðŀ¤¦ðŀ¤Ńðŀ¤ª
ðŀ¤µðŀ¤ª ðŀ¤µðŀ¤²
Ġðŀ¤ģ ðŀ¤ĵðŀ¤ĥðŀ¤Ħðŀ¤ĵ
ðŀ¤ģ ðŀ¤Ģðŀ¤Ĳ
Ġðŀ¤Ķ ðŀ¤¢ðŀ¤²ðŀ¤º
Ġðŀ¤Ķ ðŀ¤«ðŀ¤ª
Ġðŀ¤Ķ ðŀ¤Ģðŀ¤Ĩðŀ¤Ģðŀ¤Ĳ
Ġðŀ¤Ń ðŀ¤±ðŀ¤¢
Ġðŀ¤· ðŀ¤®
ðŀ¤¢ðŀ¤º ðŀ¤¦ðŀ¤®
Ġðŀ¤§ðŀ¤® ðŀ¤©
ðŀ¤«ðŀ¤ªðŀ¤« ðŀ¤³
Ġðŀ¤ļ ðŀ¤Ģðŀ¤Ĳ
Ġðŀ¤ļ ðŀ¤ªðŀ¤¢ðŀ¤²
ðŀ¤ĺ ðŀ¤Ńðŀ¤¤ðŀ¤¢
ðŀ¤ħ ðŀ¤®
Ġðŀ¤±ðŀ¤® ðŀ¤¨
ðŀ¤ĥ ðŀ¤ĭ
ðŀ¤ĥ ðŀ¤Ģðŀ¤Ĥðŀ¤ĭ
ðŀ¤ĥ ðŀ¤Ĳðŀ¤Ģ
ðŀ¤ļ ðŀ¤Ģðŀ¤Ĳðŀ¤ĭ
Ġðŀ¤Ĩ ðŀ¤«ðŀ¤²
Ġðŀ¤Ĩ ðŀ¤ĵðŀ¤Ĥ
ðŀ¤«ðŀ¤¼ ðŀ¤«ðŀ¤²
ðŀ¤Ńðŀ¤¼ðŀ¤Ń ðŀ¤ªðŀ¤¢
ðŀ¤Ńðŀ¤¼ ðŀ¤µðŀ¤£ðŀ¤«
ðŀ¤Ńðŀ¤¼ ðŀ¤®ðŀ¤ªðŀ¤£ðŀ¤«
ðŀ¤Ĵ ðŀ¤ī
ðŀ¤Ĵ ðŀ¤Ĳðŀ¤Ģ
Ġðŀ¤¢ðŀ¤² ðŀ¤£ðŀ¤µðŀ¤²ðŀ¤®
Ġðŀ¤Ĥ ðŀ¤Ģðŀ¤ļðŀ¤Į
ðŀ¤¤ðŀ¤® ðŀ¤´
Ġðŀ¤Ĵ ðŀ¤Ń
Ġðŀ¤Ĵ ðŀ¤Į
Ġðŀ¤ĭ ðŀ¤Īðŀ¤Ģðŀ¤Ĳ
ðŀ¤¢ðŀ¤ªðŀ¤¢ðŀ¤² ðŀ¤§ðŀ¤Ń
Ġðŀ¤Ī ðŀ¤Ģðŀ¤Ĵ
Ġðŀ¤¥ðŀ¤¢ðŀ¤± ðŀ¤¯ðŀ¤Ń
Ġðŀ¤į ðŀ¤ĭ
Ġðŀ¤±ðŀ¤Ń ðŀ¤µðŀ¤²ðŀ¤®
ðŀ¤ĸ ðŀ¤¢ðŀ¤²ðŀ¤³ðŀ¤Ń
ðŀ¤«ðŀ¤§ ðŀ¤¼ðŀ¤Ń
ðŀ¤Ķ ðŀ¤¢
ðŀ¤Ĭ ðŀ¤ĺ
nðŀ¤Ĳ ðŀ¤ºðŀ¤¢ðŀ¤¤
Ġðŀ¤´ðŀ¤« ðŀ¤¯ðŀ¤Ń
Ġðŀ¤´ðŀ¤« ðŀ¤¯ðŀ¤¢
ðŀ¤Įðŀ¤Ĳ ðŀ¤ĳðŀ¤Į
ðŀ¤§ðŀ¤® ðŀ¤³ðŀ¤®
ðŀ¤¢ðŀ¤¬ ðŀ¤Ń
ðŀ¥ĵ ðŀ¥Ĳ
Ġðŀ¤«ðŀ¤² ðŀ¤«ðŀ¤²
Ġðŀ¤´ðŀ¤¢ðŀ¤¸ ðŀ¤¢
Ġðŀ¤²ðŀ¤£ðŀ¤Ń ðŀ¤´
Ġðŀ¤²ðŀ¤£ðŀ¤Ń ðŀ¤¥ðŀ¤¢
ðŀ¤ºðŀ¤« ðŀ¤¤ðŀ¤«
ðŀ¤®ðŀ¤¼ ðŀ¤®ðŀ¤²ðŀ¤®
Ġðŀ¥ĵ ðŀ¥Ĵ
ðŀ¤ĵðŀ¤Ĳ ðŀ¤ĭ
ðŀ¤ĺðŀ¤Ģðŀ¤Ĥ ðŀ¤ĭ
Ġðŀ¤±ðŀ¤Ńðŀ¤´ ðŀ¤µðŀ¤ºðŀ¤®ðŀ¤¤
Ġðŀ¤Ļ ðŀ¤Ģðŀ¤ĥ
Ġðŀ¤¼ðŀ¤µ ðŀ¤ºðŀ¤¢
nðŀ¤ħ ðŀ¤¢
nðŀ¤ħ ðŀ¤µ
Ġðŀ¤¯ðŀ¤Ńðŀ¤¯ ðŀ¤¢ðŀ¤©
Ġðŀ¥ĳ ðŀ¥Ĳðŀ¥Ĳ
Ġðŀ¤ĥðŀ¤¢ðŀ¤± ðŀ¤¯ðŀ¤Ń
nðŀ¤ĺ ðŀ¤Ńðŀ¤¦ðŀ¤Ń
Ġðŀ¥ĸ ðŀ¥Ĵ
Ã© e
Ġðŀ¤ħðŀ¤µ ðŀ¤³ðŀ¤¢
Ġðŀ¤Ħðŀ¤¢ ðŀ¥ģ
in k
Ġðŀ¤²ðŀ¤¢ðŀ¤© ðŀ¤Ńðŀ¤ªðŀ¤¢
Ġðŀ¤Ĭðŀ¤µðŀ¤¤ ðŀ¤¬ðŀ¤µðŀ¤¤
ðŀ¤ĳðŀ¤Į ðŀ¤ľ
Ġðŀ¥Ĵðŀ¥Ĳðŀ¥Ĳ ðŀ¥ĵ
Ġðŀ¥Ĵðŀ¥Ĳðŀ¥Ĳ ðŀ¥Ļ
Ġðŀ¤¼ðŀ¤®ðŀ¤½ ðŀ¤¢ðŀ¤²ðŀ¤Ń
Ġðŀ¤±ðŀ¤«ðŀ¤¤ ðŀ¤£ðŀ¤Ń
Ġðŀ¤±ðŀ¤«ðŀ¤¤ ðŀ¤¼ðŀ¤®ðŀ¤ªðŀ¤Ń
Ġðŀ¤©ðŀ¤«ðŀ¤´ðŀ¤£ðŀ¤Ń ðŀ¤¼ðŀ¤Ń
Ġðŀ¤¼ðŀ¤¢ðŀ¤¦ðŀ¤Ńðŀ¤² ðŀ¤¼ðŀ¤Ńðŀ¤²ðŀ¤¢
Ġðŀ¤¼ðŀ¤µðŀ¤¥ðŀ¤¦ ðŀ¤®ðŀ¤²ðŀ¥ĭðŀ¤£ðŀ¤Ńðŀ¤ªðŀ¤«
Ġl ang
at s
ðŀ¤Ńðŀ¤²ðŀ¥ĭ ðŀ¤£ðŀ¤Ńðŀ¤ªðŀ¤Ń
Ġa lphabet
Ġðŀ¤£ðŀ¤¢ðŀ¤¯ ðŀ¤Ń
Ġðŀ¤Ģðŀ¤Ĭ ðŀ¤ĳðŀ¤Įðŀ¤Ĳ
Ġðŀ¤Ĳðŀ¤ĺ ðŀ¤ĵðŀ¤Ĳ
Ġðŀ¤ħðŀ¤ĵ ðŀ¤ĩðŀ¤Į
nðŀ¤į ðŀ¤µ
ðŀ¤Ļ ðŀ¤¢ðŀ¤¤ðŀ¤²ðŀ¤£ðŀ¤«
Ġðŀ¤īðŀ¤ªðŀ¤®ðŀ¤¨ ðŀ¤²ðŀ¤¢
ðŀ¤ľ ðŀ¤Ģðŀ¤Ī
Ġðŀ¤»ðŀ¤¢ðŀ¤± ðŀ¤²
Ġðŀ¤¸ðŀ¤µðŀ¤¥ðŀ¤¨ ðŀ¤Ńðŀ¤¼ðŀ¤¢
ĠU N
Ġðŀ¤¢ðŀ¤¤ ðŀ¤£ðŀ¤¢
Ġðŀ¤§ðŀ¤«ðŀ¤² ðŀ¤°
Ġðŀ¤±ðŀ¤¢ðŀ¤´ðŀ¤¤ ðŀ¤¢ðŀ¤ºðŀ¤®ðŀ¤¤
ðŀ¤¢ðŀ¤ªðŀ¤¢ðŀ¤¤ ðŀ¤Ńðŀ¤´ðŀ¤¢
Ġðŀ¤ĳðŀ¤Ģðŀ¤ĥ ðŀ¤īðŀ¤Īðŀ¤ĵðŀ¤Ĳ
Ġðŀ¤£ðŀ¤µðŀ¤½ ðŀ¤¢ðŀ¤´ðŀ¤«
ðŀ¤«ðŀ¤© ðŀ¤¢ðŀ¤¤
Ġðŀ¤Īðŀ¤«ðŀ¤¬ ðŀ¤¼ðŀ¤Ń
ðŀ¤®ðŀ¤²ðŀ¥ĭðŀ¤£ðŀ¤Ńðŀ¤ª ðŀ¤£ðŀ¤«
ðŀ¤®ðŀ¤²ðŀ¥ĭðŀ¤£ðŀ¤Ńðŀ¤ª ðŀ¤²ðŀ¤®
ðŀ¤¶ðŀ¤¢ðŀ¤² ðŀ¤¼ðŀ¤Ńðŀ¤²ðŀ¤¢
Ġðŀ¤¬ðŀ¤¢ðŀ¤ªðŀ¤¢ðŀ¤² ðŀ¤§ðŀ¤«
Ġðŀ¤µðŀ¤§ ðŀ¤¼ðŀ¤®ðŀ¤ªðŀ¤¼ðŀ¤¢
Ġðŀ¤¯ðŀ¤Ńðŀ¤¯ðŀ¤¥ ðŀ¤Ńðŀ¤¼ðŀ¤Ń
Ġðŀ¥ĳðŀ¥Ļðŀ¥Ļ ðŀ¥Ĳ
Ġðŀ¤«ðŀ¤±ðŀ¤² ðŀ¤®ðŀ¤ªðŀ¤¯ðŀ¤«
Ġðŀ¤§ðŀ¤¢ðŀ¤¬ðŀ¤ª ðŀ¤®ðŀ¤ªðŀ¤£ðŀ¤«
Ġðŀ¤³ðŀ¤¢ðŀ¤± ðŀ¤¼ðŀ¤¢ðŀ¤¤
Ġðŀ¤Ĳðŀ¤º ðŀ¤«ðŀ¤§ðŀ¤®
Ġðŀ¤ĺðŀ¤µ ðŀ¤£ðŀ¤¤ðŀ¤®ðŀ¤³
Ġðŀ¤¸ðŀ¤¢ðŀ¤¼ðŀ¤®ðŀ¤²ðŀ¤¶ ðŀ¤Ńðŀ¤²ðŀ¤Ń
ðŀ¤±ðŀ¤¼ðŀ¤®ðŀ¤ª ðŀ¤ºðŀ¤®ðŀ¤¤
nðŀ¤Ģðŀ¤¤ ðŀ¤¬ðŀ¤¢
Ġðŀ¤©ðŀ¤®ðŀ¤¤ ðŀ¤¢ðŀ¤¤
Ġðŀ¤Ĭðŀ¤ī ðŀ¤İ
Ġðŀ¤Ķðŀ¤®ðŀ¤ª ðŀ¤¶
Ġðŀ¤Įðŀ¤§ðŀ¤¼ ðŀ¤¢ðŀ¤ªðŀ¤¢ðŀ¤¤ðŀ¤Ńðŀ¤´ðŀ¤¢
Ġðŀ¤§ðŀ¤«ðŀ¤²ðŀ¤«ðŀ¤ºðŀ¤¢ðŀ¤¤ ðŀ¤²ðŀ¤¢
Ġðŀ¤ĳðŀ¤¢ðŀ¤²ðŀ¤³ ðŀ¤¢ðŀ¤²
Ġðŀ¤Īðŀ¤Ń ðŀ¤³ðŀ¤¢
ĠðŁĩ¨ ðŁĩ
Ġðŀ¤¸ðŀ¤µðŀ¤¥ðŀ¤¢ðŀ¤¥ðŀ¤¦ ðŀ¤Ńðŀ¤²
Ġðŀ¤ĺðŀ¤¢ðŀ¤¦ ðŀ¤®ðŀ¤²
Ġðŀ¤Ħðŀ¤Ń ðŀ¤§ðŀ¤Ń
Ġðŀ¤¼ðŀ¤µðŀ¤ºðŀ¤¢ðŀ¤¤ ðŀ¤¢ðŀ¤¤
Ġðŀ¤¤ðŀ¤®ðŀ¤²ðŀ¤¼ðŀ¤Ńðŀ¤² ðŀ¤Ńðŀ¤ªðŀ¤¢
ðĿĹ» ðĿĹ
ðŀ¤«ðŀ¤½ ðŀ¤¼ðŀ¤Ńðŀ¤²ðŀ¤Ń
Ġðŀ¤ĸðŀ¤¢ðŀ¤ª ðŀ¤¢ðŀ¤´
ðŀ¤¾ðŀ¤«ðŀ¤ªðŀ¤¨ ðŀ¤µðŀ¤¤
ĠCN RD
ĠØ§ ÙĦÙ
Ġðŀ¤¼ðŀ¤¢ðŀ¤¤ðŀ¤«ðŀ¤² ðŀ¤ªðŀ¤µ
Ġðŀ¤ĳðŀ¤¢ðŀ¤º ðŀ¤¢ðŀ¤¥ðŀ¤«
Ġðŀ¤ĥðŀ¤ĭðŀ¤ħ ðŀ¤Īðŀ¤Ģ
Ġðŀ¤ģðŀ¤ĵðŀ¤ĥðŀ¤Ħðŀ¤ĵ ðŀ¤Ĵðŀ¤Ģ
Ġðŀ¤Ĭðŀ¤µðŀ¤¤ðŀ¤¬ðŀ¤µðŀ¤¤ ðŀ¤£ðŀ¤«
. ..\
N e
d l
d it
f ul
g r
h ats
i nter
l i
m ent
m er
r it
t a
t ing
u t
w it
¥ Ø¹
¨ Ùĩ
ª ÙĪÙĬ
° Ùĩ
³ Ø¨
¹ Ø¬
Ø ¥Ø¹
Ø °Ùĩ
Ø ³Ø¨
Ù Ħ
Ù ħØ
Ġ 1
Ġ 7
Ġ G
Ġ S
Ġ g
Ħ ØªØ
ħ ÙĪ
ðŀ¤Ń ðŀ¤£ðŀ¤Ń
ðŀ¤Ń ðŀ¤¬ðŀ¤Ń
ðŀ¤² ðŀ¤¯
ðŀ¤µ ðŀ¤¸ðŀ¤¢ðŀ¤¥
ðŀ¤£ ðŀ¤Ńðŀ¤²ðŀ¤Ń
ðŀ¥Ħ ."
ðŀ¤ª ðŀ¤¦ðŀ¤Ńðŀ¤ª
ðŀ¤ª ðŀ¤¢ðŀ¤¦ðŀ¤µ
ðŀ¤¼ ðŀ¤¢ðŀ¤´ðŀ¤²ðŀ¤®
ðŀ¤¤ ðŀ¤¢ðŀ¤¼ðŀ¤¢
Ġðŀ¤³ ðŀ¤«ðŀ¤¤
Ġðŀ¤³ ðŀ¤µðŀ¤©ðŀ¤«
Ġðŀ¤³ ðŀ¤«ðŀ¤²ðŀ¤«ðŀ¤²
Ġðŀ¤¸ ðŀ¤¢ðŀ¤²ðŀ¤³ðŀ¤®
ðŀ¤¥ ðŀ¤µðŀ¤²
ðŀ¤¥ ðŀ¤¢ðŀ¤´ðŀ¤²ðŀ¤®
ðŀ¤¯ ðŀ¤©ðŀ¤«
ðŀ¤¯ ðŀ¤¢ðŀ¤²ðŀ¤£ðŀ¤«
ðŀ¤¯ ðŀ¤«ðŀ¤±ðŀ¤¢ðŀ¤¤
ðŀ¤¢ðŀ¤² ðŀ¤§
ðŀ¤®ðŀ¤² ðŀ¤£ðŀ¤Ń
ðŀ¤Ńðŀ¤² ðŀ¤Ńðŀ¤²ðŀ¤®
ðŀ¤Ńðŀ¤² ðŀ¤¼ðŀ¤Ńðŀ¤²ðŀ¤ºðŀ¤®ðŀ¤¤
Ġðŀ¤± ðŀ¤®ðŀ¤ªðŀ¤©ðŀ¤«
Ġðŀ¤¥ ðŀ¤Ńðŀ¤²
ðŀ¤³ ðŀ¤¢ðŀ¤ªðŀ¤¢
Ġðŀ¤¯ ðŀ¤¢
ðŀ¤Ģ ðŀ¤±ðŀ¤¢
Ġðŀ¤¤ ðŀ¤¢ðŀ¤´
Ġðŀ¤§ ðŀ¤¢ðŀ¤¤ðŀ¤¢
ðŀ¤¶ ðŀ¤«ðŀ¤ªðŀ¤«
ðŀ¤¶ ðŀ¤¢ðŀ¤²ðŀ¤º
Ġðŀ¤ĳ ðŀ¤ĭðŀ¤Ĳ
Ġðŀ¤ĳ ðŀ¤ĵðŀ¤Ĥ
ðŀ¤¢ðŀ¤ª ðŀ¤¥ðŀ¤¢
Ġðŀ¤´ ðŀ¤®ðŀ¤²ðŀ¤¢
Ġðŀ¤¶ ðŀ¤«ðŀ¤±
Ġðŀ¤¶ ðŀ¤¢ðŀ¤¥ðŀ¤¢
Ġðŀ¤¶ ðŀ¤¢ðŀ¤³ðŀ¤¢
Ġðŀ¤³ðŀ¤® ðŀ¤ªðŀ¤®
Ġðŀ¤³ðŀ¤® ðŀ¤¶ðŀ¤®ðŀ¤¥ðŀ¤¢
ðŀ¤± ðŀ¤µðŀ¤²ðŀ¥ĭðŀ¤£ðŀ¤«
ðŀ¤± ðŀ¤²ðŀ¤ºðŀ¤¢ðŀ¤¤
ðŀ¤± ðŀ¤²ðŀ¤µðŀ¤ºðŀ¤®ðŀ¤¤
ðŀ¤± ðŀ¤Ńðŀ¤ªðŀ¤£ðŀ¤µ
ðŀ¤± ðŀ¤¼ðŀ¤®ðŀ¤ªðŀ¤¢
ðŀ¤¦ ðŀ¤®ðŀ¤¤ðŀ¤¢
ðŀ¤Ģðŀ¤ į
Ġðŀ¤±ðŀ¤®ðŀ¤² ðŀ¤¢ðŀ¤²ðŀ¤©ðŀ¤«
ðŀ¤§ ðŀ¤«ðŀ¤²
ðŀ¤§ ðŀ¤¢ðŀ¤´
ðŀ¤§ ðŀ¤¤ðŀ¤¢
ðŀ¤© ðŀ¤Ńðŀ¤ªðŀ¤¢
Ġðŀ¤³ðŀ¤¢ Ø§Ø¶ØºØ·
Ġðŀ¤£ ðŀ¤«ðŀ¤±
Ġðŀ¤ħ ðŀ¤¢ðŀ¤ºðŀ¤®
Ġðŀ¤ħ ðŀ¤Įðŀ¤Ĳðŀ¤ĳðŀ¤Į
Ġðŀ¤Ģ ðŀ¤¦ðŀ¤Ńðŀ¤¶ðŀ¤¢ðŀ¤²
Ġðŀ¤ĥ ðŀ¤ĵðŀ¤Ĥ
Ġðŀ¤ĥ ðŀ¤Ģðŀ¤ı
ðŀ¤¢ðŀ¤³ ðŀ¤µ
ðŀ¤¢ðŀ¤£ ðŀ¤«ðŀ¤§
Ġðŀ¤¸ðŀ¤® ðŀ¤¯ðŀ¤Ń
ðŀ¤Ĳ ðŀ¤ĺðŀ¤Ģðŀ¤Ĥ
ðŀ¤Ĳ ðŀ¤ĺðŀ¤Į
ðŀ¤¢ðŀ¤© ðŀ¤µðŀ¤ªðŀ¤µ
Ġðŀ¤Ħ ðŀ¤Ģðŀ¤Ĵ
Ġðŀ¤Ħ ðŀ¤īðŀ¤Ĥ
Ġðŀ¤Ħ ðŀ¤¢ðŀ¤ºðŀ¤¦ðŀ¤®
ðŀ¤¤ðŀ¤Ń ðŀ¤ªðŀ¤Ń
ðŀ¤¤ðŀ¤Ń ðŀ¤³ðŀ¤«
Ġðŀ¤¬ðŀ¤® ðŀ¤³
Âł Âł
ðŀ¤¢ðŀ¤¦ ðŀ¤Ńðŀ¤´
Ġðŀ¤¦ ðŀ¤Ńðŀ¤´ðŀ¤®ðŀ¤¤
ðŀ¤¨ ðŀ¤®ðŀ¤¤
Ġðŀ¤ĸ ðŀ¤Ģ
Ġðŀ¤ĸ ðŀ¤¢ðŀ¤¥
Ġðŀ¤ĸ ðŀ¤Ńðŀ¤³
Ġðŀ¤±ðŀ¤¢ðŀ¤¯ ðŀ¤¢ðŀ¤´ðŀ¤²ðŀ¤®
Ġðŀ¤ģ ðŀ¤Ģðŀ¤Īðŀ¤Į
Ġðŀ¤ī ðŀ¤Ĭ
ðŀ¤³ðŀ¤® ðŀ¤´
Ġðŀ¤¨ ðŀ¤®ðŀ¤¤
Ġðŀ¤Ń ðŀ¤§ðŀ¤¤ðŀ¤¢
Ġðŀ¤· ðŀ¤®ðŀ¤³
Ġðŀ¤· ðŀ¤¢ðŀ¤¤ðŀ¤¯ðŀ¤Ń
ðŀ¤ºðŀ¤® ðŀ¤¥ðŀ¤¢ðŀ¤¤
Ġðŀ¤¸ðŀ¤Ń ðŀ¤§ðŀ¤Ń
ðŀ¤¥ðŀ¤µ ðŀ¤¤
Ġðŀ¤ª ðŀ¤¢ðŀ¤²ðŀ¤«
Ġðŀ¤ª ðŀ¤®ðŀ¤¼
ðŀ¤²ðŀ¤Ń ðŀ¤ªðŀ¤Ń
ðŀ¤©ðŀ¤Ń ðŀ¤¼ðŀ¤¢
Ġðŀ¤ļ ðŀ¤ĵðŀ¤Ĳðŀ¤ĭ
ðŀ¤ĺ ðŀ¤Ńðŀ¤²ðŀ¤«
le s
ðŀ¤ĥ ðŀ¤Ĩ
it y
it Ã©
ðŀ¤«ðŀ¤¤ ðŀ¤®
ent ation
Ġðŀ¤Į ðŀ¤ħðŀ¤ļðŀ¤Ģðŀ¤Ī
co m
Ġðŀ¤ı ðŀ¤¢ðŀ¤²ðŀ¤®
Ġðŀ¤ı ðŀ¤Ģðŀ¤ļ
Ġðŀ¤¼ðŀ¤® ðŀ¤¼
Ġðŀ¤Ĩ ðŀ¤®
Ġðŀ¤Ĩ ðŀ¤¢ðŀ¤¤
Ġðŀ¤Ĩ ðŀ¤¢ðŀ¤§
ðŀ¤§ðŀ¤Ń ðŀ¤¤
ðŀ¤§ðŀ¤Ń ðŀ¤¼ðŀ¤«ðŀ¤¤
Ġðŀ¤¥ðŀ¤µ ðŀ¤¼ðŀ¤Ń
Ġðŀ¤¥ðŀ¤µ ðŀ¤´ðŀ¤²ðŀ¤¢
ðŀ¤Ńðŀ¤²ðŀ¤® ðŀ¤ªðŀ¤Ń
ðŀ¤ºðŀ¤®ðŀ¤ª ðŀ¤¯ðŀ¤«
ðŀ¤Ńðŀ¤¼ ðŀ¤µ
Ġðŀ¤¢ðŀ¤² ðŀ¤£ðŀ¤µðŀ¤£ðŀ¤«
ðŀ¤µðŀ¤¯ ðŀ¤«ðŀ¤²
Ġðŀ¤Ĥ ðŀ¤ĵðŀ¤ĥ
Ġðŀ¤Ĵ ðŀ¤ĵ
Ġðŀ¤¸ðŀ¤«ðŀ¤© ðŀ¤¢ðŀ¤¼ðŀ¤¢
Ġðŀ¤ĭ ðŀ¤£ðŀ¤Ń
Ġðŀ¤Ī ðŀ¤¢ðŀ¤²ðŀ¤«
Ġðŀ¤Ī ðŀ¤ĵðŀ¤ı
Ġðŀ¤±ðŀ¤¢ðŀ¤¯ðŀ¤Ń ðŀ¤ªðŀ¤Ń
Ġðŀ¤¥ðŀ¤¢ðŀ¤± ðŀ¤³ðŀ¤¢
Ġðŀ¤¸ðŀ¤µ ðŀ¤¤ðŀ¤Ń
Ġðŀ¤ķ ðŀ¤¢ðŀ¤º
Ġðŀ¤ķ ðŀ¤«ðŀ¤¤
ðŀ¤° ðŀ¤®
ðŀ¤µðŀ¤²ðŀ¥ĭ ðŀ¤ºðŀ¤µ
ðŀ¤ĸ ðŀ¤¢ðŀ¤ªðŀ¤Ń
ðŀ¤ĸ ðŀ¤Įðŀ¤Ĥ
Ġðŀ¤£ðŀ¤¢ðŀ¤ª ðŀ¤¼ðŀ¤¢
Ġðŀ¤£ðŀ¤¢ðŀ¤ª ðŀ¤¢ðŀ¤²ðŀ¤Ń
nðŀ¤Ĳ ðŀ¤Ģðŀ¤Ĳðŀ¤ģ
ðŀ¤Ģðŀ¤ĥ ðŀ¤ĭ
ĠÙ ĦØªØ
Ġðŀ¤´ðŀ¤« ðŀ¤¤ðŀ¤Ń
ðŀ¤» ðŀ¤«
ðŀ¤ĩ ðŀ¤«
Ġðŀ¤¤ðŀ¤¢ðŀ¤² ðŀ¤£ðŀ¤Ńðŀ¤²ðŀ¤®
ÙĬ ÙĦ
ðŀ¤®ðŀ¤²ðŀ¥ĭ ðŀ¤£ðŀ¤Ńðŀ¤ªðŀ¤¢
Ġðŀ¤´ðŀ¤¢ðŀ¤¸ ðŀ¤µðŀ¤£ðŀ¤«
ĠØ ªØŃ
ĠØ ¨Ùĩ
ĠØ ªÙĪÙĬ
Ġðŀ¤²ðŀ¤¢ðŀ¤´ ðŀ¤«
Ġðŀ¥ĵ ðŀ¥Ķ
Ġðŀ¥ĵ ðŀ¥Ĺ
ðŀ¤£ðŀ¤Ńðŀ¤² ðŀ¤³ðŀ¤®ðŀ¤±ðŀ¤¢ðŀ¤¤
Ġðŀ¤±ðŀ¤¢ðŀ¤´ ðŀ¤¤ðŀ¤¢
ðĿ ĺ
Ø§Ø ¨
Ġðŀ¤±ðŀ¤Ńðŀ¤² ðŀ¤£ðŀ¤Ńðŀ¤ªðŀ¤¢
Ġðŀ¤¬ðŀ¤Ńðŀ¤¶ ðŀ¤¢ðŀ¤¼ðŀ¤¢
Ġðŀ¤¬ðŀ¤Ńðŀ¤¶ ðŀ¤¢ðŀ¤²ðŀ¤¯ðŀ¤«
Ġðŀ¤Ķðŀ¤® ðŀ¤ºðŀ¤®ðŀ¤¥ðŀ¤¢ðŀ¤¤
Ġðŀ¤ĳðŀ¤µ ðŀ¤´ðŀ¤¢
Ġðŀ¤¼ðŀ¤¢ðŀ¤¥ ðŀ¤¢ðŀ¤±ðŀ¤µ
Ġðŀ¤±ðŀ¤¢ðŀ¤ª ðŀ¤µðŀ¤ºðŀ¤®ðŀ¤¤
Ġðŀ¤±ðŀ¤¢ðŀ¤ª ðŀ¤µðŀ¤²ðŀ¤®
nðŀ¤ĺ ðŀ¤Ńðŀ¤²ðŀ¤«
Ġðŀ¤Ħðŀ¤µ ðŀ¤´
Ġðŀ¤¼ðŀ¤®ðŀ¤² ðŀ¤ºðŀ¤®
Ġðŀ¥ķ ðŀ¥Ĳ
nðŀ¤ĥ ðŀ¤®ðŀ¤²ðŀ¤®
Ġðŀ¤ħðŀ¤µ ðŀ¤±ðŀ¤Ń
Ġðŀ¤¦ðŀ¤®ðŀ¤² ðŀ¤¯ðŀ¤«
Ġd es
ðŀ¤Ģðŀ¤Ĵ ðŀ¤Į
ðŀ¤¼ðŀ¤Ńðŀ¤ª ðŀ¤¼ðŀ¤¢
Ġðŀ¤¬ðŀ¤«ðŀ¤¤ ðŀ¤®
Ġðŀ¤ĥðŀ¤¢ðŀ¤³ ðŀ¤®ðŀ¤ªðŀ¤®ðŀ¤²
Ġðŀ¤¶ðŀ¤®ðŀ¤º ðŀ¤¢ðŀ¤²ðŀ¤Ń
Ġðŀ¥Ķ ðŀ¥Ĳ
ĠÙģÙĬ Ø³Ø¨
Ġðŀ¤¬ðŀ¤«ðŀ¤¼ ðŀ¤¤ðŀ¤«
Ġðŀ¤©ðŀ¤«ðŀ¤´ðŀ¤£ðŀ¤Ń ðŀ¤³ðŀ¤«
ðŀ¤Ģðŀ¤Ĥðŀ¤ĭ ðŀ¤Ĵðŀ¤Ģ
ĠðŁĩ ²
Ġðŀ¤²ðŀ¤¢ðŀ¤¬ ðŀ¤¢
Ġðŀ¤¦ðŀ¤µ ðŀ¤ºðŀ¤Ń
Ġðŀ¤§ðŀ¤¢ðŀ¤³ ðŀ¤¢
Ġðŀ¤¦ðŀ¤® ðŀ¤¯ðŀ¤«ðŀ¤±ðŀ¤¢ðŀ¤¤
ðŀ¤Ńðŀ¤²ðŀ¥ĭ ðŀ¤£ðŀ¤¢
ĠÙĦÙ ħØ´Ø§Ø±ÙĥØ©
Ġðŀ¤¸ðŀ¤«ðŀ¤§ ðŀ¤®
Ġðŀ¤Ĳðŀ¤¦ ðŀ¤¢ðŀ¤¼ðŀ¤Ńðŀ¤ªðŀ¤£ðŀ¤µ
Ġðŀ¤¦ðŀ¤« ðŀ¤¯
Ġðŀ¤¸ðŀ¤¢ðŀ¤¤ ðŀ¤¬
ðŀ¤ĭðŀ¤Ĥ ðŀ¤ĭ
Ġðŀ¤©ðŀ¤¢ðŀ¤²ðŀ¤º ðŀ¤Ńðŀ¤²ðŀ¤¢
ĠP inter
Ġðŀ¤´ðŀ¤¢ðŀ¤¤ðŀ¤¼ðŀ¤Ńðŀ¤² ðŀ¤£ðŀ¤«
Ġðŀ¤´ðŀ¤¢ðŀ¤¤ðŀ¤¼ðŀ¤Ńðŀ¤² ðŀ¤¢ðŀ¤²ðŀ¤®
Ġðŀ¤¤ðŀ¤µðŀ¤¥ðŀ¤¦ ðŀ¤µðŀ¤£ðŀ¤«
nðŀ¤ı ðŀ¤µðŀ¤ªðŀ¤Ńðŀ¤²
Ġðŀ¤ĭðŀ¤§ ðŀ¤¥ðŀ¤¢
Ġðŀ¤¤ðŀ¤Ńðŀ¤¥ ðŀ¤¼ðŀ¤¢
ðŀ¤Ł ðŀ¤Ģðŀ¤ĥðŀ¤Ħðŀ¤ĭðŀ¤ĳ
Ġðŀ¤Ģðŀ¤ª ðŀ¤¶ðŀ¤¢ðŀ¤²ðŀ¤¼ðŀ¤Ńðŀ¤²ðŀ¤¢
Ġðŀ¤Ł ðŀ¤Ģðŀ¤ĥðŀ¤Ħðŀ¤ĭðŀ¤Ĵðŀ¤Ģ
ðŀ¤īðŀ¤ħ ðŀ¤Ħðŀ¤ĵ
ĠF ran
ĠT um
ĠT ele
Ġðŀ¤¼ðŀ¤¢ðŀ¤° ðŀ¤µðŀ¤ºðŀ¤®ðŀ¤¤
Ġðŀ¤§ðŀ¤¢ðŀ¤¯ ðŀ¤Ń
Ġðŀ¤ªðŀ¤®ðŀ¤² ðŀ¤³ðŀ¤Ń
ÙĪ Ùĥ
ÙĪ Ø¹
ðŀ¤Ģðŀ¤Ħ ðŀ¤Ģ
Ġðŀ¤¸ðŀ¤«ðŀ¤ª ðŀ¤§
Ġðŀ¤¸ðŀ¤«ðŀ¤ª ðŀ¤§ðŀ¤¢
Ġðŀ¤¤ðŀ¤µðŀ¤¥ ðŀ¤¦ðŀ¤¢
ed In
ed dit
Ġðŀ¤Ŀ ðŀ¤Ģðŀ¤ĥðŀ¤ī
ðŀ¤īðŀ¤ı ðŀ¤ļðŀ¤ĭ
Ġðŀ¤²ðŀ¤«ðŀ¤±ðŀ¤² ðŀ¤¢ðŀ¤²ðŀ¤¢
Ġðŀ¤¬ðŀ¤¢ðŀ¤² ðŀ¤¼ðŀ¤Ńðŀ¤²
Ġðŀ¤¬ðŀ¤¢ðŀ¤ªðŀ¤¢ðŀ¤² ðŀ¤§ðŀ¤Ń
Ġðŀ¤±ðŀ¤«ðŀ¤ª ðŀ¤¤ðŀ¤¢ðŀ¤¤
Ġðŀ¤µðŀ¤§ ðŀ¤¼ðŀ¤¢
Ġðŀ¤Ģðŀ¤ĥ ðŀ¤Ģðŀ¤Īðŀ¤Ģ
ðŀ¤Ģðŀ¤Ĳðŀ¤ĭ ðŀ¤Ĵðŀ¤Ģ
id e
Ġðŀ¤¼ðŀ¤¢ðŀ¤§ ðŀ¤³ðŀ¤®
Ġðŀ¤½ðŀ¤Ń ðŀ¤»ðŀ¤Ń
Ġðŀ¤ģðŀ¤« ðŀ¤¥ðŀ¤®ðŀ¤³ðŀ¤¢ðŀ¤ªðŀ¤¢ðŀ¤²ðŀ¤³ðŀ¤®
Ġðŀ¤¸ðŀ¤µðŀ¤¤ ðŀ¤©
Ġðŀ¤£ðŀ¤Ńðŀ¤ª ðŀ¤¼ðŀ¤Ńðŀ¤²ðŀ¤ºðŀ¤®ðŀ¤¤
Ġðŀ¤»ðŀ¤«ðŀ¤¥ ðŀ¤¼ðŀ¤Ńðŀ¤²ðŀ¤¢
Ġðŀ¤§ðŀ¤¢ðŀ¤¬ðŀ¤ª ðŀ¤®ðŀ¤ªðŀ¤£ðŀ¤µ
Ġun e
ðŀ¤¤ðŀ¤£ðŀ¤Ń ðŀ¤ºðŀ¤¢ðŀ¤¤
Ġðŀ¤Ħðŀ¤¢ðŀ¤ª ðŀ¤³ðŀ¤¢
Ġðŀ¤¥ðŀ¤µðŀ¤§ðŀ¤Ń ðŀ¤£
Ġðŀ¤¬ðŀ¤¢ðŀ¤¥ ðŀ¤¯ðŀ¤Ń
ðŀ¤ħðŀ¤ĵ ðŀ¤Ĭ
rÃ© s
Ġðŀ¤ĥðŀ¤¢ðŀ¤¤ ðŀ¤¢ðŀ¤±ðŀ¤Ń
Ø¬ Ø§Ø¨
ØªØ ±
Ġðŀ¤±ðŀ¤«ðŀ¤² ðŀ¤ºðŀ¤Ń
Ġðŀ¤ĳðŀ¤¢ðŀ¤² ðŀ¤¢ðŀ¤£ðŀ¤¢
Ġðŀ¤ħðŀ¤«ðŀ¤² ðŀ¤Ń
ðŀ¤¢ðŀ¤²ðŀ¤£ðŀ¤® ðŀ¤³ðŀ¤¢
Ġðŀ¤Ĥðŀ¤Ńðŀ¤¦ ðŀ¤Ńðŀ¤´ðŀ¤¢
ĠR eddit
ðŀ¤§ðŀ¤Ńðŀ¤¥ ðŀ¤Ńðŀ¤´
Ġðŀ¤ħðŀ¤Ńðŀ¤£ðŀ¤Ń ðŀ¤´ðŀ¤¢
Ġðŀ¤ĳðŀ¤īðŀ¤ħ ðŀ¤Į
ĠL ink
Ġðŀ¤ĥðŀ¤¢ðŀ¤²ðŀ¤³ ðŀ¤Ńðŀ¤ªðŀ¤ºðŀ¤¢ðŀ¤¤
Ġðŀ¤Ħðŀ¤¢ðŀ¤³ ðŀ¤¢ðŀ¤´ðŀ¤®ðŀ¤³ðŀ¤®
Ġðŀ¤ļðŀ¤¢ðŀ¤¥ ðŀ¤§ðŀ¤Ń
Ġðŀ¤¤ðŀ¤«ðŀ¤±ðŀ¤» ðŀ¤µ
Je une
ĠW hats
Ġðŀ¤²ðŀ¤ºðŀ¤«ðŀ¤´ ðŀ¤ºðŀ¤µ
Ġðŀ¤£ðŀ¤Ńðŀ¤¥ ðŀ¤¯ðŀ¤«
Ġðŀ¤¸ðŀ¤®ðŀ¤¥ðŀ¤¦ ðŀ¤¢ðŀ¤¼ðŀ¤¢
Ġðŀ¤Ħðŀ¤«ðŀ¤¤ ðŀ¤§ðŀ¤Ńðŀ¤³
ðĿĹ® ðĿĹ
Ø¶ ÙĪØ¹
bl r
Ùħ ÙĬÙĦ
Ġðŀ¤¢ðŀ¤£ðŀ¤Ńðŀ¤ª ðŀ¤ºðŀ¤¢ðŀ¤¤
Ġðŀ¤Ħðŀ¤¢ðŀ¥ģ ðŀ¤µðŀ¤¥
ðŀ¤ĳðŀ¤Įðŀ¤ľ ðŀ¤ĭðŀ¤ģ
Ġðŀ¤§ðŀ¤«ðŀ¤²ðŀ¤° ðŀ¤Ńðŀ¤ª
ĠØ§ÙĦÙ ħÙĪ
gr am
wit ter
¹Ø¬ Ø¨
Ø¥Ø¹ Ø¬Ø§Ø¨
ÙħØ ¹Ø¬Ø¨
Ġðŀ¤¶ðŀ¤«ðŀ¤± ðŀ¤¼ðŀ¤«
Ġðŀ¤ıðŀ¤Ģðŀ¤ļ ðŀ¤Ģðŀ¤Īðŀ¤Ģ
Ġðŀ¤Īðŀ¤ĵðŀ¤ı ðŀ¤Ģðŀ¤Ĳðŀ¤ģðŀ¤Ģ
nðŀ¤Ĳðŀ¤Ģðŀ¤Ĳðŀ¤ģ ðŀ¤Įðŀ¤Ĥ
ĠÙĦØªØ ´Ø§Ø±Ùĥ
ĠØªØŃ ÙħÙĬÙĦ
ĠØ¨Ùĩ Ø°Ùĩ
ĠØªÙĪÙĬ ØªØ±
ĠÙģÙĬØ³Ø¨ ÙĪÙĥ
ĠPinter est
ĠTum blr
ĠTele gram
ĠLink edIn
ĠWhats App
ĠØ§ÙĦÙħÙĪ Ø¶ÙĪØ¹
! \
c a
e l
o l
o ir
p t
± ðĿĹ²
Ġ -
Ġ D
Ġ K
Ġ n
ðŀ¤² ðŀ¤¢ðŀ¤²
ðŀ¤² ðŀ¤Ńðŀ¤ª
ðŀ¤µ ðŀ¤¨
ðŀ¤µ ðŀ¤£ðŀ¤µ
ðŀ¤µ ðŀ¤¦ðŀ¤µ
ðŀ¤µ ðŀ¤¶ðŀ¤µðŀ¤²ðŀ¤«
ðŀ¤£ ðŀ¤µðŀ¤²
ðŀ¤£ ðŀ¤¢ðŀ¤´
ðŀ¤ª ðŀ¤§
ðŀ¤ª ðŀ¤¢ðŀ¤²ðŀ¤®
ðŀ¤ª ðŀ¤¢ðŀ¤¼ðŀ¤¢
ðŀ¤ª ðŀ¤«ðŀ¤´ðŀ¤¢ðŀ¤²ðŀ¤³ðŀ¤®
ðŀ¤ª ðŀ¤£ðŀ¤¢ðŀ¤¥
ðŀ¤¼ ðŀ¤µðŀ¤²ðŀ¤£ðŀ¤«
Ġðŀ¤² ðŀ¤µ
Ġðŀ¤² ðŀ¤¢ðŀ¤²ðŀ¤®
ðŀ¤¤ ðŀ¤²
ðŀ¤¤ ðŀ¤«ðŀ¤²
ðŀ¤¤ ðŀ¤¢ðŀ¤²ðŀ¤Ń
ðŀ¤¤ ðŀ¤£ðŀ¤¢
ðŀ¤¤ ðŀ¤ºðŀ¤µ
ðŀ¤¤ ðŀ¤«ðŀ¤§
Ġðŀ¤³ ðŀ¤¢ðŀ¤¼
Ġðŀ¤³ ðŀ¤¢ðŀ¤½
ðŀ¤¢ðŀ¤¤ ðŀ¤¢ðŀ¤¼
Ġðŀ¤¸ ðŀ¤¢ðŀ¤¥
Ġðŀ¤¸ ðŀ¤µðŀ¤¥ðŀ¤¢
Ġðŀ¤¸ ðŀ¤«ðŀ¤²ðŀ¤£ðŀ¤Ń
ðŀ¤¥ ðŀ¤¯ðŀ¤Ń
ðŀ¤¥ ðŀ¤¤ðŀ¤Ń
ðŀ¤¥ ðŀ¤«ðŀ¤£
ðŀ¤¥ ðŀ¤Ńðŀ¤²ðŀ¤Ń
ðŀ¤¥ ðŀ¤¢ðŀ¤ºðŀ¤®ðŀ¤¤
ðŀ¤¥ ðŀ¤¢ðŀ¤¼ðŀ¤«
ðŀ¤®ðŀ¤² ðŀ¤«ðŀ¤¤
ðŀ¤Ńðŀ¤² ðŀ¤¼ðŀ¤Ńðŀ¤²ðŀ¤Ń
ðŀ¤Ńðŀ¤² ðŀ¤µðŀ¤¦ðŀ¤µ
ðŀ¤³ ðŀ¤¢ðŀ¤²
ðŀ¤³ ðŀ¤«ðŀ¤±ðŀ¤®ðŀ¤¤
Ġðŀ¤¬ ðŀ¤«ðŀ¤²
Ġðŀ¤¬ ðŀ¤¢ðŀ¤£
Ġðŀ¤¯ ðŀ¤¢ðŀ¤²
Ġðŀ¤¯ ðŀ¤¢ðŀ¤¥
Ġðŀ¤¯ ðŀ¤Ńðŀ¤´ðŀ¤¢
Ġðŀ¤¤ ðŀ¤®ðŀ¤ª
Ġðŀ¤¤ ðŀ¤¢ðŀ¤³
Ġðŀ¤¤ ðŀ¤¢ðŀ¤£
Ġðŀ¤¼ ðŀ¤®ðŀ¤ªðŀ¤¢
Ġðŀ¤¼ ðŀ¤µðŀ¤¥ðŀ¤¢
Ġðŀ¤§ ðŀ¤«ðŀ¤´
ðŀ¤¶ ðŀ¤µðŀ¤©
Ġðŀ¤ĳ ðŀ¤¢ðŀ¤ª
Ġðŀ¤ĳ ðŀ¤ī
Ġðŀ¤ĳ ðŀ¤®ðŀ¤ª
Ġðŀ¤ĳ ðŀ¤Ńðŀ¤²ðŀ¤£ðŀ¤Ń
ðŀ¤£ðŀ¤Ń ðŀ¤¼ðŀ¤Ń
Ġðŀ¤´ ðŀ¤µðŀ¤©
Ġðŀ¤´ ðŀ¤µðŀ¤¨
Ġðŀ¤¶ ðŀ¤¢ðŀ¤±ðŀ¤®
ðŀ¤± ðŀ¤Ńðŀ¤²
ðŀ¤± ðŀ¤¢ðŀ¤²ðŀ¤®
ðŀ¤± ðŀ¤«ðŀ¤¼ðŀ¤«
ðŀ¤´ ðŀ¤²ðŀ¤ºðŀ¤®
ðŀ¤´ ðŀ¤Ńðŀ¤ªðŀ¤£ðŀ¤«
ðŀ¤Ģðŀ¤ ¡
ðŀ¤Ģðŀ¤ ĭ
Ġðŀ¥ ĥ
ðŀ¤¢ðŀ¤´ ðŀ¤¢
ðŀ¤¼ðŀ¤Ń ðŀ¤ªðŀ¤®
Ġðŀ¤±ðŀ¤®ðŀ¤² ðŀ¤¢ðŀ¤²
Ġðŀ¤±ðŀ¤®ðŀ¤² ðŀ¤¯ðŀ¤«
Ġðŀ¤±ðŀ¤®ðŀ¤² ðŀ¤µðŀ¤£ðŀ¤«
Ġðŀ¤±ðŀ¤®ðŀ¤² ðŀ¤¢ðŀ¤²ðŀ¤Ń
Ġðŀ¤±ðŀ¤®ðŀ¤² ðŀ¤¢ðŀ¤¼ðŀ¤¢
ðŀ¤© ðŀ¤µ
ðŀ¤© ðŀ¤¢ðŀ¤²ðŀ¤£ðŀ¤«
Ġðŀ¤£ ðŀ¤«ðŀ¤±ðŀ¤¢ðŀ¤¤
Ġðŀ¤£ ðŀ¤®ðŀ¤²ðŀ¤³ðŀ¤Ńðŀ¤²
Ġðŀ¤ħ ðŀ¤¢ðŀ¤¬
ðŀ¤Į ðŀ¤ļ
Ġðŀ¤Ģ ðŀ¤Ħðŀ¤ĵ
Ġðŀ¤ĥ ðŀ¤īðŀ¤ħðŀ¤ĭ
ðŀ¤®ðŀ¤ª ðŀ¤²ðŀ¤ºðŀ¤®
ðŀ¤¢ðŀ¤³ ðŀ¤Ń
Ġðŀ¤º ðŀ¤®ðŀ¤²
Ġðŀ¤º ðŀ¤¢ðŀ¤´ðŀ¤²ðŀ¤¢
Ġðŀ¤Ĳ ðŀ¤£ðŀ¤Ń
Ġðŀ¤Ĳ ðŀ¤ºðŀ¤®
Ġðŀ¤¬ðŀ¤Ń ðŀ¤¼
Ġðŀ¤¬ðŀ¤Ń ðŀ¤¯ðŀ¤Ń
Ġðŀ¤ĺ ðŀ¤Į
ðŀ¤¼ðŀ¤® ðŀ¤´ðŀ¤Ń
ðŀ¤¼ðŀ¤® ðŀ¤¼ðŀ¤¢ðŀ¤²ðŀ¤®
ðŀ¤Ńðŀ¤¥ ðŀ¤®
ðŀ¤Ńðŀ¤¥ ðŀ¤Ń
Ġðŀ¤ĳðŀ¤® ðŀ¤¥ðŀ¤¨
Ġðŀ¤Ħ ðŀ¤ª
Ġðŀ¤Ħ ðŀ¤¢ðŀ¤²ðŀ¤º
Ġðŀ¤Ħ ðŀ¤Ģðŀ¤Īðŀ¤ĭ
Ġðŀ¤Ħ ðŀ¤Ģðŀ¤Ł
ðŀ¤¬ ðŀ¤Ńðŀ¤²ðŀ¤®
Ġðŀ¤¥ðŀ¤® ðŀ¤©ðŀ¤¼ðŀ¤®ðŀ¤²
ðŀ¤¼ðŀ¤Ńðŀ¤² ðŀ¤¢ðŀ¤´
Ġðŀ¤Ĭ ðŀ¤Įðŀ¤Ĥ
ðŀ¤¨ ðŀ¤Ńðŀ¤²ðŀ¤Ń
Ġðŀ¤¼ðŀ¤¢ðŀ¤± ðŀ¤µ
Ġðŀ¤¼ðŀ¤¢ðŀ¤± ðŀ¤²ðŀ¤¢
ðŀ¤«ðŀ¤± ðŀ¤®
Ġðŀ¤±ðŀ¤¢ðŀ¤¯ ðŀ¤«
Ġðŀ¤±ðŀ¤¢ðŀ¤¯ ðŀ¤¢ðŀ¤´
Ġðŀ¤±ðŀ¤¢ðŀ¤¯ ðŀ¤¼ðŀ¤¢ðŀ¤²ðŀ¤¢
Ġðŀ¤ģ ðŀ¤Ģðŀ¤Ĳ
Ġðŀ¤ģ ðŀ¤¢ðŀ¤³ðŀ¤¢
Ġðŀ¤ī ðŀ¤·
Ġðŀ¤ī ðŀ¤Ĳðŀ¤ĺ
Ġðŀ¤ī ðŀ¤¶ðŀ¤Ńðŀ¤¨ðŀ¤¼ðŀ¤µ
ðŀ¤¤ðŀ¤« ðŀ¤¼ðŀ¤«
ðŀ¤ģ ðŀ¤®ðŀ¤²ðŀ¤¢ðŀ¤¤
Ġðŀ¤¨ ðŀ¤Ńðŀ¤²ðŀ¤¢ðŀ¤¤
Ġðŀ¤Ķ ðŀ¤µðŀ¤²
ðŀ¤Ĥ ðŀ¤ĵ
ðŀ¤µðŀ¤¤ ðŀ¤©ðŀ¤«
Ġðŀ¤ļ ðŀ¤Īðŀ¤Į
Ġðŀ¤ļ ðŀ¤Ńðŀ¤²ðŀ¤µðŀ¤¦ðŀ¤µ
Ġðŀ¤´ðŀ¤® ðŀ¤©ðŀ¤µðŀ¤ºðŀ¤®ðŀ¤¤
ðŀ¤¸ ðŀ¤¢ðŀ¤ªðŀ¤Ń
Ġðŀ¤§ðŀ¤µ ðŀ¤¨
Ġðŀ¤ºðŀ¤® ðŀ¤¦ðŀ¤Ńðŀ¤²ðŀ¤¢
ðŀ¤ĥ ðŀ¤Ģðŀ¤Ĳ
Ġðŀ¤Į ðŀ¤¦
Ġðŀ¤¢ðŀ¤ª ðŀ¤¼ðŀ¤Ńðŀ¤ªðŀ¤ºðŀ¤®ðŀ¤¤
Ġðŀ¤¸ðŀ¤«ðŀ¤ »
Ġðŀ¤ı ðŀ¤Ģðŀ¤Ĵ
ðŀ¤£ðŀ¤Ńðŀ¤ª ðŀ¤£ðŀ¤«
ðŀ¤£ðŀ¤Ńðŀ¤ª ðŀ¤¼ðŀ¤¢
Ġðŀ¤Ĩ ðŀ¤®ðŀ¤ªðŀ¤¼ðŀ¤Ń
ðŀ¤¢ðŀ¤¤ðŀ¤Ń ðŀ¤¦ðŀ¤¢
Ġðŀ¤¥ðŀ¤µ ðŀ¤»
Ġðŀ¥Ĵðŀ¥Ĳðŀ¥Ĵ ðŀ¥ķ
Ġðŀ¤¯ðŀ¤« ðŀ¤«
ðŀ¤Ńðŀ¤¼ðŀ¤Ń ðŀ¤ªðŀ¤Ń
Ġðŀ¤ĩ ðŀ¤¢ðŀ¤¤ðŀ¤«
ðŀ¤Ńðŀ¤¼ ðŀ¤µðŀ¤²ðŀ¤®
ðŀ¤Ĵ ðŀ¤ħ
Ġðŀ¤Ĥ ðŀ¤ĭðŀ¤ģ
Ġðŀ¤Ĥ ðŀ¤«ðŀ¤´ðŀ¤¯ðŀ¤«
ðŀ¤ºðŀ¤Ń ðŀ¤ªðŀ¤Ń
ðŀ¤ºðŀ¤Ń ðŀ¤¼ðŀ¤¢
Ġðŀ¤Ĵ ðŀ¤Ģ
Ġðŀ¤´ðŀ¤¢ðŀ¤¤ ðŀ¤¼ðŀ¤µðŀ¤©ðŀ¤«
Ġðŀ¤ĭ ðŀ¤£
Ġðŀ¤ĭ ðŀ¤Ĭ
Ġðŀ¤ħðŀ¤Ń ðŀ¤¤
ðŀ¤¢ðŀ¤ªðŀ¤¢ðŀ¤² ðŀ¤³ðŀ¤«
Ġðŀ¤Ī ðŀ¤ī
Ġðŀ¤Ģðŀ¤¬ ðŀ¤ªðŀ¤Ń
ðŀ¤· ðŀ¤«
Ġðŀ¤Ģðŀ¤¤ ðŀ¤¶ðŀ¤¢ðŀ¤ªðŀ¤Ń
ðŀ¥ĳðŀ¥ ĺ
Ġðŀ¤ķ ðŀ¤Ģðŀ¤ģ
ðŀ¤° ðŀ¤¢ðŀ¤²
ðŀ¤ĭðŀ¤Ĳ ðŀ¤Į
Ġðŀ¤° ðŀ¤®
ðŀ¤µðŀ¤²ðŀ¥ĭ ðŀ¤£ðŀ¤Ń
ðŀ¤īðŀ¤Ĳ ðŀ¤ĭ
ðŀ¤«ðŀ¤§ ðŀ¤³ðŀ¤®
Ġðŀ¤£ðŀ¤¢ðŀ¤ª ðŀ¤¼ðŀ¤Ńðŀ¤²ðŀ¤®
Ġðŀ¤£ðŀ¤¢ðŀ¤ª ðŀ¤®ðŀ¤ªðŀ¤¢
ðŀ¤Ķ ðŀ¤īðŀ¤Ī
ðŀ¤Īðŀ¤ĭ ðŀ¤ħ
ðŀ¤Īðŀ¤ĭ ðŀ¤ļðŀ¤Ģðŀ¤Ĳðŀ¤ĭ
Ġðŀ¤¶ðŀ¤Ń ðŀ¤©
Ġðŀ¤¶ðŀ¤Ń ðŀ¤±ðŀ¤µðŀ¤²
Ġðŀ¤©ðŀ¤«ðŀ¤´ ðŀ¤£ðŀ¤®
Ġðŀ¤©ðŀ¤«ðŀ¤´ ðŀ¤£ðŀ¤µðŀ¤ºðŀ¤®ðŀ¤¤
Ġðŀ¤§ðŀ¤µðŀ¤©ðŀ¤® ðŀ¤¼ðŀ¤®
Ġðŀ¤¤ðŀ¤¢ðŀ¤² ðŀ¤£ðŀ¤¢ðŀ¤¤
Ġðŀ¤«ðŀ¤² ðŀ¤ºðŀ¤«ðŀ¤¤ðŀ¤«
Ġðŀ¥Ĵðŀ¥Ĳðŀ¥ĳðŀ¥ Ĵ
Ġðŀ¤´ðŀ¤¢ðŀ¤¸ ðŀ¤µ
Ġðŀ¤§ðŀ¤¢ðŀ¤ª ðŀ¤¯ðŀ¤®ðŀ¤¤
ðŀ¤Ńðŀ¤¤ ðŀ¤Ńðŀ¤²ðŀ¤®
ðŁĩ ¸
ðŀ¤Ńðŀ¤§ ðŀ¤¢
ðŀ¤£ðŀ¤Ńðŀ¤² ðŀ¤³ðŀ¤®
Ġðŀ¤¥ðŀ¤µðŀ¤ª ðŀ¤¼ðŀ¤®
nðŀ¤ĸ ðŀ¤Ńðŀ¤²ðŀ¤¤ðŀ¤«
Ġðŀ¤´ðŀ¤«ðŀ¤± ðŀ¤¼ðŀ¤µ
Ġðŀ¤´ðŀ¤«ðŀ¤± ðŀ¤¼ðŀ¤µðŀ¤ºðŀ¤®ðŀ¤¤
Ġðŀ¤±ðŀ¤Ńðŀ¤² ðŀ¤£ðŀ¤µðŀ¤ºðŀ¤®ðŀ¤¤
Ġðŀ¤¬ðŀ¤Ńðŀ¤¶ ðŀ¤µðŀ¤£ðŀ¤«
Ġðŀ¤¼ðŀ¤µ ðŀ¤¬ðŀ¤µðŀ¤²ðŀ¤£ðŀ¤«
ðŀ¥Ĺ ðŀ¥Ĳ
Ġðŀ¤¤ðŀ¤¢ðŀ¤¼ ðŀ¤«ðŀ¤²
Ġðŀ¤¶ðŀ¤¢ðŀ¤© ðŀ¤Ń
Ġðŀ¤±ðŀ¤¢ðŀ¤ª ðŀ¤µðŀ¤£ðŀ¤«
ðŀ¥ĥ ðŀ¤Ń
ðŀ¤Ģðŀ¤ħ ðŀ¤ļðŀ¤ī
Ġðŀ¤¦ðŀ¤®ðŀ¤² ðŀ¤«
Ġðŀ¤¦ðŀ¤®ðŀ¤² ðŀ¤£ðŀ¤«
on n
Ġðŀ¤²ðŀ¤¦ ðŀ¤¢ðŀ¤²
ðŀ¤Ģðŀ¤Ĵ ðŀ¤ĵ
ðŀ¤¼ðŀ¤Ńðŀ¤ª ðŀ¤¢ðŀ¤¤
Ġðŀ¤ĳðŀ¤®ðŀ¤¼ðŀ¤£ðŀ¤Ń ðŀ¤±ðŀ¤¢
Ġðŀ¥Ķ ðŀ¥Ĵ
Ġðŀ¤Ńðŀ¤± ðŀ¤µ
Ġðŀ¤Ńðŀ¤± ðŀ¤ªðŀ¤Ń
Ġðŀ¥Ĵðŀ¥Ĳðŀ¥Ĳ ðŀ¥ĳ
Ġðŀ¤²ðŀ¤¢ðŀ¤¬ ðŀ¤¢ðŀ¤¼ðŀ¤¢
Ġðŀ¤¼ðŀ¤¢ðŀ¤¦ðŀ¤Ńðŀ¤² ðŀ¤¼ðŀ¤Ńðŀ¤²ðŀ¤£ðŀ¤«
Ġðŀ¤ģðŀ¤® ðŀ¤§ðŀ¤¼ðŀ¤«ðŀ¤ªðŀ¤«ðŀ¤´ðŀ¤¢ðŀ¤²ðŀ¤³ðŀ¤®
Ġðŀ¤»ðŀ¤Ń ðŀ¤¨
Ġðŀ¤Ĳðŀ¤Ħ ðŀ¤®
Ġðŀ¤Ĳðŀ¤Ħ ðŀ¤¢ðŀ¤¼ðŀ¤µ
Ġa v
Ġðŀ¤£ðŀ¤« ðŀ¤¥ðŀ¤¢ðŀ¤¤
ðŀ¤²ðŀ¤« ðŀ¤ºðŀ¤¢ðŀ¤¤
ðŀ¤Ļ ðŀ¤®ðŀ¤º
Ġðŀ¤¸ðŀ¤¢ðŀ¤¤ ðŀ¤®ðŀ¤ªðŀ¤¢ðŀ¤¤
Ġðŀ¤ĺðŀ¤® ðŀ¤¥ðŀ¤«
Ġðŀ¤ĳðŀ¤¢ðŀ¤¼ ðŀ¤Ń
Ġðŀ¤¸ðŀ¤µðŀ¤¥ðŀ¤¨ ðŀ¤Ńðŀ¤¼ðŀ¤Ń
Ġðŀ¤ºðŀ¤®ðŀ¤¥ ðŀ¤¯ðŀ¤Ńðŀ¤²
Ġðŀ¥ĳðŀ¥Ļðŀ¥Ļðŀ¥ ĵ
Ġðŀ¤¤ðŀ¤Ńðŀ¤¥ ðŀ¤¼ðŀ¤®ðŀ¤¤
ðŀ¤¥ðŀ¤¢ðŀ¤ª ðŀ¤µ
Ġðŀ¤¢ðŀ¤´ ðŀ¤¦
Ġðŀ¤¢ðŀ¤´ ðŀ¤²ðŀ¤®
ðŀ¤¯ðŀ¤Ńðŀ¤² ðŀ¤¢ðŀ¤´
ðŀ¤¯ðŀ¤Ńðŀ¤² ðŀ¤¼ðŀ¤Ńðŀ¤²ðŀ¤ºðŀ¤®ðŀ¤¤
Ġðŀ¤ĥðŀ¤Į ðŀ¤Łðŀ¤Ģðŀ¤ĥðŀ¤Ħðŀ¤ĭðŀ¤ĳ
Ġðŀ¤Ĳðŀ¤ģ ðŀ¤īðŀ¤Ĳ
Ġðŀ¤¡ ðŀ¤Ģðŀ¤Īðŀ¤Ĥ
Ġðŀ¤´ðŀ¤¢ðŀ¤² ðŀ¤µðŀ¤ºðŀ¤®ðŀ¤¤
Ġðŀ¤´ðŀ¤¢ðŀ¤² ðŀ¤µðŀ¤²ðŀ¤®
Ġðŀ¤¤ðŀ¤®ðŀ¤²ðŀ¤¼ðŀ¤® ðŀ¤¼ðŀ¤®
Ġm e
Ġðŀ¤§ðŀ¤µðŀ¤¥ ðŀ¤²ðŀ¤¢
ðŀ¤Ńðŀ¤¼ðŀ¤®ðŀ¤ª ðŀ¤µðŀ¤²
Ġðŀ¤¸ðŀ¤«ðŀ¤ª ðŀ¤§ðŀ¤Ńðŀ¤²
ðŀ¤§ðŀ¤¢ðŀ¤² ðŀ¤£ðŀ¤¢
Ġðŀ¤¥ðŀ¤®ðŀ¤² ðŀ¤«
Ġw rit
nðŀ¤ļ ðŀ¤Ńðŀ¤¥
Ġðŀ¤¬ðŀ¤¢ðŀ¤² ðŀ¤¼ðŀ¤Ńðŀ¤²ðŀ¤ºðŀ¤®ðŀ¤¤
Ġðŀ¤Ħðŀ¤«ðŀ¤² ðŀ¤ºðŀ¤¢ðŀ¤¤ðŀ¤Ń
Ġðŀ¤§ðŀ¤®ðŀ¤³ ðŀ¤¢ðŀ¤²ðŀ¤®
Ġðŀ¤ºðŀ¤µ ðŀ¤´ðŀ¤¢
Ġðŀ¤±ðŀ¤«ðŀ¤ª ðŀ¤¤ðŀ¤¢
Ġðŀ¤³ðŀ¤µðŀ¤¤ ðŀ¤®ðŀ¤¤
ðŀ¤Ģðŀ¤ĸ ðŀ¤ĥðŀ¤Ģðŀ¤ģðŀ¤ĵ
Ġðŀ¤¼ðŀ¤¢ðŀ¤¼ðŀ¤¢ðŀ¤© ðŀ¤µ
nðŀ¤Ļ ðŀ¤®ðŀ¤º
Ġðŀ¤ĸðŀ¤Ń ðŀ¤©ðŀ¤«
Ġðŀ¤ªðŀ¤«ðŀ¤² ðŀ¤¼ðŀ¤¢ðŀ¤ºðŀ¤®ðŀ¤¤
Ġle s
Ġco n
Ġðŀ¤«ðŀ¤³ ðŀ¤²ðŀ¤¯
Ġðŀ¤´ðŀ¤Ńðŀ¤¤ ðŀ¤¼ðŀ¤Ń
Ġðŀ¤ĳðŀ¤ĭ ðŀ¤ĺðŀ¤Ģðŀ¤Ĥðŀ¤ĭ
ðŀ¤ĳðŀ¤ĭ ðŀ¤Īðŀ¤ĭ
Ġðŀ¤ļðŀ¤Į ðŀ¤į
Ġðŀ¤¸ðŀ¤®ðŀ¤´ ðŀ¤¯ðŀ¤¢
Ġðŀ¤¢ðŀ¤²ðŀ¤£ ðŀ¤Ńðŀ¤²ðŀ¤Ń
oc i
Ġðŀ¤¥ðŀ¤«ðŀ¤¸ ðŀ¤ªðŀ¤«
ðŀ¤¶ðŀ¤Ńðŀ¤¨ ðŀ¤¼
Ġðŀ¤Ĥðŀ¤Ń ðŀ¤¾ðŀ¤«ðŀ¤ªðŀ¤¨ðŀ¤µðŀ¤¤
Ġðŀ¤§ðŀ¤«ðŀ¤¥ðŀ¤¦ ðŀ¤Ńðŀ¤²ðŀ¤¢ðŀ¤´
Ġðŀ¤¼ðŀ¤«ðŀ¤¬ ðŀ¤®
Ġðŀ¤¢ðŀ¤¬ ðŀ¤ªðŀ¤Ńðŀ¤³ðŀ¤²ðŀ¤¢
Ġðŀ¤ĳðŀ¤µðŀ¤² ðŀ¤§ðŀ¤Ńðŀ¤¼ðŀ¤«ðŀ¤¤
Ġðŀ¤ºðŀ¤¢ðŀ¤§ ðŀ¤¢ðŀ¤¼ðŀ¤¢
Ġðŀ¤ĳðŀ¤Ģðŀ¤Ĳ ðŀ¤Ģðŀ¤ģðŀ¤Ģ
ðŀ¤©ðŀ¤¼ ðŀ¤®ðŀ¤²ðŀ¥ĭðŀ¤£ðŀ¤Ńðŀ¤ªðŀ¤¢ðŀ¤¤
Ġðŀ¤©ðŀ¤¢ðŀ¤² ðŀ¤¼ðŀ¤¢ðŀ¤¤
Ġðŀ¤§ðŀ¤®ðŀ¤º ðŀ¤Ńðŀ¤¼ðŀ¤Ń
Ġðŀ¤īðŀ¤ĳðŀ¤ıðŀ¤Ģðŀ¤ļ ðŀ¤ī
ib as
Ġðŀ¤²ðŀ¤ºðŀ¤«ðŀ¤²ðŀ¤£ðŀ¤Ń ðŀ¤´ðŀ¤¢ðŀ¤²ðŀ¤³ðŀ¤®
ðŀ¤±ðŀ¤¼ðŀ¤® ðŀ¤ªðŀ¤«
Ġðŀ¤¸ðŀ¤®ðŀ¤¶ðŀ¤® ðŀ¤¥ðŀ¤«ðŀ¤ªðŀ¤«
Ġðŀ¤ĭðŀ¤ħ ðŀ¤Īðŀ¤Ģ
ĠPar ibas
Ġðŀ¤Ĭðŀ¤«ðŀ¤¤ ðŀ¤²ðŀ¤ºðŀ¤®
Ġðŀ¤´ðŀ¤®ðŀ¤¤ ðŀ¤²ðŀ¤£ðŀ¤«
Ġðŀ¤Ĩðŀ¤«ðŀ¤² ðŀ¤§ðŀ¤Ńðŀ¤¤
Ġðŀ¤Īðŀ¤Ģðŀ¤Ĵ ðŀ¤ļ
Ġðŀ¤²ðŀ¤£ðŀ¤Ńðŀ¤´ ðŀ¤¢ðŀ¤¥
Ġðŀ¤Ļðŀ¤Ģðŀ¤ĥ ðŀ¤Ĳðŀ¤Ģ
Ġðŀ¤»ðŀ¤¢ðŀ¤±ðŀ¤² ðŀ¤£ðŀ¤Ńðŀ¤ª
ful de
Ġðŀ¤Įðŀ¤ħðŀ¤ļðŀ¤Ģðŀ¤Ī ðŀ¤Ģðŀ¤Ĥðŀ¤ĭðŀ¤Ĵðŀ¤Ģ
Ġðŀ¤Ĩðŀ¤¢ðŀ¤¤ ðŀ¤«ðŀ¤§ðŀ¤¼ðŀ¤Ń
Ġðŀ¤Ĥðŀ¤ĵðŀ¤ĥ ðŀ¤Ħðŀ¤ĭ
ðŀ¤īðŀ¤ħðŀ¤Ħðŀ¤ĵ ðŀ¤ĳ
ĠFran ce
Ġðŀ¤ĳðŀ¤®ðŀ¤¥ðŀ¤¨ ðŀ¤¢ðŀ¤±ðŀ¤®ðŀ¤ªðŀ¤«
Ġðŀ¤īðŀ¤· ðŀ¤®
Ġðŀ¤īðŀ¤Ĳðŀ¤ĺ ðŀ¤īðŀ¤Ĥðŀ¤ī
Ġðŀ¤ĭðŀ¤Ĭ ðŀ¤ģðŀ¤ĺ
ðŀ¤Ģðŀ¤ħðŀ¤ļðŀ¤ī ðŀ¤Ĭ
Ġðŀ¤¸ðŀ¤¢ðŀ¤¤ðŀ¤®ðŀ¤ªðŀ¤¢ðŀ¤¤ ðŀ¤¶ðŀ¤«
, \
H DP
U FDG
c t
c ri
c ie
i re
j e
l o
l y
l Ã©
r ist
s e
u re
v er
Ġ y
Ġ ou
Ġ il
Ġ En
Ġ Jeune
ðŀ¤ Ĺ
Ġðŀ¤ İ
ðŀ¤® ðŀ¤¾ðŀ¤«ðŀ¤²
ðŀ¤Ń ðŀ¤¯
ðŀ¤² ðŀ¤¯ðŀ¤«
ðŀ¤² ðŀ¤¢ðŀ¤¼ðŀ¤¢
ðŀ¥ħ )
ðŀ¥ħ :\
ðŀ¤µ ðŀ¤¶ðŀ¤µðŀ¤²ðŀ¤«ðŀ¤ªðŀ¤«
ðŀ¤£ ðŀ¤²ðŀ¤¢
ðŀ¤£ ðŀ¤®ðŀ¤ªðŀ¤£ðŀ¤«
ðŀ¥Ħ :
ðŀ¤ª ðŀ¤¼ðŀ¤¢
ðŀ¤ª ðŀ¤£ðŀ¤µ
ðŀ¤ª ðŀ¤¼ðŀ¤®ðŀ¤ªðŀ¤¢
ðŀ¤ª ðŀ¤Ńðŀ¤²ðŀ¤¢ðŀ¤²ðŀ¤¢
ðŀ¤¼ ðŀ¤¶ðŀ¤«
ðŀ¤¼ ðŀ¤®ðŀ¤²ðŀ¥ĭðŀ¤£ðŀ¤Ńðŀ¤ªðŀ¤¢ðŀ¤¤
Ġðŀ¤² ðŀ¤¢ðŀ¤¼ðŀ¤«
ðŀ¤¤ ðŀ¤Ńðŀ¤²ðŀ¤Ń
ðŀ¤¤ ðŀ¤®ðŀ¤ªðŀ¤¢
ðŀ¤¤ ðŀ¤²ðŀ¤µðŀ¤ºðŀ¤®ðŀ¤¤
ðŀ¤¤ ðŀ¤Ńðŀ¤ªðŀ¤¯ðŀ¤«
ðŀ¤¤ ðŀ¤¢ðŀ¤±ðŀ¤¢ðŀ¤¤
ðŀ¤¤ ðŀ¤¢ðŀ¤£ðŀ¤«ðŀ¤§
ðŀ¤º ðŀ¤¸ðŀ¤¢
ðŀ¤º ðŀ¤Ńðŀ¤ªðŀ¤¯ðŀ¤«
Ġðŀ¤¸ ðŀ¤Ńðŀ¤²
ðŀ¤¥ ðŀ¤Ńðŀ¤ª
ðŀ¤¥ ðŀ¤µðŀ¤£ðŀ¤«
ðŀ¤¥ ðŀ¤Ńðŀ¤²ðŀ¤¢
ðŀ¤¥ ðŀ¤¢ðŀ¤ªðŀ¤¢
ðŀ¤¯ ðŀ¤ºðŀ¤®ðŀ¤¤
ðŀ¤¯ ðŀ¤²ðŀ¤¢
ðŀ¤¢ðŀ¤² ðŀ¤¼ðŀ¤®
ðŀ¤Ńðŀ¤² ðŀ¤®ðŀ¤ª
ðŀ¤Ńðŀ¤² ðŀ¤¯ðŀ¤®
ðŀ¤Ńðŀ¤² ðŀ¤®ðŀ¤ªðŀ¤¢
Ġðŀ¤± ðŀ¤«ðŀ¤£
Ġðŀ¤¥ ðŀ¤¢ðŀ¤¸
Ġðŀ¤¥ ðŀ¤¢ðŀ¤ªðŀ¤®
ðŀ¤³ ðŀ¤¢ðŀ¤¤
ðŀ¤³ ðŀ¤®ðŀ¤²
ðŀ¤³ ðŀ¤¢ðŀ¤ºðŀ¤®ðŀ¤¤
Ġðŀ¤¬ ðŀ¤¢ðŀ¤´
Ġðŀ¤¬ ðŀ¤®ðŀ¤²ðŀ¤ºðŀ¤®
Ġðŀ¤¬ ðŀ¤Ńðŀ¤²ðŀ¤£ðŀ¤Ńðŀ¤²
Ġðŀ¤¯ ðŀ¤¢ðŀ¤²ðŀ¤£ðŀ¤®ðŀ¤³ðŀ¤¢
ðŀ¤Ģ ðŀ¤£ðŀ¤®
Ġðŀ¤¤ ðŀ¤¢ðŀ¤¦
Ġðŀ¤¤ ðŀ¤«ðŀ¤¤
Ġðŀ¤¤ ðŀ¤µðŀ¤©
Ġðŀ¤¤ ðŀ¤¢ðŀ¤¦ðŀ¤¢
Ġðŀ¤§ ðŀ¤¢ðŀ¤º
ðŀ¤¶ ðŀ¤µðŀ¤£ðŀ¤«
Ġðŀ¤ĳ ðŀ¤®ðŀ¤¤
Ġðŀ¤ĳ ðŀ¤ĵðŀ¤Ĳ
Ġðŀ¤ĳ ðŀ¤µðŀ¤ªðŀ¤µ
Ġðŀ¤ĳ ðŀ¤Ģðŀ¤ģðŀ¤ĭ
Ġðŀ¤´ ðŀ¤¢ðŀ¤²ðŀ¤º
Ġðŀ¤¶ ðŀ¤®ðŀ¤¤
Ġðŀ¤¶ ðŀ¤®ðŀ¤¤ðŀ¤®
Ġðŀ¤® ðŀ¤¯ðŀ¤®ðŀ¤²
Ġðŀ¤³ðŀ¤® ðŀ¤¯ðŀ¤®
ðŀ¤± ðŀ¤«ðŀ¤²
ðŀ¤± ðŀ¤²ðŀ¤£ðŀ¤«
ðŀ¤± ðŀ¤³ðŀ¤¢
ðŀ¤± ðŀ¤²ðŀ¤¢
ðŀ¤´ ðŀ¤ºðŀ¤®ðŀ¤¤
ðŀ¤´ ðŀ¤³ðŀ¤¢
ðŀ¤ªðŀ¤Ń ðŀ¤ªðŀ¤£ðŀ¤«
ðŀ¤¦ ðŀ¤µðŀ¤¤
ðŀ¤Ģðŀ¤ ľ
ðŀ¤¢ðŀ¤± ðŀ¤£ðŀ¤¢
Ġðŀ¤²ðŀ¤£ðŀ¤« ðŀ¤´ðŀ¤¢
nðŀ¤ ĵ
ðŀ¤¢ðŀ¤´ ðŀ¤²
ðŀ¤¢ðŀ¤´ ðŀ¤¯ðŀ¤®
ðŀ¤¼ðŀ¤Ń ðŀ¤§ðŀ¤µ
Ġðŀ¤±ðŀ¤®ðŀ¤² ðŀ¤¼ðŀ¤¢
Ġðŀ¤±ðŀ¤®ðŀ¤² ðŀ¤¯ðŀ¤®
Ġðŀ¤±ðŀ¤®ðŀ¤² ðŀ¤¢ðŀ¤²ðŀ¤®
Ġðŀ¤±ðŀ¤®ðŀ¤² ðŀ¤¼ðŀ¤Ńðŀ¤ª
ðŀ¤§ ðŀ¤©ðŀ¤«
ðŀ¤§ ðŀ¤¤ðŀ¤«
ðŀ¤§ ðŀ¤¢ðŀ¤¼ðŀ¤µ
ðŀ¤© ðŀ¤²ðŀ¤¢ðŀ¤´
Ġðŀ¤£ ðŀ¤®ðŀ¤¤ðŀ¤¢
ðŀ¤ī ðŀ¤ĥ
ðŀ¤ī ðŀ¤ļ
Ġðŀ¤ħ ðŀ¤¢ðŀ¤²ðŀ¤£ðŀ¤«
Ġðŀ¤ħ ðŀ¤Ģðŀ¤Ĩ
Ġðŀ¤ħ ðŀ¤¢ðŀ¤±ðŀ¤£ðŀ¤¢
Ġðŀ¤Ģ ðŀ¤¶ðŀ¤Ń
Ġðŀ¤ĥ ðŀ¤¢ðŀ¤¤ðŀ¤¢
Ġðŀ¤ĥ ðŀ¤Ģðŀ¤Ĳ
Ġðŀ¤ĥ ðŀ¤«ðŀ¤§ðŀ¤Ń
ðŀ¤®ðŀ¤ª ðŀ¤¯ðŀ¤®
ðŀ¤®ðŀ¤ª ðŀ¤²ðŀ¤Ńðŀ¤´ðŀ¤¢
ðŀ¥Ĳ ðŀ¥ĳ
ðŀ¤¢ðŀ¤£ ðŀ¤«
Ġðŀ¤º ðŀ¤Ńðŀ¤£
ðŀ¤¢ðŀ¤¥ ðŀ¤²ðŀ¤¢
Ġðŀ¤Ĳ ðŀ¤µ
Ġðŀ¤Ĳ ðŀ¤Ģðŀ¤Ĳ
Ġðŀ¤© ðŀ¤®ðŀ¤ª
ðŀ¤¯ðŀ¤Ń ðŀ¤¯
Ġðŀ¤ĺ ðŀ¤«
Ġðŀ¤ĺ ðŀ¤µðŀ¤ºðŀ¤®ðŀ¤¤
ðŀ¤Ńðŀ¤¥ ðŀ¤¢
ðŀ¤Ńðŀ¤¥ ðŀ¤¯ðŀ¤Ń
Ġðŀ¤Ħ ðŀ¤¢ðŀ¤¤
Ġðŀ¤®ðŀ¤² ðŀ¤¯ðŀ¤®ðŀ¤²
ðŀ¤¤ðŀ¤Ń ðŀ¤©ðŀ¤Ń
ðŀ¤¬ ðŀ¤¼ðŀ¤®
ðŀ¤¬ ðŀ¤®ðŀ¤ªðŀ¤²ðŀ¤Ńðŀ¤´ðŀ¤¢
ðŀ¤¢ðŀ¤¦ ðŀ¤Ń
Ġðŀ¤¦ ðŀ¤Ń
Ġðŀ¤Ĭ ðŀ¤«ðŀ¤£
Ġðŀ¤Ĭ ðŀ¤Ģðŀ¤ħ
Ġðŀ¤Ĭ ðŀ¤īðŀ¤Ĥ
Ġðŀ¤Ĭ ðŀ¤īðŀ¤ħðŀ¤Ħðŀ¤ĵðŀ¤ĳ
ðŀ¤¨ ðŀ¤«ðŀ¤ªðŀ¤«
ðŀ¤¨ ðŀ¤«ðŀ¤ª
Ġðŀ¤¼ðŀ¤¢ðŀ¤± ðŀ¤²
Ġðŀ¤¼ðŀ¤¢ðŀ¤± ðŀ¤£ðŀ¤¢
Ġðŀ¤ĸ ðŀ¤«
Ġðŀ¤ĸ ðŀ¤¢ðŀ¤¤
Ġðŀ¤ĸ ðŀ¤¢ðŀ¤±
Ġðŀ¤ĸ ðŀ¤Ģðŀ¤Ĳ
Ġðŀ¤ĸ ðŀ¤Ńðŀ¤¼ðŀ¤¢
Ġðŀ¤ĸ ðŀ¤īðŀ¤ģ
ðŀ¤ĳ ðŀ¤Ģðŀ¤Ĳ
ðŀ¤ĳ ðŀ¤Ģðŀ¤ĥ
Ġðŀ¤±ðŀ¤¢ðŀ¤¯ ðŀ¤¼ðŀ¤Ń
ðŀ¤Ńðŀ¤´ ðŀ¤¢ðŀ¤¥ðŀ¤¢
ðŀ¤Ńðŀ¤´ ðŀ¤®ðŀ¤²ðŀ¤¢ðŀ¤¤
Ġðŀ¤ģ ðŀ¤Ģðŀ¤Ĥ
Ġðŀ¤ģ ðŀ¤«ðŀ¤ªðŀ¤«ðŀ¤³
Ġðŀ¤ī ðŀ¤¦ðŀ¤®ðŀ¤¤ðŀ¤¢
Ġðŀ¤¨ ðŀ¤Ńðŀ¤²ðŀ¤³ðŀ¤¢
Ġðŀ¤Ķ ðŀ¤¢ðŀ¤±
Ġðŀ¤Ķ ðŀ¤ĵðŀ¤Ĳ
Ġðŀ¤Ķ ðŀ¤«ðŀ¤¥
Ġðŀ¤Ķ ðŀ¤¢ðŀ¤³ðŀ¤¢
Ġðŀ¤· ðŀ¤®ðŀ¤¤ðŀ¤¼ðŀ¤®
Ġðŀ¤¸ðŀ¤Ń ðŀ¤¼ðŀ¤®
Ġðŀ¤¶ðŀ¤® ðŀ¤ºðŀ¤®
Ġðŀ¤ª ðŀ¤¢ðŀ¤©
ðŀ¤Ĥ ðŀ¤ī
Ġðŀ¤£ðŀ¤µ ðŀ¤»
Ġðŀ¤ļ ðŀ¤¢ðŀ¤´
Ġðŀ¤ļ ðŀ¤µðŀ¤¼
ðŀ¤¢ðŀ¤²ðŀ¤Ń ðŀ¤ªðŀ¤Ń
ðŀ¤ħ ðŀ¤Ģðŀ¤Ĳ
ðŀ¤ħ ðŀ¤ļðŀ¤īðŀ¤Īðŀ¤ī
nðŀ¤ĳ ðŀ¤¢ðŀ¤²ðŀ¤³ðŀ¤®
ðŀ¤ĥ ðŀ¤Ģðŀ¤ĳðŀ¤ĭ
Ġðŀ¤Į ðŀ¤¼ðŀ¤¢ðŀ¤²
Ġðŀ¤¢ðŀ¤ª ðŀ¤µ
Ġðŀ¤¢ðŀ¤ª ðŀ¤¼ðŀ¤Ńðŀ¤ªðŀ¤¢
Ġðŀ¤ı ðŀ¤®ðŀ¤²ðŀ¤Ń
ĠâĢ Ŀ
Ġðŀ¤¬ðŀ¤«ðŀ¤ ¨
Ġðŀ¤¬ðŀ¤«ðŀ¤ ¬
Ġðŀ¤¥ðŀ¤Ń ðŀ¤§ðŀ¤¢ðŀ¤¤
Ġðŀ¤¥ðŀ¤µ ðŀ¤°
Ġðŀ¤ĩ ðŀ¤Ģ
ðŀ¤Ńðŀ¤¼ ðŀ¤¢ðŀ¤´
ðŀ¤Ńðŀ¤¼ ðŀ¤®ðŀ¤ªðŀ¤¯ðŀ¤«
Ġðŀ¤¢ðŀ¤² ðŀ¤£ðŀ¤µ
ðŀ¤µðŀ¤¯ ðŀ¤¢
Ġðŀ¤Ĥ ðŀ¤«
Ġðŀ¤Ĥ ðŀ¤µ
Ġðŀ¤Ĥ ðŀ¤¢ðŀ¤ºðŀ¤®
Ġðŀ¤Ĥ ðŀ¤¢ðŀ¤¸ðŀ¤«
Ġðŀ¤Ĵ ðŀ¤«
ðŀ¤ªðŀ¤Ńðŀ¤³ ðŀ¤¢ðŀ¤²ðŀ¤¢
ðŀ¤¢ðŀ¤» ðŀ¤Ń
Ġðŀ¤ħðŀ¤Ń ðŀ¤ºðŀ¤Ńðŀ¤ªðŀ¤Ń
Ġðŀ¤Ī ðŀ¤Į
Ġðŀ¤Ī ðŀ¤®ðŀ¤±ðŀ¤¢ðŀ¤²ðŀ¤Ń
Ġðŀ¤Ī ðŀ¤ĭðŀ¤ĳ
Ġðŀ¤Ī ðŀ¤®ðŀ¤³
Ġðŀ¤¸ðŀ¤¢ðŀ¤³ ðŀ¤µðŀ¤²
Ġðŀ¤¥ðŀ¤¢ðŀ¤± ðŀ¤ªðŀ¤Ń
Ġðŀ¤¼ðŀ¤¢ðŀ¤¼ ðŀ¤¢ðŀ¤©ðŀ¤«ðŀ¤ªðŀ¤«
Ġðŀ¤į ðŀ¤®
ðŀ¥ĳðŀ¥ Ĵ
ðŀ¥ĳðŀ¥ Ĺ
Ġðŀ¤ķ ðŀ¤«
Ġðŀ¤ķ ðŀ¤Ģðŀ¤Ĵ
ðŀ¤° ðŀ¤«
ðŀ¤¢ðŀ¤§ ðŀ¤®
ðŀ¤ĭðŀ¤Ĳ ðŀ¤ģ
Ġðŀ¤° ðŀ¤¢
Ġðŀ¤° ðŀ¤¢ðŀ¤±
Ġðŀ¤° ðŀ¤¢ðŀ¤±ðŀ¤¢ðŀ¤¤
ðŀ¤µðŀ¤²ðŀ¥ĭ ðŀ¤ºðŀ¤®ðŀ¤¤
ðŀ¤īðŀ¤Ĳ ðŀ¤ħðŀ¤Ģðŀ¤Ĳ
ðŀ¤ĸ ðŀ¤Ģðŀ¤Ķ
Ġðŀ¤µ ðŀ¤´
Ġðŀ¤³ðŀ¤Ń ðŀ¤¤ðŀ¤®
Ġðŀ¤§ðŀ¤µðŀ¤© ðŀ¤¢
Ġðŀ¤§ðŀ¤µðŀ¤© ðŀ¤¢ðŀ¤ºðŀ¤®ðŀ¤¤
ðŀ¤³ðŀ¤µ ðŀ¤¤ðŀ¤«
Ġðŀ¤²ðŀ¤ºðŀ¤µ ðŀ¤´ðŀ¤³ðŀ¤¢
ðŀ¤Ĭ ðŀ¤Ģðŀ¤Īðŀ¤Ģðŀ¤Ĳðŀ¤ħðŀ¤ĭ
Ġðŀ¤¶ðŀ¤¢ðŀ¤²ðŀ¤º ðŀ¤¢
ðŀ¤ı ðŀ¤Ģ
Ġðŀ¤ĳðŀ¤®ðŀ¤² ðŀ¤¼ðŀ¤«
Ġðŀ¤©ðŀ¤«ðŀ¤´ ðŀ¤£ðŀ¤®ðŀ¤¼ðŀ¤®
ðŀ¤«ðŀ¤¬ ðŀ¤¼ðŀ¤«ðŀ¤ªðŀ¤«
nðŀ¤ī ðŀ¤¯ðŀ¤«ðŀ¤²
ðŀ¤¾ ðŀ¤¢ðŀ¤²
Ġðŀ¤¤ðŀ¤¢ðŀ¤² ðŀ¤£ðŀ¤®
Ġðŀ¤²ðŀ¤« ðŀ¤Ń
Ġðŀ¥ĵ ðŀ¥Ĳðŀ¥Ĳ
Ġðŀ¥ĵ ðŀ¥ĸ
Ġðŀ¤²ðŀ¤¶ ðŀ¤®ðŀ¤ª
Ġðŀ¤¶ðŀ¤«ðŀ¤´ ðŀ¤¼ðŀ¤¢
ðŀ¤Ńðŀ¤§ ðŀ¤µ
ðŀ¤¼ðŀ¤µ ðŀ¤¯ðŀ¤®
Ġðŀ¤¬ðŀ¤«ðŀ¤±ðŀ¤² ðŀ¤£ðŀ¤Ńðŀ¤²ðŀ¤®
Ġðŀ¤±ðŀ¤¢ðŀ¤´ ðŀ¤ªðŀ¤Ń
Ġðŀ¤¥ðŀ¤µðŀ¤ª ðŀ¤¼ðŀ¤Ń
Ġðŀ¤¥ðŀ¤µðŀ¤ª ðŀ¤¼ðŀ¤¢ðŀ¤²
nðŀ¤ĸ ðŀ¤¢ðŀ¤´
Ġðŀ¤²ðŀ¤¢ðŀ¤²ðŀ¤º ðŀ¤¢ðŀ¤²ðŀ¤®
ðŀ¤Ĩ ðŀ¤ī
Ġðŀ¤Ļ ðŀ¤¢ðŀ¤¥ðŀ¤²ðŀ¤¢
Ġðŀ¤±ðŀ¤Ńðŀ¤² ðŀ¤£ðŀ¤µðŀ¤£ðŀ¤«
Ġðŀ¤±ðŀ¤Ńðŀ¤² ðŀ¤£ðŀ¤¢ðŀ¤²
Ġðŀ¤¬ðŀ¤Ńðŀ¤¶ ðŀ¤¢ðŀ¤²
Ġðŀ¤¬ðŀ¤Ńðŀ¤¶ ðŀ¤µðŀ¤²ðŀ¤®
ðŀ¤¢ðŀ¤£ðŀ¤µ ðŀ¤ºðŀ¤µ
ðŀ¤ļðŀ¤ĭ ðŀ¤ĳðŀ¤ī
an k
Ġt Ã©
Ġðŀ¤¤ðŀ¤®ðŀ¤² ðŀ¤¼ðŀ¤¢ðŀ¤ºðŀ¤®ðŀ¤¤
ðŀ¤īðŀ¤Ī ðŀ¤Ĳðŀ¤Ģ
ØŁ âĢĿ
nðŀ¤ĺ ðŀ¤®
Ġðŀ¤Ħðŀ¤µ ðŀ¤±
Ġðŀ¥ķ ðŀ¥ĺ
Ġðŀ¥ĸ ðŀ¥ĵ
Ġðŀ¥ĸ ðŀ¥ķ
Ġðŀ¤¬ðŀ¤Ńðŀ¤¶ðŀ¤® ðŀ¤´ðŀ¤¼ðŀ¤¢
ðŀ¤«ðŀ¤¸ ðŀ¤ªðŀ¤«
nðŀ¤ĥ ðŀ¤µðŀ¤¸ðŀ¤¢ðŀ¤¥
Ġðŀ¤¦ðŀ¤®ðŀ¤² ðŀ¤©ðŀ¤«
ðŀ¤®ðŀ¤´ ðŀ¤¢ðŀ¤´
on i
Ġðŀ¤¸ðŀ¤«ðŀ¤± ðŀ¤¼ðŀ¤µðŀ¤£ðŀ¤«
Ġðŀ¤Ĳðŀ¤Ń ðŀ¤¶ðŀ¤«
Ġðŀ¤Ĳðŀ¤Ń ðŀ¤¨ðŀ¤®
Ġðŀ¤²ðŀ¤¢ðŀ¤© ðŀ¤µðŀ¤²ðŀ¤®
Ġðŀ¤²ðŀ¤¢ðŀ¤± ðŀ¤²ðŀ¤Ń
ar m
Ġðŀ¤ĸðŀ¤¢ðŀ¤ªðŀ¤Ń ðŀ¤§
Ġðŀ¤Ńðŀ¤± ðŀ¤¢ðŀ¤¼ðŀ¤¢
Ġðŀ¤³ðŀ¤«ðŀ¤§ ðŀ¤«
ðŀ¤ºðŀ¤¢ðŀ¤´ ðŀ¤®
Ġðŀ¤±ðŀ¤«ðŀ¤¤ ðŀ¤¼ðŀ¤¢ðŀ¤²ðŀ¤Ń
ðŀ¤«ðŀ¤¦ ðŀ¤«
nðŀ¤Ĳðŀ¤£ðŀ¤« ðŀ¤²
Ġp ho
Ġðŀ¤±ðŀ¤µðŀ¤ª ðŀ¤¼ðŀ¤¢
Ġðŀ¤Ĭðŀ¤Ń ðŀ¤¶ðŀ¤®
Ġðŀ¤ģðŀ¤® ðŀ¤¬ðŀ¤¼ðŀ¤®
Ġðŀ¤¶ðŀ¤Ńðŀ¤¦ ðŀ¤Ńðŀ¤²ðŀ¤¢ðŀ¤²ðŀ¤£ðŀ¤«
Ġðŀ¤¸ðŀ¤«ðŀ¤§ ðŀ¤«ðŀ¤ªðŀ¤«
Ġðŀ¤£ðŀ¤¢ðŀ¤¯ ðŀ¤µðŀ¤ºðŀ¤®ðŀ¤¤
Ġs u
nðŀ¤Ķ ðŀ¤¢
Ġðŀ¤¸ðŀ¤«ðŀ¤² ðŀ¤£ðŀ¤µ
Ġðŀ¤¤ðŀ¤µðŀ¤¥ðŀ¤¦ ðŀ¤µðŀ¤ºðŀ¤®ðŀ¤¤
nðŀ¤Į ðŀ¤¥ðŀ¤®
Ġðŀ¤¶ðŀ¤µðŀ¤² ðŀ¤ºðŀ¤®
Ġðŀ¥ĳðŀ¥Ļðŀ¥Ļðŀ¥ Ķ
Ġðŀ¥ĳðŀ¥Ļðŀ¥Ļðŀ¥ Ĺ
ðŀ¤§ðŀ¤µ ðŀ¤¬
Ġðŀ¤¼ðŀ¤¢ðŀ¤¥ðŀ¤¨ ðŀ¤Ńðŀ¤²ðŀ¤Ń
Ġðŀ¤Ģðŀ¤ª ðŀ¤£ðŀ¤®ðŀ¤ªðŀ¤£ðŀ¤«
Ġðŀ¤£ðŀ¤µðŀ¤½ ðŀ¤Ńðŀ¤²ðŀ¤Ń
Ġðŀ¤£ðŀ¤µðŀ¤½ ðŀ¤Ńðŀ¤²ðŀ¤¢ðŀ¤²ðŀ¤¢
ĠF ul
ðŀ¤¤ðŀ¤Ńðŀ¤´ ðŀ¤¢ðŀ¤ª
ðŀ¤²ðŀ¤£ ðŀ¤¢ðŀ¤ºðŀ¤®ðŀ¤¤
Ġðŀ¤´ðŀ¤®ðŀ¤² ðŀ¤Ń
Ġðŀ¥ĳðŀ¥Ļðŀ¥ĺ ðŀ¥Ļ
Ġðŀ¤¡ ðŀ¤®ðŀ¤¾ðŀ¤«ðŀ¤²
Ġðŀ¤²ðŀ¤ºðŀ¤¢ðŀ¤´ ðŀ¤³ðŀ¤¢
ðĿĻ ļ
Ġðŀ¤§ðŀ¤µðŀ¤¥ ðŀ¤²ðŀ¤Ń
ðŀ¤Ģðŀ¤Ħ ðŀ¤ĭ
Ġðŀ¤ģðŀ¤«ðŀ¤² ðŀ¤ºðŀ¤¸ðŀ¤¢
ðŀ¤Ńðŀ¤¼ðŀ¤®ðŀ¤ª ðŀ¤²ðŀ¤®
Ġðŀ¤ļðŀ¤® ðŀ¤ºðŀ¤®
Ġðŀ¥ĳðŀ¥Ļðŀ¥ĸ ðŀ¥ĳ
Ġðŀ¤¦ðŀ¤¢ðŀ¤² ðŀ¤£ðŀ¤Ńðŀ¤ªðŀ¤¢
Ġðŀ¤¢ðŀ¤ªðŀ¤£ ðŀ¤Ńðŀ¤²ðŀ¤Ń
Ġðŀ¤¼ðŀ¤¢ðŀ¤¥ðŀ¤° ðŀ¤Ńðŀ¤²ðŀ¤Ń
Ġðŀ¤½ðŀ¤¢ðŀ¤¤ ðŀ¤¯ðŀ¤Ń
Ġðŀ¤½ðŀ¤¢ðŀ¤¤ ðŀ¤¢ðŀ¤±ðŀ¤µ
ðŀ¤īðŀ¤ı ðŀ¤Ĳ
Ġðŀ¤²ðŀ¤«ðŀ¤±ðŀ¤² ðŀ¤¢ðŀ¤²ðŀ¤Ń
Ġðŀ¤§ðŀ¤®ðŀ¤³ ðŀ¤µðŀ¤ºðŀ¤®ðŀ¤¤
Ġðŀ¤¤ðŀ¤¢ðŀ¤¥ ðŀ¤¯ðŀ¤¢ðŀ¤²
Ġðŀ¤©ðŀ¤¢ðŀ¤¥ ðŀ¤¼ðŀ¤Ń
Ġðŀ¤©ðŀ¤¢ðŀ¤¥ ðŀ¤¼ðŀ¤®ðŀ¤¼ðŀ¤¢ðŀ¤²ðŀ¤®
ðŀ¤¹ ðŀ¤µ
Ġðŀ¤±ðŀ¤«ðŀ¤ª ðŀ¤¤ðŀ¤¢ðŀ¤±ðŀ¤¢ðŀ¤¤
nðŀ¤Ĵðŀ¤® ðŀ¤ºðŀ¤¢
ðŀ¤¥ðŀ¤¢ðŀ¤² ðŀ¤µðŀ¤´
Ġðŀ¤Ģðŀ¤ĥ ðŀ¤ĭ
Ġðŀ¤³ðŀ¤µðŀ¤¥ðŀ¤¨ ðŀ¤Ńðŀ¤¼ðŀ¤«
ðŀ¤ĺðŀ¤Įðŀ¤Ĥ ðŀ¤Ģ
Ġðŀ¤©ðŀ¤«ðŀ¤´ðŀ¤£ ðŀ¤¢ðŀ¤´
Ġðŀ¤§ðŀ¤®ðŀ¤ª ðŀ¤¼ðŀ¤Ń
Ġðŀ¤§ðŀ¤®ðŀ¤ª ðŀ¤¼ðŀ¤¢ðŀ¤ºðŀ¤®ðŀ¤¤
Ġðŀ¤ħðŀ¤ī ðŀ¤²ðŀ¤«ðŀ¤ºðŀ¤¢ðŀ¤¤
Ġðŀ¤Ĳðŀ¤Ķ ðŀ¤«ðŀ¤§ðŀ¤¤ðŀ¤¢
Ġre mer
Ġðŀ¤ºðŀ¤Ń ðŀ¤¯ðŀ¤ºðŀ¤®ðŀ¤¤
Ġðŀ¥ĳðŀ¥Ļðŀ¥Ĺ ðŀ¥Ĵ
ðŀ¤ªðŀ¤Ńðŀ¤§ ðŀ¤¼ðŀ¤Ń
Ġðŀ¤¬ðŀ¤Ńðŀ¤© ðŀ¤µ
Ġðŀ¥ĳðŀ¥Ļðŀ¥ķ ðŀ¥ĺ
Ġðŀ¤¢ðŀ¤£ðŀ¤µðŀ¤²ðŀ¤¢ðŀ¤´ðŀ¤¢ðŀ¤²ðŀ¤³ðŀ¤® ðŀ¤±ðŀ¤®
Ġðŀ¤ĳðŀ¤ĭ ðŀ¤į
ðŀ¤Ģðŀ¤ĩ ðŀ¤Ģðŀ¤Ĥ
Ġðŀ¤ļðŀ¤Į ðŀ¤Ľ
Ġðŀ¤ģðŀ¤Į ðŀ¤ħðŀ¤ļðŀ¤īðŀ¤Īðŀ¤ī
Ġðŀ¤Ķðŀ¤®ðŀ¤² ðŀ¤¢ðŀ¤¼ðŀ¤¢ðŀ¤²
ÂłĠÂłĠÂłĠÂłĠ ÂłĠÂłĠÂłĠÂłĠ
Ġðŀ¤£ðŀ¤¢ðŀ¤» ðŀ¤¢
Ġðŀ¤ºðŀ¤«ðŀ¤² ðŀ¤£ðŀ¤Ńðŀ¤²ðŀ¤³ðŀ¤®ðŀ¤±ðŀ¤¢ðŀ¤¤
Ġðŀ¤§ðŀ¤«ðŀ¤¥ðŀ¤¦ ðŀ¤Ńðŀ¤²ðŀ¤ºðŀ¤®ðŀ¤¤
Ġðŀ¤Ģðŀ¤² ðŀ¤¼ðŀ¤®ðŀ¤²
Ġðŀ¤ĥðŀ¤¢ðŀ¤ª ðŀ¤Ńðŀ¤´ðŀ¤¢ðŀ¤¥ðŀ¤¢
Ġðŀ¤Ĵðŀ¤Ģðŀ¤Ĥ ðŀ¤ļðŀ¤ĭ
Ġðŀ¤¦ðŀ¤¢ðŀ¤ªðŀ¤¥ ðŀ¤Ńðŀ¤²ðŀ¤Ń
Ġðŀ¤ħðŀ¤¢ðŀ¤¥ ðŀ¤Ńðŀ¤´ðŀ¤¢
Ġðŀ¤Ĥðŀ¤Ńðŀ¤¦ ðŀ¤¢ðŀ¤²
Ġðŀ¤§ðŀ¤«ðŀ¤© ðŀ¤Ńðŀ¤¼ðŀ¤Ń
Ġðŀ¤ĥðŀ¤Ģðŀ¤ĥ ðŀ¤Ģðŀ¤ģðŀ¤ĭ
ðŀ¤Ńðŀ¤´ðŀ¤® ðŀ¤¥
ðŀ¤Įðŀ¤Ĳðŀ¤Ģðŀ¤Ĥ ðŀ¤ģðŀ¤Į
Ġðŀ¤±ðŀ¤Ńðŀ¤²ðŀ¤£ðŀ¤« ðŀ¤ªðŀ¤«ðŀ¤´ðŀ¤¢ðŀ¤²ðŀ¤³ðŀ¤®
Ġðŀ¤īðŀ¤ĳðŀ¤ıðŀ¤Ģðŀ¤ļ ðŀ¤īðŀ¤Ī
Ġðŀ¤ĳðŀ¤Ń ðŀ¤ºðŀ¤¢ðŀ¤¤ðŀ¤Ń
ðŀ¤ĭðŀ¤ļ ðŀ¤Ģðŀ¤Ĥ
Ġðŀ¤ĸðŀ¤µ ðŀ¤§ðŀ¤«ðŀ¤´
Ġðŀ¤ıðŀ¤¢ðŀ¤º ðŀ¤¢ðŀ¤£ðŀ¤µðŀ¤ºðŀ¤µ
Ġðŀ¤Ĺðŀ¤¢ðŀ¤ª ðŀ¤£ðŀ¤¢
ðŀ¤²ðŀ¥ĭ ðŀ¤£ðŀ¤«
Ġðŀ¤»ðŀ¤® ðŀ¤°
Ġðŀ¤Ħðŀ¤«ðŀ¤ª ðŀ¤²ðŀ¤Ń
Ġðŀ¤Įðŀ¤Ĩ ðŀ¤Īðŀ¤Ģ
Ġðŀ¤ĭðŀ¤² ðŀ¤«ðŀ¤§ðŀ¤³ðŀ¤®
nðŀ¤īðŀ¤² ðŀ¤«ðŀ¤²
Ġðŀ¤ĳðŀ¤¢ðŀ¤¤ðŀ¤Ń ðŀ¤¬ðŀ¤®ðŀ¤ªðŀ¤²ðŀ¤Ńðŀ¤´ðŀ¤¢
Ġðŀ¤¸ðŀ¤®ðŀ¤¥ðŀ¤¦ðŀ¤Ń ðŀ¤ªðŀ¤Ń
Ġðŀ¤Ĳðŀ¤ģðŀ¤ī ðŀ¤Ī
ðŀ¤Ĥðŀ¤Į ðŀ¤ļðŀ¤ĭ
Ġli en
Ġðŀ¤¤ðŀ¤¢ðŀ¤§ ðŀ¤¼ðŀ¤«
Ġðŀ¤Ķðŀ¤«ðŀ¤ª ðŀ¤¥ðŀ¤¢ðŀ¤²ðŀ¤Ń
Ġðŀ¤ļðŀ¤ªðŀ¤¢ðŀ¤² ðŀ¤§ðŀ¤¤ðŀ¤«
Ġðŀ¤¯ðŀ¤Ńðŀ¤¯ðŀ¤¢ðŀ¤© ðŀ¤µ
dl am
Ġðŀ¤Ħðŀ¤īðŀ¤Ĥ ðŀ¤ħðŀ¤ĭðŀ¤ĳ
Ġðŀ¤ģðŀ¤Ģðŀ¤Īðŀ¤Į ðŀ¤ļðŀ¤Į
ĠK rist
Ġðŀ¤ĳðŀ¤Ńðŀ¤²ðŀ¤£ðŀ¤Ń ðŀ¤´ðŀ¤¢
Ġðŀ¤Ħðŀ¤Ģðŀ¤Ł ðŀ¤ĵðŀ¤ĥ
Ġðŀ¤ģðŀ¤Ģðŀ¤Ĳ ðŀ¤ĥðŀ¤Ģðŀ¤Ī
Ġðŀ¤Ĩðŀ¤®ðŀ¤ªðŀ¤¼ðŀ¤Ń ðŀ¤ºðŀ¤¢ðŀ¤¤
Ġðŀ¤¤ðŀ¤µðŀ¤© ðŀ¤¢
Ġðŀ¤Ĭðŀ¤Ģðŀ¤ħ ðŀ¤Į
Ġðŀ¤ģðŀ¤Ģðŀ¤Ĥ ðŀ¤īðŀ¤Ĳ
Ġðŀ¤ļðŀ¤µðŀ¤¼ ðŀ¤§ðŀ¤Ń
Ġðŀ¤ķðŀ¤Ģðŀ¤Ĵ ðŀ¤Ĳðŀ¤Ģ
ĠtÃ© lÃ©
Ġðŀ¤±ðŀ¤«ðŀ¤¤ðŀ¤¼ðŀ¤¢ðŀ¤²ðŀ¤Ń ðŀ¤³ðŀ¤«
Ġpho t
ĠFul fulde
ðŀ¤¥ðŀ¤¢ðŀ¤²ðŀ¤µðŀ¤´ ðŀ¤«ðŀ¤¤
Ġremer cie
Ġðŀ¤ļðŀ¤ªðŀ¤¢ðŀ¤²ðŀ¤§ðŀ¤¤ðŀ¤« ðŀ¤¼
ĠKrist i
. ",
5 0
A D
C F
g l
g er
i al
l us
m e
n H
n M
n d
o b
p or
q u
r ent
s ist
t ic
u x
u age
u ide
Â «
Â »
Ã ¨
Ġ 3
Ġ r
Ġ is
Ġ rÃ©
Ġ Â«
ðŀ¤® ðŀ¤£ðŀ¤Ń
ðŀ¤® ðŀ¤¼ðŀ¤¢
ðŀ¤« ðŀ¤£ðŀ¤Ńðŀ¤´ðŀ¤«
ðŀ¤Ń ðŀ¤¤ðŀ¤®
ðŀ¤² ðŀ¤¢ðŀ¤¤
ðŀ¤² ðŀ¤¢ðŀ¤±
ðŀ¤² ðŀ¤¢ðŀ¤ºðŀ¤®ðŀ¤¤
ðŀ¤µ ðŀ¤£ðŀ¤µðŀ¤£ðŀ¤«
ðŀ¤ª ðŀ¤¼ðŀ¤Ńðŀ¤²
Ġðŀ¤² ðŀ¤«ðŀ¤¦
ðŀ¤¤ ðŀ¤¼ðŀ¤¢
ðŀ¤¤ ðŀ¤Ńðŀ¤ª
ðŀ¤¤ ðŀ¤²ðŀ¤¢
ðŀ¤¤ ðŀ¤¢ðŀ¤§
ðŀ¤¤ ðŀ¤Ńðŀ¤ªðŀ¤¢
ðŀ¤¤ ðŀ¤²ðŀ¤µðŀ¤£ðŀ¤«
ðŀ¤¤ ðŀ¤¢ðŀ¤²ðŀ¤£
ðŀ¤º ðŀ¤¢ðŀ¤²ðŀ¤Ń
ðŀ¤º ðŀ¤«ðŀ¤¤
â¹ģ \
ðŀ¤¢ðŀ¤¤ ðŀ¤©ðŀ¤«
Ġðŀ¤¸ ðŀ¤Ńðŀ¤ª
Ġðŀ¤¸ ðŀ¤Ńðŀ¤²ðŀ¥ĭ
Ġðŀ¤¸ ðŀ¤¢ðŀ¤¹
ðŀ¤¥ ðŀ¤®ðŀ¤²
Ġðŀ¤« ðŀ¤¼ðŀ¤¢ðŀ¤ºðŀ¤®ðŀ¤¤
ðŀ¤¢ðŀ¤² ðŀ¤µ
ðŀ¤¢ðŀ¤² ðŀ¤¢ðŀ¤´
ðŀ¤¢ðŀ¤² ðŀ¤¥ðŀ¤¢ðŀ¤ª
ðŀ¤®ðŀ¤² ðŀ¤£ðŀ¤®
ðŀ¤Ńðŀ¤² ðŀ¤®ðŀ¤¤
ðŀ¤Ńðŀ¤² ðŀ¤¼ðŀ¤Ńðŀ¤²ðŀ¤¢
Ġðŀ¤± ðŀ¤Ńðŀ¤´ðŀ¤¢
Ġðŀ¤¥ ðŀ¤¢ðŀ¤¤ðŀ¤¢
Ġðŀ¤¥ ðŀ¤¢ðŀ¤ªðŀ¤¢
Ġðŀ¤¥ ðŀ¤«ðŀ¤·
ðŀ¤³ ðŀ¤§ðŀ¤Ń
ðŀ¤³ ðŀ¤®ðŀ¤ªðŀ¤¯ðŀ¤«
ðŀ¤³ ðŀ¤®ðŀ¤ªðŀ¤¢ðŀ¤¤
ðŀ¤µðŀ¤² ðŀ¤¼ðŀ¤µ
Ġðŀ¤¬ ðŀ¤µðŀ¤²ðŀ¤«
Ġðŀ¤¬ ðŀ¤µðŀ¤¤ðŀ¤©ðŀ¤«
Ġðŀ¤¯ ðŀ¤¢ðŀ¤¼ðŀ¤«
Ġðŀ¤¼ ðŀ¤¢ðŀ¤¤
Ġðŀ¤¼ ðŀ¤«ðŀ¤¨
Ġðŀ¤¼ ðŀ¤«ðŀ¤½ðŀ¤¼ðŀ¤Ńðŀ¤²ðŀ¤Ń
ðŀ¤ªðŀ¤« ðŀ¤¼ðŀ¤«
Ġðŀ¤§ ðŀ¤¢ðŀ¤²
Ġðŀ¤§ ðŀ¤µðŀ¤²
Ġðŀ¤§ ðŀ¤¢ðŀ¤£
Ġðŀ¤§ ðŀ¤¢ðŀ¤¼
Ġðŀ¤§ ðŀ¤®ðŀ¤ªðŀ¤®
Ġðŀ¤ĳ ðŀ¤¢ðŀ¤¨
Ġðŀ¤ĳ ðŀ¤¢ðŀ¤§
Ġðŀ¤ĳ ðŀ¤Ģðŀ¤Īðŀ¤ĭ
Ġðŀ¤ĳ ðŀ¤Ńðŀ¤¨
Ġðŀ¤ĳ ðŀ¤«ðŀ¤²ðŀ¤«ðŀ¤²
ðŀ¤¢ðŀ¤ª ðŀ¤»
ðŀ¤¢ðŀ¤ª ðŀ¤¶ðŀ¤¢
ðŀ¤£ðŀ¤Ń ðŀ¤ºðŀ¤¢ðŀ¤¤
Ġðŀ¤´ ðŀ¤¢ðŀ¤±
Ġðŀ¤´ ðŀ¤«ðŀ¤ª
Ġðŀ¤³ðŀ¤® ðŀ¤ª
Ġðŀ¤²ðŀ¤º ðŀ¤µðŀ¤ª
ðŀ¤± ðŀ¤Ńðŀ¤ª
ðŀ¤´ ðŀ¤Ńðŀ¤ª
ðŀ¤´ ðŀ¤¼ðŀ¤®
ðŀ¤´ ðŀ¤¼ðŀ¤«
ðŀ¤«ðŀ¤² ðŀ¤Ń
ðŀ¤¦ ðŀ¤¢ðŀ¤¤
ðŀ¤¦ ðŀ¤£ðŀ¤µ
ðŀ¤¦ ðŀ¤¢ðŀ¤¥ðŀ¤©ðŀ¤«
ðŀ¤¦ ðŀ¤µðŀ¤²ðŀ¤«ðŀ¤ªðŀ¤«
ðŀ¤Ģðŀ¤ ¬
ðŀ¤¢ðŀ¤´ ðŀ¤²ðŀ¤£ðŀ¤«
ðŀ¤¼ðŀ¤Ń ðŀ¤§
ðŀ¤¼ðŀ¤Ń ðŀ¤¹ðŀ¤µ
ðŀ¤ĭ ðŀ¤Īðŀ¤ĭ
ðŀ¤ĭ ðŀ¤ķ
Ġðŀ¤±ðŀ¤®ðŀ¤² ðŀ¤µðŀ¤²
Ġðŀ¤±ðŀ¤®ðŀ¤² ðŀ¤£ðŀ¤µ
Ġðŀ¤±ðŀ¤®ðŀ¤² ðŀ¤£ðŀ¤µðŀ¤¯ðŀ¤®
ðŀ¤§ ðŀ¤«ðŀ¤¤
ðŀ¤§ ðŀ¤¢ðŀ¤¼ðŀ¤¢
ðŀ¤§ ðŀ¤«ðŀ¤ª
ðŀ¤§ ðŀ¤®ðŀ¤²ðŀ¥ĭðŀ¤£ðŀ¤Ńðŀ¤ªðŀ¤¢ðŀ¤¤
ðŀ¤© ðŀ¤£ðŀ¤Ń
ðŀ¤© ðŀ¤¼ðŀ¤Ń
ðŀ¤© ðŀ¤²ðŀ¤£ðŀ¤«
ðŀ¤© ðŀ¤²ðŀ¤®
ðŀ¤© ðŀ¤¢ðŀ¤²ðŀ¤¢
ðŀ¤© ðŀ¤µðŀ¤¯ðŀ¤Ń
ðŀ¤© ðŀ¤²ðŀ¤µðŀ¤£ðŀ¤«
ðŀ¤© ðŀ¤Ńðŀ¤²ðŀ¤¼ðŀ¤¢
Ġðŀ¤£ ðŀ¤µðŀ¤ª
Ġðŀ¤£ ðŀ¤«ðŀ¤°
Ġðŀ¤¢ ðŀ¤²ðŀ¤£ðŀ¤«
Ġðŀ¤ħ ðŀ¤Ģðŀ¤Ĳ
Ġðŀ¤ħ ðŀ¤Ģðŀ¤ĥ
Ġðŀ¤ħ ðŀ¤®ðŀ¤ªðŀ¤®
Ġðŀ¤ħ ðŀ¤¢ðŀ¤¸ðŀ¤ªðŀ¤«
Ġðŀ¤ħ ðŀ¤Ńðŀ¤¥ðŀ¤¦ðŀ¤¢
ðŀ¤Į ðŀ¤ħ
Ġðŀ¤ĥ ðŀ¤Ńðŀ¤²
Ġðŀ¤ĥ ðŀ¤µðŀ¤¤
Ġðŀ¤ĥ ðŀ¤Ģðŀ¤ħ
Ġðŀ¤ĥ ðŀ¤Ģðŀ¤ĺ
ðŀ¤®ðŀ¤ª ðŀ¤¢ðŀ¤´
ðŀ¤¢ðŀ¤£ ðŀ¤®
Ġðŀ¤º ðŀ¤¢ðŀ¤²ðŀ¤£ðŀ¤®
Ġðŀ¤º ðŀ¤¢ðŀ¤¯ðŀ¤¢
Ġðŀ¤º ðŀ¤«ðŀ¤©ðŀ¤«
Ġðŀ¤¸ðŀ¤® ðŀ¤£
ðŀ¤¢ðŀ¤¥ ðŀ¤¢ðŀ¤²
ðŀ¤¢ðŀ¤¼ ðŀ¤«ðŀ¤²
Ġðŀ¤Ĳ ðŀ¤ºðŀ¤®ðŀ¤¤
Ġðŀ¤Ĳ ðŀ¤«ðŀ¤±
Ġðŀ¤Ĳ ðŀ¤¢ðŀ¤§
Ġðŀ¤Ĳ ðŀ¤Ńðŀ¤¥ðŀ¤¦ðŀ¤¢
ðŀ¤¶ðŀ¤® ðŀ¤±ðŀ¤Ń
ðŀ¤¢ðŀ¤¯ ðŀ¤Ń
Ġðŀ¤ĺ ðŀ¤Įðŀ¤Ĳ
Ġðŀ¤ĺ ðŀ¤Ńðŀ¤´ðŀ¤®ðŀ¤¥
ðŀ¤Ńðŀ¤ª ðŀ¤Ńðŀ¤²
ðŀ¤Ńðŀ¤ª ðŀ¤²ðŀ¤£ðŀ¤«
ðŀ¤Ńðŀ¤ª ðŀ¤¯ðŀ¤®
ðŀ¤Ńðŀ¤ª ðŀ¤¼ðŀ¤«
Ġðŀ¤Ħ ðŀ¤®
Ġðŀ¤Ħ ðŀ¤ªðŀ¤¢
Ġðŀ¤Ħ ðŀ¤īðŀ¤Īðŀ¤Ĳðŀ¤Ģ
ðŀ¤¤ðŀ¤Ń ðŀ¤´ðŀ¤¢
ðŀ¤¬ ðŀ¤¼
ðŀ¤¬ ðŀ¤Ńðŀ¤ªðŀ¤¢
ðŀ¤¬ ðŀ¤®ðŀ¤¼ðŀ¤®
ðŀ¤Ī ðŀ¤ĵðŀ¤Ĳðŀ¤Į
Ġðŀ¤²ðŀ¤£ ðŀ¤®ðŀ¤²ðŀ¤£ðŀ¤Ń
Ġðŀ¤¥ðŀ¤® ðŀ¤£
ðŀ¤¼ðŀ¤Ńðŀ¤² ðŀ¤¼ðŀ¤«
ðŀ¤¼ðŀ¤Ńðŀ¤² ðŀ¤Ńðŀ¤ªðŀ¤Ń
ðŀ¤¢ðŀ¤¦ ðŀ¤«ðŀ¤¼
Ġðŀ¤¦ ðŀ¤®ðŀ¤ª
Ġðŀ¤¦ ðŀ¤¢ðŀ¤ªðŀ¤¢
ðŀ¤¨ ðŀ¤«
ðŀ¤¨ ðŀ¤Ńðŀ¤´ðŀ¤¢
Ġðŀ¤¼ðŀ¤¢ðŀ¤± ðŀ¤¼ðŀ¤µðŀ¤ºðŀ¤®ðŀ¤¤
Ġðŀ¤ĸ ðŀ¤ī
Ġðŀ¤ĸ ðŀ¤¢ðŀ¤ªðŀ¤¢
Ġðŀ¤ĸ ðŀ¤«ðŀ¤§
ðŀ¤«ðŀ¤± ðŀ¤µ
ðŀ¤«ðŀ¤± ðŀ¤¤ðŀ¤µ
ðŀ¤µðŀ¤ª ðŀ¤¥ðŀ¤¢
Ġðŀ¤±ðŀ¤¢ðŀ¤¯ ðŀ¤¢ðŀ¤²ðŀ¤¢
Ġðŀ¤±ðŀ¤¢ðŀ¤¯ ðŀ¤µðŀ¤¯ðŀ¤«
Ġðŀ¤±ðŀ¤¢ðŀ¤¯ ðŀ¤¼ðŀ¤¢ðŀ¤²ðŀ¤£ðŀ¤«
ðŀ¤£ðŀ¤µ ðŀ¤ºðŀ¤¢ðŀ¤¤
Ġðŀ¤ģ ðŀ¤Ģðŀ¤Ī
Ġðŀ¤ģ ðŀ¤®ðŀ¤±
Ġðŀ¤ī ðŀ¤¤ðŀ¤«ðŀ¤²
ðŀ¤¤ðŀ¤« ðŀ¤ªðŀ¤«
ðŀ¤³ðŀ¤® ðŀ¤ªðŀ¤«
Ġðŀ¤¨ ðŀ¤®ðŀ¤ª
Ġðŀ¤¨ ðŀ¤¢ðŀ¤¥
Ġðŀ¤Ķ ðŀ¤ī
Ġðŀ¤Ķ ðŀ¤Įðŀ¤Ĳ
Ġðŀ¤· ðŀ¤¢ðŀ¤¤
Ġðŀ¤· ðŀ¤¢ðŀ¤¼
Ġðŀ¤· ðŀ¤µðŀ¤©ðŀ¤«
Ġðŀ¤· ðŀ¤µðŀ¤²ðŀ¤¼ðŀ¤µ
ðŀ¥Ĵ ðŀ¥Ķ
Ġðŀ¤§ðŀ¤® ðŀ¤ªðŀ¤Ń
Ġðŀ¤§ðŀ¤® ðŀ¤ºðŀ¤Ńðŀ¤¼ðŀ¤¢
Ġðŀ¤¶ðŀ¤® ðŀ¤¥ðŀ¤¦
Ġðŀ¤ª ðŀ¤«ðŀ¤§ðŀ¤Ń
ðŀ¤Ĥ ðŀ¤¢
ðŀ¤Ĥ ðŀ¤«ðŀ¤§
ðŀ¤Ĥ ðŀ¤¢ðŀ¤ĥ
ðŀ¤©ðŀ¤Ń ðŀ¤ªðŀ¤Ń
ðŀ¤«ðŀ¤ªðŀ¤« ðŀ¤³ðŀ¤®ðŀ¤ªðŀ¤«
Ġðŀ¤ļ ðŀ¤¢
Ġðŀ¤ļ ðŀ¤µðŀ¤¥
Ġðŀ¤ļ ðŀ¤Ńðŀ¤¥
Ġðŀ¤ļ ðŀ¤ĵ
Ġðŀ¤ļ ðŀ¤µðŀ¤ªðŀ¤³
Ġðŀ¤ļ ðŀ¤Ģðŀ¤Ħ
ðŀ¤ĺ ðŀ¤ĵ
ðŀ¤ĺ ðŀ¤Ńðŀ¤¦ðŀ¤Ń
Ġðŀ¤´ðŀ¤® ðŀ¤©ðŀ¤Ń
ðŀ¤¸ ðŀ¤®ðŀ¤¤
ðŀ¤¸ ðŀ¤¢ðŀ¤¼
ðŀ¤ħ ðŀ¤ļðŀ¤Ģ
nðŀ¤ĳ ðŀ¤¢ðŀ¤¤ðŀ¤¢
ðŀ¤ĥ ðŀ¤µ
ðŀ¤ĥ ðŀ¤«ðŀ¤²
ðŀ¤ĥ ðŀ¤Ģðŀ¤Īðŀ¤Įðŀ¤ĳ
ðŀ¤¢ðŀ¤²ðŀ¤º ðŀ¤µ
ðŀ¤ļ ðŀ¤Ńðŀ¤¥
ðŀ¤ļ ðŀ¤ĭðŀ¤Ĳ
ðŀ¤ļ ðŀ¤īðŀ¤Ĳ
Ġðŀ¤¢ðŀ¤ª ðŀ¤¢
Ġðŀ¤¢ðŀ¤ª ðŀ¤¢ðŀ¤¼ðŀ¤¢
Ġðŀ¤¢ðŀ¤ª ðŀ¤¼ðŀ¤µðŀ¤ºðŀ¤®ðŀ¤¤
Ġðŀ¤¸ðŀ¤«ðŀ¤ °
Ġðŀ¤ı ðŀ¤Ń
Ġðŀ¤ı ðŀ¤Ģðŀ¤Ī
Ġðŀ¤ı ðŀ¤«ðŀ¤´ðŀ¤¢
Ġðŀ¤ı ðŀ¤Ģðŀ¤Īðŀ¤ĭ
Ġðŀ¤¼ðŀ¤® ðŀ¤³
ĠâĢ ¢
ðŀ¤£ðŀ¤Ńðŀ¤ª ðŀ¤¯ðŀ¤Ń
ðŀ¤£ðŀ¤Ńðŀ¤ª ðŀ¤¼ðŀ¤«
Ġðŀ¤Ĩ ðŀ¤«ðŀ¤¤
Ġðŀ¤Ĩ ðŀ¤®ðŀ¤ªðŀ¤¼ðŀ¤®
Ġðŀ¤Ĩ ðŀ¤Ģðŀ¤ħðŀ¤ļðŀ¤īðŀ¤Ĭ
ðŀ¤Ħ ðŀ¤¢
ðŀ¤Ħ ðŀ¤Į
Ġðŀ¤¥ðŀ¤Ń ðŀ¤¤ðŀ¤Ńðŀ¤´ðŀ¤®ðŀ¤²
Ġðŀ¤ĩ ðŀ¤µðŀ¤ªðŀ¤Ń
ðŀ¤ºðŀ¤®ðŀ¤ª ðŀ¤£ðŀ¤µ
Ġðŀ¤¯ðŀ¤® ðŀ¤¬
ðŀ¤Ĵ ðŀ¤µðŀ¤²ðŀ¤¢ðŀ¤´ðŀ¤¼ðŀ¤«ðŀ¤£
ðŀ¤Ĵ ðŀ¤ĭðŀ¤ĥðŀ¤ĩðŀ¤ī
ðŀ¤Ĵ ðŀ¤Ģðŀ¤Ĳðŀ¤ĳðŀ¤Į
Ġðŀ¤¢ðŀ¤² ðŀ¤£ðŀ¤Ńðŀ¤ª
ðŀ¤¥ðŀ¤® ðŀ¤ªðŀ¤Ń
ðŀ¤¥ðŀ¤® ðŀ¤¼ðŀ¤®
Ġðŀ¤Ĥ ðŀ¤ĵ
Ġðŀ¤Ĥ ðŀ¤Įðŀ¤Ĳ
Ġðŀ¤Ĥ ðŀ¤Ńðŀ¤£
Ġðŀ¤Ĥ ðŀ¤¢ðŀ¤ªðŀ¤«
Ġðŀ¤Ĥ ðŀ¤®ðŀ¤ªðŀ¤¢ðŀ¤²
Ġðŀ¤Ĥ ðŀ¤¢ðŀ¤²ðŀ¤§
Ġðŀ¤Ĥ ðŀ¤Ńðŀ¤§ðŀ¤µ
ðŀ¤¥ðŀ¤« ðŀ¤¼ðŀ¤«
Ġðŀ¤Ĵ ðŀ¤ĭ
ðŀ¤±ðŀ¤Ń ðŀ¤¼ðŀ¤«ðŀ¤ª
Ġðŀ¤ĭ ðŀ¤¦
ðŀ¤¢ðŀ¤ªðŀ¤¢ðŀ¤² ðŀ¤§ðŀ¤«
ðŀ¤· ðŀ¤¢ðŀ¤¤
ðŀ¤· ðŀ¤«ðŀ¤§
Ġðŀ¤¸ðŀ¤¢ðŀ¤³ ðŀ¤Ńðŀ¤²ðŀ¤£ðŀ¤Ńðŀ¤²
Ġðŀ¤¸ðŀ¤¢ðŀ¤³ ðŀ¤¼ðŀ¤Ńðŀ¤§ðŀ¤µ
Ġðŀ¤¥ðŀ¤¢ðŀ¤± ðŀ¤²ðŀ¤µðŀ¤£ðŀ¤«
Ġðŀ¤Ģðŀ¤¤ ðŀ¤¹
ðŀ¥ĳðŀ¥ ĵ
Ġðŀ¤ķ ðŀ¤®ðŀ¤º
Ġðŀ¤ķ ðŀ¤µðŀ¤©ðŀ¤¢ðŀ¤¤
Ġðŀ¤¥ðŀ¤¢ðŀ¤¤ ðŀ¤¢ðŀ¤¤
Ġðŀ¤° ðŀ¤«ðŀ¤¤
Ġðŀ¤´ðŀ¤Ń ðŀ¤«
Ġðŀ¤´ðŀ¤Ń ðŀ¤¢ðŀ¤²ðŀ¤£ðŀ¤«
Ġðŀ¤±ðŀ¤Ń ðŀ¤¯
Ġðŀ¤±ðŀ¤Ń ðŀ¤µðŀ¤ºðŀ¤®ðŀ¤¤
Ġðŀ¤£ðŀ¤¢ðŀ¤ª ðŀ¤¼ðŀ¤Ńðŀ¤²
Ġðŀ¤§ðŀ¤µðŀ¤© ðŀ¤Ńðŀ¤²ðŀ¤®
ðŀ¤Ķ ðŀ¤ĵ
Ġðŀ¤²ðŀ¤ºðŀ¤µ ðŀ¤¶
ðŀ¤ı ðŀ¤ĭ
Ġðŀ¤£ðŀ¤® ðŀ¤§ðŀ¤¼ðŀ¤«ðŀ¤ªðŀ¤«ðŀ¤´ðŀ¤¢ðŀ¤²ðŀ¤³ðŀ¤®
Ġðŀ¤´ðŀ¤« ðŀ¤¯ðŀ¤¢ðŀ¤²ðŀ¤®
Ġðŀ¤¶ðŀ¤µ ðŀ¤¸ðŀ¤Ń
Ġðŀ¥ĳðŀ¥Ļðŀ¥ ĵ
Ġðŀ¤¥ðŀ¤« ðŀ¤¯ðŀ¤«ðŀ¤²
Ġðŀ¤©ðŀ¤«ðŀ¤´ ðŀ¤£ðŀ¤¢ðŀ¤²
Ġðŀ¤©ðŀ¤«ðŀ¤´ ðŀ¤£ðŀ¤¢ðŀ¤²ðŀ¤Ń
ðŀ¤¦ðŀ¤µ ðŀ¤±ðŀ¤«
ðŀ¤µðŀ¤© ðŀ¤¤ðŀ¤«
ðŀ¤¥ðŀ¤Ń ðŀ¤³ðŀ¤«
ðŁ İ
Ġðŀ¤²ðŀ¤£ðŀ¤Ń ðŀ¤³
Ġðŀ¤§ðŀ¤¢ðŀ¤ª ðŀ¤Ńðŀ¤´
Ġðŀ¤§ðŀ¤¢ðŀ¤ª ðŀ¤´ðŀ¤®
Ġðŀ¤§ðŀ¤¢ðŀ¤ª ðŀ¤Ńðŀ¤ªðŀ¤£ðŀ¤µ
ðŀ¤Ńðŀ¤¤ ðŀ¤¢ðŀ¤²
ðŀ¤į ðŀ¤µðŀ¤¥
Ġðŀ¥ĵ ðŀ¥ķ
Ġðŀ¤ĵ ðŀ¤ģ
Ġðŀ¤ĵ ðŀ¤ĥðŀ¤Ģðŀ¤Ī
Ġðŀ¤ĵ ðŀ¤ªðŀ¤£ðŀ¤µ
âĢĿ .\
Ġðŀ¤¶ðŀ¤¢ðŀ¤² ðŀ¤¬ðŀ¤¢
ðŀ¤®ðŀ¤± ðŀ¤¢ðŀ¤§ðŀ¤Ń
ðŀ¤µðŀ¤¥ðŀ¤¦ ðŀ¤®ðŀ¤²ðŀ¥ĭðŀ¤£ðŀ¤Ńðŀ¤ªðŀ¤¢ðŀ¤¤
Ġðŀ¤ĳðŀ¤Į ðŀ¤ħðŀ¤ļðŀ¤Ģ
nðŀ¤ĸ ðŀ¤Ńðŀ¤¼ðŀ¤¢
Ġðŀ¤²ðŀ¤¢ðŀ¤²ðŀ¤º ðŀ¤®ðŀ¤²
Ġðŀ¤²ðŀ¤¢ðŀ¤²ðŀ¤º ðŀ¤µðŀ¤ºðŀ¤®ðŀ¤¤
ðŀ¤Ĩ ðŀ¤«
ðŀ¤Ĩ ðŀ¤Ń
Ġðŀ¤±ðŀ¤Ńðŀ¤´ ðŀ¤µðŀ¤£ðŀ¤«
Ġðŀ¤±ðŀ¤Ńðŀ¤² ðŀ¤£ðŀ¤¢
ðŀ¤Ģðŀ¤ģ ðŀ¤Ĥðŀ¤¢ðŀ¤ĥ
nðŀ¤ħ ðŀ¤«ðŀ¤¤
Ġðŀ¤ĥðŀ¤µ ðŀ¤§ðŀ¤¤
Ġðŀ¤¤ðŀ¤¢ðŀ¤¼ ðŀ¤«
Ġðŀ¤¤ðŀ¤®ðŀ¤² ðŀ¤¼ðŀ¤®ðŀ¤²ðŀ¥ĭðŀ¤£ðŀ¤Ńðŀ¤ªðŀ¤¢ðŀ¤¤
Ġðŀ¤¦ðŀ¤Ńðŀ¤² ðŀ¤£ðŀ¤®
Ġðŀ¥ķ ðŀ¥ĸ
Ġðŀ¥ĸ ðŀ¥Ĺ
Ġðŀ¥ĸ ðŀ¥ĺ
ðŀ¤«ðŀ¤¸ ðŀ¤µ
nðŀ¤ĥ ðŀ¤¢
Ġðŀ¤¦ðŀ¤®ðŀ¤² ðŀ¤Ń
Ġðŀ¤¦ðŀ¤®ðŀ¤² ðŀ¤¢ðŀ¤²ðŀ¤Ń
Ġðŀ¤ģðŀ¤µ ðŀ¤¼ðŀ¤«
Ġðŀ¤¸ðŀ¤«ðŀ¤± ðŀ¤¼ðŀ¤¢
Ġðŀ¤¸ðŀ¤«ðŀ¤± ðŀ¤¼ðŀ¤µðŀ¤ºðŀ¤®ðŀ¤¤
Ġðŀ¤¸ðŀ¤«ðŀ¤± ðŀ¤¼ðŀ¤µðŀ¤²ðŀ¤®
Ġðŀ¤¬ðŀ¤« ðŀ¤ªðŀ¤Ń
ðŀ¤ĺðŀ¤Į ðŀ¤Ī
ðŀ¤ĺðŀ¤Į ðŀ¤Īðŀ¤Ģ
Ġðŀ¤²ðŀ¤¢ðŀ¤± ðŀ¤²ðŀ¤µðŀ¤¯ðŀ¤®
Ġðŀ¤ĥðŀ¤¢ðŀ¤³ ðŀ¤ªðŀ¤®ðŀ¤²
Ġðŀ¥Ķ ðŀ¥ĳ
Ġðŀ¥Ķ ðŀ¥Ķ
Ġðŀ¥Ķ ðŀ¥ĵ
Ġðŀ¥Ķ ðŀ¥Ļ
Ġðŀ¤¬ðŀ¤¢ðŀ¤± ðŀ¤«
Ġðŀ¤Ńðŀ¤± ðŀ¤µðŀ¤£ðŀ¤«
is h
Ġðŀ¤½ ðŀ¤«
Ġðŀ¤³ðŀ¤«ðŀ¤§ ðŀ¤®ðŀ¤¤
Ġðŀ¤¼ðŀ¤®ðŀ¤½ ðŀ¤¢
Ġðŀ¤¼ðŀ¤®ðŀ¤½ ðŀ¤¢ðŀ¤²ðŀ¤«
Ġðŀ¤±ðŀ¤«ðŀ¤¤ ðŀ¤£ðŀ¤Ńðŀ¤²
Ġðŀ¤±ðŀ¤«ðŀ¤¤ ðŀ¤¼ðŀ¤¢ðŀ¤²ðŀ¤¢
Ġðŀ¤¬ðŀ¤«ðŀ¤¼ ðŀ¤¤ðŀ¤¢
Ġðŀ¤©ðŀ¤«ðŀ¤´ðŀ¤£ðŀ¤Ń ðŀ¤¼ðŀ¤¢ðŀ¤²ðŀ¤Ń
Ġðŀ¤§ðŀ¤Ńðŀ¤²ðŀ¤· ðŀ¤µðŀ¤²ðŀ¤®
Ġðŀ¤§ðŀ¤Ńðŀ¤²ðŀ¤· ðŀ¤µðŀ¤©ðŀ¤«
Ġðŀ¤¢ðŀ¤ªðŀ¤¢ðŀ¤² ðŀ¤µ
ĠðŁĩ ª
Ġðŀ¤ļðŀ¤µ ðŀ¤ºðŀ¤¢ðŀ¤¤
Ġðŀ¤£ðŀ¤¢ðŀ¤± ðŀ¤¢
Ġðŀ¤²ðŀ¤¢ðŀ¤² ðŀ¤¢ðŀ¤¼ðŀ¤¢
Ġðŀ¤¼ðŀ¤µðŀ¤¥ðŀ¤¦ ðŀ¤«ðŀ¤ªðŀ¤«
Ġðŀ¥Ĺ ðŀ¥Ķ
Ġp lus
Ġðŀ¤±ðŀ¤µðŀ¤ª ðŀ¤®
Ġðŀ¤±ðŀ¤µðŀ¤ª ðŀ¤¼ðŀ¤Ńðŀ¤²ðŀ¤Ń
at ed
ðŀ¤Ńðŀ¤²ðŀ¥ĭ ðŀ¤£ðŀ¤Ńðŀ¤ª
Ġðŀ¤²ðŀ¤ºðŀ¤¢ ðŀ¤¢ðŀ¤¤
Ġa b
Ġðŀ¤¬ðŀ¤«ðŀ¤± ðŀ¤¼ðŀ¤Ń
Ġðŀ¤¬ðŀ¤«ðŀ¤± ðŀ¤¼ðŀ¤µðŀ¤¯ðŀ¤«
Ġðŀ¤£ðŀ¤¢ðŀ¤¯ ðŀ¤Ńðŀ¤¼ðŀ¤®ðŀ¤ªðŀ¤¯ðŀ¤«
Ġðŀ¤ĳðŀ¤Įðŀ¤Ĳ ðŀ¤Ģ
Ġðŀ¥ĺ ðŀ¥ķ
nðŀ¤į ðŀ¤Ńðŀ¤²
Ġðŀ¤£ðŀ¤¢ðŀ¤±ðŀ¤ªðŀ¤® ðŀ¤´ðŀ¤¢ðŀ¤²ðŀ¤³ðŀ¤«
nðŀ¤Ħ ðŀ¤µðŀ¤´
nðŀ¤Ħ ðŀ¤«ðŀ¤£ðŀ¤Ńðŀ¤´ðŀ¤«
Ġðŀ¤¸ðŀ¤¢ðŀ¤¯ ðŀ¤µðŀ¤ºðŀ¤®ðŀ¤¤
Ġðŀ¤©ðŀ¤¢ðŀ¤²ðŀ¤º ðŀ¤Ńðŀ¤²
Ġðŀ¤©ðŀ¤¢ðŀ¤²ðŀ¤º ðŀ¤Ńðŀ¤²ðŀ¤ºðŀ¤®ðŀ¤¤
ðŀ¤¶ðŀ¤®ðŀ¤¦ ðŀ¤«
Ġðŀ¤²ðŀ¤«ðŀ¤± ðŀ¤Ńðŀ¤²ðŀ¤¢
Ġðŀ¤²ðŀ¤«ðŀ¤± ðŀ¤Ńðŀ¤²ðŀ¤¢ðŀ¤²
Ġðŀ¤¸ðŀ¤µðŀ¤¥ðŀ¤¨ ðŀ¤Ńðŀ¤¼ðŀ¤Ńðŀ¤³ðŀ¤«
nðŀ¤ı ðŀ¤¢ðŀ¤²ðŀ¤®
Ġðŀ¥ĳðŀ¥Ļðŀ¥Ļðŀ¥ ķ
Ġðŀ¥ĳðŀ¥Ļðŀ¥Ļðŀ¥ ĸ
Ġðŀ¤§ðŀ¤¢ðŀ¤¤ ðŀ¤Ńðŀ¤²ðŀ¤®
Ġðŀ¤§ðŀ¤¢ðŀ¤¤ ðŀ¤¢ðŀ¤¤ðŀ¤®
Ġðŀ¤¢ðŀ¤¤ ðŀ¤¥ðŀ¤¢
Ġðŀ¤¢ðŀ¤¤ ðŀ¤¯ðŀ¤µðŀ¤£ðŀ¤«
Ġðŀ¤¢ðŀ¤¤ ðŀ¤³ðŀ¤µðŀ¤¤ðŀ¤«
Ġðŀ¤ľ ðŀ¤īðŀ¤Ĳðŀ¤ħðŀ¤Ģðŀ¤Ĳ
Ġðŀ¤¢ðŀ¤´ ðŀ¤²ðŀ¤¢
Ġðŀ¤Ł ðŀ¤¢ðŀ¤²
Ġðŀ¤§ðŀ¤«ðŀ¤² ðŀ¤£ðŀ¤¢
Ġðŀ¤Ģðŀ¤¸ ðŀ¤¥ðŀ¤«ðŀ¤£
Ġðŀ¤²ðŀ¤¶ðŀ¤® ðŀ¤©ðŀ¤£ðŀ¤Ń
Ġðŀ¤¥ðŀ¤¢ðŀ¤ª ðŀ¤Ńðŀ¤²ðŀ¤®
Ġðŀ¤¥ðŀ¤¢ðŀ¤ª ðŀ¤£ðŀ¤µðŀ¤ºðŀ¤¢ðŀ¤¤
Ġðŀ¤ĥðŀ¤Į ðŀ¤Īðŀ¤ĭðŀ¤ļðŀ¤Ģðŀ¤Ĳðŀ¤ĭ
ðŀ¤®ðŀ¤²ðŀ¥ĭðŀ¤£ðŀ¤Ńðŀ¤ª ðŀ¤®
Ġðŀ¤¼ðŀ¤¢ðŀ¤° ðŀ¤Ń
Ġðŀ¤§ðŀ¤¢ðŀ¤¯ ðŀ¤µðŀ¤ºðŀ¤®ðŀ¤¤
Ġðŀ¤ªðŀ¤®ðŀ¤² ðŀ¤£ðŀ¤Ń
and id
Ġðŀ¤Ĳðŀ¤¦ðŀ¤¢ðŀ¤¤ ðŀ¤£ðŀ¤«
al phabet
al de
Ġðŀ¤´ðŀ¤¢ðŀ¤² ðŀ¤µðŀ¤²
Ġm in
ðŀ¤Ńðŀ¤¼ðŀ¤®ðŀ¤ª ðŀ¤¼ðŀ¤¢
Ġðŀ¤įðŀ¤īðŀ¤Ĳ ðŀ¤ĺðŀ¤Ģðŀ¤Ĥ
Ġðŀ¤ĳðŀ¤Įðŀ¤ļðŀ¤ģðŀ¤ĭ ðŀ¤ľðŀ¤Ģðŀ¤Ī
ab alde
ðŀ¤´ðŀ¤¢ðŀ¤²ðŀ¤³ðŀ¤® ðŀ¤±ðŀ¤¢ðŀ¤¤
Ġðŀ¥ĳðŀ¥ĵ ðŀ¥Ĳ
Ġðŀ¤¼ðŀ¤¢ðŀ¤¥ðŀ¤° ðŀ¤Ńðŀ¤²ðŀ¤Ńðŀ¤²ðŀ¤®
Ġðŀ¤Ŀ ðŀ¤¢ðŀ¤ª
Ġðŀ¤«ðŀ¤± ðŀ¤²ðŀ¤¢
Ġc li
Ġðŀ¤¸ðŀ¤µðŀ¤² ðŀ¤¶ðŀ¤Ń
Ġðŀ¤³ðŀ¤®ðŀ¤´ ðŀ¤²ðŀ¤ºðŀ¤¢ðŀ¤¤
ðŀ¤«ðŀ¤´ðŀ¤¢ðŀ¤²ðŀ¤³ðŀ¤® ðŀ¤±ðŀ¤¢ðŀ¤¤
Ġðŀ¤¤ðŀ¤¢ðŀ¤¥ ðŀ¤Ńðŀ¤¼ðŀ¤®ðŀ¤ªðŀ¤Ń
Ġðŀ¤©ðŀ¤¢ðŀ¤¥ ðŀ¤¼ðŀ¤µðŀ¤ºðŀ¤®ðŀ¤¤
ðŀ¤Ńðŀ¤²ðŀ¤¢ðŀ¤´ ðŀ¤¯ðŀ¤Ń
Ġðŀ¤¸ðŀ¤Ńðŀ¤¤ ðŀ¤²
ðŀ¤¥ðŀ¤¢ðŀ¤² ðŀ¤£ðŀ¤¢ðŀ¤²
âĢľ .
Ġðŀ¤¦ðŀ¤¢ðŀ¤¯ ðŀ¤¼ðŀ¤Ńðŀ¤²ðŀ¤Ń
Ġðŀ¤¼ðŀ¤µðŀ¤¥ðŀ¤¦ðŀ¤®ðŀ¤² ðŀ¤£ðŀ¤Ńðŀ¤ªðŀ¤¢ðŀ¤¤
Ġðŀ¤¼ðŀ¤¢ðŀ¤¼ðŀ¤¢ðŀ¤© ðŀ¤Ńðŀ¤ªðŀ¤Ń
Ġðŀ¤¸ðŀ¤µðŀ¤© ðŀ¤Ńðŀ¤²ðŀ¥ĭ
Ġðŀ¤£ðŀ¤¢ðŀ¤ªðŀ¤® ðŀ¤¼ðŀ¤¢
Ġðŀ¤³ðŀ¤¢ðŀ¤¬ ðŀ¤¢
Ġðŀ¤§ðŀ¤®ðŀ¤ª ðŀ¤¼ðŀ¤¢
nðŀ¤Ļ ðŀ¤¢ðŀ¤¤ðŀ¤²ðŀ¤£ðŀ¤«
Ġðŀ¤ĥðŀ¤¢ðŀ¤´ ðŀ¤³ðŀ¤®ðŀ¤ªðŀ¤®
Ġðŀ¤Ĳðŀ¤Ķ ðŀ¤µðŀ¤©
Ġðŀ¤īðŀ¤ªðŀ¤£ðŀ¤® ðŀ¤ºðŀ¤¢
Ġðŀ¥ĳðŀ¥Ļðŀ¥Ĺ ðŀ¥ĺ
Ġðŀ¤ĥðŀ¤®ðŀ¤ªðŀ¤Ń ðŀ¤§ðŀ¤¢ðŀ¤²ðŀ¤£ðŀ¤¢
Ġðŀ¤¶ðŀ¤®ðŀ¤ºðŀ¤²ðŀ¤Ń ðŀ¤¼ðŀ¤Ń
Ġðŀ¤¬ðŀ¤Ńðŀ¤© ðŀ¤µðŀ¤£ðŀ¤«
Ġðŀ¤ªðŀ¤«ðŀ¤² ðŀ¤¼ðŀ¤¢
Ġco m
ðŀ¤©ðŀ¤² ðŀ¤µðŀ¤¼ðŀ¤µðŀ¤ºðŀ¤®ðŀ¤¤
Ġðŀ¤¼ðŀ¤Ńðŀ¤²ðŀ¤¼ðŀ¤µ ðŀ¤£ðŀ¤µðŀ¤£ðŀ¤«
ðŀ¤¡ ðŀ¤Ģðŀ¤¡
Ġðŀ¤³ðŀ¤¢ðŀ¤± ðŀ¤¼ðŀ¤«
ðŀ¤®ðŀ¤²ðŀ¤³ ðŀ¤«ðŀ¤±ðŀ¤¢ðŀ¤¤
ðŀ¤ĭðŀ¤Ĵ ðŀ¤Ģðŀ¤Ĳ
Ġðŀ¤ĸðŀ¤®ðŀ¤¤ ðŀ¤¢ðŀ¤²ðŀ¤£
Ġðŀ¤¢ðŀ¤²ðŀ¤£ ðŀ¤Ńðŀ¤²ðŀ¤¢
Ġðŀ¤¤ðŀ¤¢ðŀ¤²ðŀ¤· ðŀ¤¢
Ġðŀ¤¤ðŀ¤¢ðŀ¤²ðŀ¤· ðŀ¤Ń
Ġðŀ¤¸ðŀ¤¢ðŀ¤¼ðŀ¤®ðŀ¤²ðŀ¤¶ ðŀ¤Ńðŀ¤²
Ġðŀ¤²ðŀ¤ºðŀ¤Ńðŀ¤¤ ðŀ¤³ðŀ¤µ
ðŀ¤±ðŀ¤¼ðŀ¤®ðŀ¤ª ðŀ¤¢ðŀ¤´ðŀ¤²ðŀ¤®
ðŀ¤²ðŀ¤£ðŀ¤Ńðŀ¤² ðŀ¤¢ðŀ¤²ðŀ¤®
Ġðŀ¤²ðŀ¤«ðŀ¤¤ ðŀ¤£ðŀ¤µðŀ¤²ðŀ¤®
Ġðŀ¤ĳðŀ¤¢ðŀ¤² ðŀ¤¢ðŀ¤ªðŀ¤Ń
Ġðŀ¤²ðŀ¤£ðŀ¤¢ðŀ¤´ ðŀ¤º
ĠB NP
Ġðŀ¤¢ðŀ¤¥ðŀ¤« ðŀ¤ªðŀ¤Ńðŀ¤³ðŀ¤²ðŀ¤¢
Ġðŀ¤Ĳðŀ¤ºðŀ¤¢ðŀ¤¤ ðŀ¤µ
Ġðŀ¤¥ðŀ¤®ðŀ¤¬ ðŀ¤¼ðŀ¤«ðŀ¤ªðŀ¤«
Ġðŀ¤¶ðŀ¤®ðŀ¤± ðŀ¤¢ðŀ¤©ðŀ¤¢ðŀ¤¤
Ġðŀ¤ħðŀ¤Ńðŀ¤£ðŀ¤Ń ðŀ¤³ðŀ¤Ń
Ġðŀ¤§ðŀ¤«ðŀ¤© ðŀ¤Ńðŀ¤¼ðŀ¤Ńðŀ¤³ðŀ¤«
Ġðŀ¤»ðŀ¤« ðŀ¤¥ðŀ¤¦
Ġðŀ¤²ðŀ¤£ðŀ¤¢ðŀ¤ª ðŀ¤¼ðŀ¤Ńðŀ¤²
Ġðŀ¤²ðŀ¤£ðŀ¤¢ðŀ¤ª ðŀ¤¼ðŀ¤Ńðŀ¤²ðŀ¤®
Ġðŀ¤¬ðŀ¤«ðŀ¤±ðŀ¤¶ ðŀ¤µðŀ¤£ðŀ¤«
Ġðŀ¤¼ðŀ¤®ðŀ¤ª ðŀ¤Ńðŀ¤²ðŀ¤®
Ġðŀ¤©ðŀ¤¢ðŀ¤´ ðŀ¤ªðŀ¤µ
Ġðŀ¤³ðŀ¤Ńðŀ¤¦ðŀ¤Ńðŀ¤ª ðŀ¤ºðŀ¤¢ðŀ¤¤
Ġo f
ðŀ¤¤ðŀ¤¢ðŀ¤² ðŀ¤¼ðŀ¤Ń
ðŀ¤±ðŀ¤¢ðŀ¤³ ðŀ¤«
Ġðŀ¤Ģðŀ¤Ĳ ðŀ¤ĺðŀ¤Įðŀ¤Ĥðŀ¤Ģ
Ġðŀ¤ºðŀ¤®ðŀ¤ª ðŀ¤³ðŀ¤®
Ġðŀ¤ĸðŀ¤Įðŀ¤Ĥ ðŀ¤Ģðŀ¤Ĳðŀ¤ģ
Ġðŀ¤Įðŀ¤Ĩ ðŀ¤īðŀ¤ĳ
Ġðŀ¤¼ðŀ¤¢ðŀ¤º ðŀ¤¢
Ġðŀ¤ĳðŀ¤Ńðŀ¤§ ðŀ¤¢ðŀ¤¤
Ġðŀ¤Ģðŀ¤¼ ðŀ¤¤ðŀ¤¢ðŀ¤²ðŀ¤¼ðŀ¤Ń
Ġðŀ¤¯ðŀ¤µðŀ¤´ ðŀ¤¼ðŀ¤¢ðŀ¤´
Ġðŀ¤£ðŀ¤µðŀ¤² ðŀ¤£
Ġðŀ¤Ħðŀ¤ĭ ðŀ¤ħðŀ¤ĭ
Ġðŀ¤Ĩðŀ¤ĵðŀ¤Ĥ ðŀ¤Ģðŀ¤Ī
ðŀ¤«ðŀ¤¼ðŀ¤«ðŀ¤² ðŀ¤®
nðŀ¤ħðŀ¤µ ðŀ¤³ðŀ¤¢
Ġlang uage
Ġðŀ¤ĳðŀ¤ĭðŀ¤Ĳ ðŀ¤¡ðŀ¤Ģðŀ¤¡
Ġðŀ¤£ðŀ¤«ðŀ¤± ðŀ¤«
ðŀ¤¢ðŀ¤¦ðŀ¤Ńðŀ¤´ ðŀ¤¢ðŀ¤¥
Ġðŀ¤Ĩðŀ¤¢ðŀ¤§ ðŀ¤³ðŀ¤¢ðŀ¤¤
Ġðŀ¤ħðŀ¤µðŀ¤±ðŀ¤Ń ðŀ¤§
ĠðŁĩ² ðŁĩ¦
Ġðŀ¤ĳðŀ¤®ðŀ¤ª ðŀ¤®ðŀ¤±ðŀ¤¢ðŀ¤§ðŀ¤Ń
Ġðŀ¥ĥ ðŀ¤Ń
Ġðŀ¤ļðŀ¤Īðŀ¤Į ðŀ¤ĥðŀ¤Ĩ
Ġðŀ¤ĭðŀ¤£ ðŀ¤ªðŀ¤Ńðŀ¤§
Ġðŀ¤ħðŀ¤¢ðŀ¤²ðŀ¤£ðŀ¤« ðŀ¤ªðŀ¤§
ðŀ¤¨ðŀ¤«ðŀ¤ª ðŀ¤³ðŀ¤¢ðŀ¤²
Ġðŀ¤Īðŀ¤ĭðŀ¤ĳ ðŀ¤Ģ
Ġðŀ¤Ħðŀ¤µðŀ¤± ðŀ¤¢ðŀ¤»ðŀ¤Ń
Ġðŀ¤¬ðŀ¤Ńðŀ¤©ðŀ¤µ ðŀ¤£ðŀ¤µðŀ¤²ðŀ¤®
ðŀ¤Ĥðŀ¤Įðŀ¤ļðŀ¤ĭ ðŀ¤Īðŀ¤Į
Ġðŀ¤ģðŀ¤Ģðŀ¤Ĳðŀ¤ĥðŀ¤Ģðŀ¤Ī ðŀ¤ĳ
CF A
gl ish
tic les
ðŀ¤¢ðŀ¤²ðŀ¤¥ðŀ¤¢ðŀ¤ª ðŀ¤³
ðŀ¤¢ðŀ¤ªðŀ¤» ðŀ¤Ńðŀ¤¼ðŀ¤«
Ġðŀ¤ļðŀ¤µðŀ¤ªðŀ¤³ ðŀ¤Ńðŀ¤´ðŀ¤«
Ġðŀ¤Ĥðŀ¤¢ðŀ¤²ðŀ¤§ ðŀ¤¢ðŀ¤²ðŀ¤¢
ðŀ¤·ðŀ¤«ðŀ¤§ ðŀ¤¼ðŀ¤«ðŀ¤ª
Ġðŀ¤ĳðŀ¤ĭðŀ¤Ĳðŀ¤¡ðŀ¤Ģðŀ¤¡ ðŀ¤Ģ
! !
% .
) ",
. Â»
0 2
0 6
2 02
A DLaM
B C
B NP
C I
D D
E d
I nter
N I
S oci
T witter
a d
a is
c as
d ol
e ar
g h
h e
h n
h ic
l s
l at
n A
n T
o m
o t
p on
p ok
s sist
s lat
t un
u a
u c
v is
v and
v iv
y on
§ ais
¬ ðŁĩ
¯ ðĿĹ®ðĿĹ
µ ðŁĩ
¹ ðĿĹ
¼ ðĿĹ
Ã ł
Ã §ais
Ġ 8
Ġ ar
Ġ ðĿĻ
Ġ Ø§Ù
Ġ oc
Ġ Ne
Ġ ðĿĺ
Ġ 202
Ġ Ãł
ģ ðĿĹ®ðĿĹ
Ħ Ø
ĸ ðĿĻ
Ń ðŁĩ·
ðŀ¤® ðŀ¤¥ðŀ¤«
ðŀ¤« ðŀ¤ªðŀ¤Ń
ðŀ¤Ń ðŀ¤¤ðŀ¤«
ðŀ¤² ðŀ¤¶ðŀ¤®
ðŀ¤² ðŀ¤¢ðŀ¤²ðŀ¤®
ðŀ¤² ðŀ¤ªðŀ¤µ
ðŀ¤² ðŀ¤«ðŀ¤ª
ðŀ¤¢ðŀ¤ ĸ
ðŀ¥ħ ðŀ¥ħ
ðŀ¥ħ ØŁ\
ðŀ¤£ ðŀ¤µðŀ¤ª
ðŀ¤£ ðŀ¤¢ðŀ¤´ðŀ¤²ðŀ¤®
ðŀ¤ª ðŀ¤Ńðŀ¤²
ðŀ¤ª ðŀ¤¢ðŀ¤´
ðŀ¤ª ðŀ¤¶ðŀ¤Ń
ðŀ¤ª ðŀ¤¢ðŀ¤²ðŀ¤Ń
ðŀ¤ª ðŀ¤µðŀ¤©ðŀ¤«
ðŀ¤ª ðŀ¤«ðŀ¤§
ðŀ¤ª ðŀ¤¢ðŀ¤´ðŀ¤²ðŀ¤®
ðŀ¤¼ ðŀ¤¯ðŀ¤µðŀ¤²
ðŀ¤¼ ðŀ¤¢ðŀ¤¯ðŀ¤«
Ġðŀ¤² ðŀ¤Ńðŀ¤¥
Ġðŀ¤² ðŀ¤µðŀ¤¤
Ġðŀ¤² ðŀ¤¢ðŀ¤¶ðŀ¤«
Ġðŀ¤² ðŀ¤¶ðŀ¤«ðŀ¤ª
Ġðŀ¤² ðŀ¤¢ðŀ¤§ðŀ¤¢
Ġðŀ¤² ðŀ¤µðŀ¤¤ðŀ¤«
ðŀ¤¤ ðŀ¤¢ðŀ¤¸
ðŀ¤¤ ðŀ¤«ðŀ¤±ðŀ¤¢ðŀ¤¤
Ġðŀ¤³ ðŀ¤«ðŀ¤ª
Ġðŀ¤³ ðŀ¤«ðŀ¤©
Ġðŀ¤³ ðŀ¤µðŀ¤ªðŀ¤µðŀ¤²
Ġðŀ¤³ ðŀ¤«ðŀ¤©ðŀ¤¢ðŀ¤¤
ðŀ¤£ðŀ¤« ðŀ¤¦
ðŀ¤£ðŀ¤« ðŀ¤ºðŀ¤®ðŀ¤¤
ðŀ¤º ðŀ¤Ńðŀ¤¥
ðŀ¤º ðŀ¤¢ðŀ¤²ðŀ¤£ðŀ¤«
ðŀ¤º ðŀ¤¢ðŀ¤©ðŀ¤®
ðŀ¤º ðŀ¤¤ðŀ¤¢ðŀ¤£ðŀ¤«ðŀ¤§
Ġðŀ¤¸ ðŀ¤¢ðŀ¤¬
Ġðŀ¤¸ ðŀ¤«ðŀ¤²ðŀ¤£ðŀ¤®
Ġðŀ¤¸ ðŀ¤®ðŀ¤²ðŀ¤¢
ðŀ¤¥ ðŀ¤«ðŀ¤²
ðŀ¤¥ ðŀ¤¢ðŀ¤¼ðŀ¤¢
ðŀ¤¥ ðŀ¤¦ðŀ¤µ
ðŀ¤¥ ðŀ¤²ðŀ¤¢ðŀ¤¼ðŀ¤«
ðŀ¤¯ ðŀ¤µðŀ¤¥
ðŀ¤¯ ðŀ¤¢ðŀ¤²ðŀ¤Ń
ðŀ¤¯ ðŀ¤®ðŀ¤²ðŀ¥ĭðŀ¤£ðŀ¤Ńðŀ¤ªðŀ¤¢ðŀ¤¤
ðŀ¤¯ ðŀ¤Ńðŀ¤²ðŀ¤£ðŀ¤«
ðŀ¤¢ðŀ¤² ðŀ¤¯ðŀ¤®
ðŀ¤¢ðŀ¤² ðŀ¤¼ðŀ¤«
ðŀ¤¢ðŀ¤² ðŀ¤£ðŀ¤µ
ðŀ¤Ńðŀ¤² ðŀ¤³
ðŀ¤Ńðŀ¤² ðŀ¤¢ðŀ¤´ðŀ¤²ðŀ¤®
ðŀ¤Ńðŀ¤² ðŀ¤Ńðŀ¤ªðŀ¤£ðŀ¤µ
Ġðŀ¤¥ ðŀ¤®ðŀ¤²ðŀ¤®
ðŀ¤³ ðŀ¤Ńðŀ¤²ðŀ¤®
ðŀ¤³ ðŀ¤¢ðŀ¤¤ðŀ¤Ńðŀ¤¦ðŀ¤¢
ðŀ¤³ ðŀ¤«ðŀ¤¸ðŀ¤µ
ðŀ¤µðŀ¤² ðŀ¤¶
ðŀ¤µðŀ¤² ðŀ¤£ðŀ¤µ
ðŀ¤µðŀ¤² ðŀ¤£ðŀ¤®ðŀ¤¤
Ġðŀ¤¬ ðŀ¤¢ðŀ¤¤
Ġðŀ¤¬ ðŀ¤Ńðŀ¤²ðŀ¤£ðŀ¤«
Ġðŀ¤¬ ðŀ¤®ðŀ¤²ðŀ¤£ðŀ¤®
ðŀ¤«ðŀ¤ ¾
ðŀ¤®ðŀ¤¤ ðŀ¤µ
Ġðŀ¤¼ ðŀ¤Ńðŀ¤²ðŀ¤Ń
Ġðŀ¤¼ ðŀ¤«ðŀ¤©
Ġðŀ¤§ ðŀ¤¢ðŀ¤´
Ġðŀ¤§ ðŀ¤¢ðŀ¤²ðŀ¤³ðŀ¤Ń
ðŀ¤¶ ðŀ¤µðŀ¤²
ðŀ¤¶ ðŀ¤¢ðŀ¤ºðŀ¤®ðŀ¤¤
ðŀ¤¶ ðŀ¤µðŀ¤¥ðŀ¤¢
Ġðŀ¤ĳ ðŀ¤¢ðŀ¤ªðŀ¤Ń
Ġðŀ¤ĳ ðŀ¤Ńðŀ¤ªðŀ¤Ń
Ġðŀ¤ĳ ðŀ¤¢ðŀ¤ªðŀ¤®
Ġðŀ¤ĳ ðŀ¤µðŀ¤¥ðŀ¤¨
Ġðŀ¤ĳ ðŀ¤«ðŀ¤¦ðŀ¤«
ðŀ¤¢ðŀ¤ª ðŀ¤Ńðŀ¤²
ðŀ¤¢ðŀ¤ª ðŀ¤¢ðŀ¤¥
ðŀ¤¢ðŀ¤ª ðŀ¤¢ðŀ¤¤ðŀ¤Ń
ðŀ¤¢ðŀ¤ª ðŀ¤¦ðŀ¤¢
ðŀ¤£ðŀ¤Ń ðŀ¤§
ðŀ¤£ðŀ¤Ń ðŀ¤¼ðŀ¤¢
ðŀ¤£ðŀ¤Ń ðŀ¤¼ðŀ¤Ńðŀ¤²ðŀ¤®
Ġðŀ¤´ ðŀ¤Ńðŀ¤ª
Ġðŀ¤´ ðŀ¤Ńðŀ¤¥
Ġðŀ¤´ ðŀ¤Ńðŀ¤´ðŀ¤¢
Ġðŀ¤´ ðŀ¤¢ðŀ¤²ðŀ¤¢
Ġðŀ¤´ ðŀ¤«ðŀ¤°
Ġðŀ¤´ ðŀ¤¢ðŀ¤±ðŀ¤¢
Ġðŀ¤¶ ðŀ¤Ńðŀ¤¥
Ġðŀ¤¶ ðŀ¤¢ðŀ¤¨
Ġðŀ¤® ðŀ¤¥ðŀ¤¦ðŀ¤¢
Ġðŀ¤³ðŀ¤® ðŀ¤¾ðŀ¤Ńðŀ¤£
ðŀ¤± ðŀ¤¢ðŀ¤²ðŀ¤Ń
ðŀ¤± ðŀ¤¢ðŀ¤¸
ðŀ¤± ðŀ¤ªðŀ¤µ
ðŀ¤´ ðŀ¤²ðŀ¤Ń
ðŀ¤´ ðŀ¤²ðŀ¤®
ðŀ¤´ ðŀ¤Ńðŀ¤ªðŀ¤¢
ðŀ¤´ ðŀ¤Ńðŀ¤ªðŀ¤¯ðŀ¤«
ðŀ¤´ ðŀ¤¢ðŀ¤¥ðŀ¤Ń
ðŀ¤´ ðŀ¤®ðŀ¤ªðŀ¤³
ðŀ¤´ ðŀ¤®ðŀ¤²ðŀ¤³ðŀ¤«ðŀ¤±ðŀ¤¢ðŀ¤¤
ðŀ¤«ðŀ¤² ðŀ¤Ńðŀ¤´ðŀ¤¢
ðŀ¤ªðŀ¤Ń ðŀ¤ºðŀ¤®
ðŀ¤ªðŀ¤Ń ðŀ¤´ðŀ¤¢ðŀ¤²
ðŀ¤¦ ðŀ¤¢ðŀ¤´
ðŀ¤¦ ðŀ¤¢ðŀ¤²ðŀ¤®
ðŀ¤¦ ðŀ¤«ðŀ¤ªðŀ¤«
ðŀ¤¦ ðŀ¤«ðŀ¤ª
ðŀ¤¦ ðŀ¤Ńðŀ¤²ðŀ¤£ðŀ¤«
Ġðŀ¥ Ļðŀ¥
ðŀ¤¢ðŀ¤± ðŀ¤²ðŀ¤¢
nðŀ¤ ¸
ðŀ¤¢ðŀ¤´ ðŀ¥ĥ
ðŀ¤¢ðŀ¤´ ðŀ¤³ðŀ¤®ðŀ¤´
ðŀ¤¼ðŀ¤Ń ðŀ¤ªðŀ¤«
ðŀ¤ĭ ðŀ¤£ðŀ¤Ń
ðŀ¤ĭ ðŀ¤ļðŀ¤ī
Ġðŀ¤±ðŀ¤®ðŀ¤² ðŀ¤Ńðŀ¤ªðŀ¤¢
Ġðŀ¤±ðŀ¤®ðŀ¤² ðŀ¤¢ðŀ¤´ðŀ¤²ðŀ¤®
ðŀ¤§ ðŀ¤¼ðŀ¤Ń
ðŀ¤§ ðŀ¤¢ðŀ¤¥
ðŀ¤§ ðŀ¤µðŀ¤ºðŀ¤®ðŀ¤¤
ðŀ¤§ ðŀ¤µðŀ¤£ðŀ¤«
ðŀ¤§ ðŀ¤Ńðŀ¤´
ðŀ¤§ ðŀ¤¼ðŀ¤¢ðŀ¤¤
ðŀ¤§ ðŀ¤Ńðŀ¤´ðŀ¤¢ðŀ¤²ðŀ¤³ðŀ¤®
ðŀ¤© ðŀ¤µðŀ¤²ðŀ¤®
ðŀ¤© ðŀ¤²ðŀ¤¢
ðŀ¤© ðŀ¤Ńðŀ¤²ðŀ¤Ń
ðŀ¤© ðŀ¤Ńðŀ¤²ðŀ¤®
ðŀ¤© ðŀ¤µðŀ¤¯ðŀ¤«
ðŀ¤© ðŀ¤Ńðŀ¤²ðŀ¤¢ðŀ¤´ðŀ¤¯ðŀ¤Ń
Ġðŀ¤£ ðŀ¤®ðŀ¤²
Ġðŀ¤£ ðŀ¤¢ðŀ¤²ðŀ¤³ðŀ¤Ń
Ġðŀ¤£ ðŀ¤Ńðŀ¤²ðŀ¤º
Ġðŀ¤²ðŀ¤® ðŀ¤ºðŀ¤¢ðŀ¤´
ðŀ¤ī ðŀ¤Ĭ
ðŀ¤ī ðŀ¤¶ðŀ¤Ńðŀ¤¨ðŀ¤¼
Ġðŀ¤ħ ðŀ¤Ńðŀ¤¥
Ġðŀ¤ħ ðŀ¤īðŀ¤Ĳ
Ġðŀ¤ħ ðŀ¤ĭðŀ¤ĥ
Ġðŀ¤ħ ðŀ¤«ðŀ¤ªðŀ¤«ðŀ¤³ðŀ¤®ðŀ¤ªðŀ¤«
Ġðŀ¤Ģ ðŀ¤¼ðŀ¤¢ðŀ¤¤
Ġðŀ¤Ģ ðŀ¤ģðŀ¤ī
Ġðŀ¤Ģ ðŀ¤Ł
Ġðŀ¤Ģ ðŀ¥ģðŀ¤Ń
Ġðŀ¤Ģ ðŀ¤Ĵðŀ¤ħ
Ġðŀ¤Ģ ðŀ¤ªðŀ¤Ńðŀ¤§ðŀ¤¼ðŀ¤Ń
Ġðŀ¤ĥ ðŀ¤Ģðŀ¤Ī
Ġðŀ¤ĥ ðŀ¤µðŀ¤¼
Ġðŀ¤ĥ ðŀ¤īðŀ¤Ĳ
Ġðŀ¤ĥ ðŀ¤Ģðŀ¤ĩ
Ġðŀ¤ĥ ðŀ¤īðŀ¤ĳ
Ġðŀ¤ĥ ðŀ¤īðŀ¤Ĳðŀ¤ĺ
ðŀ¤®ðŀ¤ª ðŀ¤¥ðŀ¤¢
ðŀ¤®ðŀ¤ª ðŀ¤²ðŀ¤ºðŀ¤¢ðŀ¤¤
Ġðŀ¤º ðŀ¤¢ðŀ¤²ðŀ¤£ðŀ¤«
Ġðŀ¤º ðŀ¤¢ðŀ¤§ðŀ¤Ń
Ġðŀ¤¸ðŀ¤® ðŀ¤©
Ġðŀ¤¸ðŀ¤® ðŀ¤·
Ġðŀ¤» ðŀ¤«ðŀ¤²
Ġðŀ¤» ðŀ¤¤ðŀ¤¢ðŀ¤²ðŀ¤£ðŀ¤«
ðŀ¤Ĳ ðŀ¤ºðŀ¤¢ðŀ¤¤
ðŀ¤Ĳ ðŀ¤Ħ
ðŀ¤Ĳ ðŀ¤¶ðŀ¤µðŀ¤©
Ġðŀ¤Ĳ ðŀ¤«
Ġðŀ¤Ĳ ðŀ¤£
Ġðŀ¤Ĳ ðŀ¤¢ðŀ¤²
Ġðŀ¤Ĳ ðŀ¤£ðŀ¤µ
Ġðŀ¤Ĳ ðŀ¤¦ðŀ¤¢
Ġðŀ¤Ĳ ðŀ¤µðŀ¤¤ðŀ¤¢
Ġðŀ¤Ĳ ðŀ¤«ðŀ¤¯
Ġðŀ¤Ĳ ðŀ¤Ģðŀ¤Ĵðŀ¤Į
Ġðŀ¤Ĳ ðŀ¤¢ðŀ¤¦ðŀ¤Ńðŀ¤´ðŀ¤¢ðŀ¤¥
Ġðŀ¤¬ðŀ¤Ń ðŀ¤ªðŀ¤®
Ġðŀ¤¬ðŀ¤Ń ðŀ¤´ðŀ¤¢
Ġðŀ¤© ðŀ¤¢ðŀ¤±ðŀ¤¼ðŀ¤Ń
Ġðŀ¤© ðŀ¤¢ðŀ¤²ðŀ¤¼ðŀ¤¢
ðŀ¤¯ðŀ¤Ń ðŀ¤¼ðŀ¤Ń
ðŀ¤¯ðŀ¤Ń ðŀ¤£ðŀ¤¢
ðŀ¤¯ðŀ¤Ń ðŀ¤ªðŀ¤¢
Ġðŀ¤ĺ ðŀ¤¢ðŀ¤¤
Ġðŀ¤ĺ ðŀ¤Ģ
Ġðŀ¤ĺ ðŀ¤¢ðŀ¤§
Ġðŀ¤ĺ ðŀ¤Ńðŀ¤¥ðŀ¤¯ðŀ¤Ń
ðŀ¤Ńðŀ¤ª ðŀ¤ºðŀ¤Ń
ðŀ¤Ńðŀ¤ª ðŀ¤¢ðŀ¤´ðŀ¤²ðŀ¤®
ðŀ¤¼ðŀ¤® ðŀ¤ªðŀ¤«
ðŀ¤¼ðŀ¤® ðŀ¤¼ðŀ¤®ðŀ¤²ðŀ¤®
Ġðŀ¤Ħ ðŀ¤ī
Ġðŀ¤Ħ ðŀ¤®ðŀ¤ª
Ġðŀ¤Ħ ðŀ¤¢ðŀ¤¤ðŀ¤¢
Ġðŀ¤Ħ ðŀ¤«ðŀ¤´
Ġðŀ¤Ħ ðŀ¤®ðŀ¤´
Ġðŀ¤Ħ ðŀ¤ĭðŀ¤Ĥ
Ġðŀ¤Ħ ðŀ¤ªðŀ¤Ńðŀ¤§
Ġðŀ¤Ħ ðŀ¤ĭðŀ¤Ĵ
Ġðŀ¤Ħ ðŀ¤Ńðŀ¤²ðŀ¤£ðŀ¤Ń
Ġðŀ¤Ħ ðŀ¤īðŀ¤Īðŀ¤Ĳ
Ġðŀ¤Ħ ðŀ¤Īðŀ¤Ģðŀ¤ħðŀ¤ĭðŀ¤Ĥ
ðŀ¤ĵ ðŀ¤Ħ
ðŀ¤ĵ ðŀ¤Ĭ
ðŀ¤ĵ ðŀ¤Īðŀ¤ĵ
ðŀ¤ĵ ðŀ¤¥ðŀ¤¢ðŀ¤ªðŀ¤µ
Ġðŀ¤®ðŀ¤² ðŀ¤®ðŀ¤²
ðŀ¤¤ðŀ¤Ń ðŀ¤§
ðŀ¤¤ðŀ¤Ń ðŀ¤¼ðŀ¤Ńðŀ¤ªðŀ¤®
ðŀ¤¬ ðŀ¤¢ðŀ¤´
ðŀ¤¬ ðŀ¤®ðŀ¤´
ðŀ¤¬ ðŀ¤¢ðŀ¤ªðŀ¤¢ðŀ¤²ðŀ¤§ðŀ¤«
ðŀ¤Ī ðŀ¤ģðŀ¤ī
Ġðŀ¤¬ðŀ¤® ðŀ¤¯
Ġðŀ¤¥ðŀ¤® ðŀ¤¶ðŀ¤«ðŀ¤ªðŀ¤«
ðŀ¤¼ðŀ¤Ńðŀ¤² ðŀ¤®ðŀ¤ªðŀ¤¯ðŀ¤«
ðŀ¤¢ðŀ¤¦ ðŀ¤ªðŀ¤«
Ġðŀ¤¦ ðŀ¤¢ðŀ¤ªðŀ¤Ń
Ġðŀ¤Ĭ ðŀ¤«
Ġðŀ¤Ĭ ðŀ¤¢ðŀ¤²
Ġðŀ¤Ĭ ðŀ¤®ðŀ¤¤
Ġðŀ¤Ĭ ðŀ¤¤ðŀ¤®ðŀ¤´
Ġðŀ¤Ĭ ðŀ¤īðŀ¤ıðŀ¤Ĳ
ðŀ¤¨ ðŀ¤µðŀ¤²ðŀ¤®
ðŀ¤¨ ðŀ¤µðŀ¤£ðŀ¤«
ðŀ¤¨ ðŀ¤«ðŀ¤¼
Ġðŀ¤ĸ ðŀ¤¢ðŀ¤¨
Ġðŀ¤ĸ ðŀ¤¢ðŀ¤¶
Ġðŀ¤ĸ ðŀ¤¢ðŀ¤²ðŀ¤³ðŀ¤Ń
Ġðŀ¤ĸ ðŀ¤µðŀ¤¼ðŀ¤µ
Ġðŀ¤ĸ ðŀ¤ĭðŀ¤Ī
Ġðŀ¤ĸ ðŀ¤Ģðŀ¤Ħðŀ¤Ģ
Ġðŀ¤ĸ ðŀ¤¢ðŀ¤¦ðŀ¤ªðŀ¤«
ðŀ¤ĳ ðŀ¤¢ðŀ¤¤ðŀ¤¢
ðŀ¤ĳ ðŀ¤ĭðŀ¤Ĳ
ðŀ¤ĳ ðŀ¤Ģðŀ¤ļðŀ¤Ģðŀ¤Ī
Ġðŀ¤²ðŀ¤£ðŀ¤«ðŀ¤² ðŀ¤³ðŀ¤¢
ðŀ¤«ðŀ¤± ðŀ¤¶ðŀ¤«
ðŀ¤«ðŀ¤± ðŀ¤ªðŀ¤µ
Ġðŀ¥Ĵðŀ¥Ĳ ðŀ¥ķðŀ¥Ĳ
ðŀ¤µðŀ¤ª ðŀ¤²ðŀ¤Ń
Ġðŀ¤±ðŀ¤¢ðŀ¤¯ ðŀ¤¢ðŀ¤²ðŀ¤Ń
Ġðŀ¤±ðŀ¤¢ðŀ¤¯ ðŀ¤Ńðŀ¤ªðŀ¤¢
ðŀ¤Ńðŀ¤´ ðŀ¤¢ðŀ¤²ðŀ¤Ń
ðŀ¤£ðŀ¤µ ðŀ¤¯ðŀ¤¢ðŀ¤¤
Ġðŀ¤ģ ðŀ¤ī
Ġðŀ¤ģ ðŀ¤®ðŀ¤´
Ġðŀ¤ģ ðŀ¤«ðŀ¤¦
Ġðŀ¤ģ ðŀ¤¢ðŀ¤¦ðŀ¤Ń
Ġðŀ¤ģ ðŀ¤«ðŀ¤¬ðŀ¤¼ðŀ¤«ðŀ¤ªðŀ¤«
Ġðŀ¤ģ ðŀ¤¢ðŀ¤²ðŀ¤¥ðŀ¤¢ðŀ¤ªðŀ¤³
Ġðŀ¤ī ðŀ¤¼ðŀ¤Ń
Ġðŀ¤ī ðŀ¤Ī
Ġðŀ¤ī ðŀ¤Ĥ
Ġðŀ¤ī ðŀ¤ĥ
Ġðŀ¤ī ðŀ¤³ðŀ¤µ
Ġðŀ¤ī ðŀ¤Īðŀ¤Į
ðŀ¤ģ ðŀ¤īðŀ¤Ĳ
ðŀ¤ģ ðŀ¤Ńðŀ¤¤
Ġðŀ¤¯ðŀ¤Ń ðŀ¤¦
Ġðŀ¤¨ ðŀ¤«ðŀ¤²ðŀ¤¢
Ġðŀ¤¨ ðŀ¤«ðŀ¤±ðŀ¤¶ðŀ¤«
Ġðŀ¤Ķ ðŀ¤¢ðŀ¤²
Ġðŀ¤Ķ ðŀ¤Ģðŀ¤Ĳ
Ġðŀ¤Ķ ðŀ¤¢ðŀ¤¸ðŀ¤«
Ġðŀ¤· ðŀ¤®ðŀ¤¤
Ġðŀ¤· ðŀ¤«ðŀ¤¥
Ġðŀ¤· ðŀ¤¢ðŀ¤¸ðŀ¤«
Ġðŀ¤· ðŀ¤Ńðŀ¤¬
Ġðŀ¤»ðŀ¤¢ðŀ¤¤ ðŀ¤®ðŀ¤ªðŀ¤¥ðŀ¤¢
ðŀ¥Ĵ ðŀ¥Ĳ
ðŀ¥Ĵ ðŀ¥Ĵ
ðŀ¥Ĵ ðŀ¥ķ
ðŀ¥Ĵ ðŀ¥ĸ
Ġðŀ¤¸ðŀ¤Ń ðŀ¤¦
Ġðŀ¤¸ðŀ¤Ń ðŀ¤¨
Ġðŀ¤¸ðŀ¤Ń ðŀ¤¯ðŀ¤«ðŀ¤²
Ġðŀ¤¸ðŀ¤Ń ðŀ¤±ðŀ¤¢
Ġðŀ¤¸ðŀ¤Ń ðŀ¤¯ðŀ¤©ðŀ¤«
ðŀ¤¥ðŀ¤µ ðŀ¤©ðŀ¤«
Ġðŀ¤¶ðŀ¤® ðŀ¤¨ðŀ¤«
Ġðŀ¤ª ðŀ¤¢ðŀ¤¯
Ġðŀ¤ª ðŀ¤®ðŀ¤±
Ġðŀ¤ª ðŀ¤¢ðŀ¤½
Ġðŀ¤ª ðŀ¤¢ðŀ¤¯ðŀ¤¢
ðŀ¤²ðŀ¤Ń ðŀ¤¼ðŀ¤«
ðŀ¤Ĥ ðŀ¤īðŀ¤Ĵðŀ¤ģðŀ¤ĭ
ðŀ¤©ðŀ¤Ń ðŀ¤¼ðŀ¤¢ðŀ¤²ðŀ¤Ń
Ġðŀ¤£ðŀ¤µ ðŀ¤¶ðŀ¤µðŀ¤²ðŀ¤«ðŀ¤ªðŀ¤«
ðŀ¥ĭ ðŀ¤ģðŀ¤ĭ
ðŀ¤²ðŀ¤® ðŀ¤ºðŀ¤®
Ġðŀ¤ļ ðŀ¤«
Ġðŀ¤ļ ðŀ¤«ðŀ¤½ðŀ¤¼ðŀ¤Ńðŀ¤²ðŀ¤Ń
Ġðŀ¤´ðŀ¤® ðŀ¤©
ðŀ¤¸ ðŀ¤²
ðŀ¤¸ ðŀ¤¢ðŀ¤´
ðŀ¤¸ ðŀ¤µðŀ¤²ðŀ¤®
ðŀ¤ħ ðŀ¤«
ðŀ¤ħ ðŀ¤Įðŀ¤Ĳ
ðŀ¤ħ ðŀ¤īðŀ¤Ĥ
ðŀ¤ħ ðŀ¤Ģðŀ¤Ĳðŀ¤ĭðŀ¤Ĵðŀ¤Ģ
Ġðŀ¤±ðŀ¤® ðŀ¤±
Ġðŀ¤±ðŀ¤® ðŀ¤´
Ġðŀ¤ºðŀ¤® ðŀ¤ªðŀ¤«
le r
ðŀ¤ĥ ðŀ¤¢
ðŀ¤ĥ ðŀ¤®
ðŀ¤ĥ ðŀ¤«
ðŀ¤ĥ ðŀ¤¢ðŀ¤¤ðŀ¤Ń
ðŀ¤ĥ ðŀ¤Ģðŀ¤ĳ
ðŀ¤ĥ ðŀ¤Ģðŀ¤Ĵ
ðŀ¤¢ðŀ¤¸ ðŀ¤¥ðŀ¤¢
ðŀ¤ļ ðŀ¤Ģðŀ¤Ĳ
ðŀ¤ļ ðŀ¤ĭðŀ¤Ĳðŀ¤ĭ
ðŀ¤ļ ðŀ¤ĵðŀ¤ĺðŀ¤Įðŀ¤Ĥ
Ġðŀ¤¢ðŀ¤ª ðŀ¤¥ðŀ¤¢
Ġðŀ¤¢ðŀ¤ª ðŀ¤µðŀ¤ºðŀ¤®ðŀ¤¤
Ġðŀ¤¢ðŀ¤ª ðŀ¤¢ðŀ¤²ðŀ¤«
Ġðŀ¤¢ðŀ¤ª ðŀ¤¢ðŀ¤²ðŀ¤Ńðŀ¤ªðŀ¤Ń
Ġðŀ¤ı ðŀ¤¢ðŀ¤¤
Ġðŀ¤ı ðŀ¤ĭ
Ġðŀ¤ı ðŀ¤ĭðŀ¤Ĳ
Ġðŀ¤ı ðŀ¤Ńðŀ¤§
Ġðŀ¤¼ðŀ¤® ðŀ¤¨
Ġðŀ¤Ĩ ðŀ¤Ń
Ġðŀ¤Ĩ ðŀ¤ĭ
Ġðŀ¤Ĩ ðŀ¤ī
Ġðŀ¤Ĩ ðŀ¤Į
Ġðŀ¤Ĩ ðŀ¤Ńðŀ¤´
Ġðŀ¤Ĩ ðŀ¤Ńðŀ¤¼ðŀ¤¢
Ġðŀ¤Ĩ ðŀ¤®ðŀ¤¤ðŀ¤®
Ġðŀ¤Ĩ ðŀ¤¢ðŀ¤ªðŀ¤»ðŀ¤Ńðŀ¤¼ðŀ¤«
Ġðŀ¤Ĩ ðŀ¤ªðŀ¤Ńðŀ¤ºðŀ¤®
ðŀ¤¢ðŀ¤¤ðŀ¤Ń ðŀ¤¦ðŀ¤Ń
ðŀ¤§ðŀ¤Ń ðŀ¤§ðŀ¤Ń
ðŀ¤Ħ ðŀ¤ī
ðŀ¤Ħ ðŀ¤īðŀ¤Īðŀ¤ī
ðŀ¤Ģðŀ¤Ĳ ðŀ¤Į
ðŀ¤«ðŀ¤´ ðŀ¤²
Ġðŀ¤ĩ ðŀ¤«ðŀ¤´
Ġðŀ¤ĩ ðŀ¤¢ðŀ¤±ðŀ¤¼ðŀ¤Ń
ðŀ¤¢ðŀ¤²ðŀ¤³ðŀ¤® ðŀ¤±ðŀ¤¢ðŀ¤¤
ðŀ¤Ĵ ðŀ¤®
ðŀ¤Ĵ ðŀ¤Ģðŀ¤Ĳ
ðŀ¤Ĵ ðŀ¤®ðŀ¤¼
ðŀ¤ªðŀ¤µ ðŀ¤¼
Ġðŀ¤¢ðŀ¤² ðŀ¤£ðŀ¤µðŀ¤ºðŀ¤®ðŀ¤¤
Ġðŀ¤Ĥ ðŀ¤Ńðŀ¤²
Ġðŀ¤Ĥ ðŀ¤Ńðŀ¤´
Ġðŀ¤Ĥ ðŀ¤«ðŀ¤§
Ġðŀ¤Ĥ ðŀ¤Ģðŀ¤ĥ
Ġðŀ¤Ĥ ðŀ¤¢ðŀ¤ªðŀ¤¢ðŀ¤¤
Ġðŀ¤Ĥ ðŀ¤¢ðŀ¤¥ðŀ¤Ń
Ġðŀ¤Ĥ ðŀ¤¢ðŀ¤¼ðŀ¤®
Ġðŀ¤Ĥ ðŀ¤ĭðŀ¤Ĥðŀ¤ĭ
Ġðŀ¤Ĥ ðŀ¤¢ðŀ¤¼ðŀ¤«ðŀ¤²
ðŀ¤ºðŀ¤Ń ðŀ¤¤
ðŀ¤¥ðŀ¤« ðŀ¤£ðŀ¤«
Ġðŀ¤Ĵ ðŀ¤¢ðŀ¤¤
Ġðŀ¤Ĵ ðŀ¤īðŀ¤Ī
Ġðŀ¤Ĵ ðŀ¤īðŀ¤ıðŀ¤ļðŀ¤ĭ
Ġðŀ¤³ðŀ¤®ðŀ¤² ðŀ¤£ðŀ¤«
Ġðŀ¤´ðŀ¤¢ðŀ¤¤ ðŀ¤¼ðŀ¤®
Ġðŀ¤¸ðŀ¤«ðŀ¤© ðŀ¤¢ðŀ¤´
Ġðŀ¤¸ðŀ¤«ðŀ¤© ðŀ¤¼ðŀ¤¢
Ġðŀ¤¸ðŀ¤«ðŀ¤© ðŀ¤¼ðŀ¤¢ðŀ¤¼ðŀ¤¢
ðŀ¤«ðŀ¤ª ðŀ¤£ðŀ¤«
Ġðŀ¤ĭ ðŀ¤ª
Ġðŀ¤ĭ ðŀ¤Ĳ
Ġðŀ¤ĭ ðŀ¤¥ðŀ¤¢
Ġðŀ¤ĭ ðŀ¤¾ðŀ¤¢ðŀ¤²
ðŀ¤¦ðŀ¤¢ ðŀ¥ĥðŀ¤Ń
Ġðŀ¤¯ðŀ¤µ ðŀ¤´ðŀ¤¼ðŀ¤Ń
Ġðŀ¤Ī ðŀ¤Ģ
Ġðŀ¤Ī ðŀ¤µðŀ¤¼
Ġðŀ¤Ī ðŀ¤¢ðŀ¤¬ðŀ¤Ń
Ġðŀ¤Ī ðŀ¤Ģðŀ¤ĭ
ðŀ¤· ðŀ¤Ń
ðŀ¤· ðŀ¤®ðŀ¤¤
Ġðŀ¤¸ðŀ¤¢ðŀ¤³ ðŀ¤Ńðŀ¤²
Ġðŀ¤¥ðŀ¤¢ðŀ¤± ðŀ¤²ðŀ¤ºðŀ¤µ
Ġðŀ¤¼ðŀ¤¢ðŀ¤¼ ðŀ¤¥
Ġðŀ¤į ðŀ¤Ńðŀ¤²
Ġðŀ¤į ðŀ¤«ðŀ¤´ðŀ¤¢
Ġðŀ¤į ðŀ¤ĭðŀ¤įðŀ¤Į
Ġðŀ¤Ģðŀ¤¤ ðŀ¤¶ðŀ¤¢
Ġðŀ¤Ģðŀ¤¤ ðŀ¤¥ðŀ¤¢ðŀ¤²
Ġðŀ¤Ģðŀ¤¤ ðŀ¤¦ðŀ¤¢ðŀ¥ĥðŀ¤Ń
ðŀ¥ĳðŀ¥ Ķ
Ġðŀ¤ķ ðŀ¤¢ðŀ¤£
Ġðŀ¤ķ ðŀ¤īðŀ¤Īðŀ¤Ĳ
Ġðŀ¤ķ ðŀ¤Ńðŀ¤´ðŀ¤¢ðŀ¤²ðŀ¤Ń
ðŀ¤° ðŀ¤¢
ðŀ¤° ðŀ¤¢ðŀ¤¥
ðŀ¤ĭðŀ¤Ĳ ðŀ¤Ł
Ġðŀ¤´ðŀ¤Ń ðŀ¤µðŀ¤ºðŀ¤®ðŀ¤¤
Ġðŀ¤±ðŀ¤Ń ðŀ¤¢ðŀ¤´
Ġðŀ¤±ðŀ¤Ń ðŀ¤¯ðŀ¤¼ðŀ¤®
Ġðŀ¤µ ðŀ¤¶ðŀ¤µðŀ¤²ðŀ¤«ðŀ¤ªðŀ¤«
Ġðŀ¤£ðŀ¤¢ðŀ¤ª ðŀ¤¢ðŀ¤²ðŀ¤®
Ġðŀ¤£ðŀ¤¢ðŀ¤ª ðŀ¤¼ðŀ¤Ńðŀ¤²ðŀ¤Ń
Ġðŀ¤³ðŀ¤Ń ðŀ¤¼ðŀ¤¢
Ġðŀ¤§ðŀ¤µðŀ¤© ðŀ¤¢ðŀ¤²ðŀ¤®
ðŀ¤Ķ ðŀ¤¢ðŀ¤³ðŀ¤¢
ðŀ¤Ķ ðŀ¤Ģðŀ¤Ĩðŀ¤Ģðŀ¤Ĳ
Ġðŀ¤²ðŀ¤ºðŀ¤µ ðŀ¤¤ðŀ¤«
ðŀ¤Ĭ ðŀ¤ĵ
ðŀ¤Ĭ ðŀ¤¢ðŀ¤ªðŀ¤¢ðŀ¤²ðŀ¤§ðŀ¤Ń
nðŀ¤Ĳ ðŀ¤£ðŀ¤Ń
Ġðŀ¤¶ðŀ¤¢ðŀ¤²ðŀ¤º ðŀ¤«ðŀ¤²
Ġðŀ¤¶ðŀ¤¢ðŀ¤²ðŀ¤º ðŀ¤¢ðŀ¤¼ðŀ¤¢
Ġðŀ¤¶ðŀ¤¢ðŀ¤²ðŀ¤º ðŀ¤Ńðŀ¤²ðŀ¤£ðŀ¤«
ðŀ¤ı ðŀ¤Ģðŀ¤Ĳ
ðŀ¤ı ðŀ¤ļðŀ¤ĭ
ðŀ¤Ģðŀ¤ĥ ðŀ¤Ģ
ðŀ¤Ģðŀ¤ĥ ðŀ¤Ħðŀ¤Ģ
Ġðŀ¤ĳðŀ¤®ðŀ¤² ðŀ¤¢ðŀ¤²
Ġðŀ¤£ðŀ¤® ðŀ¤´
Ġðŀ¤£ðŀ¤® ðŀ¤µðŀ¤²ðŀ¤®
ðŀ¤Įðŀ¤Ĳ ðŀ¤ĭðŀ¤ĳðŀ¤ī
Ġðŀ¤¶ðŀ¤µ ðŀ¤³ðŀ¤®
Ġðŀ¤¶ðŀ¤Ń ðŀ¤¤
ðŀ¤§ðŀ¤® ðŀ¤³ðŀ¤®ðŀ¤ªðŀ¤®
ðŀ¤ĩ ðŀ¤Ģ
ðŀ¤¢ðŀ¤¬ ðŀ¤®
Ġðŀ¤²ðŀ¤ºðŀ¤® ðŀ¤¥ðŀ¤²ðŀ¤¢
Ġðŀ¤¤ðŀ¤¢ðŀ¤² ðŀ¤£
ðŀ¤¥ðŀ¤Ń ðŀ¤¤ðŀ¤Ńðŀ¤´ðŀ¤¢
Ġðŀ¤´ðŀ¤¢ðŀ¤¸ ðŀ¤¢ðŀ¤´
Ġðŀ¤´ðŀ¤¢ðŀ¤¸ ðŀ¤¢ðŀ¤²ðŀ¤£ðŀ¤«
Ġðŀ¤´ðŀ¤¢ðŀ¤¸ ðŀ¤Ńðŀ¤ªðŀ¤Ń
Ġðŀ¤²ðŀ¤£ðŀ¤Ń ðŀ¤ºðŀ¤¢
Ġðŀ¤§ðŀ¤¢ðŀ¤ª ðŀ¤°ðŀ¤®
ðŀ¤´ðŀ¤Ń ðŀ¤¼ðŀ¤®
Ġðŀ¤¥ðŀ¤µðŀ¤² ðŀ¤£ðŀ¤¢
ðŁĩ ª
ðŀ¤į ðŀ¤®
Ġðŀ¥ĵ ðŀ¥ĵ
Ġðŀ¥ĵ ðŀ¥ĺ
Ġðŀ¤²ðŀ¤¶ ðŀ¤¢ðŀ¤ªðŀ¤¢ðŀ¤¥
Ġðŀ¤¶ðŀ¤«ðŀ¤´ ðŀ¤Ńðŀ¤²ðŀ¤¢ðŀ¤ºðŀ¤®ðŀ¤¤
Ġðŀ¤¢ðŀ¤£ ðŀ¤Ńðŀ¤²ðŀ¤®
Ġðŀ¤¶ðŀ¤¢ðŀ¤² ðŀ¤¢ðŀ¤²ðŀ¤®
ðŀ¤£ðŀ¤Ńðŀ¤² ðŀ¤ºðŀ¤®ðŀ¤¤
ðŀ¤£ðŀ¤Ńðŀ¤² ðŀ¤³ðŀ¤«ðŀ¤¸ðŀ¤µ
Ġðŀ¤±ðŀ¤¢ðŀ¤´ ðŀ¤ªðŀ¤¢ðŀ¤²ðŀ¤®
Ġðŀ¤ħðŀ¤« ðŀ¤¯ðŀ¤¼ðŀ¤®
Ġðŀ¤³ðŀ¤¢ðŀ¤² ðŀ¤ºðŀ¤¢ðŀ¤¤
Ġðŀ¤³ðŀ¤¢ðŀ¤² ðŀ¤¶ðŀ¤Ń
Ġðŀ¤³ðŀ¤¢ðŀ¤² ðŀ¤§ðŀ¤«ðŀ¤ª
Ġðŀ¤³ðŀ¤¢ðŀ¤² ðŀ¤³ðŀ¤¢ðŀ¤¤ðŀ¤Ńðŀ¤¦ðŀ¤¢
Ġðŀ¤¸ðŀ¤« ðŀ¤¯ðŀ¤Ń
nðŀ¤ĸ ðŀ¤µ
Ġðŀ¤²ðŀ¤¢ðŀ¤²ðŀ¤º ðŀ¤µðŀ¤£ðŀ¤«
ðŀ¤Ĩ ðŀ¤®ðŀ¤¼
Ġðŀ¤´ðŀ¤«ðŀ¤± ðŀ¤¼ðŀ¤µðŀ¤£ðŀ¤«
Ġðŀ¤¨ðŀ¤Ńðŀ¤´ ðŀ¤µðŀ¤ºðŀ¤®ðŀ¤¤
Ġðŀ¤¨ðŀ¤Ńðŀ¤´ ðŀ¤¢ðŀ¤²ðŀ¤®
Ġðŀ¤Ļ ðŀ¤Ń
ðŀ¤ģðŀ¤ĭ ðŀ¤Ĵðŀ¤Ģ
Ġðŀ¤¬ðŀ¤Ńðŀ¤¶ ðŀ¤¢
Ġðŀ¤´ðŀ¤¢ðŀ¤¥ ðŀ¤Ńðŀ¤ªðŀ¤²ðŀ¤®
nðŀ¤ħ ðŀ¤«
nðŀ¤ħ ðŀ¤¢ðŀ¤ª
nðŀ¤ħ ðŀ¤«ðŀ¤²ðŀ¤«ðŀ¤ºðŀ¤¢ðŀ¤¤
Ġðŀ¤ĳðŀ¤µ ðŀ¤¦ðŀ¤¢
Ġðŀ¤©ðŀ¤µðŀ¤ª ðŀ¤¢ðŀ¤¼ðŀ¤¢
Ġðŀ¤©ðŀ¤µðŀ¤ª ðŀ¤µðŀ¤¯ðŀ¤«
Ġðŀ¤©ðŀ¤µðŀ¤ª ðŀ¤¢ðŀ¤´ðŀ¤²ðŀ¤®
Ġðŀ¤©ðŀ¤µðŀ¤ª ðŀ¤µðŀ¤²ðŀ¥ĭðŀ¤ºðŀ¤¢ðŀ¤¤
ðŀ¤ļðŀ¤ĭ ðŀ¤ĥ
Ġðŀ¤ĺðŀ¤«ðŀ¤² ðŀ¤£ðŀ¤Ńðŀ¤²ðŀ¤³ðŀ¤«ðŀ¤¸ðŀ¤µ
Ġðŀ¤¶ðŀ¤¢ðŀ¤© ðŀ¤¢ðŀ¤¼ðŀ¤¢
Ġðŀ¤¶ðŀ¤¢ðŀ¤© ðŀ¤¼ðŀ¤µðŀ¤ºðŀ¤®ðŀ¤¤
Ġðŀ¤¶ðŀ¤¢ðŀ¤© ðŀ¤¼ðŀ¤µðŀ¤©ðŀ¤«
Ġt abalde
Ġðŀ¤±ðŀ¤¢ðŀ¤ª ðŀ¤µ
Ġðŀ¤¤ðŀ¤®ðŀ¤² ðŀ¤¼ðŀ¤¢
ðŀ¥ĸ ðŀ¥Ĳðŀ¥Ĳ
er vand
ðŀ¤¼ðŀ¤¢ðŀ¤¼ ðŀ¤¢ðŀ¤©ðŀ¤Ńðŀ¤ªðŀ¤Ń
Ġðŀ¤¤ðŀ¤«ðŀ¤± ðŀ¤¤ðŀ¤«ðŀ¤±ðŀ¤¢ðŀ¤¤
Ġðŀ¤Ħðŀ¤µ ðŀ¤±ðŀ¤¢ðŀ¤³ðŀ¤«
Ġðŀ¤±ðŀ¤µ ðŀ¤´ðŀ¤©ðŀ¤«
Ġðŀ¥ķ ðŀ¥ĳ
Ġðŀ¥ķ ðŀ¥Ĳðŀ¥Ĳ
Ġðŀ¤¸ðŀ¤¢ðŀ¤© ðŀ¤µðŀ¤£ðŀ¤«
Ġðŀ¤±ðŀ¤« ðŀ¤¤ðŀ¤Ń
nðŀ¤Ģ ðŀ¤²ðŀ¤£ðŀ¤¢
nðŀ¤Ģ ðŀ¤¦ðŀ¤£ðŀ¤µ
Ã© c
nðŀ¤ĥ ðŀ¤¢ðŀ¤³
Ġðŀ¤ħðŀ¤µ ðŀ¤±ðŀ¤¢ðŀ¤¸
Ġðŀ¤¦ðŀ¤®ðŀ¤² ðŀ¤¯ðŀ¤Ń
ðŀ¤ħðŀ¤ĭ ðŀ¤Ĵðŀ¤Ģ
Ġd u
Ġd onn
Ġðŀ¤¸ðŀ¤«ðŀ¤± ðŀ¤¼ðŀ¤µ
Ġðŀ¤²ðŀ¤¦ ðŀ¤¢ðŀ¤¦
Ġðŀ¤²ðŀ¤¦ ðŀ¤«ðŀ¤¯
Ġðŀ¤¬ðŀ¤« ðŀ¤¤ðŀ¤Ńðŀ¤ªðŀ¤Ń
in e
ðŀ¤¼ðŀ¤Ńðŀ¤ª ðŀ¤ºðŀ¤¢ðŀ¤¤
ðŀ¤¼ðŀ¤Ńðŀ¤ª ðŀ¤¢ðŀ¤²ðŀ¤®
Ġðŀ¤²ðŀ¤¢ðŀ¤± ðŀ¤²ðŀ¤µðŀ¤©ðŀ¤«
nðŀ¤ĩ ðŀ¤¢ðŀ¤´
nðŀ¤ĩ ðŀ¤µðŀ¤ªðŀ¤Ń
ar k
ar is
ar ger
ðŀ¤Ńðŀ¤²ðŀ¤£ðŀ¤« ðŀ¤²
Ġðŀ¤¬ðŀ¤¢ðŀ¤± ðŀ¤µðŀ¤²ðŀ¤®
Ġðŀ¤Ńðŀ¤± ðŀ¤µðŀ¤ºðŀ¤®ðŀ¤¤
Ġðŀ¤Ńðŀ¤± ðŀ¤ªðŀ¤µ
ðŀ¤ĳðŀ¤Į ðŀ¤Īðŀ¤Į
ðŀ¤ĳðŀ¤Į ðŀ¤ļðŀ¤ģðŀ¤ĭ
Ġðŀ¥Ĵðŀ¥Ĳðŀ¥Ĳ ðŀ¥Ķ
re ated
Ġðŀ¤¼ðŀ¤®ðŀ¤½ ðŀ¤¼ðŀ¤Ń
Ġðŀ¤¼ðŀ¤®ðŀ¤½ ðŀ¤¼ðŀ¤¢
Ġðŀ¤±ðŀ¤«ðŀ¤¤ ðŀ¤¼ðŀ¤¢
Ġðŀ¤±ðŀ¤«ðŀ¤¤ ðŀ¤¼ðŀ¤®ðŀ¤ªðŀ¤¢
Ġðŀ¤¤ðŀ¤® ðŀ¤Ńðŀ¤²ðŀ¤¢
ðĿĹ ¼ðĿĹ
Ġðŀ¤§ðŀ¤Ńðŀ¤²ðŀ¤· ðŀ¤«
ðŀ¤ĵðŀ¤Ĥ ðŀ¤ĭ
ĠðŁĩ §
ĠðŁĩ ¬ðŁĩ
ĠðŁĩ µðŁĩ
ĠðŁĩ ŃðŁĩ·
Ġðŀ¤£ðŀ¤¢ðŀ¤± ðŀ¤ªðŀ¤¢
Ġðŀ¥Ĺ ðŀ¥ĺ
ðŀ¤īðŀ¤Ĳðŀ¤ī ðŀ¤ĥðŀ¤ĵ
ou t
ou ta
Ġl um
Ġp e
Ġp ers
Ġp res
Ġp rÃ©s
Ġðŀ¤±ðŀ¤µðŀ¤ª ðŀ¤¼ðŀ¤¢ðŀ¤²ðŀ¤Ń
ðŀ¥ģ ðŀ¤Ńðŀ¤²
ðŀ¥ģ ðŀ¤«ðŀ¤²
ÂłĠ Âł
at ou
Ġðŀ¤¶ðŀ¤Ńðŀ¤¦ ðŀ¤Ńðŀ¤²ðŀ¤Ń
Ġðŀ¤Ĳðŀ¤Ħ ðŀ¤Ģðŀ¤ļðŀ¤ĵ
Ġðŀ¤¸ðŀ¤«ðŀ¤§ ðŀ¤¤ðŀ¤¢ðŀ¤¤
ĠA lphabet
ĠA iss
Ġa ls
Ġðŀ¤¬ðŀ¤«ðŀ¤± ðŀ¤¶ðŀ¤Ń
Ġðŀ¤£ðŀ¤« ðŀ¤¥ðŀ¤®ðŀ¤³ðŀ¤¢ðŀ¤ªðŀ¤¢ðŀ¤²ðŀ¤³ðŀ¤®
Ġðŀ¤£ðŀ¤¢ðŀ¤¯ ðŀ¤µðŀ¤²ðŀ¤®
Ġðŀ¤£ðŀ¤¢ðŀ¤¯ ðŀ¤Ńðŀ¤²ðŀ¤¢
Ġðŀ¤Ģðŀ¤Ĥ ðŀ¤Ł
Ġðŀ¤Ģðŀ¤Ĥ ðŀ¤ľðŀ¤Ģðŀ¤Ī
Ġðŀ¤Ģðŀ¤Ĭ ðŀ¤ªðŀ¤Ńðŀ¤³ðŀ¤¢
ðŀ¤¼ðŀ¤¢ðŀ¤² ðŀ¤ºðŀ¤®ðŀ¤¤
ðŀ¤¼ðŀ¤¢ðŀ¤² ðŀ¤¼ðŀ¤®
Ġðŀ¤ħðŀ¤ĵ ðŀ¤ĥðŀ¤Ģ
Ġðŀ¤ħðŀ¤ĵ ðŀ¤ĥðŀ¤Į
Ġðŀ¤ħðŀ¤ĵ ðŀ¤ģðŀ¤Ģðŀ¤Ĳ
Ġðŀ¥ĺ ðŀ¥Ĵ
Ġðŀ¥ĺ ðŀ¥ĵ
Ġs al
Ġs ous
Ġs pok
Ġs ervand
nðŀ¤Ħ ðŀ¤¢
Ġðŀ¤¨ðŀ¤Ń ðŀ¤¶ðŀ¤«
or tun
ðŀ¤Ļ ðŀ¤¢
Ġðŀ¤¸ðŀ¤¢ðŀ¤¯ ðŀ¤Ń
ðŀ¤±ðŀ¤¢ðŀ¤² ðŀ¤Ńðŀ¤´ðŀ¤¢
nðŀ¤Ķ ðŀ¤µ
Ġðŀ¤¸ðŀ¤«ðŀ¤² ðŀ¤£ðŀ¤¢
Ġðŀ¤¸ðŀ¤«ðŀ¤² ðŀ¤£ðŀ¤Ńðŀ¤²
Ġðŀ¤»ðŀ¤¢ðŀ¤± ðŀ¤µðŀ¤©ðŀ¤«
Ġðŀ¤»ðŀ¤¢ðŀ¤± ðŀ¤²ðŀ¤£ðŀ¤¢ðŀ¤ºðŀ¤®ðŀ¤¤
Ġðŀ¤Īðŀ¤µ ðŀ¤¹
Ġðŀ¤Ģðŀ¤´ ðŀ¤§ðŀ¤¢ðŀ¤¼ðŀ¤µ
Ġðŀ¤ĥðŀ¤Ń ðŀ¤§ðŀ¤Ńðŀ¤§ðŀ¤Ń
Ġðŀ¤´ðŀ¤¢ðŀ¤¤ðŀ¤¼ðŀ¤Ńðŀ¤² ðŀ¤Ńðŀ¤ªðŀ¤¢
nðŀ¤Į ðŀ¤²
Ġðŀ¤²ðŀ¤«ðŀ¤± ðŀ¤Ń
Ġðŀ¤²ðŀ¤«ðŀ¤± ðŀ¤Ńðŀ¤²
Ġðŀ¤²ðŀ¤«ðŀ¤± ðŀ¤²ðŀ¤¢
Ġðŀ¤²ðŀ¤«ðŀ¤± ðŀ¤²ðŀ¤Ń
Ġðŀ¤¶ðŀ¤µðŀ¤² ðŀ¤¼ðŀ¤¢ðŀ¤¤
nðŀ¤ı ðŀ¤®
nðŀ¤ı ðŀ¤Ńðŀ¤²ðŀ¤£ðŀ¤«ðŀ¤²
Ġðŀ¤ĥðŀ¤ĵ ðŀ¤Īðŀ¤Ģ
Ġðŀ¤ºðŀ¤®ðŀ¤¥ ðŀ¤¯ðŀ¤Ńðŀ¤²ðŀ¤Ń
Ġðŀ¥ĳðŀ¥Ļðŀ¥Ļðŀ¥ ĺ
Ġðŀ¤§ðŀ¤¢ðŀ¤¤ ðŀ¤¢ðŀ¤¤ðŀ¤Ń
Ġðŀ¤¤ðŀ¤Ńðŀ¤¥ ðŀ¤¼ðŀ¤Ń
Ġðŀ¤¢ðŀ¤¤ ðŀ¤¶ðŀ¤¢ðŀ¤²
ðŀ¤Ķðŀ¤Į ðŀ¤ıðŀ¤Į
ðŀ¤Ķðŀ¤Į ðŀ¤Ħðŀ¤īðŀ¤Īðŀ¤ī
Ġðŀ¤¼ðŀ¤¢ðŀ¤¥ðŀ¤¨ ðŀ¤Ń
Ġth ank
Ġðŀ¤ľ ðŀ¤Ńðŀ¤³
Ġðŀ¤ľ ðŀ¤«ðŀ¤ªðŀ¤£ðŀ¤«
Ġðŀ¤¢ðŀ¤´ ðŀ¤²ðŀ¤£ðŀ¤«
Ġðŀ¤¢ðŀ¤´ ðŀ¤²ðŀ¤Ńðŀ¤ª
Ġðŀ¤Ģðŀ¤ª ðŀ¤¢ðŀ¤²ðŀ¤®
Ġðŀ¤ºðŀ¤« ðŀ¤ªðŀ¤Ń
Ġðŀ¤©ðŀ¤Ńðŀ¤¯ ðŀ¤¼ðŀ¤«
un dol
Ġðŀ¤Ł ðŀ¤Ģðŀ¤Ĳ
Ġðŀ¤Ł ðŀ¤¢ðŀ¤´ðŀ¤²
Ġðŀ¤§ðŀ¤«ðŀ¤² ðŀ¤£ðŀ¤Ńðŀ¤²
Ġðŀ¤¶ðŀ¤®ðŀ¤² ðŀ¤¯ðŀ¤«
Ġðŀ¤Ģðŀ¤Ī ðŀ¤ģðŀ¤Ģ
Ġðŀ¤±ðŀ¤¢ðŀ¤´ðŀ¤¤ ðŀ¤µðŀ¤²ðŀ¤®
Ġðŀ¤²ðŀ¤µðŀ¤² ðŀ¤¯ðŀ¤µðŀ¤©ðŀ¤«
ðŀ¤īðŀ¤ħ ðŀ¤ī
ðŀ¤īðŀ¤ħ ðŀ¤ģðŀ¤ĭ
ðŀ¤¥ðŀ¤¦ðŀ¤® ðŀ¤±ðŀ¤¢ðŀ¤¤
ĠM us
ĠM ark
ĠM undol
ĠF in
ĠF outa
Ġðŀ¤Ĳðŀ¤ģ ðŀ¤ĭðŀ¤Ĳ
Ġðŀ¤±ðŀ¤Ńðŀ¤²ðŀ¤£ðŀ¤Ń ðŀ¤¼ðŀ¤¢
Ġðŀ¤¤ðŀ¤Ń ðŀ¤©ðŀ¤Ń
Ġðŀ¤´ðŀ¤®ðŀ¤² ðŀ¤¢ðŀ¤¼ðŀ¤¢
Ġðŀ¤Īðŀ¤«ðŀ¤¬ ðŀ¤¦ðŀ¤Ń
Ġðŀ¥ĳðŀ¥Ļðŀ¥ĺ ðŀ¥Ĵ
Ġðŀ¥ĳðŀ¥Ļðŀ¥ĺ ðŀ¥ķ
Ġðŀ¥ĳðŀ¥Ļðŀ¥ĺ ðŀ¥ĸ
ĠT witter
Ġðŀ¤¡ ðŀ¤ĭðŀ¤Ĳðŀ¤Ł
Ġðŀ¤¬ðŀ¤Ńðŀ¤ª ðŀ¤£ðŀ¤¢ðŀ¤±
Ġðŀ¤Ģðŀ¤¦ðŀ¤£ðŀ¤µ ðŀ¤§
Ġðŀ¤¼ðŀ¤¢ðŀ¤° ðŀ¤®
Ġðŀ¤§ðŀ¤¢ðŀ¤¯ ðŀ¤¼ðŀ¤µ
Ġðŀ¤Ħðŀ¤¢ðŀ¤´ ðŀ¤ªðŀ¤µðŀ¤¼
Ġðŀ¤¸ðŀ¤Ńðŀ¤± ðŀ¤«
Ġðŀ¤ªðŀ¤®ðŀ¤² ðŀ¤³
Ġðŀ¤ªðŀ¤®ðŀ¤² ðŀ¤µðŀ¤©ðŀ¤«
Ġðŀ¤ªðŀ¤®ðŀ¤² ðŀ¤³ðŀ¤µ
ðĿĻ ĸðĿĻ
ðŀ¤ķ ðŀ¤¢ðŀ¤º
Ġðŀ¤ĥðŀ¤¢ðŀ¤² ðŀ¤·ðŀ¤«ðŀ¤§ðŀ¤¼ðŀ¤«ðŀ¤ª
Ġðŀ¤¢ðŀ¤²ðŀ¤£ðŀ¤Ńðŀ¤² ðŀ¤ºðŀ¤®ðŀ¤¤
Ġðŀ¤¢ðŀ¤²ðŀ¤£ðŀ¤Ńðŀ¤² ðŀ¤¼ðŀ¤Ńðŀ¤²ðŀ¤ºðŀ¤®ðŀ¤¤
Ġm ill
ðŀ¤Ģðŀ¤Ħ ðŀ¤ĵ
Ġðŀ¤ģðŀ¤«ðŀ¤² ðŀ¤¾ðŀ¤«ðŀ¤ª
Ġðŀ¤´ðŀ¤®ðŀ¤± ðŀ¤®ðŀ¤²
Ġðŀ¤´ðŀ¤®ðŀ¤± ðŀ¤µðŀ¤²ðŀ¤®
ðŀ¤Ńðŀ¤¼ðŀ¤®ðŀ¤ª ðŀ¤¢ðŀ¤¤
ing ua
il le
Ġðŀ¤¸ðŀ¤«ðŀ¤ª ðŀ¤¼ðŀ¤®ðŀ¤ªðŀ¤¢
Ġðŀ¤¤ðŀ¤µ ðŀ¤º
Ġðŀ¤¤ðŀ¤¢ðŀ¤± ðŀ¤³ðŀ¤¢
Ġðŀ¤ļðŀ¤® ðŀ¤¥ðŀ¤¢
Ġðŀ¤¥ðŀ¤®ðŀ¤² ðŀ¤Ń
Ġðŀ¥ĳðŀ¥Ļðŀ¥ĸ ðŀ¥ĵ
Ġðŀ¤Ģðŀ¤Ĭðŀ¤Īðŀ¤ĭðŀ¤ĳ ðŀ¤Ģ
Ġw el
Ġw hic
nðŀ¤ļ ðŀ¤¢ðŀ¤±
Ġðŀ¤¸ðŀ¤«ðŀ¤¦ ðŀ¤Ńðŀ¤¤
Ġðŀ¤¸ðŀ¤«ðŀ¤¦ ðŀ¤¤ðŀ¤¢ðŀ¤²ðŀ¤®
Ġðŀ¤Ģðŀ¤¤ðŀ¤¸ ðŀ¤¢ðŀ¤§ðŀ¤¢ðŀ¤²
Ġc rÃ©
Ġc andid
Ġc reated
Ġðŀ¤¬ðŀ¤¢ðŀ¤² ðŀ¤¼ðŀ¤Ń
Ġðŀ¤´ðŀ¤µðŀ¤ª ðŀ¤¥ðŀ¤Ńðŀ¤²ðŀ¤Ń
Ġðŀ¤Ħðŀ¤«ðŀ¤² ðŀ¤ºðŀ¤¤ðŀ¤¢ðŀ¤£ðŀ¤«ðŀ¤§
Ġðŀ¤Ħðŀ¤«ðŀ¤² ðŀ¤´ðŀ¤¢ðŀ¤¥ðŀ¤Ń
Ġðŀ¤°ðŀ¤«ðŀ¤± ðŀ¤¤ðŀ¤®
Ġðŀ¤¸ðŀ¤µðŀ¤¥ ðŀ¤Ń
Ġðŀ¤¸ðŀ¤Ńðŀ¤¤ ðŀ¤²ðŀ¤®
ðŀ¤Ģðŀ¤Ĳðŀ¤ģðŀ¤ī ðŀ¤ħ
Ġðŀ¤µðŀ¤§ ðŀ¤¼ðŀ¤Ńðŀ¤³ðŀ¤«
ðŀ¤Ģðŀ¤ĸ ðŀ¤Į
nðŀ¤ģ ðŀ¤µ
Ġðŀ¤¦ðŀ¤¢ðŀ¤¯ ðŀ¤¼ðŀ¤Ńðŀ¤²
Ġet hn
Ġðŀ¤¼ðŀ¤¢ðŀ¤§ ðŀ¤³ðŀ¤¢
Ġðŀ¤¼ðŀ¤¢ðŀ¤§ ðŀ¤³ðŀ¤Ń
Ġðŀ¤¼ðŀ¤¢ðŀ¤§ ðŀ¤³ðŀ¤¢ðŀ¤ºðŀ¤®ðŀ¤¤
Ġðŀ¤Ĭðŀ¤ĵ ðŀ¤ĳ
Ġðŀ¤Ĭðŀ¤ĵ ðŀ¤į
Ġðŀ¤§ðŀ¤®ðŀ¤³ðŀ¤Ń ðŀ¤£ðŀ¤¢
Ġðŀ¤¸ðŀ¤µðŀ¤© ðŀ¤Ńðŀ¤²
ðŀ¤ĸðŀ¤® ðŀ¤¶ðŀ¤®ðŀ¤¥ðŀ¤¢
Ġðŀ¤©ðŀ¤«ðŀ¤´ðŀ¤£ ðŀ¤¢ðŀ¤²ðŀ¤¢
Ġðŀ¤©ðŀ¤«ðŀ¤´ðŀ¤£ ðŀ¤®ðŀ¤ªðŀ¤¢
Ġðŀ¤³ðŀ¤¢ðŀ¤¬ ðŀ¤¤ðŀ¤«
nðŀ¤Ļ ðŀ¤¢
Ġðŀ¤Ĳðŀ¤Ķ ðŀ¤Ģ
Ġðŀ¤Ĳðŀ¤Ķ ðŀ¤ī
Ġðŀ¤Ĩðŀ¤¢ðŀ¤ªðŀ¤Ń ðŀ¤¦ðŀ¤¢
Ġre por
Ġðŀ¤¸ðŀ¤µðŀ¤¤ ðŀ¤¦ðŀ¤®
Ġðŀ¤£ðŀ¤Ńðŀ¤ª ðŀ¤¼ðŀ¤Ńðŀ¤²ðŀ¤¢
Ġðŀ¤£ðŀ¤Ńðŀ¤ª ðŀ¤¼ðŀ¤Ńðŀ¤²ðŀ¤«
Ġðŀ¤Ģðŀ¤£ ðŀ¤µðŀ¤²ðŀ¤¢ðŀ¤´
Ġðŀ¤ºðŀ¤Ń ðŀ¤ªðŀ¤«
Ġðŀ¤»ðŀ¤«ðŀ¤¥ ðŀ¤¼ðŀ¤Ńðŀ¤²ðŀ¤£ðŀ¤«
Ġðŀ¥ĳðŀ¥Ļðŀ¥Ĺ ðŀ¥Ļ
Ġðŀ¤¶ðŀ¤®ðŀ¤ºðŀ¤²ðŀ¤Ń ðŀ¤¼ðŀ¤µðŀ¤ºðŀ¤®ðŀ¤¤
Ġðŀ¤Ħðŀ¤¢ðŀ¤ª ðŀ¤¢ðŀ¤§ðŀ¤Ńðŀ¤¤
ðŀ¤Īðŀ¤ĳ ðŀ¤Ģ
Ġðŀ¤Ĭðŀ¤Į ðŀ¤ļ
ation s
que z
Ġco ur
Ġðŀ¤´ðŀ¤Ńðŀ¤¤ ðŀ¤¼ðŀ¤¢
Ġðŀ¥ĳðŀ¥Ļðŀ¥ķ ðŀ¥Ĵ
Ġðŀ¤²ðŀ¤¦ðŀ¤® ðŀ¤¯ðŀ¤®
ðŀ¤Ģðŀ¤ĺ ðŀ¤Įðŀ¤Ĥ
Ġðŀ¤Ĳðŀ¤º ðŀ¤®ðŀ¤²
Ġðŀ¤Īðŀ¤® ðŀ¤§ðŀ¤Ńðŀ¤´ðŀ¤¢
ran slat
ran Ã§ais
Ġðŀ¤Ķðŀ¤®ðŀ¤² ðŀ¤§ðŀ¤®ðŀ¤²
Ġðŀ¤¤ðŀ¤¢ðŀ¤²ðŀ¤· ðŀ¤µðŀ¤ºðŀ¤®ðŀ¤¤
ðŀ¤Ģðŀ¤ģðŀ¤ĭ ðŀ¤Ħðŀ¤Ģ
pp ortun
ro ok
ðŀ¤©ðŀ¤²ðŀ¤Ń ðŀ¤¼ðŀ¤¢ðŀ¤´
Ġðŀ¤ºðŀ¤«ðŀ¤² ðŀ¤¯ðŀ¤Ń
Ġðŀ¤ºðŀ¤«ðŀ¤² ðŀ¤£ðŀ¤Ńðŀ¤ªðŀ¤¢
ðŀ¤ĥðŀ¤Ń ðŀ¤¯ðŀ¤®
ðŀ¤ĥðŀ¤Ń ðŀ¤¤ðŀ¤Ńðŀ¤´ðŀ¤®ðŀ¤²
ĠAfri ca
os ting
Ġðŀ¤²ðŀ¤«ðŀ¤¤ ðŀ¤£ðŀ¤Ń
ðŀ¤Ģðŀ¤Ĭ ðŀ¤Į
Ġðŀ¤Ĵðŀ¤Ģðŀ¤Ĥ ðŀ¤ļðŀ¤ĭðŀ¤Ĳðŀ¤Ģ
Ġðŀ¤¶ðŀ¤Ńðŀ¤±ðŀ¤® ðŀ¤´
Ġðŀ¤¸ðŀ¤¢ðŀ¤±ðŀ¤ª ðŀ¤¢ðŀ¤¼ðŀ¤¢
Ġðŀ¤¦ðŀ¤¢ðŀ¤ªðŀ¤¥ ðŀ¤Ńðŀ¤²ðŀ¤¢
nðŀ¤ķ ðŀ¤¢ðŀ¤º
Ġðŀ¤ħðŀ¤¢ðŀ¤¥ ðŀ¤µðŀ¤ªðŀ¤¢
Ġðŀ¤¦ðŀ¤¢ðŀ¤¥ðŀ¤¦ ðŀ¤¢ðŀ¤²ðŀ¤ºðŀ¤®ðŀ¤¤
Ġðŀ¤ªðŀ¤µ ðŀ¤°
Ġðŀ¤ĺðŀ¤«ðŀ¤²ðŀ¤£ðŀ¤Ń ðŀ¤´ðŀ¤¢ðŀ¤²ðŀ¤³ðŀ¤®
ill y
ch arger
ĠB rook
Ġðŀ¤¶ðŀ¤¢ðŀ¤¤ ðŀ¤³ðŀ¤Ń
Ġðŀ¤¢ðŀ¤¥ðŀ¤« ðŀ¤ªðŀ¤Ńðŀ¤³ðŀ¤¢
Ġðŀ¤Ĳðŀ¤ºðŀ¤¢ðŀ¤¤ ðŀ¤µðŀ¤²ðŀ¤³ðŀ¤«ðŀ¤±ðŀ¤¢ðŀ¤¤
Ġðŀ¤¥ðŀ¤®ðŀ¤¬ ðŀ¤¼ðŀ¤Ń
Ġðŀ¤Ķðŀ¤®ðŀ¤ª ðŀ¤¶ðŀ¤µ
Ġðŀ¤§ðŀ¤®ðŀ¤º ðŀ¤Ńðŀ¤¼ðŀ¤Ńðŀ¤³ðŀ¤«
Ġðŀ¤¸ðŀ¤«ðŀ¤´ ðŀ¤¯ðŀ¤Ńðŀ¤²ðŀ¤¼ðŀ¤Ńðŀ¤²ðŀ¤ºðŀ¤®ðŀ¤¤
ðŀ¤Ńðŀ¤¼ðŀ¤Ńðŀ¤ª ðŀ¤¯ðŀ¤«
ðŀ¤Ńðŀ¤¼ðŀ¤Ńðŀ¤ª ðŀ¤¼ðŀ¤«
Ġðŀ¤Įðŀ¤§ðŀ¤¼ ðŀ¤¢ðŀ¤ªðŀ¤¢ðŀ¤¤ðŀ¤Ń
nP our
nP aris
Ġb y
Ġðŀ¤ĳðŀ¤īðŀ¤ħ ðŀ¤Įðŀ¤Ĥ
ðŀ¤Ĳðŀ¤ĺ ðŀ¤Ģðŀ¤Ĵðŀ¤ĵ
Ġðŀ¤¸ðŀ¤«ðŀ¤±ðŀ¤¼ðŀ¤® ðŀ¤´ðŀ¤Ń
Ġðŀ¤¸ðŀ¤«ðŀ¤±ðŀ¤¼ðŀ¤® ðŀ¤´ðŀ¤ºðŀ¤®ðŀ¤¤
Ġðŀ¤¶ðŀ¤®ðŀ¤ºðŀ¤² ðŀ¤µðŀ¤¼ðŀ¤µðŀ¤£ðŀ¤«
Ġðŀ¤¸ðŀ¤µðŀ¤¥ðŀ¤¢ðŀ¤¥ðŀ¤¦ ðŀ¤Ńðŀ¤²ðŀ¤¢
ðŀ¤Ģðŀ¤¤ ðŀ¤¥ðŀ¤¢ðŀ¤²
nðŀ¤ĭ ðŀ¤¦ðŀ¤ªðŀ¤¢
ðŀ¤©ðŀ¤¢ðŀ¤´ ðŀ¤²ðŀ¤ºðŀ¤µ
Ġðŀ¤£ðŀ¤¢ðŀ¤¥ ðŀ¤¢ðŀ¤¤
Ġðŀ¤ºðŀ¤Ńðŀ¤¥ ðŀ¤¯ðŀ¤Ń
Ġðŀ¤ºðŀ¤Ńðŀ¤¥ ðŀ¤¯ðŀ¤®ðŀ¤¤
Ġðŀ¤¶ðŀ¤®ðŀ¤ºðŀ¤« ðŀ¤¥ðŀ¤¢
Ġðŀ¤ļðŀ¤Ń ðŀ¤¶
Ġðŀ¤ļðŀ¤¢ðŀ¤¥ ðŀ¤¨ðŀ¤«ðŀ¤ªðŀ¤«
Ġðŀ¤ıðŀ¤¢ðŀ¤º ðŀ¤²ðŀ¤«ðŀ¤ª
Ġðŀ¤³ðŀ¤Ńðŀ¤¦ðŀ¤Ńðŀ¤ª ðŀ¤¯ðŀ¤«
Ġðŀ¥ĳðŀ¥Ļðŀ¥Ķ ðŀ¥ĺ
ðŀ¤īðŀ¤Īðŀ¤Ĳ ðŀ¤Ģðŀ¤Ĳðŀ¤ģðŀ¤īðŀ¤ħ
Ġpar ler
Ġðŀ¤¼ðŀ¤Ńðŀ¤²ðŀ¤¼ðŀ¤Ń ðŀ¤£ðŀ¤¢ðŀ¤¤
Ġðŀ¤Ĺðŀ¤¢ðŀ¤ª ðŀ¤£ðŀ¤¢ðŀ¤±
Ġo pportun
nðŀ¤Ī ðŀ¤®ðŀ¤±ðŀ¤¢ðŀ¤²ðŀ¤Ń
Ġðŀ¤¸ðŀ¤®ðŀ¤¶ðŀ¤® ðŀ¤¥ðŀ¤«
ĠPar is
Ġðŀ¤Ľ ðŀ¤¢ðŀ¤¤
Ġðŀ¤Ľ ðŀ¤Ģðŀ¤Ĥ
ðŀ¤Ńðŀ¤¬ ðŀ¤¢ðŀ¤²ðŀ¤£ðŀ¤«
Ġðŀ¤¬ðŀ¤«ðŀ¤ª ðŀ¤¢
Ġðŀ¤¬ðŀ¤«ðŀ¤ª ðŀ¤ºðŀ¤µ
ðŀ¤ĭðŀ¤Ħ ðŀ¤Ģðŀ¤Ĥðŀ¤ĭ
ðŀ¤©ðŀ¤¼ðŀ¤Ńðŀ¤² ðŀ¥ĭ
Ġðŀ¤£ðŀ¤¢ðŀ¤£ðŀ¤Ń ðŀ¤¼ðŀ¤¢
Ġðŀ¤Ģðŀ¤¼ ðŀ¤¤ðŀ¤¢ðŀ¤§
Ġðŀ¤ĥðŀ¤®ðŀ¤ª ðŀ¤¼ðŀ¤¢ðŀ¤²ðŀ¤Ń
Ġðŀ¤§ðŀ¤®ðŀ¤¬ ðŀ¤¼ðŀ¤Ńðŀ¤²ðŀ¤®
Ġðŀ¤§ðŀ¤®ðŀ¤° ðŀ¤µðŀ¤£ðŀ¤«
nL es
Ġh arm
Ġðŀ¤¬ðŀ¤¢ðŀ¤¸ ðŀ¤¥ðŀ¤®
Ġðŀ¤ĳðŀ¤¢ðŀ¤¬ ðŀ¤¤ðŀ¤«
Ġðŀ¤ĸðŀ¤ĭ ðŀ¤Īðŀ¤Ģ
Ġðŀ¤Ķðŀ¤¢ðŀ¤²ðŀ¤º ðŀ¤£ðŀ¤«
Ġðŀ¤·ðŀ¤® ðŀ¤©
Ġðŀ¤ļðŀ¤Ģðŀ¤Ĳ ðŀ¤ħðŀ¤Ģðŀ¤Ĳðŀ¤ĭðŀ¤Ĵðŀ¤Ģ
Ġlang ue
ĠUN O
Ne w
ta it
Ġ1 0
Ġ1 5
Ġ7 0
Ġ7 50
ĠS cri
Ġðŀ¤ĳðŀ¤ĵðŀ¤Ĥ ðŀ¤ĵðŀ¤Ħ
Ġðŀ¤ĳðŀ¤ĵðŀ¤Ĥ ðŀ¤ĭðŀ¤Ħðŀ¤Ģðŀ¤Ĥðŀ¤ĭ
Ġðŀ¤Ħðŀ¤Ģðŀ¤Ĵ ðŀ¤ĭðŀ¤Ĥ
Ġðŀ¤¸ðŀ¤¢ðŀ¤¤ðŀ¤¬ ðŀ¤Ńðŀ¤²ðŀ¤¢ðŀ¤²ðŀ¤®
Ġðŀ¤¸ðŀ¤«ðŀ¤²ðŀ¤£ðŀ¤Ń ðŀ¤³ðŀ¤«
ðŀ¤±ðŀ¤Ńðŀ¤² ðŀ¤£ðŀ¤®ðŀ¤¼ðŀ¤®
Ġðŀ¤ºðŀ¤®ðŀ¤² ðŀ¤£ðŀ¤¢ðŀ¤¤
Ġðŀ¤Ħðŀ¤ª ðŀ¤¢ðŀ¤§ðŀ¤Ńðŀ¤¤
Ġðŀ¤Įðŀ¤¦ ðŀ¤¢ðŀ¤¥ðŀ¤¢
ðŀ¤Īðŀ¤ĭðŀ¤ħ ðŀ¤ļðŀ¤ĭ
Ġðŀ¤´ðŀ¤«ðŀ¤±ðŀ¤¼ðŀ¤µ ðŀ¤£ðŀ¤µðŀ¤ºðŀ¤®ðŀ¤¤
Ġav oir
Ġcon viv
Ġðŀ¤Ĩðŀ¤«ðŀ¤²ðŀ¤§ðŀ¤Ńðŀ¤¤ ðŀ¤±ðŀ¤¢ðŀ¤²ðŀ¤Ńðŀ¤´ðŀ¤¢
Ġðŀ¤īðŀ¤·ðŀ¤® ðŀ¤¨ðŀ¤Ńðŀ¤´ðŀ¤¢
ðŀ¤¥ðŀ¤Ńðŀ¤ª ðŀ¤¯ðŀ¤µðŀ¤²
Ġðŀ¤¬ðŀ¤¢ðŀ¤´ ðŀ¤£ðŀ¤¢
Ġðŀ¤ĳðŀ¤µðŀ¤ªðŀ¤µ ðŀ¤§ðŀ¤¢
Ġðŀ¤±ðŀ¤®ðŀ¤²ðŀ¤¼ðŀ¤Ńðŀ¤ª ðŀ¤²ðŀ¤£ðŀ¤«
Ġðŀ¤Ĳðŀ¤Ģðŀ¤Ĳ ðŀ¤ĺðŀ¤Ģ
Ġðŀ¤ĸðŀ¤¢ðŀ¤¤ ðŀ¤¬ðŀ¤¢
Ġðŀ¤ĸðŀ¤¢ðŀ¤± ðŀ¤§ðŀ¤¢
Ġðŀ¤ĸðŀ¤Ģðŀ¤Ĳ ðŀ¤ĳðŀ¤ĭ
ðŀ¤ĳðŀ¤Ģðŀ¤ĥ ðŀ¤Ģðŀ¤Īðŀ¤ĵðŀ¤Ĳ
Ġðŀ¤¶ðŀ¤®ðŀ¤ºðŀ¤® ðŀ¤¥ðŀ¤¢
Ġðŀ¤Ĥðŀ¤¢ðŀ¤ºðŀ¤® ðŀ¤§
Ġðŀ¤ķðŀ¤« ðŀ¤¥ðŀ¤¦ðŀ¤«
ðŀ¤ĭðŀ¤Ĳðŀ¤ģ ðŀ¤Įðŀ¤Ĥ
Ġðŀ¤²ðŀ¤¶ðŀ¤®ðŀ¤ª ðŀ¤²ðŀ¤£ðŀ¤Ń
Ġðŀ¤ģðŀ¤Įðŀ¤ħðŀ¤ļðŀ¤īðŀ¤Īðŀ¤ī ðŀ¤Ĵðŀ¤Ģðŀ¤Ĳðŀ¤ĳðŀ¤Į
Ġðŀ¤Ģðŀ¤²ðŀ¤¼ðŀ¤®ðŀ¤² ðŀ¤Ń
Ġðŀ¤ĸðŀ¤µðŀ¤§ðŀ¤«ðŀ¤´ ðŀ¤²ðŀ¤Ń
ĠtÃ©lÃ© charger
Ġphot os
Ġ3 0
Ġr ue
ðŀ¤ªðŀ¤¼ðŀ¤Ńðŀ¤² ðŀ¤¢ðŀ¤²ðŀ¤¢
Ġðŀ¤ĥðŀ¤Ģðŀ¤ĺ ðŀ¤ĵðŀ¤Ĭ
Ġðŀ¤ģðŀ¤®ðŀ¤± ðŀ¤ªðŀ¤Ń
Ġðŀ¤ļðŀ¤Ģðŀ¤Ħ ðŀ¤ĭðŀ¤Ĳ
Ġðŀ¤Ĥðŀ¤Ńðŀ¤§ðŀ¤µ ðŀ¤¦ðŀ¤¢
Ġðŀ¤ĵðŀ¤ĥðŀ¤Ģðŀ¤Ī ðŀ¤ĵ
ðŀ¤ĺðŀ¤Įðŀ¤Ī ðŀ¤įðŀ¤Į
Ġðŀ¤±ðŀ¤«ðŀ¤¤ðŀ¤£ðŀ¤Ńðŀ¤² ðŀ¤¼ðŀ¤Ńðŀ¤²ðŀ¤ºðŀ¤®ðŀ¤¤
Ġab out
Ġmin or
Ġcli quez
Ġðŀ¤£ðŀ¤µðŀ¤²ðŀ¤£ ðŀ¤¢ðŀ¤ªðŀ¤¢ðŀ¤²ðŀ¤³ðŀ¤«
Ġðŀ¤Ħðŀ¤ĭðŀ¤ħðŀ¤ĭ ðŀ¤ĺðŀ¤ĭ
Ed uc
Inter p
Soci o
cas ion
ssist ant
vis ion
¯ðĿĹ®ðĿĹ ¹ðĿĹ
Ġar ticles
ĠØ§Ù ĦØ
ĠNe en
ĠðĿĺ ģðĿĹ®ðĿĹ
Ġ202 2
Ġðŀ¤ĳðŀ¤Ńðŀ¤ªðŀ¤Ń ðŀ¤§ðŀ¤¼ðŀ¤Ń
Ġðŀ¤¶ðŀ¤¢ðŀ¤¨ ðŀ¤¢ðŀ¤²ðŀ¤¢
Ġðŀ¤£ðŀ¤Ńðŀ¤²ðŀ¤º ðŀ¤Ńðŀ¤ª
Ġðŀ¤Ģðŀ¤¼ðŀ¤¢ðŀ¤¤ ðŀ¤¢ðŀ¤²ðŀ¤¼ðŀ¤¢
Ġðŀ¤Ģðŀ¤ģðŀ¤ī ðŀ¤ĥðŀ¤Ģ
Ġðŀ¤Ģðŀ¤Ĵðŀ¤ħ ðŀ¤Ģðŀ¤ļðŀ¤ĵ
Ġðŀ¤ĥðŀ¤īðŀ¤Ĳðŀ¤ĺ ðŀ¤ī
ðŀ¤Ńðŀ¤ªðŀ¤ºðŀ¤Ń ðŀ¤±ðŀ¤¢ðŀ¤¤
Ġðŀ¤Ħðŀ¤®ðŀ¤´ ðŀ¤Ńðŀ¤²ðŀ¤º
Ġðŀ¤Ħðŀ¤ĭðŀ¤Ĵ ðŀ¤īðŀ¤Ĳðŀ¤īðŀ¤ĥðŀ¤ĵ
Ġðŀ¤Ħðŀ¤īðŀ¤Īðŀ¤Ĳ ðŀ¤Ģðŀ¤Ī
Ġðŀ¤Ĭðŀ¤¤ðŀ¤®ðŀ¤´ ðŀ¤£
Ġðŀ¤ģðŀ¤«ðŀ¤¦ ðŀ¤Ń
Ġðŀ¤īðŀ¤³ðŀ¤µ ðŀ¤±ðŀ¤¢ðŀ¤¼ðŀ¤«
Ġðŀ¤īðŀ¤Īðŀ¤Į ðŀ¤Ĩ
Ġðŀ¤·ðŀ¤«ðŀ¤¥ ðŀ¤¼ðŀ¤®ðŀ¤¤
Ġðŀ¤·ðŀ¤Ńðŀ¤¬ ðŀ¤¼ðŀ¤Ńðŀ¤²ðŀ¤®ðŀ¤ªðŀ¤¯ðŀ¤«
Ġðŀ¤Ĩðŀ¤®ðŀ¤¤ðŀ¤® ðŀ¤»
Ġðŀ¤Ĩðŀ¤ªðŀ¤Ńðŀ¤ºðŀ¤® ðŀ¥ģðŀ¤Ńðŀ¤²
Ġðŀ¤Ĥðŀ¤«ðŀ¤§ ðŀ¤£ðŀ¤Ń
Ġðŀ¤Ĵðŀ¤īðŀ¤Ī ðŀ¤Į
Ġðŀ¤Ģðŀ¤¤ðŀ¤¶ðŀ¤¢ ðŀ¥ģðŀ¤Ń
Ġðŀ¤ķðŀ¤īðŀ¤Īðŀ¤Ĳ ðŀ¤Į
Ġðŀ¤ħðŀ¤µðŀ¤±ðŀ¤¢ðŀ¤¸ ðŀ¤Ńðŀ¤¤ðŀ¤Ń
Ġpres entation
ĠprÃ©s entation
ĠAiss atou
Ġals o
Ġðŀ¤Ģðŀ¤Ĥðŀ¤Ł ðŀ¤Ģðŀ¤Īðŀ¤ĭ
Ġðŀ¤Ģðŀ¤Ĥðŀ¤ľðŀ¤Ģðŀ¤Ī ðŀ¤īðŀ¤ħ
Ġservand oni
Ġðŀ¤ĥðŀ¤Ńðŀ¤§ðŀ¤Ńðŀ¤§ðŀ¤Ń ðŀ¤¨ðŀ¤Ń
Ġðŀ¤ľðŀ¤Ńðŀ¤³ ðŀ¤¼ðŀ¤®
Ġðŀ¤Łðŀ¤¢ðŀ¤´ðŀ¤² ðŀ¤¢ðŀ¤¦
ĠMundol ingua
Ġðŀ¤¡ðŀ¤ĭðŀ¤Ĳðŀ¤Ł ðŀ¤ĭðŀ¤Ĵðŀ¤Ģðŀ¤Ĳ
Ġðŀ¤¬ðŀ¤Ńðŀ¤ªðŀ¤£ðŀ¤¢ðŀ¤± ðŀ¤§ðŀ¤Ń
Ġmill ion
Ġwhic h
ĠcrÃ© Ã©
ranslat e
ĠBrook es
Ġðŀ¤Ĺðŀ¤¢ðŀ¤ªðŀ¤£ðŀ¤¢ðŀ¤± ðŀ¤Ńðŀ¤´
Ġopportun ity
Ġ750 06
ĠScri pt
Ġðŀ¤ĳðŀ¤ĵðŀ¤Ĥðŀ¤ĵðŀ¤Ħ ðŀ¤Ģðŀ¤Ĥðŀ¤ĭ
Ġðŀ¤ĥðŀ¤Ģðŀ¤ĺðŀ¤ĵðŀ¤Ĭ ðŀ¤ĵðŀ¤Ĥðŀ¤ĭ
¯ðĿĹ®ðĿĹ¹ðĿĹ ±ðĿĹ²
ĠðĿĺģðĿĹ®ðĿĹ ¯ðĿĹ®ðĿĹ¹ðĿĹ±ðĿĹ²
) ."
A F
A dlam
B e
B an
C E
E C
E F
E S
F NDC
F CFA
G U
G o
K o
N Ko
P C
P G
P DC
R HDP
a le
a il
b d
b u
c an
d a
d i
e a
e c
e ment
g le
i que
i Ã©e
i Ã¨
l ic
n F
n La
n ðŀ¤Ģðŀ¤¸ðŀ¤¥ðŀ¤¢ðŀ¤£ðŀ¤µ
n lo
n ðŀ¤Ģðŀ¤ģðŀ¤Ĥðŀ¤¢ðŀ¤ĥ
n Be
o w
o gle
p er
r or
r av
s i
s ous
t t
t at
t en
u ter
¦ \
§ ółģ
¯ ðŁĩ
° ðŁĩ·
´ ðĿĹ²
¶ ðĿĹ»ðĿĹ
· ðĿĹ®
¿ ðĿĹ
Ã ī
Ġ $
Ġ )
Ġ O
Ġ Z
Ġ ðŁ
Ġ est
Ħ ðĿĹ
ĺ ðĿĻ
Ļ ðĿĻļ
ðŀ¤ ¿
ðŀ¤® ðŀ¤£ðŀ¤¢
ðŀ¤® ðŀ¤´ðŀ¤¢
ðŀ¤® ðŀ¤´ðŀ¤Ń
ðŀ¤® ðŀ¥ģ
ðŀ¤« ðŀ¤¤ðŀ¤«
ðŀ¤« ðŀ¤ªðŀ¤µ
ðŀ¤Ń ðŀ¤¯ðŀ¤Ń
ðŀ¤Ń ðŀ¤±ðŀ¤®
ðŀ¤Ń ðŀ¤£ðŀ¤¢
ðŀ¤² ðŀ¤Ńðŀ¤²
ðŀ¤² ðŀ¤¶ðŀ¤«
ðŀ¤² ðŀ¤Ńðŀ¤²ðŀ¤Ń
ðŀ¤² ðŀ¤¢ðŀ¤§
ðŀ¤² ðŀ¤¼ðŀ¤¢ðŀ¤ºðŀ¤®ðŀ¤¤
ðŀ¤² ðŀ¤¢ðŀ¤²ðŀ¤¼ðŀ¤¢
ðŀ¤¢ðŀ¤ ĳ
ðŀ¥ħ âĢĿ
ðŀ¥ħ ).
ðŀ¥ħ ØŁ
ðŀ¥ħ )â¹ģ
ðŀ¥ħ ðŀ¥Ĭ
ðŀ¥ħ âĢĿ.
ðŀ¤µ ðŀ¤£
ðŀ¤µ ðŀ¤ºðŀ¤¢ðŀ¤¤
ðŀ¤µ ðŀ¤±ðŀ¤¢
ðŀ¤µ ðŀ¤±ðŀ¤«
ðŀ¤£ ðŀ¤¢ðŀ¤²ðŀ¤¢
ðŀ¤£ ðŀ¤®ðŀ¤ªðŀ¤¢
ðŀ¤£ ðŀ¤²ðŀ¤£ðŀ¤Ń
ðŀ¤£ ðŀ¤¢ðŀ¤ªðŀ¤¥ðŀ¤¢
ðŀ¥Ħ !
ðŀ¥Ħ )
ðŀ¥Ħ \
ðŀ¥Ħ )â¹ģ
ðŀ¤ª ðŀ¤£
ðŀ¤ª ðŀ¤£ðŀ¤Ń
ðŀ¤ª ðŀ¤¯ðŀ¤«
ðŀ¤ª ðŀ¤¼ðŀ¤®
ðŀ¤ª ðŀ¤µðŀ¤²ðŀ¤®
ðŀ¤ª ðŀ¤«ðŀ¤´
ðŀ¤ª ðŀ¤¼ðŀ¤¢ðŀ¤¤
ðŀ¤ª ðŀ¤¼ðŀ¤µðŀ¤ºðŀ¤®ðŀ¤¤
ðŀ¤ª ðŀ¤¢ðŀ¤²ðŀ¤³
ðŀ¤ª ðŀ¤²ðŀ¤µðŀ¤ºðŀ¤®ðŀ¤¤
ðŀ¤ª ðŀ¤£ðŀ¤¢ðŀ¤²
ðŀ¤¼ ðŀ¤¯ðŀ¤«
ðŀ¤¼ ðŀ¤®ðŀ¤ªðŀ¤®
ðŀ¤¼ ðŀ¤µðŀ¤²ðŀ¥ĭðŀ¤ºðŀ¤¢ðŀ¤¤
Ġðŀ¤² ðŀ¤¢ðŀ¤©ðŀ¤«
Ġðŀ¤² ðŀ¤«ðŀ¤©
ðŀ¤¤ ðŀ¤£
ðŀ¤¤ ðŀ¤¢ðŀ¤´
ðŀ¤¤ ðŀ¤¢ðŀ¤¼
ðŀ¤¤ ðŀ¤¢ðŀ¤º
ðŀ¤¤ ðŀ¤Ńðŀ¤²ðŀ¤ºðŀ¤®ðŀ¤¤
ðŀ¤¤ ðŀ¤Ńðŀ¤ªðŀ¤£ðŀ¤µ
ðŀ¤¤ ðŀ¤²ðŀ¤µðŀ¤¯ðŀ¤®
ðŀ¤¤ ðŀ¤®ðŀ¤ªðŀ¤¢ðŀ¤²ðŀ¤®
Ġðŀ¤³ ðŀ¤µðŀ¤ª
Ġðŀ¤³ ðŀ¤¢ðŀ¤¼ðŀ¤¢
Ġðŀ¤³ ðŀ¤¢ðŀ¤±ðŀ¤¼ðŀ¤Ń
Ġðŀ¤³ ðŀ¤¢ðŀ¤¥ðŀ¤¦
ðŀ¤£ðŀ¤« ðŀ¤¼ðŀ¤«
ðŀ¤£ðŀ¤« ðŀ¤¨
ðŀ¤º ðŀ¤®ðŀ¤²
ðŀ¤º ðŀ¤Ńðŀ¤¼ðŀ¤Ń
ðŀ¤º ðŀ¤Ńðŀ¤ªðŀ¤£ðŀ¤«
ðŀ¤º ðŀ¤Ńðŀ¤ªðŀ¤Ńðŀ¤²
â¹ģ âĢ¦\
ðŀ¤¢ðŀ¤¤ ðŀ¤£ðŀ¤µ
ðŀ¤¢ðŀ¤¤ ðŀ¤²ðŀ¤£ðŀ¤µ
ðŀ¤¢ðŀ¤¤ ðŀ¤µðŀ¤²ðŀ¤³ðŀ¤«ðŀ¤±ðŀ¤¢ðŀ¤¤
ðŀ¤¢ðŀ¤¤ ðŀ¤¢ðŀ¤ªðŀ¤¦ðŀ¤¢
Ġðŀ¤¸ ðŀ¤«ðŀ¤¼
Ġðŀ¤¸ ðŀ¤¢ðŀ¤±ðŀ¤¼ðŀ¤Ń
ðŀ¤¥ ðŀ¤¢ðŀ¤´
ðŀ¤¥ ðŀ¤¢ðŀ¤£ðŀ¤Ń
ðŀ¤¥ ðŀ¤®ðŀ¤ªðŀ¤¯ðŀ¤«
ðŀ¤¥ ðŀ¤Ńðŀ¤²ðŀ¤¢ðŀ¤²ðŀ¤£ðŀ¤«
ðŀ¤¥ ðŀ¤Ńðŀ¤´ðŀ¤¢ðŀ¤²ðŀ¤³ðŀ¤®
ðŀ¤¥ ðŀ¤¸ðŀ¤¢ðŀ¤ªðŀ¤Ń
ðŀ¤¥ ðŀ¤£ðŀ¤«ðŀ¤¦
ðŀ¤¯ ðŀ¤¢ðŀ¤¥
ðŀ¤¯ ðŀ¤²ðŀ¤®
ðŀ¤¯ ðŀ¤¢ðŀ¤ºðŀ¤®ðŀ¤¤
ðŀ¤¯ ðŀ¤¢ðŀ¤²ðŀ¤¢
ðŀ¤¯ ðŀ¤®ðŀ¤ªðŀ¤®
ðŀ¤¢ðŀ¤² ðŀ¤Ńðŀ¤²ðŀ¤®
ðŀ¤¢ðŀ¤² ðŀ¤¢ðŀ¤´ðŀ¤²ðŀ¤®
ðŀ¤¢ðŀ¤² ðŀ¤¢ðŀ¤´ðŀ¤©ðŀ¤«
ðŀ¤¢ðŀ¤² ðŀ¤½ðŀ¤«
ðŀ¤®ðŀ¤² ðŀ¤§
ðŀ¤®ðŀ¤² ðŀ¤¼ðŀ¤«ðŀ¤ªðŀ¤«
ðŀ¤®ðŀ¤² ðŀ¤£ðŀ¤Ńðŀ¤ªðŀ¤¢ðŀ¤¤
ðŀ¤Ńðŀ¤² ðŀ¤©ðŀ¤«
ðŀ¤Ńðŀ¤² ðŀ¤ºðŀ¤®
ðŀ¤Ńðŀ¤² ðŀ¤¼ðŀ¤Ńðŀ¤²ðŀ¤®
ðŀ¤Ńðŀ¤² ðŀ¤¢ðŀ¤²ðŀ¤«
ðŀ¤Ńðŀ¤² ðŀ¤Ńðŀ¤ªðŀ¤£ðŀ¤«
ðŀ¤Ńðŀ¤² ðŀ¤£ðŀ¤Ńðŀ¤ªðŀ¤¢
ðŀ¤Ńðŀ¤² ðŀ¤¼ðŀ¤®ðŀ¤²
ðŀ¤Ńðŀ¤² ðŀ¤¯ðŀ¤Ńðŀ¤²
ðŀ¤Ńðŀ¤² ðŀ¤¯ðŀ¤Ńðŀ¤²ðŀ¤¢ðŀ¤´
Ġðŀ¤± ðŀ¤¢ðŀ¤²
Ġðŀ¤± ðŀ¤Ńðŀ¤¤ðŀ¤¢
Ġðŀ¤± ðŀ¤Ńðŀ¤ªðŀ¤¼ðŀ¤¢
Ġðŀ¤¥ ðŀ¤¢ðŀ¤·
Ġðŀ¤¥ ðŀ¤¢ðŀ¤¸ðŀ¤Ń
ðŀ¤³ ðŀ¤¢ðŀ¤ª
ðŀ¤³ ðŀ¤§
ðŀ¤³ ðŀ¤¢ðŀ¤¥
ðŀ¤³ ðŀ¤ªðŀ¤®
ðŀ¤³ ðŀ¤Ńðŀ¤²ðŀ¤¢ðŀ¤¤
ðŀ¤³ ðŀ¤§ðŀ¤Ńðŀ¤³
ðŀ¤µðŀ¤² ðŀ¤¢ðŀ¤¤
ðŀ¤µðŀ¤² ðŀ¤ºðŀ¤¢ðŀ¤¤
Ġðŀ¤¬ ðŀ¤Ńðŀ¤²
Ġðŀ¤¬ ðŀ¤µðŀ¤²
Ġðŀ¤¬ ðŀ¤¢ðŀ¤¦
Ġðŀ¤¬ ðŀ¤µðŀ¤ª
Ġðŀ¤¬ ðŀ¤Ńðŀ¤²ðŀ¤Ń
Ġðŀ¤¬ ðŀ¤¢ðŀ¤±ðŀ¤¼ðŀ¤Ń
ðŀ¤Ģ ðŀ¤²
ðŀ¤Ģ ðŀ¤¦ðŀ¤Ńðŀ¤¶ðŀ¤¢ðŀ¤²
ðŀ¤Ģ ðŀ¤¥ðŀ¤¸ðŀ¤¢ðŀ¤ªðŀ¤Ń
Ġðŀ¤¤ ðŀ¤¢ðŀ¤´ðŀ¤¼ðŀ¤Ń
Ġðŀ¤¤ ðŀ¤¢ðŀ¤¸ðŀ¤«
Ġðŀ¤¼ ðŀ¤¢ðŀ¤²ðŀ¤£ðŀ¤«
Ġðŀ¤¼ ðŀ¤«ðŀ¤ªðŀ¤«
Ġðŀ¤¼ ðŀ¤«ðŀ¤¦
Ġðŀ¤¼ ðŀ¤µðŀ¤¯ðŀ¤¢ðŀ¤²
ðŀ¤ªðŀ¤« ðŀ¤¼ðŀ¤«ðŀ¤²
Ġðŀ¤§ ðŀ¤µðŀ¤ª
Ġðŀ¤§ ðŀ¤«ðŀ¤¼ðŀ¤«
Ġðŀ¤§ ðŀ¤¢ðŀ¤²ðŀ¤³ðŀ¤«
Ġðŀ¤§ ðŀ¤¢ðŀ¤²ðŀ¤£
Ġðŀ¤§ ðŀ¤«ðŀ¤¸ðŀ¤ªðŀ¤«
ðŀ¤¶ ðŀ¤Ńðŀ¤²ðŀ¤®
ðŀ¤¶ ðŀ¤µðŀ¤²ðŀ¤¢
ðŀ¤¶ ðŀ¤Ńðŀ¤ªðŀ¤£ðŀ¤«
Ġðŀ¤ĳ ðŀ¤Ńðŀ¤²
Ġðŀ¤ĳ ðŀ¤¢ðŀ¤´
Ġðŀ¤ĳ ðŀ¤¢ðŀ¤£
Ġðŀ¤ĳ ðŀ¤¢ðŀ¤²ðŀ¤®
Ġðŀ¤ĳ ðŀ¤µðŀ¤¤
Ġðŀ¤ĳ ðŀ¤Ńðŀ¤¤
Ġðŀ¤ĳ ðŀ¤Ģðŀ¤ħ
Ġðŀ¤ĳ ðŀ¤®ðŀ¤ªðŀ¤®ðŀ¤²
Ġðŀ¤ĳ ðŀ¤®ðŀ¤ªðŀ¤³
Ġðŀ¤ĳ ðŀ¤¤ðŀ¤Ńðŀ¤²
Ġðŀ¤ĳ ðŀ¤µðŀ¤ªðŀ¤µðŀ¤²
Ġðŀ¤ĳ ðŀ¤«ðŀ¤²ðŀ¤Ńðŀ¤´ðŀ¤¢
Ġðŀ¤ĳ ðŀ¤Īðŀ¤ĭðŀ¤ħðŀ¤ļðŀ¤ĭ
ðŀ¤¢ðŀ¤ª ðŀ¤µðŀ¤ºðŀ¤®ðŀ¤¤
ðŀ¤¢ðŀ¤ª ðŀ¤¢ðŀ¤¥ðŀ¤¢
ðŀ¤¢ðŀ¤ª ðŀ¤¥ðŀ¤¢ðŀ¤²ðŀ¤Ń
ðŀ¤£ðŀ¤Ń ðŀ¤¦
ðŀ¤£ðŀ¤Ń ðŀ¤¼ðŀ¤Ńðŀ¤³ðŀ¤«
Ġðŀ¤´ ðŀ¤¢ðŀ¤º
Ġðŀ¤¶ ðŀ¤«ðŀ¤²
Ġðŀ¤¶ ðŀ¤¢ðŀ¤¸
Ġðŀ¤¶ ðŀ¤Ńðŀ¤´ðŀ¤¢
Ġðŀ¤¶ ðŀ¤«ðŀ¤¸ðŀ¤«
Ġðŀ¤¶ ðŀ¤Ńðŀ¤ªðŀ¤ºðŀ¤Ńðŀ¤±ðŀ¤¢ðŀ¤¤
Ġðŀ¤³ðŀ¤® ðŀ¤¸ðŀ¤®
Ġðŀ¤³ðŀ¤® ðŀ¤¥ðŀ¤¦ðŀ¤®ðŀ¤±ðŀ¤¢ðŀ¤¤
Ġðŀ¤²ðŀ¤º ðŀ¤¢ðŀ¤²ðŀ¤¼ðŀ¤®
ðŀ¤± ðŀ¤ª
ðŀ¤± ðŀ¤£ðŀ¤Ń
ðŀ¤± ðŀ¤ªðŀ¤Ń
ðŀ¤± ðŀ¤ºðŀ¤¢ðŀ¤¤
ðŀ¤± ðŀ¤¢ðŀ¤²ðŀ¤£ðŀ¤«
ðŀ¤± ðŀ¤¢ðŀ¤ªðŀ¤¢
ðŀ¤± ðŀ¤²ðŀ¤£ðŀ¤Ń
ðŀ¤± ðŀ¤Ńðŀ¤ªðŀ¤£ðŀ¤«
ðŀ¤± ðŀ¤¢ðŀ¤ªðŀ¤®
ðŀ¤± ðŀ¤¤ðŀ¤µ
ðŀ¤´ ðŀ¤ªðŀ¤«
ðŀ¤´ ðŀ¤«ðŀ¤²
ðŀ¤´ ðŀ¤®ðŀ¤ª
ðŀ¤´ ðŀ¤¯ðŀ¤®
ðŀ¤´ ðŀ¤Ńðŀ¤¼ðŀ¤Ń
ðŀ¤´ ðŀ¤ªðŀ¤µ
ðŀ¤´ ðŀ¤²ðŀ¤µðŀ¤£ðŀ¤«
ðŀ¤´ ðŀ¤²ðŀ¤µðŀ¤²ðŀ¤®
ðŀ¤´ ðŀ¤¢ðŀ¤³ðŀ¤µ
ðŀ¤´ ðŀ¤Ńðŀ¤²ðŀ¤Ńðŀ¤ªðŀ¤£ðŀ¤µ
ðŀ¤«ðŀ¤² ðŀ¤¼ðŀ¤®
ðŀ¤«ðŀ¤² ðŀ¤ºðŀ¤¢ðŀ¤¤
ðŀ¤«ðŀ¤² ðŀ¤¼ðŀ¤¢ðŀ¤¤
ðŀ¤ªðŀ¤Ń ðŀ¤ªðŀ¤Ń
ðŀ¤¦ ðŀ¤Ńðŀ¤²ðŀ¤Ń
ðŀ¤¦ ðŀ¤Ńðŀ¤ªðŀ¤¢
ðŀ¤¦ ðŀ¤¢ðŀ¤¼ðŀ¤µ
ðŀ¤Ģðŀ¤ ī
ðŀ¤¢ðŀ¤± ðŀ¤¯ðŀ¤®
ðŀ¤¢ðŀ¤± ðŀ¤³ðŀ¤Ń
ðŀ¤¢ðŀ¤± ðŀ¤µðŀ¤²ðŀ¤£ðŀ¤«
Ġðŀ¤²ðŀ¤£ðŀ¤« ðŀ¤«
Ġðŀ¤²ðŀ¤£ðŀ¤« ðŀ¤±ðŀ¤ªðŀ¤Ń
ðŀ¤¢ðŀ¤´ ðŀ¤µ
ðŀ¤¢ðŀ¤´ ðŀ¤³ðŀ¤¢
ðŀ¤ĭ ðŀ¤¦ðŀ¤ªðŀ¤¢
ðŀ¤ĭ ðŀ¤Ħðŀ¤ĵ
Ġðŀ¤±ðŀ¤®ðŀ¤² ðŀ¤Ńðŀ¤ª
Ġðŀ¤±ðŀ¤®ðŀ¤² ðŀ¤ºðŀ¤®
Ġðŀ¤±ðŀ¤®ðŀ¤² ðŀ¤£ðŀ¤¢
Ġðŀ¤±ðŀ¤®ðŀ¤² ðŀ¤£ðŀ¤µðŀ¤ºðŀ¤®ðŀ¤¤
Ġðŀ¤±ðŀ¤®ðŀ¤² ðŀ¤¼ðŀ¤¢ðŀ¤´
Ġðŀ¤±ðŀ¤®ðŀ¤² ðŀ¤µðŀ¤²ðŀ¥ĭðŀ¤ºðŀ¤¢ðŀ¤¤
Ġðŀ¤±ðŀ¤®ðŀ¤² ðŀ¤®ðŀ¤´ðŀ¤¼ðŀ¤¢
ðŀ¤§ ðŀ¤¼
ðŀ¤§ ðŀ¤¢ðŀ¤²ðŀ¤£ðŀ¤«
ðŀ¤§ ðŀ¤«ðŀ¤ªðŀ¤«
ðŀ¤§ ðŀ¤Ńðŀ¤²ðŀ¤¢
ðŀ¤§ ðŀ¤³ðŀ¤µ
ðŀ¤§ ðŀ¤Ńðŀ¤ªðŀ¤£ðŀ¤«
ðŀ¤§ ðŀ¤«ðŀ¤²ðŀ¤¢
ðŀ¤§ ðŀ¤¬ðŀ¤¼
ðŀ¤© ðŀ¤Ńðŀ¤²ðŀ¤¢
ðŀ¤© ðŀ¤²ðŀ¤«
ðŀ¤© ðŀ¤µðŀ¤²ðŀ¥ĭðŀ¤ºðŀ¤¢ðŀ¤¤
Ġðŀ¤£ ðŀ¤¢ðŀ¤º
Ġðŀ¤£ ðŀ¤¢ðŀ¤²ðŀ¤³
Ġðŀ¤£ ðŀ¤µðŀ¤¥ðŀ¤¦ðŀ¤µ
Ġðŀ¤²ðŀ¤® ðŀ¤¨
ðŀ¤ī ðŀ¤¬
ðŀ¤ī ðŀ¤Ł
ðŀ¤ī ðŀ¤ļðŀ¤Ģ
ðŀ¤ī ðŀ¤ªðŀ¤£ðŀ¤®
ðŀ¤ī ðŀ¤¥ðŀ¤¢ðŀ¤²ðŀ¤µðŀ¤´ðŀ¤«ðŀ¤¤
Ġðŀ¤¢ ðŀ¤¸
Ġðŀ¤¢ ðŀ¤§ðŀ¤®
Ġðŀ¤¢ ðŀ¤§ðŀ¤«
Ġðŀ¤ħ ðŀ¤¢ðŀ¤²ðŀ¤º
Ġðŀ¤ħ ðŀ¤¢ðŀ¤¤ðŀ¤Ń
Ġðŀ¤ħ ðŀ¤ĵðŀ¤Ĳ
Ġðŀ¤ħ ðŀ¤Ģðŀ¤Ĥðŀ¤ĭ
Ġðŀ¤ħ ðŀ¤īðŀ¤Ĳðŀ¤ī
Ġðŀ¤ħ ðŀ¤¢ðŀ¤²ðŀ¤£
Ġðŀ¤ħ ðŀ¤µðŀ¤²ðŀ¤¶
ðŀ¤Į ðŀ¤¨
ðŀ¤Į ðŀ¤ı
ðŀ¤Į ðŀ¤ĺðŀ¤ĭ
Ġðŀ¤Ģ ðŀ¤¶
Ġðŀ¤Ģ ðŀ¤ħ
Ġðŀ¤Ģ ðŀ¤±ðŀ¤¢
Ġðŀ¤Ģ ðŀ¤ªðŀ¤¢ðŀ¤²
Ġðŀ¤Ģ ðŀ¤ķ
Ġðŀ¤Ģ ðŀ¤¡
Ġðŀ¤Ģ ðŀ¤¨ðŀ¤®ðŀ¤¤
Ġðŀ¤Ģ ðŀ¤£ðŀ¤Ńðŀ¤§
Ġðŀ¤ĥ ðŀ¤µðŀ¤ª
Ġðŀ¤ĥ ðŀ¤¢ðŀ¤ªðŀ¤Ń
Ġðŀ¤ĥ ðŀ¤Ģðŀ¤ģ
Ġðŀ¤ĥ ðŀ¤Ģðŀ¤Īðŀ¤ĭ
ðŀ¤®ðŀ¤ª ðŀ¤¼
ðŀ¤²ðŀ¤£ðŀ¤« ðŀ¤²
Ġðŀ¤º ðŀ¤¢ðŀ¤¥
Ġðŀ¤º ðŀ¤¢ðŀ¤¦
Ġðŀ¤º ðŀ¤¢ðŀ¤²ðŀ¤º
Ġðŀ¤º ðŀ¤«ðŀ¤´
Ġðŀ¤¸ðŀ¤® ðŀ¤ªðŀ¤«
ðŀ¤¢ðŀ¤¥ ðŀ¤µ
ðŀ¤¢ðŀ¤¥ ðŀ¤¢ðŀ¤ªðŀ¤¢
ðŀ¤¢ðŀ¤¥ ðŀ¤¼ðŀ¤µðŀ¤ºðŀ¤®ðŀ¤¤
Ġðŀ¤» ðŀ¤®ðŀ¤¤ðŀ¤µ
ðŀ¤Ĳ ðŀ¤¢
ðŀ¤Ĳ ðŀ¤Ń
ðŀ¤Ĳ ðŀ¤Į
ðŀ¤Ĳ ðŀ¤ĵ
ðŀ¤Ĳ ðŀ¤ºðŀ¤®
ðŀ¤Ĳ ðŀ¤Ķ
ðŀ¤Ĳ ðŀ¤īðŀ¤Ī
ðŀ¤Ĳ ðŀ¤ºðŀ¤¢ðŀ¤´ðŀ¤µ
Ġðŀ¤Ĳ ðŀ¤ĵ
Ġðŀ¤Ĳ ðŀ¤³ðŀ¤®
Ġðŀ¤Ĳ ðŀ¤ĳðŀ¤Į
Ġðŀ¤Ĳ ðŀ¤Ģðŀ¤ĥðŀ¤ĭ
Ġðŀ¤Ĳ ðŀ¤Ķðŀ¤Įðŀ¤ıðŀ¤Į
Ġðŀ¤Ĳ ðŀ¤Ģðŀ¤Ĭðŀ¤Į
Ġðŀ¤¬ðŀ¤Ń ðŀ¤¯ðŀ¤Ńðŀ¤²
Ġðŀ¤¬ðŀ¤Ń ðŀ¤´ðŀ¤¢ðŀ¤³ðŀ¤µ
Ġðŀ¤© ðŀ¤®ðŀ¤ªðŀ¤²ðŀ¤®
ðŀ¤¯ðŀ¤Ń ðŀ¤ª
Ġðŀ¤ĺ ðŀ¤Ń
Ġðŀ¤ĺ ðŀ¤¢ðŀ¤ª
Ġðŀ¤ĺ ðŀ¤īðŀ¤Ĳ
Ġðŀ¤ĺ ðŀ¤«ðŀ¤©ðŀ¤¢ðŀ¤¤
ðŀ¤Ńðŀ¤ª ðŀ¤¢ðŀ¤²
ðŀ¤Ńðŀ¤ª ðŀ¤³ðŀ¤¢
ðŀ¤Ńðŀ¤ª ðŀ¤²ðŀ¤ºðŀ¤®
ðŀ¤¼ðŀ¤® ðŀ¤´ðŀ¤¢
ðŀ¤¢ðŀ¤© ðŀ¤µðŀ¤²
ðŀ¤Ńðŀ¤¥ ðŀ¤«ðŀ¤²
Ġðŀ¤ĳðŀ¤® ðŀ¤¥ðŀ¤®ðŀ¤ª
Ġðŀ¤Ħ ðŀ¤¤
Ġðŀ¤Ħ ðŀ¤®ðŀ¤¤
Ġðŀ¤Ħ ðŀ¤¢ðŀ¤ªðŀ¤¢
Ġðŀ¤Ħ ðŀ¤Ģðŀ¤ĥ
Ġðŀ¤Ħ ðŀ¤Įðŀ¤Ĥ
Ġðŀ¤Ħ ðŀ¤Ģðŀ¤ĳ
Ġðŀ¤Ħ ðŀ¤¢ðŀ¤²ðŀ¤³
Ġðŀ¤Ħ ðŀ¤¢ðŀ¤§ðŀ¤Ń
Ġðŀ¤Ħ ðŀ¤®ðŀ¤³
Ġðŀ¤Ħ ðŀ¤Ńðŀ¤´ðŀ¤®
Ġðŀ¤Ħ ðŀ¤¤ðŀ¤«ðŀ¤§
Ġðŀ¤Ħ ðŀ¤Īðŀ¤ĵðŀ¤Ĳðŀ¤Į
ðŀ¤ĵ ðŀ¤ģ
ðŀ¤ĵ ðŀ¤ħ
ðŀ¤ĵ ðŀ¤Īðŀ¤ĭ
ðŀ¤ĵ ðŀ¤Ħðŀ¤ĵ
ðŀ¤¤ðŀ¤Ń ðŀ¤±ðŀ¤¢ðŀ¤¤
ðŀ¤¤ðŀ¤Ń ðŀ¤´ðŀ¤®
ðŀ¤¤ðŀ¤Ń ðŀ¤¦ðŀ¤¢ðŀ¤¥ðŀ¤©ðŀ¤«
ðŀ¤¬ ðŀ¤¢ðŀ¤¤
ðŀ¤¬ ðŀ¤®ðŀ¤¤
ðŀ¤¬ ðŀ¤¢ðŀ¤²ðŀ¤Ń
ðŀ¤¬ ðŀ¤Ńðŀ¤²ðŀ¤Ń
ðŀ¤¬ ðŀ¤¢ðŀ¤ºðŀ¤®ðŀ¤¤
ðŀ¤¬ ðŀ¤«ðŀ¤¼ðŀ¤«
ðŀ¤¬ ðŀ¤Ńðŀ¤¤
ðŀ¤¬ ðŀ¤Ńðŀ¤²ðŀ¤¢ðŀ¤ºðŀ¤®ðŀ¤¤
ðŀ¤Ī ðŀ¤Ģðŀ¤ļðŀ¤Ģ
ðŀ¤Ī ðŀ¤Įðŀ¤Ĳðŀ¤Ģðŀ¤Ĥðŀ¤ģðŀ¤Į
Ġðŀ¤²ðŀ¤£ ðŀ¤¢ðŀ¤²ðŀ¤ºðŀ¤µ
Ġðŀ¤¬ðŀ¤® ðŀ¤´
Ġðŀ¤¥ðŀ¤® ðŀ¤¥
Ġðŀ¤¥ðŀ¤® ðŀ¤®ðŀ¤²
Ġðŀ¤¥ðŀ¤® ðŀ¤©ðŀ¤¼ðŀ¤®ðŀ¤²ðŀ¥ĭðŀ¤£ðŀ¤Ńðŀ¤ªðŀ¤¢ðŀ¤¤
Ġðŀ¤¥ðŀ¤® ðŀ¤¶ðŀ¤®ðŀ¤¦ðŀ¤«
ðŀ¤¼ðŀ¤Ńðŀ¤² ðŀ¤£ðŀ¤Ń
Ġðŀ¤²ðŀ¤ºðŀ¤¢ðŀ¤¤ ðŀ¤µðŀ¤²ðŀ¤³ðŀ¤«ðŀ¤±ðŀ¤¢ðŀ¤¤
ðŀ¤¢ðŀ¤¦ ðŀ¤¢ðŀ¤¥ðŀ¤¢
Ġðŀ¤¦ ðŀ¤¢ðŀ¤³
Ġðŀ¤¦ ðŀ¤¢ðŀ¤¥
Ġðŀ¤¦ ðŀ¤µðŀ¤¥
Ġðŀ¤¦ ðŀ¤¢ðŀ¤¨
Ġðŀ¤¦ ðŀ¤¢ðŀ¤¶
Ġðŀ¤¦ ðŀ¤µðŀ¤©
Ġðŀ¤¦ ðŀ¤®ðŀ¤ªðŀ¤¼ðŀ¤Ń
Ġðŀ¤Ĭ ðŀ¤ªðŀ¤Ń
Ġðŀ¤Ĭ ðŀ¤®ðŀ¤ª
Ġðŀ¤Ĭ ðŀ¤¢ðŀ¤¼
Ġðŀ¤Ĭ ðŀ¤Ńðŀ¤ª
Ġðŀ¤Ĭ ðŀ¤ĺ
Ġðŀ¤Ĭ ðŀ¤Ńðŀ¤¼ðŀ¤¢
Ġðŀ¤Ĭ ðŀ¤Ģðŀ¤ı
Ġðŀ¤Ĭ ðŀ¤Īðŀ¤Ģðŀ¤Ĳ
Ġðŀ¤Ĭ ðŀ¤¢ðŀ¤§ðŀ¤®
Ġðŀ¤Ĭ ðŀ¤īðŀ¤Īðŀ¤Ĳðŀ¤Ģðŀ¤Ĳðŀ¤ģðŀ¤īðŀ¤ħ
Ġðŀ¤Ĭ ðŀ¤ªðŀ¤¢ðŀ¤²ðŀ¤³
ðŀ¤¨ ðŀ¤²ðŀ¤¢
Ġðŀ¤¼ðŀ¤¢ðŀ¤± ðŀ¤¼ðŀ¤¢ðŀ¤´ðŀ¤²ðŀ¤®
Ġðŀ¤ĸ ðŀ¤¢ðŀ¤¤ðŀ¤Ń
Ġðŀ¤ĸ ðŀ¤Ńðŀ¤§
Ġðŀ¤ĸ ðŀ¤Ģðŀ¤ĳ
Ġðŀ¤ĸ ðŀ¤īðŀ¤ħ
Ġðŀ¤ĸ ðŀ¤¢ðŀ¤¹
Ġðŀ¤ĸ ðŀ¤Ģðŀ¤ĳðŀ¤ĭ
Ġðŀ¤ĸ ðŀ¤¢ðŀ¤¦ðŀ¤Ńðŀ¤´
Ġðŀ¤ĸ ðŀ¤Ģðŀ¤ľ
ðŀ¤ĳ ðŀ¤Ī
ðŀ¤ĳ ðŀ¤Ģðŀ¤Ĥ
ðŀ¤«ðŀ¤± ðŀ¤«
ðŀ¤«ðŀ¤± ðŀ¤¤
ðŀ¤«ðŀ¤± ðŀ¤¼ðŀ¤Ń
ðŀ¤«ðŀ¤± ðŀ¤¶ðŀ¤®
Ġðŀ¥Ĵðŀ¥Ĳ ðŀ¥ĵðŀ¥Ĳ
ðŀ¤µðŀ¤ª ðŀ¤¼ðŀ¤«
Ġðŀ¤±ðŀ¤¢ðŀ¤¯ ðŀ¤£ðŀ¤«
Ġðŀ¤±ðŀ¤¢ðŀ¤¯ ðŀ¤¢ðŀ¤²ðŀ¤®
Ġðŀ¤±ðŀ¤¢ðŀ¤¯ ðŀ¤®ðŀ¤ªðŀ¤Ń
Ġðŀ¤±ðŀ¤¢ðŀ¤¯ ðŀ¤µðŀ¤²ðŀ¥ĭðŀ¤ºðŀ¤¢ðŀ¤¤
Ġðŀ¤±ðŀ¤¢ðŀ¤¯ ðŀ¤Ńðŀ¤ªðŀ¤¢ðŀ¤²ðŀ¤Ń
Ġðŀ¤±ðŀ¤¢ðŀ¤¯ ðŀ¤¢ðŀ¤´ðŀ¤¯ðŀ¤Ń
ðŀ¤£ðŀ¤® ðŀ¤´ðŀ¤¼ðŀ¤¢
ðŀ¤£ðŀ¤µ ðŀ¤¯ðŀ¤«
ðŀ¤£ðŀ¤µ ðŀ¤¦ðŀ¤µðŀ¤²ðŀ¤«
Ġðŀ¤ģ ðŀ¤ĭ
Ġðŀ¤ģ ðŀ¤īðŀ¤Ĳ
Ġðŀ¤ģ ðŀ¤ĭðŀ¤Ĥ
Ġðŀ¤ģ ðŀ¤ĭðŀ¤ĳ
Ġðŀ¤ģ ðŀ¤Įðŀ¤Ĳðŀ¤Ģðŀ¤Ĥ
Ġðŀ¤ģ ðŀ¤®ðŀ¤²ðŀ¤³ðŀ¤Ńðŀ¤²
Ġðŀ¤ī ðŀ¤ĩ
Ġðŀ¤ī ðŀ¤¤ðŀ¤Ńðŀ¤§
ðŀ¤ģ ðŀ¤«
ðŀ¤ģ ðŀ¤µ
ðŀ¤ģ ðŀ¤Īðŀ¤ī
ðŀ¤ģ ðŀ¤īðŀ¤Ĳðŀ¤ĺðŀ¤ĸðŀ¤Ģ
ðŀ¤ģ ðŀ¤Įðŀ¤Ĳðŀ¤Ģðŀ¤Ĥ
ðŀ¤ģ ðŀ¤«ðŀ¤²ðŀ¤¼ðŀ¤¢ðŀ¤¤
Ġðŀ¤¨ ðŀ¤«
Ġðŀ¤¨ ðŀ¤¢ðŀ¤¤
Ġðŀ¤¨ ðŀ¤¢ðŀ¤ª
Ġðŀ¤¨ ðŀ¤Ńðŀ¤¼ðŀ¤¢
Ġðŀ¤¨ ðŀ¤µðŀ¤¯ðŀ¤Ń
Ġðŀ¤¨ ðŀ¤¢ðŀ¤²ðŀ¤³
Ġðŀ¤¨ ðŀ¤¢ðŀ¤´ðŀ¤³ðŀ¤®ðŀ¤´
Ġðŀ¤Ķ ðŀ¤Ńðŀ¤²
Ġðŀ¤Ķ ðŀ¤®ðŀ¤¤
Ġðŀ¤Ķ ðŀ¤µðŀ¤©
Ġðŀ¤Ķ ðŀ¤Ģðŀ¤ĩ
Ġðŀ¤Ķ ðŀ¤Ģðŀ¤ĳðŀ¤ĭ
Ġðŀ¤Ķ ðŀ¤Ńðŀ¤¥ðŀ¤Ń
Ġðŀ¤Ń ðŀ¤·
Ġðŀ¤Ń ðŀ¤»
ðŀ¤¢ðŀ¤²ðŀ¤£ðŀ¤« ðŀ¤¥ðŀ¤¢
Ġðŀ¤· ðŀ¤Ń
Ġðŀ¤· ðŀ¤®ðŀ¤²
Ġðŀ¤· ðŀ¤®ðŀ¤±
Ġðŀ¤· ðŀ¤µðŀ¤©ðŀ¤¤ðŀ¤«
ðŀ¥Ĵ ðŀ¥ĳ
Ġðŀ¤¸ðŀ¤Ń ðŀ¤³ðŀ¤¢
Ġðŀ¤¸ðŀ¤Ń ðŀ¤¼ðŀ¤¢ðŀ¤²
Ġðŀ¤§ðŀ¤® ðŀ¤¼
Ġðŀ¤§ðŀ¤® ðŀ¤±ðŀ¤®ðŀ¤²
ðŀ¤¥ðŀ¤µ ðŀ¤§ðŀ¤®ðŀ¤³ðŀ¤®ðŀ¤ªðŀ¤®
Ġðŀ¤ª ðŀ¤«ðŀ¤ª
Ġðŀ¤²ðŀ¤£ðŀ¤«ðŀ¤ª ðŀ¤¶ðŀ¤Ń
ðŀ¤²ðŀ¤Ń ðŀ¤£ðŀ¤Ń
Ġðŀ¤£ðŀ¤µ ðŀ¤¯
Ġðŀ¤£ðŀ¤µ ðŀ¤³
Ġðŀ¤£ðŀ¤µ ðŀ¤¯ðŀ¤Ńðŀ¤²ðŀ¤Ń
Ġðŀ¤£ðŀ¤µ ðŀ¤¦ðŀ¤µðŀ¤²ðŀ¤«ðŀ¤ªðŀ¤«
ðŀ¥ĭ ðŀ¤£ðŀ¤«
ðŀ¤²ðŀ¤® ðŀ¤ªðŀ¤Ń
ðŀ¤µðŀ¤¤ ðŀ¤¢ðŀ¤ª
Ġðŀ¤ļ ðŀ¤¢ðŀ¤±
Ġðŀ¤ļ ðŀ¤ĭ
Ġðŀ¤ļ ðŀ¤ī
Ġðŀ¤ļ ðŀ¤µðŀ¤¤
Ġðŀ¤ļ ðŀ¤ĭðŀ¤Ĳ
Ġðŀ¤ļ ðŀ¤«ðŀ¤±ðŀ¤®
Ġðŀ¤ļ ðŀ¤Ģðŀ¤ĸðŀ¤Į
ðŀ¤ĺ ðŀ¤µðŀ¤ºðŀ¤®ðŀ¤¤
ðŀ¤ĺ ðŀ¤ĺ
ðŀ¤ĺ ðŀ¤ĭðŀ¤Ĳ
ðŀ¤ĺ ðŀ¤Įðŀ¤Ĳ
ðŀ¤ĺ ðŀ¤ĵðŀ¤ĺðŀ¤Įðŀ¤Ĥ
ðŀ¤¸ ðŀ¤¢ðŀ¤²
ðŀ¤¸ ðŀ¤¢ðŀ¤ªðŀ¤¢
ðŀ¤¸ ðŀ¤¢ðŀ¤¶
ðŀ¤¢ðŀ¤²ðŀ¤Ń ðŀ¤³ðŀ¤«
ðŀ¤ħ ðŀ¤Ģðŀ¤Ĥ
nðŀ¤ĳ ðŀ¤¢ðŀ¤£ðŀ¤Ń
Ġðŀ¤§ðŀ¤µ ðŀ¤©ðŀ¤«
Ġðŀ¤§ðŀ¤µ ðŀ¤±ðŀ¤Ń
Ġðŀ¤±ðŀ¤® ðŀ¤¯ðŀ¤Ń
Ġðŀ¥ĳðŀ¥ ĳðŀ¥
ðŀ¤ĥ ðŀ¤īðŀ¤ģ
ðŀ¤ĥ ðŀ¤Ĳðŀ¤¢
it h
ðŀ¤³ðŀ¤Ń ðŀ¤¤ðŀ¤«
ðŀ¤³ðŀ¤Ń ðŀ¤¼ðŀ¤µðŀ¤ºðŀ¤®ðŀ¤¤
ðŀ¤«ðŀ¤¤ ðŀ¤§ðŀ¤©ðŀ¤«
ðŀ¤¢ðŀ¤¸ ðŀ¤¢ðŀ¤¥
ðŀ¤ļ ðŀ¤µ
ðŀ¤ļ ðŀ¤Ģðŀ¤Ĥ
ðŀ¤ļ ðŀ¤Ģðŀ¤Ļ
ðŀ¤ļ ðŀ¤ĵðŀ¤Ĳðŀ¤Į
ðŀ¤ļ ðŀ¤Ģðŀ¤ļðŀ¤Į
Ġðŀ¤¢ðŀ¤ª ðŀ¤£ðŀ¤«
Ġðŀ¤¢ðŀ¤ª ðŀ¤¢ðŀ¤²ðŀ¤£ðŀ¤«
Ġðŀ¤¢ðŀ¤ª ðŀ¤¼ðŀ¤µðŀ¤²ðŀ¤®
Ġðŀ¤¢ðŀ¤ª ðŀ¤¼ðŀ¤Ńðŀ¤ªðŀ¤Ń
Ġðŀ¤ı ðŀ¤®ðŀ¤²
Ġðŀ¤ı ðŀ¤¢ðŀ¤ª
Ġðŀ¤ı ðŀ¤ī
Ġðŀ¤ı ðŀ¤«ðŀ¤ª
Ġðŀ¤ı ðŀ¤Ńðŀ¤²ðŀ¤£ðŀ¤«
Ġðŀ¤ı ðŀ¤īðŀ¤Ĥ
Ġðŀ¤ı ðŀ¤Ģðŀ¤ĺ
Ġðŀ¤ı ðŀ¤īðŀ¤Īðŀ¤ģðŀ¤ī
Ġðŀ¤ı ðŀ¤Ģðŀ¤į
Ġðŀ¤ı ðŀ¤«ðŀ¤¤ðŀ¤§ðŀ¤©ðŀ¤«
ĠâĢ ¦\
ðŀ¤£ðŀ¤Ńðŀ¤ª ðŀ¤¯ðŀ¤«
ðŀ¤£ðŀ¤Ńðŀ¤ª ðŀ¤²ðŀ¤£ðŀ¤«
ðŀ¤£ðŀ¤Ńðŀ¤ª ðŀ¤ºðŀ¤®ðŀ¤¤
Ġðŀ¤§ðŀ¤¢ðŀ¤¦ ðŀ¤Ńðŀ¤²ðŀ¤Ń
Ġðŀ¤§ðŀ¤¢ðŀ¤¦ ðŀ¤¢ðŀ¤¦ðŀ¤µ
Ġðŀ¤§ðŀ¤¢ðŀ¤¦ ðŀ¤¢ðŀ¤²ðŀ¤£ðŀ¤«ðŀ¤¥ðŀ¤¢
Ġðŀ¤Ĩ ðŀ¤«ðŀ¤£
Ġðŀ¤Ĩ ðŀ¤ĭðŀ¤Ĳ
Ġðŀ¤Ĩ ðŀ¤µðŀ¤¼
Ġðŀ¤Ĩ ðŀ¤Ńðŀ¤²ðŀ¤¢ðŀ¤¤
Ġðŀ¤Ĩ ðŀ¤®ðŀ¤¤ðŀ¤Ń
Ġðŀ¤Ĩ ðŀ¤µðŀ¤¤ðŀ¤¢
Ġðŀ¤Ĩ ðŀ¤Įðŀ¤ļ
Ġðŀ¤Ĩ ðŀ¤®ðŀ¤ªðŀ¤¼
ðŀ¤§ðŀ¤Ń ðŀ¤£
Ġðŀ¤¬ðŀ¤«ðŀ¤ »
ðŀ¤Ħ ðŀ¤«
ðŀ¤Ħ ðŀ¤Ģðŀ¤Ī
ðŀ¤Ħ ðŀ¤īðŀ¤Ĥðŀ¤ī
ðŀ¤Ħ ðŀ¤Īðŀ¤Ģðŀ¤ħðŀ¤ĭðŀ¤Ĥ
ðŀ¤Ńðŀ¤²ðŀ¤Ń ðŀ¤ªðŀ¤«
ðŀ¤Ńðŀ¤²ðŀ¤Ń ðŀ¤ªðŀ¤«ðŀ¤²
Ġðŀ¤¥ðŀ¤Ń ðŀ¤¤ðŀ¤Ńðŀ¤´ðŀ¤¢ðŀ¤ª
ðŀ¤Ģðŀ¤Ĳ ðŀ¤įðŀ¤ī
Ġðŀ¤³ðŀ¤µ ðŀ¤·
Ġðŀ¤³ðŀ¤µ ðŀ¤¼ðŀ¤µ
Ġðŀ¤³ðŀ¤µ ðŀ¤§ðŀ¤«ðŀ¤¤
ðŀ¤Ģðŀ¤Ī ðŀ¤ĵ
ðŀ¤Ģðŀ¤Ī ðŀ¤ĳ
ðŀ¤Ģðŀ¤Ī ðŀ¤ģðŀ¤Į
ðŀ¤Ģðŀ¤Ī ðŀ¤Ķðŀ¤Ģðŀ¤Ĳðŀ¤ļðŀ¤ĭðŀ¤Ĳðŀ¤Ģ
Ġðŀ¤¥ðŀ¤µ ðŀ¤¤ðŀ¤Ń
Ġðŀ¤¥ðŀ¤µ ðŀ¤¼ðŀ¤¢ðŀ¤¤
ðŀ¤ªðŀ¤® ðŀ¤¨ðŀ¤²ðŀ¤¢
ðŀ¤«ðŀ¤´ ðŀ¤¢ðŀ¤¤
ðŀ¤Ńðŀ¤²ðŀ¤® ðŀ¤³ðŀ¤«
Ġðŀ¤ĩ ðŀ¤®
Ġðŀ¤ĩ ðŀ¤Ģðŀ¤ģ
Ġðŀ¤ĩ ðŀ¤«ðŀ¤´ðŀ¤¢
Ġðŀ¤ĩ ðŀ¤īðŀ¤Ĵðŀ¤ģðŀ¤ĭ
Ġðŀ¤ĩ ðŀ¤Ńðŀ¤¯
Ġðŀ¤ĩ ðŀ¤µðŀ¤ªðŀ¤²ðŀ¤Ń
Ġðŀ¤ĩ ðŀ¤¢ðŀ¤¥ðŀ¤¼ðŀ¤µðŀ¤ºðŀ¤®ðŀ¤¤
ðŀ¤Ĵ ðŀ¤ĵ
ðŀ¤Ĵ ðŀ¤Ģðŀ¤ĥ
ðŀ¤Ĵ ðŀ¤Įðŀ¤Ĳ
ðŀ¤Ĵ ðŀ¤®ðŀ¤ªðŀ¤³
Ġðŀ¤¢ðŀ¤² ðŀ¤£ðŀ¤Ńðŀ¤²ðŀ¤®
ðŀ¤µðŀ¤¯ ðŀ¤µðŀ¤ºðŀ¤®ðŀ¤¤
ðŀ¤¥ðŀ¤® ðŀ¤¼ðŀ¤¢
ðŀ¤¥ðŀ¤® ðŀ¤°
Ġðŀ¤Ĥ ðŀ¤®
Ġðŀ¤Ĥ ðŀ¤«ðŀ¤
Ġðŀ¤Ĥ ðŀ¤īðŀ¤Ĵ
Ġðŀ¤Ĥ ðŀ¤¢ðŀ¤ªðŀ¤¢ðŀ¤²ðŀ¤³ðŀ¤®
Ġðŀ¤Ĥ ðŀ¤īðŀ¤Ĵðŀ¤ģðŀ¤ĭ
Ġðŀ¤Ĥ ðŀ¤īðŀ¤ħðŀ¤ģðŀ¤ĭ
Ġðŀ¤Ĥ ðŀ¤¢ðŀ¤¥ðŀ¤¢ðŀ¤ªðŀ¤¢
Ġðŀ¤Ĵ ðŀ¤µðŀ¤¥
Ġðŀ¤Ĵ ðŀ¤Įðŀ¤Ĳ
Ġðŀ¤Ĵ ðŀ¤®ðŀ¤¼
Ġðŀ¤Ĵ ðŀ¤ĵðŀ¤Ĳ
Ġðŀ¤Ĵ ðŀ¤īðŀ¤ı
Ġðŀ¤Ĵ ðŀ¤®ðŀ¤ªðŀ¤³
Ġðŀ¤Ĵ ðŀ¤¢ðŀ¤±ðŀ¤µðŀ¤²ðŀ¤£ðŀ¤«
Ġðŀ¤³ðŀ¤®ðŀ¤² ðŀ¤ºðŀ¤Ń
ðŀ¤±ðŀ¤Ń ðŀ¤¤
Ġðŀ¤´ðŀ¤¢ðŀ¤¤ ðŀ¤¼ðŀ¤¢ðŀ¤¤
Ġðŀ¤¸ðŀ¤«ðŀ¤© ðŀ¤µ
Ġðŀ¤¸ðŀ¤«ðŀ¤© ðŀ¤¼ðŀ¤Ńðŀ¤ªðŀ¤¢
ðŀ¤«ðŀ¤ª ðŀ¤²
ðŀ¤«ðŀ¤ª ðŀ¤º
Ġðŀ¤ĭ ðŀ¤ļ
Ġðŀ¤ĭ ðŀ¤ħðŀ¤ĥðŀ¤Ģ
Ġðŀ¤ħðŀ¤Ń ðŀ¤³
ðŀ¤¢ðŀ¤ªðŀ¤¢ðŀ¤² ðŀ¤¢
Ġðŀ¤Ī ðŀ¤Ģðŀ¤ĥ
Ġðŀ¤Ī ðŀ¤«ðŀ¤¨
Ġðŀ¤Ī ðŀ¤Įðŀ¤Ĳðŀ¤Ģðŀ¤Ĥðŀ¤ģðŀ¤Į
Ġðŀ¤Ī ðŀ¤«ðŀ¤´ðŀ¤¢ðŀ¤¤
Ġðŀ¤Ģðŀ¤¬ ðŀ¤³ðŀ¤®ðŀ¤²
Ġðŀ¤¸ðŀ¤¢ðŀ¤³ ðŀ¤µ
Ġðŀ¤¸ðŀ¤¢ðŀ¤³ ðŀ¤µðŀ¤²ðŀ¥ĭðŀ¤£ðŀ¤«
Ġðŀ¤±ðŀ¤¢ ðŀ¤Ń
Ġðŀ¤¥ðŀ¤¢ðŀ¤± ðŀ¤²ðŀ¤Ń
Ġðŀ¤¥ðŀ¤¢ðŀ¤± ðŀ¤²ðŀ¤£ðŀ¤Ń
Ġðŀ¤į ðŀ¤ĵ
Ġðŀ¤į ðŀ¤īðŀ¤ĥ
Ġðŀ¤¸ðŀ¤µ ðŀ¤¼ðŀ¤Ń
Ġðŀ¤¸ðŀ¤µ ðŀ¤·
Ġðŀ¤Ģðŀ¤¤ ðŀ¤¢ðŀ¤§ðŀ¤¢ðŀ¤²
Ġðŀ¤Ģðŀ¤¤ ðŀ¤¤ðŀ¤¢ðŀ¤¸
Ġðŀ¤Ģðŀ¤¤ ðŀ¤¢ðŀ¤¦ðŀ¤¢ðŀ¤¥ðŀ¤¢
ðŀ¥ĳðŀ¥ ĳ
ðŀ¥ĳðŀ¥ Ļðŀ¥
Ġðŀ¤ķ ðŀ¤Ģ
Ġðŀ¤ķ ðŀ¤¢ðŀ¤¥
Ġðŀ¤ķ ðŀ¤ĵ
Ġðŀ¤ķ ðŀ¤Įðŀ¤Ĥ
Ġðŀ¤ķ ðŀ¤µðŀ¤³
Ġðŀ¤ķ ðŀ¤Ģðŀ¤Ĩ
Ġðŀ¤ķ ðŀ¤¢ðŀ¤³ðŀ¤¢
ðŀ¤µðŀ¤¼ ðŀ¤µðŀ¤¯ðŀ¤®
Ġðŀ¤´ðŀ¤Ń ðŀ¤¢ðŀ¤´
Ġðŀ¤´ðŀ¤Ń ðŀ¤¤ðŀ¤¼ðŀ¤®
Ġðŀ¤´ðŀ¤Ń ðŀ¤¯ðŀ¤¢ðŀ¤²ðŀ¤Ń
Ġðŀ¤±ðŀ¤Ń ðŀ¤µðŀ¤£ðŀ¤«
Ġðŀ¤±ðŀ¤Ń ðŀ¤µðŀ¤¯ðŀ¤®ðŀ¤²
ðŀ¤īðŀ¤Ĳ ðŀ¤ĺðŀ¤Ģðŀ¤Ĥ
ðŀ¤ĸ ðŀ¤Ń
ðŀ¤ĸ ðŀ¤¢ðŀ¤ª
ðŀ¤ĸ ðŀ¤¢ðŀ¤´
ðŀ¤ĸ ðŀ¤Ģðŀ¤Ĳ
Ġðŀ¤µ ðŀ¤¬ðŀ¤Ńðŀ¤²ðŀ¤®
ðŀ¤«ðŀ¤§ ðŀ¤¤ðŀ¤®
Ġðŀ¤£ðŀ¤¢ðŀ¤ª ðŀ¤¼ðŀ¤®
Ġðŀ¤£ðŀ¤¢ðŀ¤ª ðŀ¤¼ðŀ¤Ńðŀ¤²ðŀ¤¢
Ġðŀ¤£ðŀ¤¢ðŀ¤ª ðŀ¤¼ðŀ¤®ðŀ¤ªðŀ¤¢
ðŀ¤Ķ ðŀ¤¢ðŀ¤¥
ðŀ¤Ķ ðŀ¤ĵðŀ¤Ĳ
Ġðŀ¤²ðŀ¤ºðŀ¤µ ðŀ¤¤ðŀ¤Ń
ðŀ¤Ĭ ðŀ¤Į
ðŀ¤Ĭ ðŀ¤¢ðŀ¤ªðŀ¤¢ðŀ¤²
ðŀ¤Ĭ ðŀ¤Ģðŀ¤Ĳðŀ¤Ģ
nðŀ¤Ĳ ðŀ¤¶ðŀ¤µðŀ¤©
Ġðŀ¤¶ðŀ¤¢ðŀ¤²ðŀ¤º ðŀ¤Ńðŀ¤²ðŀ¤Ń
Ġðŀ¤¶ðŀ¤¢ðŀ¤²ðŀ¤º ðŀ¤«ðŀ¤¼ðŀ¤«
Ġðŀ¤¶ðŀ¤¢ðŀ¤²ðŀ¤º ðŀ¤¢ðŀ¤´ðŀ¤²ðŀ¤®
Ġðŀ¤¶ðŀ¤¢ðŀ¤²ðŀ¤º ðŀ¤Ńðŀ¤ªðŀ¤£ðŀ¤«
Ġðŀ¤¶ðŀ¤¢ðŀ¤²ðŀ¤º ðŀ¤µðŀ¤¯ðŀ¤®
Ġðŀ¤¶ðŀ¤¢ðŀ¤²ðŀ¤º ðŀ¤Ńðŀ¤²ðŀ¤ºðŀ¤®ðŀ¤¤
Ġðŀ¤¶ðŀ¤¢ðŀ¤²ðŀ¤º ðŀ¤Ńðŀ¤ªðŀ¤¤ðŀ¤«
ðŀ¤ı ðŀ¤Ģðŀ¤Ĳðŀ¤Ģ
ðŀ¤Ģðŀ¤ĥ ðŀ¤īðŀ¤Īðŀ¤ĭðŀ¤ĳ
ðŀ¤¦ðŀ¤® ðŀ¤¼ðŀ¤®
Ġðŀ¤£ðŀ¤® ðŀ¤Ń
Ġðŀ¤£ðŀ¤® ðŀ¤§ðŀ¤¼ðŀ¤¢ðŀ¤¤
Ġðŀ¤¯ðŀ¤®ðŀ¤² ðŀ¤³ðŀ¤¢
Ġðŀ¤¶ðŀ¤µ ðŀ¤©
Ġðŀ¤©ðŀ¤«ðŀ¤´ ðŀ¤£ðŀ¤«ðŀ¤²
ðŀ¤ĳðŀ¤® ðŀ¤¾ðŀ¤Ńðŀ¤£
ðŀ¤«ðŀ¤¬ ðŀ¤¦ðŀ¤Ńðŀ¤ª
ðŀ¤» ðŀ¤µðŀ¤£ðŀ¤«
ðŀ¤» ðŀ¤Ńðŀ¤ªðŀ¤Ń
ðŀ¤ĩ ðŀ¤¢ðŀ¤´ðŀ¤¼ðŀ¤Ń
ðŀ¤¢ðŀ¤¶ ðŀ¤®
ðŀ¥ĵ ðŀ¥ķ
ðŀ¤¾ ðŀ¤¢
Ġðŀ¤«ðŀ¤² ðŀ¤¯ðŀ¤Ńðŀ¤£ðŀ¤¢
Ġðŀ¤«ðŀ¤² ðŀ¤¯ðŀ¤¢ðŀ¤¥
ðŀ¤¥ðŀ¤Ń ðŀ¤¼ðŀ¤¢
ðŀ¤¥ðŀ¤Ń ðŀ¤¤ðŀ¤Ńðŀ¤´ðŀ¤¢ðŀ¤ª
Ġðŀ¤´ðŀ¤¢ðŀ¤¸ ðŀ¤£ðŀ¤Ń
Ġðŀ¤§ðŀ¤¢ðŀ¤ª ðŀ¤¯ðŀ¤Ń
Ġðŀ¤§ðŀ¤¢ðŀ¤ª ðŀ¤¯ðŀ¤Ńðŀ¤²
ĠØ Ł
ðŀ¤½ ðŀ¤¢ðŀ¤ªðŀ¤¢ðŀ¤²ðŀ¤³ðŀ¤«
ðŁĩ ³
ðŀ¤į ðŀ¤Įðŀ¤Ĥ
Ġðŀ¤ĵ ðŀ¤¤ðŀ¤£
Ġðŀ¤¶ðŀ¤«ðŀ¤´ ðŀ¤«
Ġðŀ¤¶ðŀ¤«ðŀ¤´ ðŀ¤¯ðŀ¤®
ðŀ¤Ńðŀ¤£ ðŀ¤µðŀ¤²ðŀ¤®
ðŀ¤Ńðŀ¤£ ðŀ¤µðŀ¤£ðŀ¤«
Ġðŀ¤¬ðŀ¤«ðŀ¤±ðŀ¤² ðŀ¤£ðŀ¤µ
Ġðŀ¤¬ðŀ¤«ðŀ¤±ðŀ¤² ðŀ¤£ðŀ¤¢
Ġðŀ¤©ðŀ¤¢ðŀ¤¤ ðŀ¤£ðŀ¤µ
Ġðŀ¤ħðŀ¤«ðŀ¤²ðŀ¤«ðŀ¤ºðŀ¤¢ðŀ¤¤ ðŀ¤²ðŀ¤¢
Ġðŀ¤±ðŀ¤¢ðŀ¤´ ðŀ¤Ń
Ġðŀ¤±ðŀ¤¢ðŀ¤´ ðŀ¤²ðŀ¤Ń
Ġðŀ¤±ðŀ¤¢ðŀ¤´ ðŀ¤¤ðŀ¤®
Ġðŀ¤±ðŀ¤¢ðŀ¤´ ðŀ¤ªðŀ¤¢
Ġðŀ¤±ðŀ¤¢ðŀ¤´ ðŀ¤¤ðŀ¤µ
Ġðŀ¤±ðŀ¤¢ðŀ¤´ ðŀ¤¤ðŀ¤®ðŀ¤¼ðŀ¤®
Ġðŀ¤¥ðŀ¤µðŀ¤ª ðŀ¤¼ðŀ¤«
Ġðŀ¤¥ðŀ¤µðŀ¤ª ðŀ¤¼ðŀ¤µðŀ¤£ðŀ¤«
Ġðŀ¤ħðŀ¤« ðŀ¤³ðŀ¤®
Ġðŀ¤ħðŀ¤« ðŀ¤¥ðŀ¤¦
nðŀ¤ĸ ðŀ¤¢
nðŀ¤ĸ ðŀ¤¢ðŀ¤³
nðŀ¤ĸ ðŀ¤¢ðŀ¤¶
nðŀ¤ĸ ðŀ¤¢ðŀ¤²ðŀ¤³ðŀ¤Ń
ðŀ¤Ĩ ðŀ¤ĵ
Ġðŀ¤´ðŀ¤«ðŀ¤± ðŀ¤¼ðŀ¤«
Ġðŀ¤´ðŀ¤«ðŀ¤± ðŀ¤¼ðŀ¤¢ðŀ¤¼ðŀ¤¢
Ġðŀ¤¨ðŀ¤Ńðŀ¤´ ðŀ¤ªðŀ¤®
Ġðŀ¤Ļ ðŀ¤Ģðŀ¤Ĥ
Ġðŀ¤±ðŀ¤Ńðŀ¤² ðŀ¤£ðŀ¤Ńðŀ¤²
Ġðŀ¤±ðŀ¤Ńðŀ¤² ðŀ¤£ðŀ¤¢ðŀ¤²ðŀ¤Ń
Ġðŀ¤±ðŀ¤Ńðŀ¤² ðŀ¤£ðŀ¤«ðŀ¤ªðŀ¤«
Ġðŀ¤±ðŀ¤Ńðŀ¤² ðŀ¤£ðŀ¤µðŀ¤¯ðŀ¤®
Ġðŀ¤±ðŀ¤Ńðŀ¤² ðŀ¤£ðŀ¤Ńðŀ¤ªðŀ¤¼ðŀ¤«
Ġðŀ¤¬ðŀ¤Ńðŀ¤¶ ðŀ¤¢ðŀ¤´
Ġðŀ¤¬ðŀ¤Ńðŀ¤¶ ðŀ¤µðŀ¤ºðŀ¤®ðŀ¤¤
Ġðŀ¤Ķðŀ¤® ðŀ¤ºðŀ¤®ðŀ¤²
Ġðŀ¤¼ðŀ¤µ ðŀ¤°
nðŀ¤ħ ðŀ¤¢ðŀ¤£ðŀ¤Ńðŀ¤¦ðŀ¤¢
Ġðŀ¤©ðŀ¤µðŀ¤ª ðŀ¤¼ðŀ¤Ń
Ġðŀ¤©ðŀ¤µðŀ¤ª ðŀ¤µðŀ¤¯ðŀ¤Ń
Ġðŀ¤©ðŀ¤µðŀ¤ª ðŀ¤µðŀ¤¯ðŀ¤®
Ġðŀ¤©ðŀ¤µðŀ¤ª ðŀ¤¼ðŀ¤µðŀ¤£ðŀ¤«
Ġðŀ¤©ðŀ¤µðŀ¤ª ðŀ¤¼ðŀ¤¢ðŀ¤´
Ġðŀ¤¬ðŀ¤«ðŀ¤±ðŀ¤²ðŀ¤£ðŀ¤® ðŀ¤ªðŀ¤Ń
Ġðŀ¤¤ðŀ¤¢ðŀ¤¼ ðŀ¤µðŀ¤ºðŀ¤®ðŀ¤¤
Ġðŀ¤¤ðŀ¤¢ðŀ¤¼ ðŀ¤¢ðŀ¤²ðŀ¤£ðŀ¤«
Ġðŀ¤¶ðŀ¤¢ðŀ¤© ðŀ¤µ
Ġðŀ¤¶ðŀ¤¢ðŀ¤© ðŀ¤¼ðŀ¤Ń
Ġðŀ¤¶ðŀ¤¢ðŀ¤© ðŀ¤µðŀ¤ºðŀ¤®ðŀ¤¤
ðŀ¤Ģðŀ¤ĳ ðŀ¤Į
Ġðŀ¤¯ðŀ¤Ńðŀ¤¯ ðŀ¤¢ðŀ¤©ðŀ¤Ńðŀ¤ªðŀ¤Ń
ðŀ¤¢ðŀ¤±ðŀ¤® ðŀ¤ºðŀ¤®
Ġt er
Ġt rav
nðŀ¤Ĭ ðŀ¤¢ðŀ¤ªðŀ¤¢ðŀ¤²ðŀ¤§ðŀ¤Ń
Ġðŀ¤ĥðŀ¤® ðŀ¤´
Ġðŀ¤ĥðŀ¤® ðŀ¤°
Ġðŀ¤ĥðŀ¤® ðŀ¤´ðŀ¤®
Ġðŀ¤ĥðŀ¤® ðŀ¤¶ðŀ¤®ðŀ¤¦ðŀ¤«ðŀ¤ªðŀ¤«
Ġðŀ¤ĥðŀ¤® ðŀ¤§ðŀ¤³ðŀ¤µ
ðŀ¥ĺ ðŀ¥ĳ
ðŀ¥ĺ ðŀ¥ĵ
Ġðŀ¤±ðŀ¤¢ðŀ¤ª ðŀ¤¢ðŀ¤´
Ġðŀ¤±ðŀ¤¢ðŀ¤ª ðŀ¤¼ðŀ¤Ńðŀ¤²
Ġðŀ¤±ðŀ¤¢ðŀ¤ª ðŀ¤Ńðŀ¤ªðŀ¤¢
Ġðŀ¤±ðŀ¤¢ðŀ¤ª ðŀ¤±ðŀ¤¢ðŀ¤ªðŀ¤®
Ġðŀ¤¤ðŀ¤®ðŀ¤² ðŀ¤¼ðŀ¤Ńðŀ¤²ðŀ¤Ń
ðŀ¥ĸ ðŀ¥ķ
Ġðŀ¤©ðŀ¤Ń ðŀ¤§ðŀ¤Ń
Ġðŀ¤Ħðŀ¤µ ðŀ¥ĥ
Ġðŀ¤±ðŀ¤µ ðŀ¤¤ðŀ¤Ń
Ġðŀ¤±ðŀ¤µ ðŀ¤ªðŀ¤Ńðŀ¤ªðŀ¤£ðŀ¤«
Ġðŀ¤¦ðŀ¤Ńðŀ¤² ðŀ¤£ðŀ¤«
Ġðŀ¥ķ ðŀ¥Ĵ
Ġðŀ¥ĸ ðŀ¥Ķ
Ġðŀ¥ĸ ðŀ¥Ļ
Ġðŀ¤¸ðŀ¤¢ðŀ¤© ðŀ¤®
Ġðŀ¤¸ðŀ¤¢ðŀ¤© ðŀ¤Ńðŀ¤£ðŀ¤Ń
nðŀ¤Ģ ðŀ¤²
nðŀ¤Ģ ðŀ¤¤ðŀ¤Ń
nðŀ¤Ģ ðŀ¤±ðŀ¤¢
Ã© o
ðŀ¤«ðŀ¤¸ ðŀ¤®ðŀ¤´
nðŀ¤ĥ ðŀ¤¢ðŀ¤³ðŀ¤Ń
Ġðŀ¤ħðŀ¤µ ðŀ¤±ðŀ¤¢
Ġðŀ¤ģðŀ¤µ ðŀ¤¦ðŀ¤µ
Ġðŀ¤ģðŀ¤µ ðŀ¤¦ðŀ¤µðŀ¤²ðŀ¤«
ðŀ¤¢ðŀ¤²ðŀ¤³ ðŀ¤®ðŀ¤ªðŀ¤®
Ġðŀ¤²ðŀ¤¦ ðŀ¤¢ðŀ¤±ðŀ¤³ðŀ¤Ń
Ġðŀ¤¬ðŀ¤« ðŀ¤¤ðŀ¤¢
Ġðŀ¤¬ðŀ¤®ðŀ¤¼ ðŀ¤¢ðŀ¤¼ðŀ¤¢
Ġðŀ¤²ðŀ¤¢ðŀ¤© ðŀ¤¼ðŀ¤Ń
ðŀ¤Ģðŀ¤Ĵ ðŀ¤ļðŀ¤ī
ðŀ¤¼ðŀ¤Ńðŀ¤ª ðŀ¤£ðŀ¤µ
ðŀ¤¼ðŀ¤Ńðŀ¤ª ðŀ¤£ðŀ¤²ðŀ¤£ðŀ¤Ń
Ġðŀ¤£ðŀ¤«ðŀ¤² ðŀ¤¯ðŀ¤Ńðŀ¤ªðŀ¤¢
Ġðŀ¤¶ðŀ¤®ðŀ¤º ðŀ¤²ðŀ¤¢
Ġðŀ¤¶ðŀ¤®ðŀ¤º ðŀ¤¢ðŀ¤ºðŀ¤®ðŀ¤¤
Ġðŀ¥Ķ ðŀ¥Ĺ
Ġðŀ¤Ńðŀ¤± ðŀ¤Ńðŀ¤ªðŀ¤¢
Ġðŀ¤Ńðŀ¤± ðŀ¤¢ðŀ¤´ðŀ¤¯ðŀ¤Ń
Ġðŀ¤½ ðŀ¤¢ðŀ¤³
Ġðŀ¤½ ðŀ¤Ńðŀ¤ª
Ġðŀ¤³ðŀ¤«ðŀ¤§ ðŀ¤µðŀ¤²
Ġðŀ¤¥ðŀ¤¢ðŀ¤´ ðŀ¤£ðŀ¤«
Ġðŀ¤§ðŀ¤Ńðŀ¤² ðŀ¤¼ðŀ¤Ńðŀ¤²
re n
Ġðŀ¤¼ðŀ¤®ðŀ¤½ ðŀ¤µðŀ¤ºðŀ¤®ðŀ¤¤
Ġðŀ¤¼ðŀ¤®ðŀ¤½ ðŀ¤µðŀ¤²ðŀ¤®
Ġðŀ¤¼ðŀ¤®ðŀ¤½ ðŀ¤¢ðŀ¤²ðŀ¤¢
Ġðŀ¤¼ðŀ¤®ðŀ¤½ ðŀ¤¢ðŀ¤²ðŀ¤¢ðŀ¤²ðŀ¤®
Ġðŀ¤±ðŀ¤«ðŀ¤¤ ðŀ¤®
Ġðŀ¤±ðŀ¤«ðŀ¤¤ ðŀ¤§
Ġðŀ¤¤ðŀ¤® ðŀ¤Ńðŀ¤²ðŀ¤ºðŀ¤®ðŀ¤¤
nðŀ¤Ĵ ðŀ¤¢ðŀ¤¤
Ġðŀ¤§ðŀ¤Ńðŀ¤²ðŀ¤· ðŀ¤µðŀ¤£ðŀ¤«
Ġðŀ¤§ðŀ¤Ńðŀ¤²ðŀ¤· ðŀ¤¢ðŀ¤²ðŀ¤Ń
Ġðŀ¤§ðŀ¤Ńðŀ¤²ðŀ¤· ðŀ¤µðŀ¤¯ðŀ¤®
ĠðŁĩ ¦
ĠðŁĩ ©
ĠðŁĩ ³
ĠðŁĩ º
Ġðŀ¤ļðŀ¤µ ðŀ¤¦ðŀ¤¢
Ġðŀ¤ļðŀ¤µ ðŀ¤±ðŀ¤Ńðŀ¤¼ðŀ¤«ðŀ¤ª
Ġðŀ¤¢ðŀ¤£ðŀ¤® ðŀ¤¼ðŀ¤®
ðŀ¤¼ðŀ¤®ðŀ¤ª ðŀ¤¯ðŀ¤Ń
Ġðŀ¤²ðŀ¤¢ðŀ¤² ðŀ¤¢ðŀ¤´
Ġðŀ¤²ðŀ¤¢ðŀ¤² ðŀ¤µðŀ¤£ðŀ¤«
Ġðŀ¤¼ðŀ¤µðŀ¤¥ðŀ¤¦ ðŀ¤«
Ġðŀ¥Ĺ ðŀ¥ĳ
Ġðŀ¥Ĺ ðŀ¥ĵ
Ġp os
Ġðŀ¤±ðŀ¤µðŀ¤ª ðŀ¤²ðŀ¤Ń
Ġðŀ¤±ðŀ¤µðŀ¤ª ðŀ¤¼ðŀ¤µðŀ¤£ðŀ¤«
Ġðŀ¤¦ðŀ¤® ðŀ¤³
Ġðŀ¤¦ðŀ¤® ðŀ¤¯ðŀ¤«
Ġðŀ¤ªðŀ¤«ðŀ¤¬ ðŀ¤¦ðŀ¤Ń
Ġðŀ¤´ðŀ¤¢ðŀ¤¤ðŀ¤¼ðŀ¤Ń ðŀ¤ªðŀ¤Ń
at iv
Ġðŀ¤±ðŀ¤µðŀ¤¤ ðŀ¤µðŀ¤²ðŀ¤®
Ġðŀ¤¶ðŀ¤Ńðŀ¤¦ ðŀ¤Ńðŀ¤²ðŀ¤«
Ġðŀ¤Ĳðŀ¤Į ðŀ¤ģ
ðŀ¤²ðŀ¤¢ðŀ¤´ ðŀ¤¢ðŀ¤©ðŀ¤µðŀ¤ªðŀ¤µ
ðŀ¤¢ðŀ¤½ ðŀ¤¢ðŀ¤¤
Ġðŀ¤¸ðŀ¤¢ðŀ¤± ðŀ¤³
Ġðŀ¤¸ðŀ¤¢ðŀ¤± ðŀ¤²ðŀ¤Ń
Ġðŀ¤¸ðŀ¤¢ðŀ¤± ðŀ¤ªðŀ¤¢
ĠA dlam
ĠA nd
Ġa u
Ġðŀ¤¬ðŀ¤«ðŀ¤± ðŀ¤²ðŀ¤Ńðŀ¤¼ðŀ¤«
Ġðŀ¤£ðŀ¤¢ðŀ¤¯ ðŀ¤¢ðŀ¤¼ðŀ¤¢
Ġðŀ¤£ðŀ¤¢ðŀ¤¯ ðŀ¤Ńðŀ¤ªðŀ¤¢
Ġðŀ¤Ģðŀ¤Ĥ ðŀ¤ĭ
Ġðŀ¤Ĳðŀ¤ĺ ðŀ¤¢ðŀ¤¤ðŀ¤µðŀ¤²ðŀ¤³ðŀ¤«ðŀ¤±ðŀ¤¢ðŀ¤¤
Ġðŀ¤Ĳðŀ¤ĺ ðŀ¤¢ðŀ¤´ðŀ¤µ
ðŀ¤¼ðŀ¤¢ðŀ¤² ðŀ¤³ðŀ¤«
Ġðŀ¤¼ðŀ¤«ðŀ¤² ðŀ¤¼ðŀ¤Ńðŀ¤²
Ġðŀ¤Ģðŀ¤¦ ðŀ¤£ðŀ¤¢ðŀ¤¤
Ġðŀ¤Ģðŀ¤¦ ðŀ¤¢ðŀ¤¦ðŀ¤¢
Ġðŀ¤Ĳðŀ¤¦ ðŀ¤¢ðŀ¤ªðŀ¤¶ðŀ¤¢
Ġðŀ¤ĳðŀ¤Įðŀ¤Ĳ ðŀ¤Į
Ġðŀ¤ĳðŀ¤Įðŀ¤Ĳ ðŀ¤ĵ
Ġðŀ¥ĺ ðŀ¥Ĳ
Ġðŀ¥ĺ ðŀ¥Ĺ
Ġðŀ¥ĺ ðŀ¥ĸ
Ġðŀ¥ĺ ðŀ¥Ļ
nðŀ¤į ðŀ¤«
nðŀ¤į ðŀ¤«ðŀ¤²ðŀ¤ºðŀ¤¢ðŀ¤¤
Ġðŀ¤Ĳðŀ¤¶ ðŀ¤¢
Ġðŀ¤Ĳðŀ¤¶ ðŀ¤¢ðŀ¤´
nðŀ¤Ħ ðŀ¤ª
Ġðŀ¤ħðŀ¤Į ðŀ¤Ī
Ġðŀ¤ħðŀ¤Į ðŀ¤ĳ
ðŀ¤Ļ ðŀ¤ĭ
Ġðŀ¤¸ðŀ¤¢ðŀ¤¯ ðŀ¤µðŀ¤²ðŀ¤®
Ġðŀ¤¸ðŀ¤¢ðŀ¤¯ ðŀ¤µðŀ¤£ðŀ¤«
Ġðŀ¤¸ðŀ¤¢ðŀ¤¯ ðŀ¤¢ðŀ¤¼ðŀ¤¢
Ġðŀ¥Ĳ ðŀ¥Ĳðŀ¥ĳ
ðŀ¤ĭðŀ¤ħ ðŀ¤ĥðŀ¤Ģ
ðŀ¤ľ ðŀ¤ĭðŀ¤ķ
Ġðŀ¤³ðŀ¤¢ðŀ¤´ ðŀ¤ªðŀ¤«
Ġðŀ¤¸ðŀ¤«ðŀ¤² ðŀ¤£
Ġðŀ¤¸ðŀ¤«ðŀ¤² ðŀ¤¢ðŀ¤²
Ġðŀ¤¸ðŀ¤«ðŀ¤² ðŀ¤®ðŀ¤ªðŀ¤£ðŀ¤«
ðŀ¤ĭðŀ¤Ĥ ðŀ¤ĭðŀ¤Ĵ
Ġðŀ¤»ðŀ¤¢ðŀ¤± ðŀ¤©ðŀ¤«
Ġðŀ¤»ðŀ¤¢ðŀ¤± ðŀ¤¯ðŀ¤®
Ġðŀ¤»ðŀ¤¢ðŀ¤± ðŀ¤²ðŀ¤£ðŀ¤¢
Ġðŀ¤»ðŀ¤¢ðŀ¤± ðŀ¤¤ðŀ¤Ńðŀ¤²ðŀ¤®
Ġðŀ¤©ðŀ¤¢ðŀ¤²ðŀ¤º ðŀ¤¢ðŀ¤²ðŀ¤Ń
Ġðŀ¤Īðŀ¤µ ðŀ¤§ðŀ¤³ðŀ¤Ń
ðŀ¤ªðŀ¤¢ðŀ¤² ðŀ¤ºðŀ¤®ðŀ¤¤
Ġðŀ¤Ģðŀ¤´ ðŀ¤µ
Ġðŀ¤ĺðŀ¤® ðŀ¤¦ðŀ¤Ńðŀ¤²ðŀ¤¢
Ġðŀ¤´ðŀ¤¢ðŀ¤¤ðŀ¤¼ðŀ¤Ńðŀ¤² ðŀ¤Ńðŀ¤ªðŀ¤Ń
Ġðŀ¤¤ðŀ¤µðŀ¤¥ðŀ¤¦ ðŀ¤¢ðŀ¤´
Ġðŀ¤¤ðŀ¤µðŀ¤¥ðŀ¤¦ ðŀ¤Ńðŀ¤²ðŀ¤¢
Ġðŀ¤¤ðŀ¤µðŀ¤¥ðŀ¤¦ ðŀ¤Ńðŀ¤²ðŀ¤®
en ce
Ġðŀ¤²ðŀ¤«ðŀ¤± ðŀ¤«
Ġðŀ¤²ðŀ¤«ðŀ¤± ðŀ¤®ðŀ¤ªðŀ¤Ń
Ġðŀ¤¸ðŀ¤µðŀ¤¥ðŀ¤¨ ðŀ¤®ðŀ¤²ðŀ¥ĭðŀ¤£ðŀ¤Ńðŀ¤ªðŀ¤Ń
Ġðŀ¤²ðŀ¤Ń ðŀ¤©
ĠU FD
ĠU RD
ĠU DD
Ġðŀ¤£ðŀ¤«ðŀ¤¬ ðŀ¤¼ðŀ¤«ðŀ¤ª
Ġðŀ¤¢ðŀ¤¤ ðŀ¤¸ðŀ¤¢
ðŀ¤ļðŀ¤ī ðŀ¤Ĩ
Ġðŀ¤Ĳðŀ¤£ðŀ¤«ðŀ¤² ðŀ¤§ðŀ¤¢ðŀ¤´
Ġðŀ¤¼ðŀ¤¢ðŀ¤¥ðŀ¤¨ ðŀ¤µðŀ¤£ðŀ¤«
Ġðŀ¤¼ðŀ¤¢ðŀ¤¥ðŀ¤¨ ðŀ¤µðŀ¤©ðŀ¤«
ðŀ¤Ł ðŀ¤Ģðŀ¤Ĳðŀ¤ĭðŀ¤Ĵðŀ¤Ģ
Ġðŀ¤ľ ðŀ¤«ðŀ¤²
Ġðŀ¤Ģðŀ¤ª ðŀ¤£ðŀ¤Ń
Ġðŀ¤Ģðŀ¤ª ðŀ¤£ðŀ¤µ
Ġðŀ¤Ł ðŀ¤«
Ġðŀ¤Ģðŀ¤Ī ðŀ¤ļðŀ¤ĭ
Ġðŀ¤¬ðŀ¤®ðŀ¤± ðŀ¤¼ðŀ¤¢
Ġðŀ¤¬ðŀ¤®ðŀ¤± ðŀ¤¼ðŀ¤®ðŀ¤ªðŀ¤Ń
Ġðŀ¤±ðŀ¤¢ðŀ¤´ðŀ¤¤ðŀ¤Ń ðŀ¤¼ðŀ¤¢
Ġðŀ¤±ðŀ¤¢ðŀ¤´ðŀ¤¤ðŀ¤Ń ðŀ¤¼ðŀ¤¢ðŀ¤¤
Ġðŀ¤±ðŀ¤¢ðŀ¤´ðŀ¤¤ðŀ¤Ń ðŀ¤¼ðŀ¤µðŀ¤£ðŀ¤«
ðŀ¤§ðŀ¤Ńðŀ¤² ðŀ¤«ðŀ¤²
Ġðŀ¤¢ðŀ¤²ðŀ¤£ðŀ¤Ń ðŀ¤¼ðŀ¤Ń
Ġðŀ¤²ðŀ¤¶ðŀ¤® ðŀ¤¬ðŀ¤®
Ġðŀ¤¥ðŀ¤¢ðŀ¤ª ðŀ¤µðŀ¤ºðŀ¤®ðŀ¤¤
Ġðŀ¤¥ðŀ¤¢ðŀ¤ª ðŀ¤²ðŀ¤®
Ġðŀ¤¥ðŀ¤¢ðŀ¤ª ðŀ¤µðŀ¤©ðŀ¤«
Ġðŀ¤¥ðŀ¤¢ðŀ¤ª ðŀ¤ºðŀ¤¢
Ġðŀ¤¤ðŀ¤Ń ðŀ¤»ðŀ¤®
ðŀ¤ĵðŀ¤ĥ ðŀ¤Ģðŀ¤Īðŀ¤ĵ
Ġðŀ¥ĳðŀ¥Ļðŀ¥ĺ ðŀ¥ĵ
ĠT ranslate
Ġðŀ¤¡ ðŀ¤«ðŀ¤ªðŀ¤Ń
Ġðŀ¤¬ðŀ¤Ńðŀ¤ª ðŀ¤¼ðŀ¤µðŀ¤ºðŀ¤®ðŀ¤¤
Ġðŀ¤¬ðŀ¤Ńðŀ¤ª ðŀ¤¼ðŀ¤Ńðŀ¤ªðŀ¤£ðŀ¤²ðŀ¤£ðŀ¤Ń
Ġðŀ¤©ðŀ¤¢ðŀ¤£ðŀ¤Ń ðŀ¤³ðŀ¤«
Ġðŀ¤Ģðŀ¤¦ðŀ¤£ðŀ¤µ ðŀ¤¤ðŀ¤¢
Ġðŀ¤§ðŀ¤¢ðŀ¤¯ ðŀ¤¢
Ġðŀ¤§ðŀ¤¢ðŀ¤¯ ðŀ¤µðŀ¤²ðŀ¤®
Ġðŀ¤¶ðŀ¤¢ðŀ¤¥ ðŀ¤£ðŀ¤Ń
Ġðŀ¤©ðŀ¤¢ðŀ¤£ ðŀ¤¢ðŀ¤ºðŀ¤®ðŀ¤¤
Ġðŀ¤¸ðŀ¤Ńðŀ¤± ðŀ¤µðŀ¤£ðŀ¤«
Ġðŀ¤ªðŀ¤®ðŀ¤² ðŀ¤£ðŀ¤¢
Ġðŀ¤ªðŀ¤®ðŀ¤² ðŀ¤£ðŀ¤Ńðŀ¤²ðŀ¤®
Ġðŀ¤¤ðŀ¤¢ðŀ¤²ðŀ¤£ðŀ¤Ń ðŀ¤¼ðŀ¤¢
ðĿĻ ¢
ðĿĻ ĺðĿĻ
Ġðŀ¤Ĺ ðŀ¤¢
Ġðŀ¤Ĺ ðŀ¤ĭðŀ¤Ī
Ġðŀ¤´ðŀ¤¢ðŀ¤² ðŀ¤µðŀ¤£ðŀ¤«
Ġðŀ¤´ðŀ¤¢ðŀ¤² ðŀ¤ºðŀ¤®
Ġðŀ¤´ðŀ¤¢ðŀ¤² ðŀ¤¢ðŀ¤²ðŀ¤Ń
Ġðŀ¤ĥðŀ¤¢ðŀ¤² ðŀ¤¶ðŀ¤¢
Ġðŀ¤ĥðŀ¤¢ðŀ¤² ðŀ¤Ńðŀ¤²ðŀ¤³ðŀ¤¢
Ġðŀ¤ĥðŀ¤¢ðŀ¤² ðŀ¤£ðŀ¤Ńðŀ¤²ðŀ¤³ðŀ¤®
Ġðŀ¤¢ðŀ¤²ðŀ¤£ðŀ¤Ńðŀ¤² ðŀ¤¢ðŀ¤´
Ġðŀ¤¢ðŀ¤²ðŀ¤£ðŀ¤Ńðŀ¤² ðŀ¤¼ðŀ¤Ńðŀ¤²ðŀ¤Ń
Ġm o
Ġðŀ¤ģðŀ¤«ðŀ¤² ðŀ¤Ń
Ġðŀ¤ģðŀ¤«ðŀ¤² ðŀ¤Ńðŀ¤§
Ġðŀ¤¸ðŀ¤«ðŀ¤±ðŀ¤¼ðŀ¤Ń ðŀ¤¼ðŀ¤Ń
Ġðŀ¤¸ðŀ¤«ðŀ¤±ðŀ¤¼ðŀ¤Ń ðŀ¤¼ðŀ¤®
Ġðŀ¤¸ðŀ¤«ðŀ¤ª ðŀ¤¼ðŀ¤®
Ġðŀ¤¤ðŀ¤¢ðŀ¤± ðŀ¤¯ðŀ¤«
nðŀ¤Ĥ ðŀ¤«ðŀ¤´ðŀ¤¯ðŀ¤«
ðŀ¤§ðŀ¤¢ðŀ¤² ðŀ¤£ðŀ¤¢ðŀ¤ªðŀ¤¥ðŀ¤¢
Ġðŀ¤ºðŀ¤¢ðŀ¤´ ðŀ¤²ðŀ¤µðŀ¤²ðŀ¤®
Ġðŀ¤ºðŀ¤¢ðŀ¤´ ðŀ¤²ðŀ¤µðŀ¤¯ðŀ¤®
Ġðŀ¤ºðŀ¤¢ðŀ¤´ ðŀ¤²ðŀ¤¢ðŀ¤²ðŀ¤¼ðŀ¤¢
Ġðŀ¤įðŀ¤īðŀ¤Ĳ ðŀ¤įðŀ¤ī
ab le
Ġðŀ¤¸ðŀ¤¢ðŀ¤¦ ðŀ¤£ðŀ¤«
Ġðŀ¤¦ðŀ¤¢ðŀ¤ª ðŀ¤¥ðŀ¤«
Ġðŀ¤½ðŀ¤¢ðŀ¤¤ ðŀ¤¯ðŀ¤Ńðŀ¤²ðŀ¤£ðŀ¤«
Ġðŀ¤¤ðŀ¤µðŀ¤¥ ðŀ¤¦ðŀ¤®
Ġðŀ¥ĳðŀ¥Ļ ðŀ¥Ĵðŀ¥ĸ
Ġw ill
Ġw ith
Ġðŀ¤¸ðŀ¤«ðŀ¤¦ ðŀ¤¤ðŀ¤«
Ġðŀ¤¸ðŀ¤«ðŀ¤¦ ðŀ¤¤ðŀ¤®
Ġðŀ¤©ðŀ¤¢ðŀ¤£ðŀ¤²ðŀ¤Ń ðŀ¤¼ðŀ¤Ń
Ġc i
Ġf ro
Ġðŀ¤²ðŀ¤«ðŀ¤±ðŀ¤² ðŀ¤¢ðŀ¤²ðŀ¤ºðŀ¤®ðŀ¤¤
Ġðŀ¤´ðŀ¤µðŀ¤ª ðŀ¤²ðŀ¤Ń
Ġðŀ¤´ðŀ¤µðŀ¤ª ðŀ¤¥ðŀ¤Ń
Ġðŀ¤³ðŀ¤®ðŀ¤´ ðŀ¤¯ðŀ¤®ðŀ¤¤
Ġðŀ¤ºðŀ¤«ðŀ¤²ðŀ¤£ðŀ¤Ń ðŀ¤±ðŀ¤¢ðŀ¤¤
Ġðŀ¤Ĭðŀ¤ĭ ðŀ¤Ī
Ġðŀ¤¼ðŀ¤¢ðŀ¤±ðŀ¤£ðŀ¤« ðŀ¤ºðŀ¤®ðŀ¤¤
Ġðŀ¤©ðŀ¤¢ðŀ¤¥ ðŀ¤¼ðŀ¤¢
ðŀ¤ħðŀ¤Į ðŀ¤ĩ
Ġðŀ¤Ĵðŀ¤µ ðŀ¤¾ðŀ¤«ðŀ¤²
Ġðŀ¤¸ðŀ¤µðŀ¤¥ ðŀ¤¼ðŀ¤¢ðŀ¤ºðŀ¤®ðŀ¤¤
Ġðŀ¤±ðŀ¤«ðŀ¤ª ðŀ¤¤ðŀ¤«
ðŀ¤¦ðŀ¤« ðŀ¤ªðŀ¤Ńðŀ¤´ðŀ¤¢
ðŀ¤Ģðŀ¤ĸ ðŀ¤ĵ
nðŀ¤ģ ðŀ¤«ðŀ¤²
nðŀ¤ģ ðŀ¤īðŀ¤Ĳðŀ¤ĺðŀ¤ĸðŀ¤Ģ
id ent
id Ã©o
Ġðŀ¤»ðŀ¤¢ðŀ¤¥ ðŀ¤¯ðŀ¤Ń
Ġðŀ¤»ðŀ¤¢ðŀ¤¥ ðŀ¤²ðŀ¤¢
Ġðŀ¤Ħðŀ¤¢ðŀ¤¥ ðŀ¤¦ðŀ¤¢
Ġðŀ¤ģðŀ¤Ń ðŀ¤£ðŀ¤Ńðŀ¤´ðŀ¤«
Ġðŀ¤¸ðŀ¤µðŀ¤© ðŀ¤Ńðŀ¤²ðŀ¥ĭðŀ¤£ðŀ¤¢
Ġðŀ¤©ðŀ¤«ðŀ¤´ðŀ¤£ ðŀ¤¢ðŀ¤ºðŀ¤®ðŀ¤¤
Ġðŀ¤¢ðŀ¤£ðŀ¤µðŀ¤²ðŀ¤¢ðŀ¤´ ðŀ¤³ðŀ¤®ðŀ¤±ðŀ¤¢ðŀ¤¤
Ġðŀ¤³ðŀ¤¢ðŀ¤¬ ðŀ¤²ðŀ¤ºðŀ¤¢ðŀ¤¤
Ġðŀ¤ħðŀ¤ī ðŀ¤Ĩ
Ġðŀ¤ĥðŀ¤¢ðŀ¤´ ðŀ¤³
âĢ¦ âĢĿ\
Ġðŀ¥ĳðŀ¥Ļðŀ¥Ļ ðŀ¥Ĵ
Ġðŀ¤§ðŀ¤Ńðŀ¤²ðŀ¤·ðŀ¤Ń ðŀ¤£ðŀ¤Ń
Ġre g
ðŀ¤¯ðŀ¤¢ðŀ¤² ðŀ¤«ðŀ¤²
Ġðŀ¤´ðŀ¤Ńðŀ¤´ ðŀ¤«
Ġðŀ¤Ģðŀ¤£ ðŀ¤µðŀ¤²ðŀ¤¢
Ġðŀ¤»ðŀ¤«ðŀ¤¥ ðŀ¤¼ðŀ¤Ńðŀ¤²ðŀ¤¼ðŀ¤«
ðŀ¤ĵðŀ¤ı ðŀ¤ļðŀ¤ī
Ġðŀ¤ĸðŀ¤Ń ðŀ¤±ðŀ¤®
ðŀ¤Ĥðŀ¤ĭ ðŀ¤ħðŀ¤ĭ
Ġðŀ¤¶ðŀ¤®ðŀ¤ºðŀ¤²ðŀ¤Ń ðŀ¤¼ðŀ¤¢
Ġðŀ¤¶ðŀ¤®ðŀ¤ºðŀ¤²ðŀ¤Ń ðŀ¤¼ðŀ¤«
ðŀ¥Ĭ .
ðŀ¥Ĭ ðŀ¥ħ
ðŀ¤Ńðŀ¤²ðŀ¤º ðŀ¤¼ðŀ¤®ðŀ¤²
ðŀ¤ªðŀ¤«ðŀ¤² ðŀ¤³ðŀ¤«ðŀ¤±ðŀ¤®ðŀ¤¤
Ġðŀ¤¬ðŀ¤Ńðŀ¤© ðŀ¤µðŀ¤²ðŀ¤®
Ġðŀ¤Ĭðŀ¤Į ðŀ¤Ĭðŀ¤Ģðŀ¤Ĳðŀ¤Ģ
Ġðŀ¤ªðŀ¤«ðŀ¤² ðŀ¤£ðŀ¤µðŀ¤²ðŀ¤®
ation al
Ġðŀ¤ĳðŀ¤®ðŀ¤¼ðŀ¤£ðŀ¤Ńðŀ¤¾ðŀ¤¢ðŀ¤ª ðŀ¤²ðŀ¤¢
Ġðŀ¥Ļ ðŀ¥ĳ
ðŀ¤©ðŀ¤² ðŀ¤¢ðŀ¤¼ðŀ¤¢
ðŀ¤©ðŀ¤² ðŀ¤¢ðŀ¤²ðŀ¤¢
ðŀ¤©ðŀ¤² ðŀ¤¢ðŀ¤´ðŀ¤²ðŀ¤®
Ġðŀ¥ĳðŀ¥Ļðŀ¥ķ ðŀ¥Ĺ
Ġðŀ¤¼ðŀ¤Ńðŀ¤²ðŀ¤¼ðŀ¤µ ðŀ¤£ðŀ¤µðŀ¤ºðŀ¤®ðŀ¤¤
Ġðŀ¤¢ðŀ¤£ðŀ¤µðŀ¤²ðŀ¤¢ðŀ¤´ðŀ¤¢ðŀ¤²ðŀ¤³ðŀ¤® ðŀ¤±ðŀ¤¢ðŀ¤¤
ðŀ¤¡ ðŀ¤Ģðŀ¤ĥðŀ¤Ħðŀ¤ĭðŀ¤ĳ
Ġðŀ¤³ðŀ¤¢ðŀ¤± ðŀ¤ªðŀ¤¢ðŀ¤¤
ðŀ¤³ðŀ¤®ðŀ¤¤ ðŀ¤®ðŀ¤²ðŀ¤«ðŀ¤¤
Ġðŀ¤īðŀ¤ĳ ðŀ¤ĵðŀ¤ıðŀ¤ļðŀ¤ī
ðŀ¤ĩðŀ¤ĭ ðŀ¤ļðŀ¤ĭ
UN ES
Ġðŀ¤ģðŀ¤Į ðŀ¤Ĵðŀ¤ħ
Ġðŀ¤Įðŀ¤§ ðŀ¤Ńðŀ¤¥ðŀ¤«ðŀ¤²
Ġðŀ¤¢ðŀ¤²ðŀ¤£ ðŀ¤¢ðŀ¤²ðŀ¤®
ro id
Ġðŀ¤¥ðŀ¤«ðŀ¤¸ ðŀ¤Ń
Ġðŀ¤¥ðŀ¤«ðŀ¤¸ ðŀ¤µðŀ¤ºðŀ¤®ðŀ¤¤
ðŀ¤©ðŀ¤²ðŀ¤Ń ðŀ¤¼ðŀ¤¢
ðŀ¤©ðŀ¤¼ðŀ¤®ðŀ¤² ðŀ¤£ðŀ¤Ńðŀ¤ªðŀ¤¢ðŀ¤¤
Ġðŀ¤ĥðŀ¤¢ðŀ¤¤ ðŀ¤Ńðŀ¤²ðŀ¤¢
Ġðŀ¤ĥðŀ¤¢ðŀ¤¸ ðŀ¤¢ðŀ¤¥ðŀ¤¢ðŀ¤²
ðŀ¤ıðŀ¤Ģðŀ¤ļ ðŀ¤Ģðŀ¤Īðŀ¤Ģ
ðŀ¤¥ðŀ¤Ńðŀ¤¤ðŀ¤Ńðŀ¤´ðŀ¤®ðŀ¤² ðŀ¤¶ðŀ¤Ń
Ġðŀ¤§ðŀ¤«ðŀ¤¥ðŀ¤¦ ðŀ¤Ńðŀ¤²ðŀ¤¢
ĠAfri can
Ġv ers
Ġv ide
Ġv idÃ©o
ðŀ¤¥ðŀ¤Ńðŀ¤²ðŀ¤® ðŀ¤³ðŀ¤«
Ġðŀ¤«ðŀ¤¤ ðŀ¤¼ðŀ¤¢ðŀ¤ºðŀ¤®ðŀ¤¤
Ġðŀ¤±ðŀ¤«ðŀ¤² ðŀ¤¶
ðŀ¤µðŀ¤²ðŀ¤Ń ðŀ¤¯ðŀ¤¢
Ġðŀ¤§ðŀ¤®ðŀ¤² ðŀ¤³ðŀ¤®
Ġðŀ¤ĳðŀ¤¢ðŀ¤¤ ðŀ¤¢ðŀ¤¤ðŀ¤¯ðŀ¤Ń
Ġðŀ¤¢ðŀ¤¬ ðŀ¤ªðŀ¤Ńðŀ¤³ðŀ¤¢
Ġðŀ¤Ģðŀ¤² ðŀ¤¼ðŀ¤µðŀ¤©ðŀ¤«
Ġðŀ¤ĥðŀ¤¢ðŀ¤ª ðŀ¤³
Ġðŀ¤Ĳðŀ¤ī ðŀ¤ļðŀ¤Ģðŀ¤Ļ
Ġðŀ¤¸ðŀ¤¢ðŀ¤±ðŀ¤ª ðŀ¤®ðŀ¤²
Ġðŀ¤¸ðŀ¤¢ðŀ¤±ðŀ¤ª ðŀ¤µðŀ¤²ðŀ¤®
Ġðŀ¤½ðŀ¤Ńðŀ¤» ðŀ¤µðŀ¤£ðŀ¤«
ðŀ¤ªðŀ¤² ðŀ¤¢ðŀ¤¤
ðŀ¤ªðŀ¤² ðŀ¤¢ðŀ¤¼ðŀ¤¢
ðŀ¤ªðŀ¤² ðŀ¤£ðŀ¤¢ðŀ¤²
ðŀ¤¤ðŀ¤Ńðŀ¤²ðŀ¤® ðŀ¤´ðŀ¤Ń
Ġðŀ¤§ðŀ¤«ðŀ¤²ðŀ¤£ðŀ¤Ń ðŀ¤¼ðŀ¤®
Ġðŀ¤ĳðŀ¤µðŀ¤² ðŀ¤£ðŀ¤¢
ðŀ¤ĭðŀ¤Ī ðŀ¤ģðŀ¤ĵ
Ġðŀ¤ºðŀ¤¢ðŀ¤§ ðŀ¤µðŀ¤£ðŀ¤«
Ġðŀ¤ºðŀ¤¢ðŀ¤§ ðŀ¤Ńðŀ¤ªðŀ¤¢
Ġðŀ¤¦ðŀ¤¢ðŀ¤¥ðŀ¤¦ ðŀ¤¢ðŀ¤²
Ġðŀ¤¦ðŀ¤¢ðŀ¤¥ðŀ¤¦ ðŀ¤¢ðŀ¤²ðŀ¤Ń
ch e
ch er
ĠB BC
ĠR HDP
ðŀ¥ħ: "
Ġðŀ¤¤ðŀ¤¢ðŀ¤© ðŀ¤Ń
Ġðŀ¤¤ðŀ¤¢ðŀ¤© ðŀ¤µðŀ¤²
Ġðŀ¤¼ðŀ¤µðŀ¤¤ ðŀ¤¼ðŀ¤¢
Ġðŀ¤¼ðŀ¤µðŀ¤¤ ðŀ¤¼ðŀ¤µðŀ¤ºðŀ¤®ðŀ¤¤
Ġðŀ¤¼ðŀ¤µðŀ¤¤ ðŀ¤©ðŀ¤«ðŀ¤ªðŀ¤«
ðŀ¤§ðŀ¤Ńðŀ¤¥ ðŀ¤µ
ðŀ¤©ðŀ¤¼ ðŀ¤®ðŀ¤²ðŀ¥ĭðŀ¤£ðŀ¤Ńðŀ¤ªðŀ¤«
Ġðŀ¤¢ðŀ¤¥ðŀ¤« ðŀ¤ªðŀ¤Ńðŀ¤³ðŀ¤¢ðŀ¤²ðŀ¤¢
Ġðŀ¤©ðŀ¤¢ðŀ¤² ðŀ¤¼ðŀ¤®ðŀ¤ªðŀ¤£ðŀ¤«
Ġðŀ¤©ðŀ¤¢ðŀ¤½ ðŀ¤µðŀ¤²ðŀ¤®
Ġðŀ¤©ðŀ¤¢ðŀ¤½ ðŀ¤¼ðŀ¤¢ðŀ¤¤
Ġðŀ¤¥ðŀ¤®ðŀ¤¬ ðŀ¤¼ðŀ¤«
Ġðŀ¤Ĭðŀ¤ī ðŀ¤ļ
Ġðŀ¤¸ðŀ¤«ðŀ¤´ ðŀ¤ªðŀ¤«
Ġðŀ¤¸ðŀ¤«ðŀ¤´ ðŀ¤©ðŀ¤«
Ġðŀ¤§ðŀ¤µðŀ¤¥ðŀ¤® ðŀ¤¶ðŀ¤¢ðŀ¤²
App rent
Ġb e
Ġðŀ¤ĳðŀ¤¢ðŀ¤²ðŀ¤³ ðŀ¤¢ðŀ¤¤ðŀ¤Ńðŀ¤¦ðŀ¤¢
ðŀ¤§ðŀ¤¤ ðŀ¤¢ðŀ¤¼
ðŀ¤§ðŀ¤¤ ðŀ¤«ðŀ¤´ðŀ¤£ðŀ¤Ń
Ġðŀ¤ºðŀ¤«ðŀ¤ª ðŀ¤£ðŀ¤Ń
Ġðŀ¤ıðŀ¤¢ ðŀ¥ĥ
Ġðŀ¤£ðŀ¤®ðŀ¤º ðŀ¤µðŀ¤ºðŀ¤®ðŀ¤¤
Ġðŀ¤£ðŀ¤®ðŀ¤º ðŀ¤µðŀ¤£ðŀ¤«
Ġðŀ¤¶ðŀ¤®ðŀ¤ºðŀ¤² ðŀ¤Ńðŀ¤²ðŀ¥ĭ
Ġðŀ¤¶ðŀ¤®ðŀ¤ºðŀ¤² ðŀ¤µðŀ¤¼ðŀ¤µðŀ¤ºðŀ¤®ðŀ¤¤
Ġðŀ¤¬ðŀ¤«ðŀ¤±ðŀ¤¶ ðŀ¤µðŀ¤©ðŀ¤«
Ġðŀ¤¸ðŀ¤Ńðŀ¤¥ ðŀ¤®
ðŀ¤Ńðŀ¤²ðŀ¤¼ðŀ¤Ńðŀ¤² ðŀ¤¢ðŀ¤¤
Ġðŀ¤ºðŀ¤Ńðŀ¤¥ ðŀ¤¯ðŀ¤®
Ġðŀ¤ļðŀ¤Ń ðŀ¤ºðŀ¤Ńðŀ¤ªðŀ¤Ńðŀ¤²
Ġðŀ¤¤ðŀ¤®ðŀ¤²ðŀ¤¼ðŀ¤Ńðŀ¤² ðŀ¤Ńðŀ¤ªðŀ¤Ń
ółģ §ółģ
av e
av ing
ĠW est
ðŀ¤²ðŀ¤º ðŀ¤«ðŀ¤¤
ðŀ¤¥ðŀ¤®ðŀ¤ª ðŀ¤²ðŀ¤ºðŀ¤¢ðŀ¤¤
Ġðŀ¤²ðŀ¤ºðŀ¤«ðŀ¤´ ðŀ¤²ðŀ¤ºðŀ¤µ
ðŀ¤±ðŀ¤¢ðŀ¤³ ðŀ¤§ðŀ¤«ðŀ¤²
nðŀ¤Ĩ ðŀ¤®ðŀ¤¤
nðŀ¤Ĩ ðŀ¤µðŀ¤¤ðŀ¤¢ðŀ¤ª
Ġðŀ¤Ģðŀ¤Ĳ ðŀ¤ģðŀ¤Īðŀ¤ī
Ġðŀ¤ĥðŀ¤« ðŀ¤³ðŀ¤§ðŀ¤Ńðŀ¤³
Ġðŀ¤ºðŀ¤®ðŀ¤ª ðŀ¤®ðŀ¤¤
Ġðŀ¤ĭðŀ¤ħ ðŀ¤ĳðŀ¤ĭðŀ¤Ĳ
Ġðŀ¤Ńðŀ¤±ðŀ¤ª ðŀ¤¢ðŀ¤¼ðŀ¤¢
Ġðŀ¤¼ðŀ¤¢ðŀ¤º ðŀ¤Ń
Ġðŀ¤ĳðŀ¤ĵ ðŀ¤ĩ
Ġðŀ¤ĳðŀ¤Ńðŀ¤§ ðŀ¤¢
ðŀ¤ĭðŀ¤Ħ ðŀ¤Īðŀ¤Ģ
ðŀ¤ĭðŀ¤ļðŀ¤ĭ ðŀ¤ĳðŀ¤ī
Ġðŀ¤£ðŀ¤¢ðŀ¤£ðŀ¤Ń ðŀ¤¼ðŀ¤®ðŀ¤¤
Ġðŀ¤°ðŀ¤¢ðŀ¤¥ ðŀ¤¼ðŀ¤µðŀ¤ºðŀ¤®ðŀ¤¤
Ġðŀ¤Ĳðŀ¤Ńðŀ¤± ðŀ¤´ðŀ¤®ðŀ¤ªðŀ¤³
iss age
Ġðŀ¤¸ðŀ¤®ðŀ¤ª ðŀ¤¦ðŀ¤Ń
ðŀ¤´ðŀ¤² ðŀ¤Ńðŀ¤²ðŀ¤£ðŀ¤«
ðŀ¤§ðŀ¤«ðŀ¤´ ðŀ¤²
Ġðŀ¤£ðŀ¤µðŀ¤² ðŀ¤³ðŀ¤«
Ġðŀ¤£ðŀ¤¢ðŀ¤ªðŀ¤¢ðŀ¤² ðŀ¤¢ðŀ¤ºðŀ¤®ðŀ¤¤
Ġðŀ¤Ħðŀ¤ĭ ðŀ¤Ĵðŀ¤Ģ
ðŀ¤¤ðŀ¤Ńðŀ¤³ ðŀ¤§
Ġðŀ¤ļðŀ¤Ģðŀ¤Ĳ ðŀ¤Łðŀ¤Ģðŀ¤Ĳðŀ¤ĭðŀ¤Ĵðŀ¤Ģ
Ġðŀ¤ļðŀ¤ªðŀ¤¢ðŀ¤² ðŀ¤§ðŀ¤¤ðŀ¤¢ðŀ¤¼
Ġðŀ¤Ĵðŀ¤Ń ðŀ¤¯ðŀ¤¢ðŀ¤²ðŀ¤«ðŀ¤²
Ġðŀ¤įðŀ¤ĭ ðŀ¤ıðŀ¤ļðŀ¤ĭ
Ġðŀ¤Ķðŀ¤®ðŀ¤ªðŀ¤¶ ðŀ¤Ńðŀ¤´ðŀ¤¢
ĠðŁĩ¨ðŁĩ ²
ĠðŁĩ¨ðŁĩ Ń
ðĿĹ»ðĿĹ ´ðĿĹ²
ðĿĹ»ðĿĹ ·ðĿĹ®
ĠG uide
Ġðŀ¤¤ðŀ¤¢ðŀ¤´ ðŀ¤Ń
ðŀ¤¶ðŀ¤¢ðŀ¤²ðŀ¤º ðŀ¤£ðŀ¤«
Ġðŀ¤ĥðŀ¤Ģðŀ¤ı ðŀ¤Ħðŀ¤Ģ
Ġðŀ¤ĥðŀ¤Ģðŀ¤ı ðŀ¤Ĳðŀ¤ģðŀ¤ī
Ġðŀ¤ĸðŀ¤¢ðŀ¤¥ ðŀ¤£ðŀ¤¢ðŀ¤¤
ðĿĺ ĦðĿĹ
Ġðŀ¤¶ðŀ¤®ðŀ¤ºðŀ¤¢ðŀ¤²ðŀ¤Ń ðŀ¤¯ðŀ¤«ðŀ¤²
Ġðŀ¤¦ðŀ¤µðŀ¤ºðŀ¤Ń ðŀ¤¼ðŀ¤«
Ġðŀ¤¦ðŀ¤µðŀ¤ºðŀ¤Ń ðŀ¤¼ðŀ¤Ńðŀ¤²ðŀ¤®
Ġðŀ¤¥ðŀ¤µðŀ¤§ðŀ¤Ńðŀ¤£ ðŀ¤©ðŀ¤«
Ġðŀ¤¥ðŀ¤µðŀ¤§ðŀ¤Ńðŀ¤£ ðŀ¤¯ðŀ¤®
±ðĿĹ² ðĿĹ»ðĿĹ·ðĿĹ®
Ġðŀ¤²ðŀ¤µ ðŀ¤³ðŀ¤Ńðŀ¤¤ðŀ¤«
ðŀ¤¤ðŀ¤² ðŀ¤®ðŀ¤ªðŀ¤£ðŀ¤«
Ġðŀ¤§ðŀ¤«ðŀ¤´ ðŀ¤²ðŀ¤¢
Ġðŀ¤ĳðŀ¤ī ðŀ¤ķ
Ġðŀ¤ħðŀ¤¢ðŀ¤¬ ðŀ¤ª
Ġðŀ¤±ðŀ¤¢ðŀ¤¯ðŀ¤¢ðŀ¤´ ðŀ¤²ðŀ¤ºðŀ¤®
ðŀ¤Ĥðŀ¤ĵ ðŀ¤ģðŀ¤ī
Ġðŀ¤ıðŀ¤Ģðŀ¤Ĵ ðŀ¤Ĥ
Ġðŀ¤¶ðŀ¤Ńðŀ¤© ðŀ¤¼ðŀ¤µðŀ¤ºðŀ¤®ðŀ¤¤
Ġav ec
Ġðŀ¤¢ðŀ¤´ðŀ¤¦ ðŀ¤Ńðŀ¤²ðŀ¤ºðŀ¤®ðŀ¤¤
Ġðŀ¤¸ðŀ¤«ðŀ¤ªðŀ¤§ðŀ¤Ńðŀ¤² ðŀ¤¢ðŀ¤²ðŀ¤Ń
Ġwrit ten
Ġðŀ¤§ðŀ¤«ðŀ¤¥ðŀ¤¦ðŀ¤Ńðŀ¤²ðŀ¤¢ðŀ¤´ ðŀ¤¯ðŀ¤¢ðŀ¤²
Ġðŀ¤īðŀ¤·ðŀ¤® ðŀ¤¨ðŀ¤Ń
ðŀ¤Ĺ ðŀ¤ĵ
Ġðŀ¤¥ðŀ¤¢ðŀ¤¸ ðŀ¤£ðŀ¤Ń
Ġðŀ¤¥ðŀ¤¢ðŀ¤ªðŀ¤® ðŀ¤¼ðŀ¤®
Ġðŀ¤¬ðŀ¤Ńðŀ¤²ðŀ¤£ðŀ¤Ńðŀ¤² ðŀ¤¢ðŀ¤´
Ġðŀ¤ĳðŀ¤ĵðŀ¤Ĳ ðŀ¤ģðŀ¤Ģ
ðŀ¤¦ðŀ¤µðŀ¤¤ ðŀ¤¶ðŀ¤Ń
nðŀ¤ĵ ðŀ¤¥ðŀ¤¢ðŀ¤ªðŀ¤µ
Ġðŀ¤Ķðŀ¤¢ðŀ¤± ðŀ¤¤ðŀ¤«
Ġðŀ¤Ķðŀ¤«ðŀ¤¥ ðŀ¤§
Ġðŀ¤¬ðŀ¤«ðŀ¤¬ ðŀ¤Ńðŀ¤²ðŀ¥ĭðŀ¤£ðŀ¤¢
Ġðŀ¤Ĥðŀ¤« ðŀ¤³
Ġðŀ¤Ĥðŀ¤µ ðŀ¤±ðŀ¤Ń
ðŀ¥ĳðŀ¥Ĵ ðŀ¥Ĳðŀ¥Ĳ
Ġðŀ¤³ðŀ¤Ńðŀ¤¤ðŀ¤® ðŀ¤¥ðŀ¤«
Ġðŀ¤±ðŀ¤Ńðŀ¤²ðŀ¤£ðŀ¤¢ðŀ¤² ðŀ¤¢ðŀ¤´
ðŀ¤Ģðŀ¤Ħðŀ¤ĭ ðŀ¤Īðŀ¤ĭðŀ¤Ĵðŀ¤Ģ
Ġðŀ¤½ðŀ¤¢ðŀ¤¤ðŀ¤¯ðŀ¤Ń ðŀ¤ªðŀ¤Ń
Ġðŀ¤ļðŀ¤Įðŀ¤Ľ ðŀ¤ĭ
nH aving
ðŀ¤²ðŀ¤¢ðŀ¤± ðŀ¤²ðŀ¤µðŀ¤£ðŀ¤«
Ġðŀ¤¸ðŀ¤Ńðŀ¤²ðŀ¥ĭ ðŀ¤£ðŀ¤«
Ġðŀ¤§ðŀ¤¢ðŀ¤£ ðŀ¤¢ðŀ¤³ðŀ¤¢
Ġðŀ¤´ðŀ¤«ðŀ¤ª ðŀ¤Ńðŀ¤²ðŀ¥ĭðŀ¤£ðŀ¤Ńðŀ¤ªðŀ¤Ń
Ġðŀ¤³ðŀ¤®ðŀ¤ª ðŀ¤«ðŀ¤±ðŀ¤®ðŀ¤¤
Ġðŀ¤²ðŀ¤ºðŀ¤µðŀ¤ª ðŀ¤£ðŀ¤¢ðŀ¤¥
ðŀ¤Ģðŀ¤¬ ðŀ¤ªðŀ¤Ńðŀ¤³
Ġðŀ¤£ðŀ¤µðŀ¤ª ðŀ¤±ðŀ¤¢ðŀ¤²ðŀ¤®
Ġðŀ¤ħðŀ¤Ģðŀ¤ĥ ðŀ¤Ħ
Ġðŀ¤ĺðŀ¤Įðŀ¤Ĳ ðŀ¤ĳðŀ¤Ģðŀ¤Ĥ
Ġðŀ¤¦ðŀ¤®ðŀ¤ª ðŀ¤¼ðŀ¤µðŀ¤²ðŀ¤®
Ġðŀ¤ĸðŀ¤«ðŀ¤§ ðŀ¤¤ðŀ¤¢ðŀ¤¤
Ġðŀ¤¨ðŀ¤¢ðŀ¤¥ ðŀ¤¢ðŀ¤ª
ðŀ¤Ĥðŀ¤«ðŀ¤§ ðŀ¤¯ðŀ¤«
Ġðŀ¤¢ðŀ¤²ðŀ¤£ðŀ¤Ńðŀ¤ª ðŀ¤¢ðŀ¤²ðŀ¤®
Ġðŀ¤Ģðŀ¤¤ðŀ¤¹ ðŀ¤¢
ðŁİ Ī
Ġðŀ¤§ðŀ¤¢ðŀ¤ªðŀ¤Ńðŀ¤´ ðŀ¤Ńðŀ¤²ðŀ¤®
ðŀ¤Ńðŀ¤¤ðŀ¤¢ðŀ¤² ðŀ¤¢ðŀ¤ºðŀ¤®ðŀ¤¤
Ġðŀ¤ĥðŀ¤µðŀ¤§ðŀ¤¤ ðŀ¤Ńðŀ¤¥ðŀ¤Ń
ĠðŁĩª ðŁĩ¸
Ġðŀ¤©ðŀ¤¢ðŀ¤²ðŀ¤ºðŀ¤Ńðŀ¤² ðŀ¤¢ðŀ¤²ðŀ¤ºðŀ¤®ðŀ¤¤
Ġðŀ¤Ŀðŀ¤¢ðŀ¤ª ðŀ¤¼ðŀ¤µðŀ¤¥
Ġðŀ¤¸ðŀ¤Ńðŀ¤¤ðŀ¤² ðŀ¤®ðŀ¤ªðŀ¤¢
Ġðŀ¤ĥðŀ¤¢ðŀ¤´ðŀ¤³ðŀ¤®ðŀ¤ªðŀ¤® ðŀ¤§ðŀ¤¬ðŀ¤¼
Ġcom pt
Ġðŀ¤²ðŀ¤£ðŀ¤¢ðŀ¤ªðŀ¤¼ðŀ¤Ńðŀ¤² ðŀ¤Ńðŀ¤ªðŀ¤¯ðŀ¤Ń
Ġðŀ¤Ģðŀ¤¼ðŀ¤¤ðŀ¤¢ðŀ¤²ðŀ¤¼ðŀ¤Ń ðŀ¤³
nT he
ðŀ¤¢ðŀ¤ĸ ðŀ¤Ģ
Ġðŀ¤²ðŀ¤µðŀ¤¤ ðŀ¤¢ðŀ¤¤
Ġðŀ¤²ðŀ¤¢ðŀ¤¶ðŀ¤« ðŀ¤ªðŀ¤Ńðŀ¤´ðŀ¤¢
Ġðŀ¤³ðŀ¤µðŀ¤ªðŀ¤µðŀ¤² ðŀ¤±ðŀ¤®ðŀ¤¤
Ġðŀ¤¸ðŀ¤¢ðŀ¤¬ ðŀ¤¢
Ġðŀ¤¸ðŀ¤«ðŀ¤²ðŀ¤£ðŀ¤® ðŀ¤¼ðŀ¤®
Ġðŀ¤§ðŀ¤¢ðŀ¤²ðŀ¤³ðŀ¤Ń ðŀ¤³ðŀ¤«
ðŀ¤¦ðŀ¤«ðŀ¤ªðŀ¤« ðŀ¤³ðŀ¤¢
Ġðŀ¥Ļðŀ¥ ĸ
Ġðŀ¤£ðŀ¤®ðŀ¤² ðŀ¤ºðŀ¤¢ðŀ¤¤
Ġðŀ¤Ģðŀ¤Ł ðŀ¤ĭ
Ġðŀ¤ĥðŀ¤īðŀ¤ĳ ðŀ¤ħðŀ¤ĭðŀ¤ĳ
Ġðŀ¤»ðŀ¤«ðŀ¤² ðŀ¤¼ðŀ¤Ńðŀ¤²
Ġðŀ¤ĺðŀ¤¢ðŀ¤§ ðŀ¤¢ðŀ¤¥ðŀ¤¢
Ġðŀ¤¦ðŀ¤¢ðŀ¤ªðŀ¤Ń ðŀ¤¤
Ġðŀ¤Ĭðŀ¤« ðŀ¤¤ðŀ¤Ńðŀ¤³ðŀ¤§
Ġðŀ¤Ĭðŀ¤īðŀ¤ıðŀ¤Ĳ ðŀ¤ģðŀ¤ĭ
Ġðŀ¤ĸðŀ¤ĭðŀ¤Ī ðŀ¤Ĳðŀ¤Ģ
Ġðŀ¤ģðŀ¤ī ðŀ¤Ħðŀ¤ĭ
Ġðŀ¤ģðŀ¤®ðŀ¤´ ðŀ¤§ðŀ¤¤ðŀ¤«ðŀ¤´ðŀ¤£ðŀ¤Ń
Ġðŀ¤±ðŀ¤®ðŀ¤´ ðŀ¤²ðŀ¤£ðŀ¤µ
Ġðŀ¤ıðŀ¤Ńðŀ¤§ ðŀ¤¼ðŀ¤¢
Ġðŀ¤Ĩðŀ¤Ńðŀ¤´ ðŀ¤«ðŀ¤ª
ðŀ¤«ðŀ¤´ðŀ¤² ðŀ¤¢ðŀ¤¦ðŀ¤µ
Ġðŀ¤ĩðŀ¤«ðŀ¤´ ðŀ¤¯ðŀ¤®
ðŀ¤¥ðŀ¤«ðŀ¤£ðŀ¤« ðŀ¤ªðŀ¤®
Ġðŀ¤ĭðŀ¤¾ðŀ¤¢ðŀ¤² ðŀ¤³ðŀ¤¢
Ġðŀ¤Ģðŀ¤¤ðŀ¤¥ðŀ¤¢ðŀ¤² ðŀ¤©ðŀ¤«
nðŀ¤Ģðŀ¤¦ðŀ¤£ðŀ¤µ ðŀ¤¤
nðŀ¤ĥðŀ¤¢ðŀ¤³ ðŀ¤®ðŀ¤ªðŀ¤®ðŀ¤²
ðŀ¤ĳðŀ¤Įðŀ¤ļðŀ¤ģðŀ¤ĭ ðŀ¤ľðŀ¤Ģ
ðĿĹ¼ðĿĹ ¿ðĿĹ
ĠðŁĩ§ ðŁĩ·
ĠðŁĩµðŁĩ ¹
Ġpers onn
nðŀ¤ļðŀ¤¢ðŀ¤± ðŀ¤²ðŀ¤µðŀ¤ºðŀ¤®ðŀ¤¤
Ġcandid at
Ġðŀ¤ļðŀ¤Ģðŀ¤Ħðŀ¤ĭðŀ¤Ĳ ðŀ¤ļðŀ¤ĭðŀ¤Ĳðŀ¤Ģ
Ġðŀ¤ĳðŀ¤Ńðŀ¤ªðŀ¤Ńðŀ¤§ðŀ¤¼ðŀ¤Ń ðŀ¤´ðŀ¤¢ðŀ¤²
Ġðŀ¤£ðŀ¤Ńðŀ¤²ðŀ¤ºðŀ¤Ńðŀ¤ª ðŀ¤¢ðŀ¤¤
Ban que
CE NI
Go ogle
PDC I
nlo ad
ow nload
ror ist
¯ðŁĩ µ
¶ðĿĹ»ðĿĹ ±ðĿĹ²ðĿĹ»ðĿĹ·ðĿĹ®
Ãī tat
ðŀ¤¤ðŀ¤¢ðŀ¤º ðŀ¤¢ðŀ¤¤
ðŀ¤£ðŀ¤«ðŀ¤¨ ðŀ¤Ńðŀ¤¼ðŀ¤«
ðŀ¤¯ðŀ¤²ðŀ¤® ðŀ¤¯ðŀ¤«ðŀ¤²
ðŀ¤³ðŀ¤¢ðŀ¤¥ ðŀ¤Ńðŀ¤§ðŀ¤¢
Ġðŀ¤§ðŀ¤¢ðŀ¤²ðŀ¤£ ðŀ¤¢ðŀ¤ªðŀ¤¥ðŀ¤¢
Ġðŀ¤ĳðŀ¤®ðŀ¤ªðŀ¤®ðŀ¤² ðŀ¤¢ðŀ¤¾ðŀ¤Ńðŀ¤ªðŀ¤Ń
Ġðŀ¤ĳðŀ¤®ðŀ¤ªðŀ¤³ ðŀ¤®ðŀ¤ªðŀ¤¢ðŀ¤²
Ġðŀ¤ĳðŀ¤¤ðŀ¤Ńðŀ¤² ðŀ¤¼ðŀ¤®ðŀ¤²
Ġðŀ¤¶ðŀ¤¢ðŀ¤¸ ðŀ¤¢ðŀ¤¤
Ġðŀ¤²ðŀ¤£ðŀ¤«ðŀ¤±ðŀ¤ªðŀ¤Ń ðŀ¤¼ðŀ¤¢ðŀ¤¤
Ġðŀ¤ħðŀ¤īðŀ¤Ĳðŀ¤ī ðŀ¤ĺðŀ¤Ģ
Ġðŀ¤ħðŀ¤¢ðŀ¤²ðŀ¤£ ðŀ¤¢ðŀ¤±ðŀ¤®ðŀ¤ºðŀ¤®
Ġðŀ¤ħðŀ¤µðŀ¤²ðŀ¤¶ ðŀ¤¢ðŀ¤¼ðŀ¤¢
ðŀ¤Įðŀ¤¨ ðŀ¤¢ðŀ¤²ðŀ¤ºðŀ¤®
Ġðŀ¤ĥðŀ¤µðŀ¤ª ðŀ¤¼ðŀ¤®
Ġðŀ¤ºðŀ¤¢ðŀ¤²ðŀ¤º ðŀ¤µðŀ¤²ðŀ¤¢ðŀ¤¤
Ġðŀ¤Ĳðŀ¤Ģðŀ¤ĥðŀ¤ĭ ðŀ¤Ħðŀ¤ĭðŀ¤Ĵðŀ¤Ģ
ðŀ¤¬ðŀ¤Ńðŀ¤¤ ðŀ¤£
Ġðŀ¤ĸðŀ¤Ńðŀ¤§ ðŀ¤«ðŀ¤¥
Ġðŀ¤ĸðŀ¤¢ðŀ¤¦ðŀ¤Ńðŀ¤´ ðŀ¤¢ðŀ¤ªðŀ¤¢ðŀ¤¥ðŀ¤¢
Ġðŀ¤¨ðŀ¤¢ðŀ¤²ðŀ¤³ ðŀ¤¢ðŀ¤ªðŀ¤«
Ġðŀ¤Ķðŀ¤Ģðŀ¤ĳðŀ¤ĭ ðŀ¤ļðŀ¤ī
Ġðŀ¤¸ðŀ¤Ńðŀ¤¼ðŀ¤¢ðŀ¤² ðŀ¥ĭðŀ¤£ðŀ¤«
Ġðŀ¤ļðŀ¤«ðŀ¤±ðŀ¤® ðŀ¤£ðŀ¤®
ðŀ¤ĺðŀ¤ĺ ðŀ¤ĳðŀ¤Ī
ðŀ¤ĺðŀ¤ĭðŀ¤Ĳ ðŀ¤īðŀ¤Ĳ
Ġðŀ¤ıðŀ¤Ģðŀ¤ĺ ðŀ¤Ĳðŀ¤īðŀ¤Ī
Ġðŀ¤ĩðŀ¤Ģðŀ¤ģ ðŀ¤Ĳðŀ¤ĭ
Ġðŀ¤ĩðŀ¤īðŀ¤Ĵðŀ¤ģðŀ¤ĭ ðŀ¤ļðŀ¤ĭ
Ġðŀ¤Ĥðŀ¤¢ðŀ¤ªðŀ¤¢ðŀ¤²ðŀ¤³ðŀ¤® ðŀ¤±ðŀ¤¢ðŀ¤¤
Ġðŀ¤Ĵðŀ¤ĵðŀ¤Ĳ ðŀ¤Ģðŀ¤Ĵðŀ¤ļðŀ¤ī
Ġðŀ¤Īðŀ¤Ģðŀ¤ĥ ðŀ¤Įðŀ¤ħ
Ġðŀ¤įðŀ¤īðŀ¤ĥ ðŀ¤ĺðŀ¤Ģðŀ¤Ĥ
Ġðŀ¤ķðŀ¤Įðŀ¤Ĥ ðŀ¤ļðŀ¤Į
Ġðŀ¤µðŀ¤¬ðŀ¤Ńðŀ¤²ðŀ¤® ðŀ¤¼ðŀ¤®
ðŀ¤Ķðŀ¤ĵðŀ¤Ĳ ðŀ¤ī
Ġðŀ¤±ðŀ¤¢ðŀ¤´ðŀ¤¤ðŀ¤µ ðŀ¤ºðŀ¤µðŀ¤¤
Ġðŀ¤ħðŀ¤«ðŀ¤¥ðŀ¤¦ ðŀ¤Ńðŀ¤²ðŀ¤Ńðŀ¤ªðŀ¤«ðŀ¤²
ativ e
ĠAnd roid
Ġðŀ¤£ðŀ¤«ðŀ¤¬ðŀ¤¼ðŀ¤«ðŀ¤ª ðŀ¤£ðŀ¤µ
Ġfro m
UNES CO
Ġvers ion
Ġvide o
Ġðŀ¤Ĳðŀ¤īðŀ¤ļðŀ¤Ģðŀ¤Ļ ðŀ¤Ģðŀ¤ĸðŀ¤ĵ
Apprent issage
Ġðŀ¤ļðŀ¤Ńðŀ¤ºðŀ¤Ńðŀ¤ªðŀ¤Ńðŀ¤² ðŀ¤´ðŀ¤¢
ðĿĹ»ðĿĹ´ðĿĹ² ðĿĹ»
ðĿĺĦðĿĹ ¶ðĿĹ»ðĿĹ±ðĿĹ²ðĿĹ»ðĿĹ·ðĿĹ®
Ġðŀ¤ĺðŀ¤Įðŀ¤Ĳðŀ¤ĳðŀ¤Ģðŀ¤Ĥ ðŀ¤Į
ðĿĹ¼ðĿĹ¿ðĿĹ ´
Ġðŀ¤Ĵðŀ¤ĵðŀ¤Ĳðŀ¤Ģðŀ¤Ĵðŀ¤ļðŀ¤ī ðŀ¤ģ
ðĿĺĦðĿĹ¶ðĿĹ»ðĿĹ±ðĿĹ²ðĿĹ»ðĿĹ·ðĿĹ® ðĿĹ»ðĿĹ´ðĿĹ²ðĿĹ»
! "
! ",
$ )
$ ).
% â¹ģ
) âģı
) âĢ¦
/ /
2 4
: //
A I
A t
A DE
A la
B I
C R
D R
D ur
E A
G C
G u
G uide
H P
H a
H e
I EF
L yon
L illy
M A
N D
O A
P R
P ND
U R
U n
U DP
U PR
V ist
a in
a ire
b ri
c c
c re
c la
c ial
d s
d er
d ar
d ang
e f
e m
e w
e x
e um
f in
f es
f or
f iÃ©e
g n
g o
g en
g ale
h ib
i nt
i es
j our
k ill
l Ã
l ant
l Ã©e
l ine
m un
m and
m me
n C
n ðŀ¤´
n ðŀ¤¥ðŀ¤®
n es
n ing
n am
n ge
n App
n En
n Dur
o p
o iv
o ok
p s
p li
r ou
r at
r al
r Ã¨
s tit
t h
t y
t le
t ob
t nes
u nt
u est
y s
y nam
¡ ðĿĻ
¢ ółģ
¢ che
¤ ðĿĻ¢
§ ðŀ¤®
« ðŁĩ·
´ Ø±
´ ółģ§ółģ
· ðŁĩ¸
» ðŀ¤«ðŀ¤¥
Ġ I
Ġ X
Ġ Âł
Ġ ent
Ġ cont
Ġ at
Ġ :\
Ġ us
Ġ ro
Ġ In
Ġ ho
Ġ iss
Ġ je
Ġ qu
Ġ !",
Ġ HP
Ġ ex
Ġ int
ı ðĿĻĸðĿĻ
ı ´ółģ§ółģ
Ĵ Ĳ
ĵ ðŀ¤ģðŀ¤ĭ
Ĺ ðĿĻĸðĿĻ
ĺ ðŀ¤ĸðŀ¤Ģ
Ń ÙĬ
ðŀ¥ Ģ
ðŀ¤® ðŀ¤ªðŀ¤«
ðŀ¤® ðŀ¤ºðŀ¤Ń
ðŀ¤® ðŀ¤§ðŀ¤¼ðŀ¤«ðŀ¤ªðŀ¤«
ðŀ¤® ðŀ¤£ðŀ¤¢ðŀ¤ºðŀ¤®ðŀ¤¤
ðŀ¤® ðŀ¤£ðŀ¤¢ðŀ¤´
ðŀ¤® ðŀ¤¼ðŀ¤Ńðŀ¤ªðŀ¤¢ðŀ¤¤
ðŀ¤« ðŀ¤¼ðŀ¤¢
ðŀ¤« ðŀ¤ºðŀ¤¢ðŀ¤²
ðŀ¤« ðŀ¤ºðŀ¤µðŀ¤²
ðŀ¤Ń ðŀ¤¶ðŀ¤Ń
ðŀ¤Ń ðŀ¤ªðŀ¤«ðŀ¤²
ðŀ¤Ń ðŀ¤»ðŀ¤®
ðŀ¤Ń ðŀ¤Ĩðŀ¤Ń
ðŀ¤² ðŀ¤¼ðŀ¤®
ðŀ¤² ðŀ¤¤ðŀ¤«
ðŀ¤² ðŀ¤¢ðŀ¤²ðŀ¤£ðŀ¤«
ðŀ¤² ðŀ¤µðŀ¤¤
ðŀ¤² ðŀ¤¶ðŀ¤Ń
ðŀ¤² ðŀ¤¢ðŀ¤²ðŀ¤Ń
ðŀ¤² ðŀ¤ºðŀ¤®ðŀ¤ª
ðŀ¤² ðŀ¤¢ðŀ¤²ðŀ¤¢
ðŀ¤² ðŀ¤£ðŀ¤µðŀ¤²ðŀ¤®
ðŀ¤² ðŀ¤£ðŀ¤¢ðŀ¤²
ðŀ¤² ðŀ¤£ðŀ¤¢ðŀ¤²ðŀ¤Ń
ðŀ¤² ðŀ¤µðŀ¤¼ðŀ¤µðŀ¤ºðŀ¤®ðŀ¤¤
ðŀ¤² ðŀ¤¢ðŀ¤±ðŀ¤¢ðŀ¤¤
ðŀ¤² ðŀ¤µðŀ¤¼ðŀ¤µðŀ¤£ðŀ¤«
ðŀ¤² ðŀ¤¶ðŀ¤¢ðŀ¤¥
ðŀ¤² ðŀ¤Ńðŀ¤²ðŀ¤¼ðŀ¤Ńðŀ¤²
ðŀ¤² ðŀ¤«ðŀ¤§ðŀ¤¼ðŀ¤Ń
ðŀ¤² ðŀ¤µðŀ¤¯ðŀ¤«ðŀ¤²
ðŀ¤² ðŀ¤µðŀ¤²ðŀ¥ĭðŀ¤ºðŀ¤µ
ðŀ¤² ðŀ¤¢ðŀ¤²ðŀ¤³ðŀ¤®ðŀ¤±ðŀ¤¢ðŀ¤¤
ðŀ¤¢ðŀ¤ Ĳ
ðŀ¥ħ âģı
ðŀ¥ħ ØŁ",
ðŀ¥ħ âĢĿâ¹ģ
ðŀ¤µ ðŀ¤±ðŀ¤¢ðŀ¤´
ðŀ¤£ ðŀ¤¢ðŀ¤²ðŀ¤£ðŀ¤«
ðŀ¤£ ðŀ¤®ðŀ¤ªðŀ¤®
ðŀ¤£ ðŀ¤¢ðŀ¤±ðŀ¤Ń
ðŀ¤£ ðŀ¤¢ðŀ¤±ðŀ¤¢ðŀ¤¤
ðŀ¤£ ðŀ¤µðŀ¤²ðŀ¥ĭðŀ¤£ðŀ¤µ
ðŀ¤£ ðŀ¤®ðŀ¤ªðŀ¤²ðŀ¤£ðŀ¤«
ðŀ¥Ħ âģı
ðŀ¤ª ðŀ¤³
ðŀ¤ª ðŀ¤©ðŀ¤«
ðŀ¤ª ðŀ¤²ðŀ¤£ðŀ¤«
ðŀ¤ª ðŀ¤¤ðŀ¤«
ðŀ¤ª ðŀ¤³ðŀ¤®
ðŀ¤ª ðŀ¤³ðŀ¤Ń
ðŀ¤ª ðŀ¤Ńðŀ¤²ðŀ¤¢
ðŀ¤ª ðŀ¤¢ðŀ¤ºðŀ¤®ðŀ¤¤
ðŀ¤ª ðŀ¤¢ðŀ¤²ðŀ¤¢
ðŀ¤ª ðŀ¤¢ðŀ¤²ðŀ¤«
ðŀ¤ª ðŀ¤®ðŀ¤ªðŀ¤¢
ðŀ¤ª ðŀ¤²ðŀ¤£ðŀ¤Ń
ðŀ¤ª ðŀ¤±ðŀ¤¢ðŀ¤¤
ðŀ¤ª ðŀ¤¼ðŀ¤®ðŀ¤¤
ðŀ¤ª ðŀ¤Ńðŀ¤²ðŀ¤¢ðŀ¤²ðŀ¤£ðŀ¤«
ðŀ¤ª ðŀ¤²ðŀ¤µðŀ¤²ðŀ¤®
ðŀ¤ª ðŀ¤®ðŀ¤¤ðŀ¤Ń
ðŀ¤ª ðŀ¤¢ðŀ¤¦ðŀ¤¢
ðŀ¤ª ðŀ¤¢ðŀ¤¸ðŀ¤Ń
ðŀ¤ª ðŀ¤«ðŀ¤©ðŀ¤«
ðŀ¤ª ðŀ¤®ðŀ¤²ðŀ¥ĭðŀ¤£ðŀ¤Ńðŀ¤ªðŀ¤¢
ðŀ¤ª ðŀ¤¼ðŀ¤¶ðŀ¤«
ðŀ¤ª ðŀ¤¢ðŀ¤¸ðŀ¤¢ðŀ¤¥
ðŀ¤ª ðŀ¤«ðŀ¤¬ðŀ¤¦ðŀ¤Ńðŀ¤ª
ðŀ¤¼ ðŀ¤µðŀ¤ª
ðŀ¤¼ ðŀ¤¢ðŀ¤¤ðŀ¤¢
ðŀ¤¼ ðŀ¤«ðŀ¤¬
ðŀ¤¼ ðŀ¤µðŀ¤²ðŀ¥ĭðŀ¤£ðŀ¤«
ðŀ¤¼ ðŀ¤¢ðŀ¤¥ðŀ¤©ðŀ¤«
ðŀ¤¼ ðŀ¤¢ðŀ¤©ðŀ¤«
ðŀ¤¼ ðŀ¤²ðŀ¤£ðŀ¤®
ðŀ¤¼ ðŀ¤®ðŀ¤²ðŀ¥ĭðŀ¤£ðŀ¤Ńðŀ¤ªðŀ¤Ń
ðŀ¤¼ ðŀ¤µðŀ¤¯ðŀ¤®ðŀ¤²
ðŀ¤¼ ðŀ¤µðŀ¤²ðŀ¥ĭðŀ¤£ðŀ¤Ń
Ġðŀ¤² ðŀ¤¢ðŀ¤¼
Ġðŀ¤² ðŀ¤¢ðŀ¤²ðŀ¤¯ðŀ¤«
Ġðŀ¤² ðŀ¤¢ðŀ¤²ðŀ¤«
ðŀ¤¤ ðŀ¤¼ðŀ¤Ń
ðŀ¤¤ ðŀ¤²ðŀ¤£ðŀ¤«
ðŀ¤¤ ðŀ¤Ńðŀ¤¥
ðŀ¤¤ ðŀ¤Ńðŀ¤²ðŀ¤¢
ðŀ¤¤ ðŀ¤²ðŀ¤µðŀ¤²ðŀ¤®
ðŀ¤¤ ðŀ¤«ðŀ¤´ðŀ¤£ðŀ¤Ń
ðŀ¤¤ ðŀ¤¦ðŀ¤Ńðŀ¤²ðŀ¤£ðŀ¤«
ðŀ¤¤ ðŀ¤©ðŀ¤µðŀ¤¯ðŀ¤«
Ġðŀ¤³ ðŀ¤«ðŀ¤²
Ġðŀ¤³ ðŀ¤¢ðŀ¤©
Ġðŀ¤³ ðŀ¤Ńðŀ¤²ðŀ¤«
Ġðŀ¤³ ðŀ¤£ðŀ¤¢
Ġðŀ¤³ ðŀ¤«ðŀ¤´
Ġðŀ¤³ ðŀ¤¢ðŀ¤»
Ġðŀ¤³ ðŀ¤¢ðŀ¤§
Ġðŀ¤³ ðŀ¤¢ðŀ¤¥ðŀ¤¢
ðŀ¤£ðŀ¤« ðŀ¤¥
ðŀ¤º ðŀ¤¢ðŀ¤¥
ðŀ¤º ðŀ¤µðŀ¤ºðŀ¤®ðŀ¤¤
ðŀ¤º ðŀ¤¤ðŀ¤¢
ðŀ¤º ðŀ¤Ńðŀ¤²ðŀ¤Ń
ðŀ¤º ðŀ¤¢ðŀ¤©ðŀ¤«ðŀ¤ªðŀ¤«
ðŀ¤º ðŀ¤µðŀ¤¤ðŀ¤µ
ðŀ¤º ðŀ¤¦ðŀ¤«
ðŀ¤º ðŀ¤¢ðŀ¤¦ðŀ¤«
ðŀ¤º ðŀ¤Ńðŀ¤¼ðŀ¤µ
ðŀ¤º ðŀ¤«ðŀ¤´ðŀ¤¢ðŀ¤²ðŀ¤³ðŀ¤®ðŀ¤±ðŀ¤¢ðŀ¤¤
ðŀ¤¢ðŀ¤¤ ðŀ¤¼ðŀ¤Ńðŀ¤²
ðŀ¤¢ðŀ¤¤ ðŀ¤¢ðŀ¤±ðŀ¤®ðŀ¤¤
ðŀ¤¢ðŀ¤¤ ðŀ¤³ðŀ¤¢ðŀ¤¥ðŀ¤Ńðŀ¤§ðŀ¤¢
Ġðŀ¤¸ ðŀ¤®ðŀ¤²ðŀ¤®
Ġðŀ¤¸ ðŀ¤Ńðŀ¤ªðŀ¤¢
Ġðŀ¤¸ ðŀ¤¢ðŀ¤¬ðŀ¤Ń
ðŀ¤¥ ðŀ¤¢ðŀ¤³
ðŀ¤¥ ðŀ¤¢ðŀ¤²ðŀ¤®
ðŀ¤¥ ðŀ¤«ðŀ¤¼
ðŀ¤¥ ðŀ¤Ńðŀ¤¼
ðŀ¤¥ ðŀ¤¢ðŀ¤§
ðŀ¤¥ ðŀ¤®ðŀ¤ªðŀ¤¢
ðŀ¤¥ ðŀ¤²ðŀ¤ºðŀ¤¢ðŀ¤¤
ðŀ¤¥ ðŀ¤®ðŀ¤²ðŀ¥ĭðŀ¤£ðŀ¤Ńðŀ¤ªðŀ¤¢ðŀ¤¤
ðŀ¤¥ ðŀ¤Ńðŀ¤¼ðŀ¤¢ðŀ¤ºðŀ¤®ðŀ¤¤
ðŀ¤¥ ðŀ¤µðŀ¤ªðŀ¤¢
ðŀ¤¥ ðŀ¤«ðŀ¤¼ðŀ¤«ðŀ¤²
ðŀ¤¥ ðŀ¤¢ðŀ¤ĳ
ðŀ¤¥ ðŀ¤²ðŀ¤¢ðŀ¤±ðŀ¤¢ðŀ¤¤
Ġðŀ¤« ðŀ¤±ðŀ¤Ń
Ġðŀ¤« ðŀ¤¼ðŀ¤®ðŀ¤ªðŀ¤Ń
Ġðŀ¤« ðŀ¤ªðŀ¤®ðŀ¤¨ðŀ¤²ðŀ¤¢
ðŀ¤¯ ðŀ¤¢ðŀ¤´
ðŀ¤¯ ðŀ¤¼ðŀ¤¢
ðŀ¤¯ ðŀ¤²ðŀ¤Ń
ðŀ¤¯ ðŀ¤¢ðŀ¤¼ðŀ¤¢
ðŀ¤¯ ðŀ¤Ńðŀ¤²ðŀ¤ºðŀ¤®ðŀ¤¤
ðŀ¤¯ ðŀ¤¼ðŀ¤Ńðŀ¤ª
ðŀ¤¯ ðŀ¤Ńðŀ¤²ðŀ¤¢ðŀ¤¤
ðŀ¤¯ ðŀ¤µðŀ¤²ðŀ¥ĭðŀ¤ºðŀ¤¢ðŀ¤¤
ðŀ¤¯ ðŀ¤«ðŀ¤´ðŀ¤¢ðŀ¤²ðŀ¤³ðŀ¤®
ðŀ¤¯ ðŀ¤¢ðŀ¤±ðŀ¤¢ðŀ¤¤
ðŀ¤¯ ðŀ¤µðŀ¤²ðŀ¥ĭðŀ¤ºðŀ¤µ
ðŀ¤¢ðŀ¤² ðŀ¤«ðŀ¤²
ðŀ¤¢ðŀ¤² ðŀ¤ºðŀ¤¢ðŀ¤¤
ðŀ¤¢ðŀ¤² ðŀ¤§ðŀ¤Ńðŀ¤²
ðŀ¤¢ðŀ¤² ðŀ¤¢ðŀ¤²ðŀ¤³ðŀ¤®ðŀ¤ªðŀ¤®
ðŀ¤®ðŀ¤² ðŀ¤µ
ðŀ¤®ðŀ¤² ðŀ¤£ðŀ¤«
ðŀ¤®ðŀ¤² ðŀ¤¼ðŀ¤«
ðŀ¤®ðŀ¤² ðŀ¤³ðŀ¤¢
ðŀ¤Ńðŀ¤² ðŀ¤«ðŀ¤²
ðŀ¤Ńðŀ¤² ðŀ¤¯ðŀ¤Ń
ðŀ¤Ńðŀ¤² ðŀ¤¤ðŀ¤Ń
ðŀ¤Ńðŀ¤² ðŀ¤³ðŀ¤®
ðŀ¤Ńðŀ¤² ðŀ¤·
ðŀ¤Ńðŀ¤² ðŀ¤ºðŀ¤¢
ðŀ¤Ńðŀ¤² ðŀ¤¯ðŀ¤«ðŀ¤²
ðŀ¤Ńðŀ¤² ðŀ¤Ńðŀ¤ªðŀ¤¯ðŀ¤«
ðŀ¤Ńðŀ¤² ðŀ¤Ńðŀ¤ªðŀ¤ºðŀ¤®ðŀ¤¤
ðŀ¤Ńðŀ¤² ðŀ¤Ńðŀ¤ªðŀ¤¯ðŀ¤Ń
ðŀ¤Ńðŀ¤² ðŀ¤¯ðŀ¤Ńðŀ¤²ðŀ¤ºðŀ¤®ðŀ¤¤
Ġðŀ¤± ðŀ¤®ðŀ¤ª
Ġðŀ¤± ðŀ¤¢ðŀ¤¼
Ġðŀ¤± ðŀ¤¢ðŀ¤¤ðŀ¤¢
Ġðŀ¤± ðŀ¤¢ðŀ¤²ðŀ¤º
Ġðŀ¤± ðŀ¤¢ðŀ¤§
Ġðŀ¤± ðŀ¤¢ðŀ¤¶
Ġðŀ¤± ðŀ¤µðŀ¤¥ðŀ¤¦
Ġðŀ¤± ðŀ¤¢ðŀ¤ªðŀ¤®
Ġðŀ¤± ðŀ¤Ńðŀ¤ªðŀ¤®
Ġðŀ¤± ðŀ¤¢ðŀ¤·
Ġðŀ¤± ðŀ¤¢ðŀ¤ªðŀ¤¢ðŀ¤²ðŀ¤¢
Ġðŀ¤¥ ðŀ¤®ðŀ¤¤
Ġðŀ¤¥ ðŀ¤Ńðŀ¤´ðŀ¤¢
Ġðŀ¤¥ ðŀ¤«ðŀ¤§
Ġðŀ¤¥ ðŀ¤¢ðŀ¤²ðŀ¤³ðŀ¤Ń
Ġðŀ¤¥ ðŀ¤¢ðŀ¤¸ðŀ¤®
Ġðŀ¤¥ ðŀ¤¢ðŀ¤ªðŀ¤¢ðŀ¤¤
Ġðŀ¤¥ ðŀ¤¢ðŀ¤°
Ġðŀ¤¥ ðŀ¤Ńðŀ¤ªðŀ¤Ńðŀ¤²
ðŀ¤³ ðŀ¤¢ðŀ¤£ðŀ¤Ń
ðŀ¤³ ðŀ¤µðŀ¤ºðŀ¤®ðŀ¤¤
ðŀ¤³ ðŀ¤¢ðŀ¤ªðŀ¤Ń
ðŀ¤³ ðŀ¤Ńðŀ¤²ðŀ¤«
ðŀ¤³ ðŀ¤¢ðŀ¤¤ðŀ¤Ń
ðŀ¤³ ðŀ¤Ńðŀ¤²ðŀ¤Ń
ðŀ¤³ ðŀ¤¢ðŀ¤»ðŀ¤µðŀ¤²
ðŀ¤³ ðŀ¤«ðŀ¤§ðŀ¤Ń
ðŀ¤µðŀ¤² ðŀ¤¼
ðŀ¤µðŀ¤² ðŀ¤¯ðŀ¤«
ðŀ¤µðŀ¤² ðŀ¤³ðŀ¤«
ðŀ¤µðŀ¤² ðŀ¤¢ðŀ¤µ
ðŀ¤µðŀ¤² ðŀ¤³ðŀ¤®ðŀ¤±ðŀ¤¢ðŀ¤¤
Ġðŀ¤¬ ðŀ¤¢ðŀ¤ª
Ġðŀ¤¬ ðŀ¤¢ðŀ¤¼
Ġðŀ¤¬ ðŀ¤¢ðŀ¤¯
Ġðŀ¤¬ ðŀ¤¢ðŀ¤²ðŀ¤¢
Ġðŀ¤¬ ðŀ¤µðŀ¤¼
Ġðŀ¤¬ ðŀ¤«ðŀ¤¼ðŀ¤«
Ġðŀ¤¬ ðŀ¤¢ðŀ¤²ðŀ¤³ðŀ¤Ń
Ġðŀ¤¬ ðŀ¤«ðŀ¤²ðŀ¤¢
Ġðŀ¤¬ ðŀ¤¢ðŀ¤¤ðŀ¤®
Ġðŀ¤¯ ðŀ¤Ńðŀ¤¥
Ġðŀ¤¯ ðŀ¤¢ðŀ¤¤ðŀ¤¢
Ġðŀ¤¯ ðŀ¤¢ðŀ¤±ðŀ¤¢
Ġðŀ¤¯ ðŀ¤¢ðŀ¤¸ðŀ¤Ń
Ġðŀ¤¯ ðŀ¤¢ðŀ¤´ðŀ¤¯ðŀ¤®
Ġðŀ¤¯ ðŀ¤«ðŀ¤±ðŀ¤¤
ðŀ¤«ðŀ¤ »ðŀ¤«ðŀ¤¥
ðŀ¤«ðŀ¤ ĺðŀ¤ĸðŀ¤Ģ
ðŀ¤Ģ ðŀ¤¥ðŀ¤«
Ġðŀ¤¤ ðŀ¤«ðŀ¤²
Ġðŀ¤¤ ðŀ¤Ńðŀ¤ª
Ġðŀ¤¤ ðŀ¤µðŀ¤¥ðŀ¤¦ðŀ¤µ
Ġðŀ¤¤ ðŀ¤µðŀ¤²ðŀ¤£ðŀ¤®
Ġðŀ¤¤ ðŀ¤¢ðŀ¤·
Ġðŀ¤¤ ðŀ¤¢ðŀ¤´ðŀ¤¯ðŀ¤«
Ġðŀ¤¤ ðŀ¤¢ðŀ¤¦ðŀ¤®
Ġðŀ¤¼ ðŀ¤«ðŀ¤±
Ġðŀ¤¼ ðŀ¤µðŀ¤ª
Ġðŀ¤¼ ðŀ¤®ðŀ¤ªðŀ¤®
Ġðŀ¤¼ ðŀ¤īðŀ¤¬
ðŀ¤ªðŀ¤« ðŀ¤²ðŀ¤£ðŀ¤«
ðŀ¤ªðŀ¤« ðŀ¤²ðŀ¤£
Ġðŀ¤§ ðŀ¤¢ðŀ¤§
Ġðŀ¤§ ðŀ¤«ðŀ¤¸
Ġðŀ¤§ ðŀ¤¢ðŀ¤§ðŀ¤¢
Ġðŀ¤§ ðŀ¤«ðŀ¤´ðŀ¤£ðŀ¤Ń
Ġðŀ¤§ ðŀ¤¢ðŀ¤´ðŀ¤ªðŀ¤«
Ġðŀ¤§ ðŀ¤µðŀ¤²ðŀ¤Ńðŀ¤¯ðŀ¤¢
ðŀ¤©ðŀ¤« ðŀ¤²
ðŀ¤¶ ðŀ¤®ðŀ¤ªðŀ¤¢
ðŀ¤¶ ðŀ¤¢ðŀ¤¼ðŀ¤µ
ðŀ¤¶ ðŀ¤Ńðŀ¤²ðŀ¤º
Ġðŀ¤ĳ ðŀ¤¢ðŀ¤±
Ġðŀ¤ĳ ðŀ¤µðŀ¤ª
Ġðŀ¤ĳ ðŀ¤Ńðŀ¤´
Ġðŀ¤ĳ ðŀ¤¢ðŀ¤²ðŀ¤£ðŀ¤«
Ġðŀ¤ĳ ðŀ¤Ģðŀ¤Ĥ
Ġðŀ¤ĳ ðŀ¤Ģðŀ¤Ī
Ġðŀ¤ĳ ðŀ¤ªðŀ¤µ
Ġðŀ¤ĳ ðŀ¤«ðŀ¤²ðŀ¤«
Ġðŀ¤ĳ ðŀ¤Ńðŀ¤¼ðŀ¤¢
Ġðŀ¤ĳ ðŀ¤Ģðŀ¤Ĵ
Ġðŀ¤ĳ ðŀ¤Ģðŀ¤Ĥðŀ¤ĭ
Ġðŀ¤ĳ ðŀ¤Ģðŀ¤Īðŀ¤Į
Ġðŀ¤ĳ ðŀ¤ĭðŀ¤ħ
Ġðŀ¤ĳ ðŀ¤«ðŀ¤¥
Ġðŀ¤ĳ ðŀ¤¢ðŀ¤¦ðŀ¤¢
Ġðŀ¤ĳ ðŀ¤Ģðŀ¤ĺ
Ġðŀ¤ĳ ðŀ¤µðŀ¤¯ðŀ¤®ðŀ¤¤
Ġðŀ¤ĳ ðŀ¤Ĥðŀ¤Į
Ġðŀ¤ĳ ðŀ¤Ģðŀ¤Ħðŀ¤Ģ
Ġðŀ¤ĳ ðŀ¤īðŀ¤Ĳðŀ¤ĭ
Ġðŀ¤ĳ ðŀ¤ªðŀ¤Ńðŀ¤§ðŀ¤¼ðŀ¤Ń
ðŀ¤¢ðŀ¤ª ðŀ¤µ
ðŀ¤¢ðŀ¤ª ðŀ¤¼ðŀ¤Ń
ðŀ¤¢ðŀ¤ª ðŀ¤²ðŀ¤£ðŀ¤«
ðŀ¤¢ðŀ¤ª ðŀ¤®ðŀ¤¼
ðŀ¤¢ðŀ¤ª ðŀ¤¢ðŀ¤§ðŀ¤Ń
ðŀ¤¢ðŀ¤ª ðŀ¤±ðŀ¤¢ðŀ¤²ðŀ¤£ðŀ¤¢
ðŀ¤¢ðŀ¤ª ðŀ¤¢ðŀ¤±ðŀ¤®ðŀ¤¤
ðŀ¤¢ðŀ¤ª ðŀ¤¦ðŀ¤¢ðŀ¤´
ðŀ¤£ðŀ¤Ń ðŀ¤¼ðŀ¤«ðŀ¤ª
ðŀ¤£ðŀ¤Ń ðŀ¤´ðŀ¤¢ðŀ¤²ðŀ¤³ðŀ¤®
ðŀ¤£ðŀ¤Ń ðŀ¤¼ðŀ¤¢ðŀ¤²ðŀ¤£ðŀ¤«
Ġðŀ¤´ ðŀ¤¢ðŀ¤´
Ġðŀ¤´ ðŀ¤¢ðŀ¤ªðŀ¤Ń
Ġðŀ¤´ ðŀ¤«ðŀ¤¤
Ġðŀ¤´ ðŀ¤¢ðŀ¤±ðŀ¤®
Ġðŀ¤´ ðŀ¤«ðŀ¤©
Ġðŀ¤´ ðŀ¤¤ðŀ¤¢ðŀ¤¼
Ġðŀ¤¶ ðŀ¤¢ðŀ¤´
Ġðŀ¤¶ ðŀ¤«ðŀ¤¤
Ġðŀ¤¶ ðŀ¤¢ðŀ¤ªðŀ¤¢
Ġðŀ¤¶ ðŀ¤µðŀ¤¥ðŀ¤¢
Ġðŀ¤¶ ðŀ¤¢ðŀ¤©ðŀ¤«
Ġðŀ¤¶ ðŀ¤¢ðŀ¤¸ðŀ¤«
Ġðŀ¤¶ ðŀ¤Ńðŀ¤²ðŀ¤£ðŀ¤®
Ġðŀ¤¶ ðŀ¤Ńðŀ¤²ðŀ¤£ðŀ¤Ń
Ġðŀ¤¶ ðŀ¤Ńðŀ¤²ðŀ¤£ðŀ¤Ńðŀ¤²
Ġðŀ¤® ðŀ¤³
Ġðŀ¤® ðŀ¤±
Ġðŀ¤® ðŀ¤´ðŀ¤¢
Ġðŀ¤³ðŀ¤® ðŀ¤¬
Ġðŀ¤³ðŀ¤® ðŀ¤§ðŀ¤¢ðŀ¤¥
Ġðŀ¤²ðŀ¤º ðŀ¤Ńðŀ¤²
ðŀ¤± ðŀ¤ªðŀ¤«
ðŀ¤± ðŀ¤¢ðŀ¤¼
ðŀ¤± ðŀ¤¤ðŀ¤Ń
ðŀ¤± ðŀ¤Ńðŀ¤´
ðŀ¤± ðŀ¤³ðŀ¤Ń
ðŀ¤± ðŀ¤«ðŀ¤¤
ðŀ¤± ðŀ¤«ðŀ¤¼
ðŀ¤± ðŀ¤¢ðŀ¤¤ðŀ¤Ń
ðŀ¤± ðŀ¤«ðŀ¤ª
ðŀ¤± ðŀ¤¢ðŀ¤´ðŀ¤²ðŀ¤®
ðŀ¤± ðŀ¤Ńðŀ¤²ðŀ¤£ðŀ¤«
ðŀ¤± ðŀ¤¢ðŀ¤©ðŀ¤®
ðŀ¤± ðŀ¤®ðŀ¤²ðŀ¥ĭðŀ¤£ðŀ¤Ńðŀ¤ª
ðŀ¤± ðŀ¤¼ðŀ¤«ðŀ¤ª
ðŀ¤± ðŀ¤®ðŀ¤²ðŀ¥ĭðŀ¤£ðŀ¤Ńðŀ¤ªðŀ¤ºðŀ¤®ðŀ¤¤
ðŀ¤± ðŀ¤®ðŀ¤²ðŀ¥ĭðŀ¤£ðŀ¤Ńðŀ¤ªðŀ¤£ðŀ¤«
ðŀ¤± ðŀ¤«ðŀ¤¤ðŀ¤®
ðŀ¤± ðŀ¤²ðŀ¤¢ðŀ¤²
ðŀ¤± ðŀ¤Ńðŀ¤¼ðŀ¤Ńðŀ¤ªðŀ¤¼ðŀ¤«
ðŀ¤± ðŀ¤¼ðŀ¤®ðŀ¤ªðŀ¤®
ðŀ¤± ðŀ¤²ðŀ¤µðŀ¤¼ðŀ¤µðŀ¤ºðŀ¤®ðŀ¤¤
ðŀ¤´ ðŀ¤¯ðŀ¤Ń
ðŀ¤´ ðŀ¤¢ðŀ¤²ðŀ¤®
ðŀ¤´ ðŀ¤Ńðŀ¤¥ðŀ¤©ðŀ¤«
ðŀ¤´ ðŀ¤¢ðŀ¤¼ðŀ¤¢
ðŀ¤´ ðŀ¤¼ðŀ¤¢ðŀ¤¤
ðŀ¤´ ðŀ¤«ðŀ¤¼ðŀ¤«
ðŀ¤´ ðŀ¤Ńðŀ¤ªðŀ¤Ń
ðŀ¤´ ðŀ¤Ńðŀ¤ªðŀ¤£ðŀ¤µ
ðŀ¤´ ðŀ¤¢ðŀ¤¼ðŀ¤µ
ðŀ¤´ ðŀ¤²ðŀ¤ºðŀ¤®ðŀ¤¤
ðŀ¤´ ðŀ¤µðŀ¤¼ðŀ¤µðŀ¤ºðŀ¤®ðŀ¤¤
ðŀ¤´ ðŀ¤µðŀ¤¯ðŀ¤®ðŀ¤²
ðŀ¤´ ðŀ¤Ńðŀ¤¼ðŀ¤Ńðŀ¤ªðŀ¤¼ðŀ¤«
ðŀ¤´ ðŀ¤¢ðŀ¤ªðŀ¤±ðŀ¤¢ðŀ¤²ðŀ¤£ðŀ¤¢
ðŀ¤«ðŀ¤² ðŀ¤ºðŀ¤®ðŀ¤¤
ðŀ¤«ðŀ¤² ðŀ¤ºðŀ¤«ðŀ¤¤ðŀ¤«
ðŀ¤«ðŀ¤² ðŀ¤ºðŀ¤«ðŀ¤¤
ðŀ¤ªðŀ¤Ń ðŀ¤©ðŀ¤«
ðŀ¤ªðŀ¤Ń ðŀ¤£ðŀ¤Ń
ðŀ¤ªðŀ¤Ń ðŀ¤´
ðŀ¤ªðŀ¤Ń ðŀ¤³ðŀ¤Ń
ðŀ¤ªðŀ¤Ń ðŀ¤ªðŀ¤¢
ðŀ¤ªðŀ¤Ń ðŀ¤¼ðŀ¤«ðŀ¤²
ðŀ¤ªðŀ¤Ń ðŀ¤ªðŀ¤¯ðŀ¤«
ðŀ¤¦ ðŀ¤¢ðŀ¤²
ðŀ¤¦ ðŀ¤«ðŀ¤²
ðŀ¤¦ ðŀ¤µðŀ¤ºðŀ¤®ðŀ¤¤
ðŀ¤¦ ðŀ¤µðŀ¤£ðŀ¤«
ðŀ¤¦ ðŀ¤µðŀ¤ª
ðŀ¤¦ ðŀ¤¥ðŀ¤µ
ðŀ¤¦ ðŀ¤Ńðŀ¤²ðŀ¤«
ðŀ¤¦ ðŀ¤«ðŀ¤¤
ðŀ¤¦ ðŀ¤¢ðŀ¤ªðŀ¤¢
ðŀ¤¦ ðŀ¤Ńðŀ¤¼ðŀ¤¢ðŀ¤ºðŀ¤®ðŀ¤¤
ðŀ¤¦ ðŀ¤¢ðŀ¤±ðŀ¤®ðŀ¤¤
ðŀ¤¦ ðŀ¤£ðŀ¤µðŀ¤ª
ðŀ¤Ģðŀ¤ §
ðŀ¤Ģðŀ¤ İ
ðŀ¤Ģðŀ¤ ķ
ðŀ¤Ģðŀ¤ Ĺ
ðŀ¤Ģðŀ¤ ĵðŀ¤ģðŀ¤ĭ
Ġðŀ¥ ĭ
ðŀ¤¢ðŀ¤± ðŀ¤«
ðŀ¤¢ðŀ¤± ðŀ¤³ðŀ¤¢
ðŀ¤¢ðŀ¤± ðŀ¤²ðŀ¤Ń
ðŀ¤¢ðŀ¤± ðŀ¤Ńðŀ¤¤
Ġðŀ¤²ðŀ¤£ðŀ¤« ðŀ¤¤ðŀ¤®
nðŀ¤ ¡
nðŀ¤ Ĺ
nðŀ¤ ľ
nðŀ¤ §ðŀ¤®
ðŀ¤¢ðŀ¤´ ðŀ¤Ń
ðŀ¤¢ðŀ¤´ ðŀ¤¢ðŀ¤¤
ðŀ¤¢ðŀ¤´ ðŀ¤³ðŀ¤µ
ðŀ¤¼ðŀ¤Ń ðŀ¤¤
ðŀ¤¼ðŀ¤Ń ðŀ¤±
ðŀ¤¼ðŀ¤Ń ðŀ¤¥ðŀ¤¢
ðŀ¤¼ðŀ¤Ń ðŀ¤´ðŀ¤¢
ðŀ¤ĭ ðŀ¤§
ðŀ¤ĭ ðŀ¤į
ðŀ¤ĭ ðŀ¤Ĩ
ðŀ¤ĭ ðŀ¤ļðŀ¤Ģ
ðŀ¤ĭ ðŀ¤¿
ðŀ¤ĭ ðŀ¤Ļðŀ¤ĭ
Ġðŀ¤±ðŀ¤®ðŀ¤² ðŀ¤¯ðŀ¤Ń
Ġðŀ¤±ðŀ¤®ðŀ¤² ðŀ¤ºðŀ¤¢ðŀ¤¤
Ġðŀ¤±ðŀ¤®ðŀ¤² ðŀ¤«ðŀ¤ªðŀ¤«
Ġðŀ¤±ðŀ¤®ðŀ¤² ðŀ¤µðŀ¤¯ðŀ¤«
Ġðŀ¤±ðŀ¤®ðŀ¤² ðŀ¤£ðŀ¤¢ðŀ¤²ðŀ¤Ń
Ġðŀ¤±ðŀ¤®ðŀ¤² ðŀ¤Ńðŀ¤ªðŀ¤²ðŀ¤®
Ġðŀ¤±ðŀ¤®ðŀ¤² ðŀ¤µðŀ¤²ðŀ¥ĭðŀ¤ºðŀ¤µ
Ġðŀ¤±ðŀ¤®ðŀ¤² ðŀ¤£ðŀ¤µðŀ¤²ðŀ¥ĭðŀ¤£ðŀ¤µ
ðŀ¤§ ðŀ¤¢ðŀ¤ªðŀ¤Ń
ðŀ¤§ ðŀ¤Ńðŀ¤²ðŀ¤«
ðŀ¤§ ðŀ¤²ðŀ¤¢
ðŀ¤§ ðŀ¤µðŀ¤³
ðŀ¤§ ðŀ¤¢ðŀ¤§ðŀ¤¢
ðŀ¤§ ðŀ¤«ðŀ¤¤ðŀ¤®
ðŀ¤§ ðŀ¤²ðŀ¤¢ðŀ¤¤
ðŀ¤§ ðŀ¤«ðŀ¤¾
ðŀ¤§ ðŀ¤²ðŀ¤¢ðŀ¤²ðŀ¤³ðŀ¤®ðŀ¤±ðŀ¤¢ðŀ¤¤
ðŀ¤§ ðŀ¤«ðŀ¤»ðŀ¤«ðŀ¤¥
ðŀ¤© ðŀ¤®ðŀ¤²
ðŀ¤© ðŀ¤ªðŀ¤«
ðŀ¤© ðŀ¤¼ðŀ¤¢
ðŀ¤© ðŀ¤Ńðŀ¤´
ðŀ¤© ðŀ¤¢ðŀ¤²ðŀ¤®
ðŀ¤© ðŀ¤µðŀ¤¯
ðŀ¤© ðŀ¤µðŀ¤¼
ðŀ¤© ðŀ¤®ðŀ¤²ðŀ¥ĭðŀ¤£ðŀ¤Ńðŀ¤ªðŀ¤¢ðŀ¤¤
ðŀ¤© ðŀ¤®ðŀ¤¼ðŀ¤®
ðŀ¤© ðŀ¤µðŀ¤¼ðŀ¤µðŀ¤ºðŀ¤®ðŀ¤¤
ðŀ¤© ðŀ¤µðŀ¤¼ðŀ¤µðŀ¤£ðŀ¤«
ðŀ¤© ðŀ¤µðŀ¤²ðŀ¥ĭðŀ¤£ðŀ¤µ
ðŀ¤© ðŀ¤Ńðŀ¤²ðŀ¤³
ðŀ¤© ðŀ¤Ńðŀ¤ªðŀ¤²ðŀ¤ºðŀ¤®
Ġðŀ¤£ ðŀ¤Ńðŀ¤²
Ġðŀ¤£ ðŀ¤¢ðŀ¤©
Ġðŀ¤£ ðŀ¤¢ðŀ¤¦
Ġðŀ¤£ ðŀ¤µðŀ¤¥ðŀ¤¦
Ġðŀ¤£ ðŀ¤¢ðŀ¤²ðŀ¤£
Ġðŀ¤£ ðŀ¤¢ðŀ¤²ðŀ¤£ðŀ¤Ń
Ġðŀ¤£ ðŀ¤®ðŀ¤²ðŀ¤³
Ġðŀ¤£ ðŀ¤¢ðŀ¤²ðŀ¤£ðŀ¤µ
Ġðŀ¤²ðŀ¤® ðŀ¤±ðŀ¤ªðŀ¤µ
ðŀ¤ī ðŀ¤¥ðŀ¤¦ðŀ¤¢
ðŀ¤ī ðŀ¤¶ðŀ¤Ńðŀ¤¨ðŀ¤¼ðŀ¤µ
Ġðŀ¤¢ ðŀ¤§ðŀ¤Ń
Ġðŀ¤¢ ðŀ¤»
Ġðŀ¤¢ ðŀ¤¦ðŀ¤µ
Ġðŀ¤¢ ðŀ¤¥ðŀ¤Ń
Ġðŀ¤¢ ðŀ¤±ðŀ¤¢
Ġðŀ¤¢ ðŀ¥ģ
Ġðŀ¤¢ ðŀ¤»ðŀ¤Ń
Ġðŀ¤¢ ðŀ¤¦ðŀ¤£ðŀ¤µðŀ¤ª
Ġðŀ¤ħ ðŀ¤µðŀ¤¤
Ġðŀ¤ħ ðŀ¤¢ðŀ¤¸
Ġðŀ¤ħ ðŀ¤«ðŀ¤£
Ġðŀ¤ħ ðŀ¤ĭðŀ¤Ĳ
Ġðŀ¤ħ ðŀ¤¢ðŀ¤ªðŀ¤®
Ġðŀ¤ħ ðŀ¤¢ðŀ¤²ðŀ¤³
Ġðŀ¤ħ ðŀ¤ĭðŀ¤Ĥ
Ġðŀ¤ħ ðŀ¤ĭðŀ¤ĳ
Ġðŀ¤ħ ðŀ¤µðŀ¤¤ðŀ¤µ
Ġðŀ¤ħ ðŀ¤Ģðŀ¤Ĭ
Ġðŀ¤ħ ðŀ¤Ģðŀ¤Īðŀ¤Ĥ
Ġðŀ¤ħ ðŀ¤Ģðŀ¤ģðŀ¤Ģ
Ġðŀ¤ħ ðŀ¤«ðŀ¤¸ðŀ¤ªðŀ¤«
Ġðŀ¤ħ ðŀ¤¢ðŀ¤²ðŀ¤µ
Ġðŀ¤ħ ðŀ¤īðŀ¤ħðŀ¤ī
Ġðŀ¤ħ ðŀ¤Ģðŀ¤Ħðŀ¤ĵ
Ġðŀ¤ħ ðŀ¤Ģðŀ¤ģðŀ¤ĭðŀ¤Ħðŀ¤Ģ
Ġðŀ¤ħ ðŀ¤Ģðŀ¤ĵðŀ¤ģðŀ¤ĭ
Ġðŀ¤ħ ðŀ¤¢ðŀ¤´ðŀ¤³ðŀ¤µ
ðŀ¤Į ðŀ¤²
ðŀ¤Į ðŀ¤ĳ
ðŀ¤Į ðŀ¤³ðŀ¤§ðŀ¤Ń
Ġðŀ¤Ģ ðŀ¤³
Ġðŀ¤Ģ ðŀ¤¨
Ġðŀ¤Ģ ðŀ¤³ðŀ¤µ
Ġðŀ¤Ģ ðŀ¤Ħðŀ¤ĭ
Ġðŀ¤Ģ ðŀ¤²ðŀ¤£
Ġðŀ¤ĥ ðŀ¤®ðŀ¤²
Ġðŀ¤ĥ ðŀ¤¢ðŀ¤¼
Ġðŀ¤ĥ ðŀ¤¢ðŀ¤¦
Ġðŀ¤ĥ ðŀ¤®ðŀ¤²ðŀ¤®
Ġðŀ¤ĥ ðŀ¤Ńðŀ¤¼
Ġðŀ¤ĥ ðŀ¤¢ðŀ¤§
Ġðŀ¤ĥ ðŀ¤ĭðŀ¤Ĳ
Ġðŀ¤ĥ ðŀ¤¾
Ġðŀ¤ĥ ðŀ¤®ðŀ¤±
Ġðŀ¤ĥ ðŀ¤Ģðŀ¤ĸ
Ġðŀ¤ĥ ðŀ¤Ģðŀ¤Ķ
Ġðŀ¤ĥ ðŀ¤Ģðŀ¤Ĥðŀ¤Ģ
Ġðŀ¤ĥ ðŀ¤ĭðŀ¤Ī
Ġðŀ¤ĥ ðŀ¤Ńðŀ¤¤ðŀ¤¢ðŀ¤²
Ġðŀ¤ĥ ðŀ¤µðŀ¤²ðŀ¤£ðŀ¤®ðŀ¤¤
ðŀ¤®ðŀ¤ª ðŀ¤®ðŀ¤¤
ðŀ¤®ðŀ¤ª ðŀ¤¶
ðŀ¤®ðŀ¤ª ðŀ¤¼ðŀ¤¢ðŀ¤²ðŀ¤Ń
ðŀ¤®ðŀ¤ª ðŀ¤§ðŀ¤µ
ðŀ¤®ðŀ¤ª ðŀ¤¢ðŀ¤£ðŀ¤®
ðŀ¤¢ðŀ¤³ ðŀ¤¢ðŀ¤²
ðŀ¤¢ðŀ¤³ ðŀ¤µðŀ¤ªðŀ¤µ
ðŀ¤¢ðŀ¤³ ðŀ¤Ńðŀ¤¼ðŀ¤«
ðŀ¤¢ðŀ¤³ ðŀ¤¢ðŀ¤¦ðŀ¤¢
ðŀ¤¢ðŀ¤³ ðŀ¤¢ðŀ¤´ðŀ¤®ðŀ¤³ðŀ¤®
Ġðŀ¤©ðŀ¤«ðŀ¤² ðŀ¤¯
Ġðŀ¤©ðŀ¤«ðŀ¤² ðŀ¤£ðŀ¤¢
ðŀ¤¢ðŀ¤£ ðŀ¤¢ðŀ¤²
ðŀ¤¢ðŀ¤£ ðŀ¤¼ðŀ¤Ń
Ġðŀ¤º ðŀ¤«ðŀ¤ªðŀ¤«
Ġðŀ¤º ðŀ¤«ðŀ¤¤
Ġðŀ¤º ðŀ¤µðŀ¤¥ðŀ¤¦
Ġðŀ¤º ðŀ¤Ńðŀ¤³
Ġðŀ¤º ðŀ¤«ðŀ¤©ðŀ¤¢ðŀ¤¤
Ġðŀ¤º ðŀ¤µðŀ¤ªðŀ¤¼ðŀ¤«
Ġðŀ¤¸ðŀ¤® ðŀ¤¶
Ġðŀ¤¸ðŀ¤® ðŀ¤£ðŀ¤®
Ġðŀ¤¸ðŀ¤® ðŀ¤¯ðŀ¤µðŀ¤¯ðŀ¤®
ðŀ¤¢ðŀ¤¥ ðŀ¤¢ðŀ¤£ðŀ¤Ń
ðŀ¤¢ðŀ¤¥ ðŀ¤«ðŀ¤ªðŀ¤«
ðŀ¤¢ðŀ¤¥ ðŀ¤¦ðŀ¤¢
ðŀ¤¢ðŀ¤¥ ðŀ¤¦ðŀ¤Ń
ðŀ¤¢ðŀ¤¥ ðŀ¤Ńðŀ¤ªðŀ¤¢
ðŀ¤¢ðŀ¤¥ ðŀ¤Ńðŀ¤¦
ðŀ¤¢ðŀ¤¥ ðŀ¤¨ðŀ¤¢
ðŀ¤µðŀ¤¥ ðŀ¤®
ðŀ¤¢ðŀ¤¼ ðŀ¤µðŀ¤¤
ðŀ¤¢ðŀ¤¼ ðŀ¤Ńðŀ¤ªðŀ¤¢
Ġðŀ¤» ðŀ¤«ðŀ¤±ðŀ¤¤ðŀ¤µ
ðŀ¤Ĳ ðŀ¤ºðŀ¤µ
ðŀ¤Ĳ ðŀ¤ģðŀ¤ĭ
ðŀ¤Ĳ ðŀ¤£ðŀ¤«ðŀ¤²
ðŀ¤Ĳ ðŀ¤ģðŀ¤ĵ
ðŀ¤Ĳ ðŀ¤Ģðŀ¤Ķ
ðŀ¤Ĳ ðŀ¤Ģðŀ¤Ĳðŀ¤ĳðŀ¤Į
ðŀ¤Ĳ ðŀ¤Ģðŀ¤ľ
ðŀ¤Ĳ ðŀ¤¦ðŀ¤¢ðŀ¤¼ðŀ¤µ
Ġðŀ¤Ĳ ðŀ¤¢ðŀ¤²ðŀ¤®
Ġðŀ¤Ĳ ðŀ¤Įðŀ¤Ĳ
Ġðŀ¤Ĳ ðŀ¤¢ðŀ¤¶
Ġðŀ¤Ĳ ðŀ¤ĵðŀ¤Ĳ
Ġðŀ¤Ĳ ðŀ¤µðŀ¤¤ðŀ¤«
Ġðŀ¤Ĳ ðŀ¤īðŀ¤Ĵ
Ġðŀ¤Ĳ ðŀ¤£ðŀ¤µðŀ¤²
Ġðŀ¤Ĳ ðŀ¤¢ðŀ¤¦ðŀ¤Ń
Ġðŀ¤Ĳ ðŀ¤Ģðŀ¤Īðŀ¤ĳ
Ġðŀ¤Ĳ ðŀ¤¢ðŀ¤¥ðŀ¤Ńðŀ¤¦
Ġðŀ¤¬ðŀ¤Ń ðŀ¤¶ðŀ¤«
Ġðŀ¤¬ðŀ¤Ń ðŀ¤°
Ġðŀ¤¬ðŀ¤Ń ðŀ¤¯ðŀ¤¢
Ġðŀ¤¬ðŀ¤Ń ðŀ¤¼ðŀ¤Ńðŀ¤²ðŀ¤¢
Ġðŀ¤¬ðŀ¤Ń ðŀ¤¯ðŀ¤µðŀ¤²ðŀ¤®
Ġðŀ¤¬ðŀ¤Ń ðŀ¤¯ðŀ¤¢ðŀ¤²ðŀ¤®
Ġðŀ¤¬ðŀ¤Ń ðŀ¤©ðŀ¤«ðŀ¤²
Ġðŀ¤© ðŀ¤Ńðŀ¤¼
Ġðŀ¤© ðŀ¤®ðŀ¤¤ðŀ¤®
Ġðŀ¤© ðŀ¤¢ðŀ¤ªðŀ¤Ńðŀ¤²
ðŀ¤¯ðŀ¤® ðŀ¤£ðŀ¤¢ðŀ¤¤
ðŀ¤¯ðŀ¤® ðŀ¤¼ðŀ¤Ńðŀ¤ªðŀ¤¢ðŀ¤¤
ðŀ¤¢ðŀ¤¯ ðŀ¤®
ðŀ¤¢ðŀ¤¯ ðŀ¤¼ðŀ¤Ńðŀ¤ªðŀ¤£ðŀ¤«
ðŀ¤¯ðŀ¤Ń ðŀ¤¼ðŀ¤¢
Ġðŀ¤ĺ ðŀ¤¢ðŀ¤²
Ġðŀ¤ĺ ðŀ¤ī
Ġðŀ¤ĺ ðŀ¤«ðŀ¤´
Ġðŀ¤ĺ ðŀ¤ªðŀ¤µ
Ġðŀ¤ĺ ðŀ¤¢ðŀ¤¥ðŀ¤¦
Ġðŀ¤ĺ ðŀ¤Ńðŀ¤¼ðŀ¤«
ðŀ¤Ńðŀ¤ª ðŀ¤¢ðŀ¤´
ðŀ¤Ńðŀ¤ª ðŀ¤¢ðŀ¤²ðŀ¤£ðŀ¤«
ðŀ¤Ńðŀ¤ª ðŀ¤³ðŀ¤Ń
ðŀ¤¼ðŀ¤® ðŀ¤£ðŀ¤Ń
ðŀ¤¼ðŀ¤® ðŀ¤±ðŀ¤®
ðŀ¤¼ðŀ¤® ðŀ¤£ðŀ¤¢
ðŀ¤¼ðŀ¤® ðŀ¤´ðŀ¤®
ðŀ¤¼ðŀ¤® ðŀ¤±ðŀ¤µðŀ¤²
ðŀ¤¼ðŀ¤® ðŀ¤´ðŀ¤¼ðŀ¤«
ðŀ¤¢ðŀ¤£ðŀ¤Ń ðŀ¤´ðŀ¤¢ðŀ¤¼ðŀ¤µ
ðŀ¤Ńðŀ¤¥ ðŀ¤¢ðŀ¤²
âĢ ¬
âĢ ĵ
Ġðŀ¤ĳðŀ¤® ðŀ¤ªðŀ¤Ń
Ġðŀ¤ĳðŀ¤® ðŀ¤±ðŀ¤Ń
Ġðŀ¤ĳðŀ¤® ðŀ¤¬ðŀ¤Ń
Ġðŀ¤Ħ ðŀ¤®ðŀ¤²
Ġðŀ¤Ħ ðŀ¤ªðŀ¤«
Ġðŀ¤Ħ ðŀ¤Į
Ġðŀ¤Ħ ðŀ¤¢ðŀ¤£
Ġðŀ¤Ħ ðŀ¤Ńðŀ¤´
Ġðŀ¤Ħ ðŀ¤¢ðŀ¤²ðŀ¤®
Ġðŀ¤Ħ ðŀ¤Ńðŀ¤¤
Ġðŀ¤Ħ ðŀ¤®ðŀ¤¼
Ġðŀ¤Ħ ðŀ¤Ģðŀ¤Īðŀ¤Į
Ġðŀ¤Ħ ðŀ¤Ģðŀ¤Īðŀ¤Ģ
Ġðŀ¤Ħ ðŀ¤®ðŀ¤¤ðŀ¤¢
Ġðŀ¤Ħ ðŀ¤Ģðŀ¤ħðŀ¤ĭ
Ġðŀ¤Ħ ðŀ¤Ńðŀ¤¥ðŀ¤¦ðŀ¤Ń
Ġðŀ¤Ħ ðŀ¤Ģðŀ¤Ĥðŀ¤Ģ
Ġðŀ¤Ħ ðŀ¤Ģðŀ¤ļðŀ¤Ģ
Ġðŀ¤Ħ ðŀ¤µðŀ¤ªðŀ¤µðŀ¤²
Ġðŀ¤Ħ ðŀ¤ĭðŀ¤Ĥðŀ¤ĭ
Ġðŀ¤Ħ ðŀ¤Įðŀ¤ļ
Ġðŀ¤Ħ ðŀ¤¢ðŀ¤²ðŀ¤µ
Ġðŀ¤Ħ ðŀ¤ĭðŀ¤Ĳðŀ¤ģðŀ¤Įðŀ¤Ĥ
Ġðŀ¤Ħ ðŀ¤¢ðŀ¤±ðŀ¤¯ðŀ¤®
Ġðŀ¤Ħ ðŀ¤¢ðŀ¤²ðŀ¤¢ðŀ¤²ðŀ¤³ðŀ¤®ðŀ¤ªðŀ¤®
Ġðŀ¤Ħ ðŀ¤ªðŀ¤Ńðŀ¤¼ðŀ¤«ðŀ¤²
ðŀ¤ĵ ðŀ¤ģðŀ¤ī
ðŀ¤ĵ ðŀ¤Īðŀ¤Ģ
ðŀ¤ĵ ðŀ¤įðŀ¤ī
ðŀ¤ĵ ðŀ¤įðŀ¤ĭ
ðŀ¤¤ðŀ¤Ń ðŀ¤£
ðŀ¤¤ðŀ¤Ń ðŀ¤º
ðŀ¤¤ðŀ¤Ń ðŀ¤¦
ðŀ¤¤ðŀ¤Ń ðŀ¤§ðŀ¤®
ðŀ¤¬ ðŀ¤µðŀ¤©ðŀ¤«
ðŀ¤¬ ðŀ¤«ðŀ¤ª
ðŀ¤¬ ðŀ¤¼ðŀ¤Ńðŀ¤²ðŀ¤Ń
ðŀ¤¬ ðŀ¤®ðŀ¤¼
ðŀ¤¬ ðŀ¤Ńðŀ¤¼ðŀ¤¢
ðŀ¤¬ ðŀ¤¼ðŀ¤®ðŀ¤ªðŀ¤¢
ðŀ¤¬ ðŀ¤Ńðŀ¤ªðŀ¤ºðŀ¤¢ðŀ¤¤
ðŀ¤¬ ðŀ¤®ðŀ¤²ðŀ¤Ń
ðŀ¤Ī ðŀ¤ģðŀ¤ĵ
ðŀ¤Ī ðŀ¤Ĳðŀ¤ĭ
ðŀ¤Ī ðŀ¤Ģðŀ¤Ĭ
ðŀ¤Ī ðŀ¤Ĳðŀ¤Ģðŀ¤Ĳðŀ¤ĳðŀ¤Į
Ġðŀ¤¬ðŀ¤® ðŀ¤£
Ġðŀ¤¬ðŀ¤® ðŀ¤¼ðŀ¤¢ðŀ¤¤
Ġðŀ¤¬ðŀ¤® ðŀ¤£ðŀ¤µðŀ¤£ðŀ¤«
Ġðŀ¤¬ðŀ¤® ðŀ¤±ðŀ¤¼ðŀ¤Ń
Ġðŀ¤¬ðŀ¤® ðŀ¤£ðŀ¤Ńðŀ¤ªðŀ¤²ðŀ¤®
Ġðŀ¤¥ðŀ¤® ðŀ¤ªðŀ¤Ń
Ġðŀ¤¥ðŀ¤® ðŀ¤©ðŀ¤¼ðŀ¤Ńðŀ¤²ðŀ¥ĭ
ðŀ¤¼ðŀ¤Ńðŀ¤² ðŀ¤«ðŀ¤²
ðŀ¤¼ðŀ¤Ńðŀ¤² ðŀ¤¼ðŀ¤¢
ðŀ¤¼ðŀ¤Ńðŀ¤² ðŀ¥ĭ
ðŀ¤¼ðŀ¤Ńðŀ¤² ðŀ¤£ðŀ¤Ńðŀ¤²ðŀ¤Ń
ðŀ¤¼ðŀ¤Ńðŀ¤² ðŀ¤¢ðŀ¤²ðŀ¤¼ðŀ¤®
Ġðŀ¤²ðŀ¤ºðŀ¤¢ðŀ¤¤ ðŀ¤®
ðŀ¤¢ðŀ¤¦ ðŀ¤Ńðŀ¤´ðŀ¤¢
Ġðŀ¤¦ ðŀ¤¢ðŀ¤´
Ġðŀ¤¦ ðŀ¤¢ðŀ¤§
Ġðŀ¤¦ ðŀ¤µðŀ¤¼
Ġðŀ¤¦ ðŀ¤®ðŀ¤¤ðŀ¤Ń
Ġðŀ¤¦ ðŀ¤®ðŀ¤ªðŀ¤¼ðŀ¤¢
Ġðŀ¤Ĭ ðŀ¤®ðŀ¤±
Ġðŀ¤Ĭ ðŀ¤¢ðŀ¤´ðŀ¤©ðŀ¤«
Ġðŀ¤Ĭ ðŀ¤Ģðŀ¤Īðŀ¤Ģðŀ¤Ĳ
Ġðŀ¤Ĭ ðŀ¤µðŀ¤¤ðŀ¤«
Ġðŀ¤Ĭ ðŀ¤¢ðŀ¤²ðŀ¤¼ðŀ¤¢
Ġðŀ¤Ĭ ðŀ¤®ðŀ¤²ðŀ¤ºðŀ¤®
Ġðŀ¤Ĭ ðŀ¤īðŀ¤ģ
Ġðŀ¤Ĭ ðŀ¤¢ðŀ¤ªðŀ¤¢ðŀ¤²ðŀ¤³ðŀ¤®
Ġðŀ¤Ĭ ðŀ¤Įðŀ¤Ĳðŀ¤ĭðŀ¤ĳðŀ¤ī
Ġðŀ¤Ĭ ðŀ¤«ðŀ¤±ðŀ¤¶ðŀ¤®
Ġðŀ¤Ĭ ðŀ¤¢ðŀ¤¤ðŀ¤¼ðŀ¤Ńðŀ¤²
Ġðŀ¤Ĭ ðŀ¤¢ðŀ¤³ðŀ¤¢ðŀ¤¦ðŀ¤¢
ðŀ¤¨ ðŀ¤Ńðŀ¤²
ðŀ¤¨ ðŀ¤«ðŀ¤²
ðŀ¤¨ ðŀ¤¢ðŀ¤²ðŀ¤®
ðŀ¤¨ ðŀ¤Ńðŀ¤²ðŀ¤®
ðŀ¤¨ ðŀ¤Ńðŀ¤ªðŀ¤Ń
ðŀ¤¨ ðŀ¤®ðŀ¤¤ðŀ¤¢
Ġðŀ¤¯ðŀ¤«ðŀ¤² ðŀ¤¯ðŀ¤«ðŀ¤´ðŀ¤¢ðŀ¤²ðŀ¤³ðŀ¤®
Ġðŀ¤¼ðŀ¤¢ðŀ¤± ðŀ¤¼ðŀ¤¢
Ġðŀ¤¼ðŀ¤¢ðŀ¤± ðŀ¤Ńðŀ¤²ðŀ¤«
Ġðŀ¤¼ðŀ¤¢ðŀ¤± ðŀ¤®ðŀ¤´
Ġðŀ¤¼ðŀ¤¢ðŀ¤± ðŀ¤¼ðŀ¤µðŀ¤£ðŀ¤«
Ġðŀ¤¼ðŀ¤¢ðŀ¤± ðŀ¤¼ðŀ¤µðŀ¤²ðŀ¤®
Ġðŀ¤¼ðŀ¤¢ðŀ¤± ðŀ¤¼ðŀ¤¢ðŀ¤¼ðŀ¤¢
Ġðŀ¤¼ðŀ¤¢ðŀ¤± ðŀ¤¼ðŀ¤®ðŀ¤¼ðŀ¤¢
Ġðŀ¤¼ðŀ¤¢ðŀ¤± ðŀ¤µðŀ¤¯ðŀ¤«ðŀ¤²
Ġðŀ¤¼ðŀ¤¢ðŀ¤± ðŀ¤¼ðŀ¤®ðŀ¤´ðŀ¤Ń
Ġðŀ¤¼ðŀ¤¢ðŀ¤± ðŀ¤£ðŀ¤®ðŀ¤ªðŀ¤¢
Ġðŀ¤¼ðŀ¤¢ðŀ¤± ðŀ¤¼ðŀ¤®ðŀ¤´ðŀ¤¢
Ġðŀ¤¤ðŀ¤«ðŀ¤´ ðŀ¤ªðŀ¤µ
Ġðŀ¤ĸ ðŀ¤®ðŀ¤ª
Ġðŀ¤ĸ ðŀ¤Ńðŀ¤´
Ġðŀ¤ĸ ðŀ¤¢ðŀ¤º
Ġðŀ¤ĸ ðŀ¤µðŀ¤©ðŀ¤«
Ġðŀ¤ĸ ðŀ¤«ðŀ¤´
Ġðŀ¤ĸ ðŀ¤Ńðŀ¤²ðŀ¤®
Ġðŀ¤ĸ ðŀ¤Ģðŀ¤Ĵ
Ġðŀ¤ĸ ðŀ¤Ģðŀ¤Ĩ
Ġðŀ¤ĸ ðŀ¤¢ðŀ¤¦ðŀ¤¢
Ġðŀ¤ĸ ðŀ¤¢ðŀ¤¾
Ġðŀ¤ĸ ðŀ¤ĵðŀ¤ĩðŀ¤ī
Ġðŀ¤ĸ ðŀ¤īðŀ¤ıðŀ¤ļðŀ¤ĭ
Ġðŀ¤ĸ ðŀ¤Ģðŀ¤Ħðŀ¤ĭ
Ġðŀ¤ĸ ðŀ¤Ģðŀ¤Ĺ
Ġðŀ¤ĸ ðŀ¤¢ðŀ¤£ðŀ¤Ńðŀ¤´ðŀ¤¢ðŀ¤¼ðŀ¤µ
Ġðŀ¤ĸ ðŀ¤Ńðŀ¤¥ðŀ¤¢ðŀ¤²
ðŀ¤ĳ ðŀ¤®ðŀ¤¤
ðŀ¤ĳ ðŀ¤ĵðŀ¤Ĳ
ðŀ¤ĳ ðŀ¤®ðŀ¤ªðŀ¤®
ðŀ¤ĳ ðŀ¤Ģðŀ¤Ĥðŀ¤ĭ
ðŀ¤ĳ ðŀ¤Ģðŀ¤Ĩ
ðŀ¤ĳ ðŀ¤īðŀ¤ı
ðŀ¤ĳ ðŀ¤¢ðŀ¤¼ðŀ¤Ń
ðŀ¤ĳ ðŀ¤Ħðŀ¤Ģðŀ¤Ī
ðŀ¤ĳ ðŀ¤¢ðŀ¤ªðŀ¤®ðŀ¤¼
ðŀ¤ĳ ðŀ¤¢ðŀ¤¥ðŀ¤¨ðŀ¤¢
ðŀ¤«ðŀ¤± ðŀ¤©ðŀ¤«
ðŀ¤«ðŀ¤± ðŀ¤¯ðŀ¤Ń
ðŀ¤«ðŀ¤± ðŀ¤«ðŀ¤¤
ðŀ¤µðŀ¤ª ðŀ¤¢ðŀ¤¤
ðŀ¤µðŀ¤ª ðŀ¤¥ðŀ¤Ń
ðŀ¤µðŀ¤ª ðŀ¤¦ðŀ¤«ðŀ¤¤
Ġðŀ¤±ðŀ¤¢ðŀ¤¯ ðŀ¤¼ðŀ¤¢
Ġðŀ¤±ðŀ¤¢ðŀ¤¯ ðŀ¤µðŀ¤©ðŀ¤«
Ġðŀ¤±ðŀ¤¢ðŀ¤¯ ðŀ¤²ðŀ¤ºðŀ¤®
Ġðŀ¤±ðŀ¤¢ðŀ¤¯ ðŀ¤µðŀ¤²ðŀ¥ĭðŀ¤£ðŀ¤«
ðŀ¤Ńðŀ¤´ ðŀ¤«ðŀ¤¦
ðŀ¤±ðŀ¤® ðŀ¤ªðŀ¤Ń
ðŀ¤±ðŀ¤® ðŀ¤¼ðŀ¤¢
ðŀ¤±ðŀ¤® ðŀ¤±ðŀ¤®ðŀ¤¤
ðŀ¤±ðŀ¤® ðŀ¤´ðŀ¤¼ðŀ¤¢
ðŀ¤±ðŀ¤® ðŀ¤´ðŀ¤¢ðŀ¤´
ðŀ¤ºðŀ¤¢ðŀ¤¤ ðŀ¤¶ðŀ¤®
ðŀ¤£ðŀ¤® ðŀ¤³
ðŀ¤£ðŀ¤® ðŀ¤´ðŀ¤ºðŀ¤®ðŀ¤¤
Ġðŀ¤ģ ðŀ¤¢ðŀ¤¼
Ġðŀ¤ģ ðŀ¤«ðŀ¤¤
Ġðŀ¤ģ ðŀ¤¢ðŀ¤ªðŀ¤¢
Ġðŀ¤ģ ðŀ¤¢ðŀ¤±ðŀ¤µ
Ġðŀ¤ģ ðŀ¤Ģðŀ¤ĳ
Ġðŀ¤ģ ðŀ¤Ģðŀ¤ı
Ġðŀ¤ģ ðŀ¤ĭðŀ¤Ī
Ġðŀ¤ģ ðŀ¤īðŀ¤Ĳðŀ¤ĺ
Ġðŀ¤ģ ðŀ¤ªðŀ¤Ńðŀ¤´ðŀ¤¢ðŀ¤²
Ġðŀ¤ģ ðŀ¤¢ðŀ¤¤ðŀ¤¢ðŀ¤±ðŀ¤®ðŀ¤¤
Ġðŀ¤ģ ðŀ¤®ðŀ¤²ðŀ¤³ðŀ¤¢
Ġðŀ¤ģ ðŀ¤«ðŀ¤ĺðŀ¤ĸðŀ¤Ģ
Ġðŀ¤ī ðŀ¤¼ðŀ¤¢
Ġðŀ¤ī ðŀ¤Ĳ
Ġðŀ¤ī ðŀ¤ªðŀ¤Ńðŀ¤³
Ġðŀ¤ī ðŀ¤Īðŀ¤ĭðŀ¤ĳ
Ġðŀ¤ī ðŀ¤²ðŀ¤£
Ġðŀ¤ī ðŀ¤²ðŀ¤£ðŀ¤®
Ġðŀ¤ī ðŀ¤Ķðŀ¤ĭ
Ġðŀ¤ī ðŀ¤¥ðŀ¤¢ðŀ¤²ðŀ¤µðŀ¤´ðŀ¤«ðŀ¤¤
ðŀ¤¤ðŀ¤« ðŀ¤ºðŀ¤®ðŀ¤¤
ðŀ¤ģ ðŀ¤Ģðŀ¤Ī
ðŀ¤ģ ðŀ¤Ģðŀ¤ı
ðŀ¤ģ ðŀ¤«ðŀ¤Ĳ
ðŀ¤ģ ðŀ¤ģðŀ¤ĺ
ðŀ¤ģ ðŀ¤Ģðŀ¤ĥðŀ¤Ģ
ðŀ¤ģ ðŀ¤Ńðŀ¤Ĩðŀ¤Ń
ðŀ¤³ðŀ¤® ðŀ¤¥ðŀ¤¦ðŀ¤®
Ġðŀ¤¨ ðŀ¤¢
Ġðŀ¤¨ ðŀ¤¢ðŀ¤¯ðŀ¤«
Ġðŀ¤¨ ðŀ¤«ðŀ¤·
Ġðŀ¤¨ ðŀ¤µðŀ¤´
Ġðŀ¤¨ ðŀ¤«ðŀ¤²ðŀ¤ºðŀ¤®ðŀ¤¤
Ġðŀ¤Ķ ðŀ¤«
Ġðŀ¤Ķ ðŀ¤Ń
Ġðŀ¤Ķ ðŀ¤«ðŀ¤²
Ġðŀ¤Ķ ðŀ¤¢ðŀ¤ªðŀ¤¢
Ġðŀ¤Ķ ðŀ¤®ðŀ¤±
Ġðŀ¤Ķ ðŀ¤īðŀ¤Ĳðŀ¤ī
Ġðŀ¤Ķ ðŀ¤Įðŀ¤Ī
Ġðŀ¤Ķ ðŀ¤Ģðŀ¤Ħ
Ġðŀ¤Ķ ðŀ¤¢ðŀ¤²ðŀ¤ºðŀ¤®
Ġðŀ¤Ķ ðŀ¤¢ðŀ¤´ðŀ¥ĥ
Ġðŀ¤Ķ ðŀ¤¢ðŀ¤ªðŀ¤¥ðŀ¤¢ðŀ¤²ðŀ¤Ń
Ġðŀ¤Ķ ðŀ¤ĭðŀ¤Ħðŀ¤ĵ
Ġðŀ¤Ķ ðŀ¤«ðŀ¤´ðŀ¤²ðŀ¤¢ðŀ¤¦ðŀ¤µ
Ġðŀ¤Ķ ðŀ¤¢ðŀ¤³ðŀ¤Ńðŀ¤¼ðŀ¤«
Ġðŀ¤Ķ ðŀ¤µðŀ¤ªðŀ¤¦ðŀ¤«ðŀ¤¤
Ġðŀ¤Ń ðŀ¤±ðŀ¤®ðŀ¤´ðŀ¤¼ðŀ¤¢
Ġðŀ¤· ðŀ¤¢ðŀ¤¦
Ġðŀ¤· ðŀ¤¢ðŀ¤³ðŀ¤¢
Ġðŀ¤· ðŀ¤Ńðŀ¤¨
Ġðŀ¤· ðŀ¤¢ðŀ¤¼ðŀ¤Ń
Ġðŀ¤· ðŀ¤µðŀ¤¯ðŀ¤¢
Ġðŀ¤· ðŀ¤«ðŀ¤±ðŀ¤¯ðŀ¤Ń
Ġðŀ¤»ðŀ¤¢ðŀ¤¤ ðŀ¤£ðŀ¤«
Ġðŀ¤»ðŀ¤¢ðŀ¤¤ ðŀ¤¯ðŀ¤Ń
Ġðŀ¤»ðŀ¤¢ðŀ¤¤ ðŀ¤²ðŀ¤£
ðŀ¥Ĵ ðŀ¥ĵ
ðŀ¥Ĵ ðŀ¥ĺ
ðŀ¤ºðŀ¤® ðŀ¤´ðŀ¤Ń
Ġðŀ¤¸ðŀ¤Ń ðŀ¤©
Ġðŀ¤§ðŀ¤® ðŀ¤¨
Ġðŀ¤§ðŀ¤® ðŀ¤³ðŀ¤®
Ġðŀ¤§ðŀ¤® ðŀ¤Ńðŀ¤ªðŀ¤¢
Ġðŀ¤§ðŀ¤® ðŀ¤ªðŀ¤Ńðŀ¤´ðŀ¤¢
Ġðŀ¤§ðŀ¤® ðŀ¤±ðŀ¤²ðŀ¤£ðŀ¤Ń
Ġðŀ¤§ðŀ¤® ðŀ¤´ðŀ¤ªðŀ¤µ
ðŀ¤¥ðŀ¤µ ðŀ¤¯ðŀ¤¢
ðŀ¤¥ðŀ¤µ ðŀ¤±ðŀ¤¢ðŀ¤¤
ðŀ¤¥ðŀ¤µ ðŀ¤´ðŀ¤¢ðŀ¤²ðŀ¤³ðŀ¤«
Ġðŀ¤¶ðŀ¤® ðŀ¤±ðŀ¤®
Ġðŀ¤¶ðŀ¤® ðŀ¤ºðŀ¤®ðŀ¤ª
Ġðŀ¤¶ðŀ¤® ðŀ¤ºðŀ¤®ðŀ¤ªðŀ¤¢
Ġðŀ¤ª ðŀ¤Ńðŀ¤¥ðŀ¤©ðŀ¤«
Ġðŀ¤ª ðŀ¤«ðŀ¤±ðŀ¤²
Ġðŀ¤ª ðŀ¤¢ðŀ¤¯ðŀ¤«
Ġðŀ¤ª ðŀ¤µðŀ¤³
Ġðŀ¤ª ðŀ¤«ðŀ¤²ðŀ¤£ðŀ¤Ń
Ġðŀ¤ª ðŀ¤®ðŀ¥ģ
ðŀ¤Ĥ ðŀ¤Ģðŀ¤Ĥ
ðŀ¤Ĥ ðŀ¤ģðŀ¤ī
ðŀ¤Ĥ ðŀ¤Ńðŀ¤£
ðŀ¤Ĥ ðŀ¤įðŀ¤ī
ðŀ¤Ĥ ðŀ¤īðŀ¤ı
ðŀ¤Ĥ ðŀ¤Ģðŀ¤Ĳðŀ¤ģ
ðŀ¤Ĥ ðŀ¤¢ðŀ¤ĸðŀ¤Ģ
ðŀ¤©ðŀ¤Ń ðŀ¤¸ðŀ¤¢
ðŀ¤©ðŀ¤Ń ðŀ¤¸ðŀ¤¢ðŀ¤¼
ðŀ¤©ðŀ¤Ń ðŀ¤¼ðŀ¤¢ðŀ¤²ðŀ¤ºðŀ¤®ðŀ¤¤
ðŀ¤©ðŀ¤Ń ðŀ¤¼ðŀ¤®ðŀ¤´ðŀ¤¼ðŀ¤«
Ġðŀ¤£ðŀ¤µ ðŀ¤ªðŀ¤«
Ġðŀ¤£ðŀ¤µ ðŀ¤»ðŀ¤¢
Ġðŀ¤£ðŀ¤µ ðŀ¤¶ðŀ¤µðŀ¤²ðŀ¤¢
Ġðŀ¤£ðŀ¤µ ðŀ¤¤ðŀ¤¦ðŀ¤Ńðŀ¤²ðŀ¤£ðŀ¤«
ðŀ¤µðŀ¤¤ ðŀ¤³ðŀ¤«ðŀ¤§ðŀ¤Ń
Ġðŀ¤ļ ðŀ¤Įðŀ¤Ĳ
Ġðŀ¤ļ ðŀ¤Ńðŀ¤§
Ġðŀ¤ļ ðŀ¤¢ðŀ¤±ðŀ¤¼ðŀ¤Ń
Ġðŀ¤ļ ðŀ¤Ģðŀ¤Ĵ
Ġðŀ¤ļ ðŀ¤®ðŀ¤ªðŀ¤®
Ġðŀ¤ļ ðŀ¤Ģðŀ¤ı
Ġðŀ¤ļ ðŀ¤Ńðŀ¤³
Ġðŀ¤ļ ðŀ¤ĵðŀ¤ĥ
Ġðŀ¤ļ ðŀ¤µðŀ¤ªðŀ¤¢
Ġðŀ¤ļ ðŀ¤Ńðŀ¤¨
Ġðŀ¤ļ ðŀ¤¢ðŀ¤³ðŀ¤µ
Ġðŀ¤ļ ðŀ¤±ðŀ¤Ńðŀ¤¼ðŀ¤«ðŀ¤ª
Ġðŀ¤ļ ðŀ¤µðŀ¤¥ðŀ¤¦ðŀ¤®ðŀ¤²ðŀ¥ĭðŀ¤£ðŀ¤Ńðŀ¤ªðŀ¤¢ðŀ¤¤
Ġðŀ¤ļ ðŀ¤Ģðŀ¤İ
ðŀ¤¶ðŀ¤Ń ðŀ¤³
ðŀ¤ĺ ðŀ¤īðŀ¤Ĳ
ðŀ¤ĺ ðŀ¤Ģðŀ¤Ĳðŀ¤Ģ
ðŀ¤ĺ ðŀ¤Ģðŀ¤Ĵðŀ¤Į
ðŀ¤ĺ ðŀ¤Ĥðŀ¤¢ðŀ¤ĸðŀ¤Ģ
Ġðŀ¤´ðŀ¤® ðŀ¤©ðŀ¤«
Ġðŀ¤´ðŀ¤® ðŀ¤©ðŀ¤µðŀ¤£ðŀ¤«
ðŀ¤¸ ðŀ¤¢ðŀ¤£
ðŀ¤¸ ðŀ¤¢ðŀ¤²ðŀ¤Ń
ðŀ¤¸ ðŀ¤¢ðŀ¤²ðŀ¤³ðŀ¤Ń
ðŀ¤¸ ðŀ¤®ðŀ¤´
ðŀ¤¸ ðŀ¤®ðŀ¤ªðŀ¤¦ðŀ¤Ńðŀ¤ª
ðŀ¤ħ ðŀ¤¢ðŀ¤²
ðŀ¤ħ ðŀ¤ĭðŀ¤Ĳ
ðŀ¤ħ ðŀ¤µðŀ¤¼
ðŀ¤ħ ðŀ¤īðŀ¤Ĳ
ðŀ¤ħ ðŀ¤«ðŀ¤²ðŀ¤«ðŀ¤ºðŀ¤¢ðŀ¤¤
ðŀ¤ħ ðŀ¤ĵðŀ¤Ĳ
ðŀ¤ħ ðŀ¤Ĳðŀ¤Ģ
ðŀ¤ħ ðŀ¤ĵðŀ¤ı
ðŀ¤ħ ðŀ¤µðŀ¤©ðŀ¤®
ðŀ¤ħ ðŀ¤Ģðŀ¤ĥðŀ¤Ħðŀ¤ĭðŀ¤ĳ
ðŀ¤ħ ðŀ¤Ģðŀ¤ģðŀ¤ĭðŀ¤Ħðŀ¤Ģ
ðŀ¤ħ ðŀ¤ıðŀ¤Ģðŀ¤Ĳðŀ¤Ģ
nðŀ¤ĳ ðŀ¤Ń
nðŀ¤ĳ ðŀ¤¢ðŀ¤¥
nðŀ¤ĳ ðŀ¤µðŀ¤¥ðŀ¤¨
Ġðŀ¤§ðŀ¤µ ðŀ¤£
Ġðŀ¤§ðŀ¤µ ðŀ¤¼
Ġðŀ¤§ðŀ¤µ ðŀ¤ªðŀ¤Ń
Ġðŀ¤±ðŀ¤® ðŀ¤¯ðŀ¤®
Ġðŀ¤±ðŀ¤® ðŀ¤´ðŀ¤¢
Ġðŀ¤±ðŀ¤® ðŀ¤¯ðŀ¤®ðŀ¤¼ðŀ¤®
Ġðŀ¤ºðŀ¤® ðŀ¤¼ðŀ¤®
le c
le d
ðŀ¤ĥ ðŀ¤¢ðŀ¤ª
ðŀ¤ĥ ðŀ¤ī
ðŀ¤ĥ ðŀ¤Ģðŀ¤Ĥ
ðŀ¤ĥ ðŀ¤ĭðŀ¤Ĳ
ðŀ¤ĥ ðŀ¤Ńðŀ¤§
ðŀ¤ĥ ðŀ¤ĭðŀ¤Ĳðŀ¤Ģ
ðŀ¤ĥ ðŀ¤Ģðŀ¤Ļ
ðŀ¤ĥ ðŀ¤µðŀ¤¸ðŀ¤¢ðŀ¤¥
ðŀ¤ĥ ðŀ¤¢ðŀ¤³ðŀ¤Ń
ðŀ¤ĥ ðŀ¤Ħðŀ¤Į
it e
it ion
it ul
it tle
it led
ðŀ¤³ðŀ¤Ń ðŀ¤¼ðŀ¤¢ðŀ¤²ðŀ¤®
ðŀ¤¶ðŀ¤« ðŀ¤ªðŀ¤Ń
ðŀ¤¢ðŀ¤²ðŀ¤º ðŀ¤¢
ðŀ¤¢ðŀ¤²ðŀ¤º ðŀ¤¢ðŀ¤²ðŀ¤Ń
ðŀ¤¢ðŀ¤²ðŀ¤º ðŀ¤Ńðŀ¤²ðŀ¤¢
ðŀ¤«ðŀ¤¤ ðŀ¤¼ðŀ¤®
ðŀ¤¢ðŀ¤¨ ðŀ¤®
Ġðŀ¤¥ðŀ¤¢ ðŀ¤¢
ent re
ent ral
ðŀ¤¢ðŀ¤¸ ðŀ¤µðŀ¤²
ðŀ¤¢ðŀ¤¸ ðŀ¤¦
Ġðŀ¤Į ðŀ¤¤ðŀ¤Ń
Ġðŀ¤Į ðŀ¤¬ðŀ¤µ
Ġðŀ¤Į ðŀ¤ĥðŀ¤Į
Ġðŀ¤Į ðŀ¤¤ðŀ¤«ðŀ¤§
Ġðŀ¤Į ðŀ¤¬ðŀ¤®ðŀ¤´
co uter
ðŀ¤Ģðŀ¤Ĥ ðŀ¤Ģðŀ¤Ĥ
ðŀ¤Ģðŀ¤Ĥ ðŀ¤į
ðŀ¤Ģðŀ¤Ĥ ðŀ¤īðŀ¤ħ
ðŀ¤Ģðŀ¤Ĥ ðŀ¤Ĭðŀ¤Ģ
ðŀ¤Ģðŀ¤Ĥ ðŀ¤ĥðŀ¤Ģðŀ¤Ĳ
ðŀ¤ļ ðŀ¤Įðŀ¤Ĳ
ðŀ¤ļ ðŀ¤Ģðŀ¤ļ
ðŀ¤ļ ðŀ¤Īðŀ¤Į
ðŀ¤ļ ðŀ¤ĵðŀ¤ĥ
ðŀ¤ļ ðŀ¤Įðŀ¤Ī
ðŀ¤ļ ðŀ¤Ģðŀ¤ĺðŀ¤Įðŀ¤Ĥ
Ġðŀ¤¢ðŀ¤ª ðŀ¤¼ðŀ¤¢
Ġðŀ¤¢ðŀ¤ª ðŀ¤µðŀ¤£ðŀ¤«
Ġðŀ¤¢ðŀ¤ª ðŀ¤µðŀ¤©ðŀ¤«
Ġðŀ¤¢ðŀ¤ª ðŀ¤¼ðŀ¤µ
Ġðŀ¤¢ðŀ¤ª ðŀ¤£ðŀ¤µðŀ¤²ðŀ¤®
Ġðŀ¤¢ðŀ¤ª ðŀ¤¢ðŀ¤¥ðŀ¤©ðŀ¤«
Ġðŀ¤¢ðŀ¤ª ðŀ¤¼ðŀ¤µðŀ¤£ðŀ¤«
Ġðŀ¤¢ðŀ¤ª ðŀ¤£ðŀ¤¢ðŀ¤¤
Ġðŀ¤¢ðŀ¤ª ðŀ¤®ðŀ¤´ðŀ¤¼ðŀ¤¢
Ġðŀ¤¸ðŀ¤«ðŀ¤ ¬
Ġðŀ¤ı ðŀ¤¢ðŀ¤¯
Ġðŀ¤ı ðŀ¤¢ðŀ¤§
Ġðŀ¤ı ðŀ¤®ðŀ¤ªðŀ¤©ðŀ¤«
Ġðŀ¤ı ðŀ¤¢ðŀ¤·
Ġðŀ¤ı ðŀ¤¢ðŀ¤¯ðŀ¤Ń
Ġðŀ¤ı ðŀ¤¢ðŀ¤¸ðŀ¤¦
Ġðŀ¤¼ðŀ¤® ðŀ¤¼ðŀ¤Ń
Ġðŀ¤¼ðŀ¤® ðŀ¤±ðŀ¤²ðŀ¤¢ðŀ¤²
ðŀ¤£ðŀ¤Ńðŀ¤ª ðŀ¤¢ðŀ¤´
ðŀ¤£ðŀ¤Ńðŀ¤ª ðŀ¤¯ðŀ¤¢
ðŀ¤£ðŀ¤Ńðŀ¤ª ðŀ¤¢ðŀ¤²ðŀ¤«ðŀ¤²
Ġðŀ¤§ðŀ¤¢ðŀ¤¦ ðŀ¤¢
Ġðŀ¤§ðŀ¤¢ðŀ¤¦ ðŀ¤µðŀ¤²ðŀ¤¯ðŀ¤«
Ġðŀ¤Ĩ ðŀ¤«
Ġðŀ¤Ĩ ðŀ¤¢ðŀ¤¼
Ġðŀ¤Ĩ ðŀ¤¢ðŀ¤ªðŀ¤¢ðŀ¤²
Ġðŀ¤Ĩ ðŀ¤Ģðŀ¤ĳ
Ġðŀ¤Ĩ ðŀ¤®ðŀ¤¼ðŀ¤®
Ġðŀ¤Ĩ ðŀ¤Ńðŀ¤¼ðŀ¤«
Ġðŀ¤Ĩ ðŀ¤«ðŀ¤¸ðŀ¤«
Ġðŀ¤Ĩ ðŀ¤īðŀ¤ı
Ġðŀ¤Ĩ ðŀ¤¢ðŀ¤±ðŀ¤«
Ġðŀ¤Ĩ ðŀ¤Ģðŀ¤Ĥðŀ¤īðŀ¤ħ
ðŀ¤¢ðŀ¤¤ðŀ¤Ń ðŀ¤§ðŀ¤®ðŀ¤²
ðŀ¤¢ðŀ¤¤ðŀ¤Ń ðŀ¤¦ðŀ¤¢ðŀ¤¥ðŀ¤©ðŀ¤«
ðŀ¤§ðŀ¤Ń ðŀ¤§ðŀ¤¢
ðŀ¤§ðŀ¤Ń ðŀ¤£ðŀ¤¢ðŀ¤¤
ðŀ¤§ðŀ¤Ń ðŀ¤±ðŀ¤Ńðŀ¤¤
Ġðŀ¤§ðŀ¤Ń ðŀ¤±
Ġðŀ¤§ðŀ¤Ń ðŀ¤±ðŀ¤¼ðŀ¤Ń
Ġðŀ¤§ðŀ¤Ń ðŀ¤¬ðŀ¤¼ðŀ¤Ńðŀ¤²ðŀ¤Ń
ðŀ¤Ħ ðŀ¤µ
ðŀ¤Ħ ðŀ¤Ģðŀ¤Ĳ
ðŀ¤Ħ ðŀ¤Įðŀ¤Ĳ
ðŀ¤Ħ ðŀ¤Įðŀ¤Ĥ
ðŀ¤Ħ ðŀ¤Ģðŀ¤Ĵ
ðŀ¤Ħ ðŀ¤īðŀ¤Ĥ
ðŀ¤Ħ ðŀ¤Īðŀ¤Ģ
ðŀ¤Ħ ðŀ¤¢ðŀ¤¼ðŀ¤µ
ðŀ¤Ħ ðŀ¤ĭðŀ¤Ĳðŀ¤ģðŀ¤Įðŀ¤Ĥ
Ġðŀ¤¥ðŀ¤Ń ðŀ¤»
ðŀ¤Ģðŀ¤Ĳ ðŀ¤ĺðŀ¤Į
ðŀ¤Ģðŀ¤Ĳ ðŀ¤ĺðŀ¤Ģ
Ġðŀ¤³ðŀ¤µ ðŀ¤ªðŀ¤«
Ġðŀ¤³ðŀ¤µ ðŀ¤§ðŀ¤¢ðŀ¤¤
ðŀ¤Ģðŀ¤Ī ðŀ¤ģðŀ¤Ģðŀ¤ı
Ġðŀ¤¥ðŀ¤µ ðŀ¤ºðŀ¤¢
Ġðŀ¤¥ðŀ¤µ ðŀ¤¼ðŀ¤Ńðŀ¤²ðŀ¤ºðŀ¤®ðŀ¤¤
Ġðŀ¤¥ðŀ¤µ ðŀ¤¼ðŀ¤µðŀ¤©ðŀ¤«
Ġðŀ¤¥ðŀ¤µ ðŀ¤¼ðŀ¤Ńðŀ¤²ðŀ¤«
Ġðŀ¤¥ðŀ¤µ ðŀ¤´ðŀ¤²ðŀ¤Ń
Ġðŀ¥Ĵðŀ¥Ĳðŀ¥Ĵ ðŀ¥Ĺ
ðŀ¤ªðŀ¤® ðŀ¤´ðŀ¤Ń
ðŀ¤ªðŀ¤® ðŀ¤¥ðŀ¤¨
ðŀ¤Ńðŀ¤¼ðŀ¤Ń ðŀ¤ªðŀ¤«
ðŀ¤Ńðŀ¤¼ðŀ¤Ń ðŀ¤ºðŀ¤Ń
ðŀ¤Ńðŀ¤¼ðŀ¤Ń ðŀ¤ªðŀ¤£ðŀ¤«
ðŀ¤Ńðŀ¤²ðŀ¤® ðŀ¤´ðŀ¤¢
Ġðŀ¤ĩ ðŀ¤¢ðŀ¤¼ðŀ¤¢
Ġðŀ¤ĩ ðŀ¤®ðŀ¤´
Ġðŀ¤ĩ ðŀ¤¢ðŀ¤¤ðŀ¤²ðŀ¤£ðŀ¤µ
Ġðŀ¤ĩ ðŀ¤ĭðŀ¤į
ðŀ¤ºðŀ¤®ðŀ¤ª ðŀ¤ºðŀ¤¢ðŀ¤¤
Ġðŀ¤¯ðŀ¤® ðŀ¤´ðŀ¤²ðŀ¤ºðŀ¤®ðŀ¤¤
Ġðŀ¤¯ðŀ¤® ðŀ¤±ðŀ¤®ðŀ¤ªðŀ¤Ń
ðŀ¤Ńðŀ¤¼ ðŀ¤¢ðŀ¤²
ðŀ¤Ńðŀ¤¼ ðŀ¤¢ðŀ¤²ðŀ¤¯ðŀ¤«
ðŀ¤Ńðŀ¤¼ ðŀ¤®ðŀ¤ªðŀ¤®
ðŀ¤Ĵ ðŀ¤Ń
ðŀ¤Ĵ ðŀ¤«ðŀ¤£
ðŀ¤Ĵ ðŀ¤ļðŀ¤Ģ
ðŀ¤Ĵ ðŀ¤įðŀ¤ī
ðŀ¤Ĵ ðŀ¤«ðŀ¤±ðŀ¤¼ðŀ¤Ń
ðŀ¤ªðŀ¤µ ðŀ¤ºðŀ¤®
ðŀ¤ªðŀ¤µ ðŀ¤¦ðŀ¤¢
ðŀ¤ªðŀ¤µ ðŀ¤ºðŀ¤µ
Ġðŀ¤¢ðŀ¤² ðŀ¤£ðŀ¤®ðŀ¤¼ðŀ¤®
Ġðŀ¤Ĥ ðŀ¤ĭ
Ġðŀ¤Ĥ ðŀ¤Į
Ġðŀ¤Ĥ ðŀ¤Ńðŀ¤¥
Ġðŀ¤Ĥ ðŀ¤µðŀ¤¼
Ġðŀ¤Ĥ ðŀ¤µðŀ¤³
Ġðŀ¤Ĥ ðŀ¤ĵðŀ¤ı
Ġðŀ¤Ĥ ðŀ¤¢ðŀ¤¦ðŀ¤µðŀ¤¼ðŀ¤¢
Ġðŀ¤Ĥ ðŀ¤ĵðŀ¤ĥðŀ¤Ħðŀ¤ĵ
Ġðŀ¤Ĥ ðŀ¤«ðŀ¤±ðŀ¤ªðŀ¤µ
Ġðŀ¤Ĥ ðŀ¤Ģðŀ¤Ħðŀ¤ĭðŀ¤Īðŀ¤ĭðŀ¤Ĵðŀ¤Ģ
ðŀ¤ºðŀ¤Ń ðŀ¤¼ðŀ¤®
ðŀ¤ºðŀ¤Ń ðŀ¤¤ðŀ¤¢
ðŀ¤¤ðŀ¤® ðŀ¤ªðŀ¤Ń
ðŀ¤¤ðŀ¤® ðŀ¤§
Ġðŀ¤Ĵ ðŀ¤¢ðŀ¤²
Ġðŀ¤Ĵ ðŀ¤Ģðŀ¤Ĳ
Ġðŀ¤Ĵ ðŀ¤Ńðŀ¤¤
Ġðŀ¤Ĵ ðŀ¤¢ðŀ¤±ðŀ¤¼ðŀ¤Ń
Ġðŀ¤Ĵ ðŀ¤Ģðŀ¤ĸ
Ġðŀ¤Ĵ ðŀ¤Ģðŀ¤ĥðŀ¤ĭ
Ġðŀ¤Ĵ ðŀ¤®ðŀ¤²ðŀ¤¼ðŀ¤«ðŀ¤ªðŀ¤«
Ġðŀ¤Ĵ ðŀ¤¢ðŀ¤ªðŀ¤µðŀ¤ºðŀ¤®ðŀ¤¤
Ġðŀ¤Ĵ ðŀ¤µðŀ¤²ðŀ¤¢ðŀ¤µ
Ġðŀ¤Ĵ ðŀ¤¢ðŀ¤¥ðŀ¤Ńðŀ¤ªðŀ¤¢
Ġðŀ¤Ĵ ðŀ¤µðŀ¤ªðŀ¤¥ðŀ¤Ń
Ġðŀ¤³ðŀ¤®ðŀ¤² ðŀ¤¢
Ġðŀ¤³ðŀ¤®ðŀ¤² ðŀ¤µðŀ¤²ðŀ¤³ðŀ¤®ðŀ¤±ðŀ¤¢ðŀ¤¤
ðŀ¤±ðŀ¤Ń ðŀ¤£ðŀ¤¢
ðŀ¤±ðŀ¤Ń ðŀ¤³ðŀ¤«
Ġðŀ¤´ðŀ¤¢ðŀ¤¤ ðŀ¤¼ðŀ¤¢ðŀ¤²ðŀ¤Ń
Ġðŀ¤´ðŀ¤¢ðŀ¤¤ ðŀ¤¼ðŀ¤¢ðŀ¤¼ðŀ¤¢
Ġðŀ¤´ðŀ¤¢ðŀ¤¤ ðŀ¤¼ðŀ¤Ńðŀ¤ªðŀ¤¼ðŀ¤¢
Ġðŀ¤¸ðŀ¤«ðŀ¤© ðŀ¤µðŀ¤©ðŀ¤«
Ġðŀ¤¸ðŀ¤«ðŀ¤© ðŀ¤Ńðŀ¤ªðŀ¤Ń
Ġðŀ¤¸ðŀ¤«ðŀ¤© ðŀ¤¼ðŀ¤µðŀ¤£ðŀ¤«
Ġðŀ¤¸ðŀ¤«ðŀ¤© ðŀ¤¼ðŀ¤µðŀ¤²ðŀ¤®
Ġðŀ¤¸ðŀ¤«ðŀ¤© ðŀ¤Ńðŀ¤ªðŀ¤ºðŀ¤®ðŀ¤¤
Ġðŀ¤¸ðŀ¤«ðŀ¤© ðŀ¤®ðŀ¤¼ðŀ¤®ðŀ¤²ðŀ¤®
Ġðŀ¤¸ðŀ¤«ðŀ¤© ðŀ¤®ðŀ¤ªðŀ¤¢ðŀ¤´
Ġðŀ¤ĭ ðŀ¤ı
Ġðŀ¤ĭ ðŀ¤ľ
Ġðŀ¤ĭ ðŀ¤»ðŀ¤¢
Ġðŀ¤ĭ ðŀ¤±ðŀ¤¢ðŀ¤ªðŀ¤¢
Ġðŀ¤¯ðŀ¤µ ðŀ¤µðŀ¤²
Ġðŀ¤¯ðŀ¤µ ðŀ¤´ðŀ¤¼ðŀ¤¢
Ġðŀ¤ħðŀ¤Ń ðŀ¤¦ðŀ¤µ
ðŀ¤¢ðŀ¤ªðŀ¤¢ðŀ¤² ðŀ¤¢ðŀ¤¬
Ġðŀ¤Ī ðŀ¤¢
Ġðŀ¤Ī ðŀ¤¢ðŀ¤´
Ġðŀ¤Ī ðŀ¤ĭ
Ġðŀ¤Ī ðŀ¤®ðŀ¤±
Ġðŀ¤Ī ðŀ¤īðŀ¤ı
Ġðŀ¤Ī ðŀ¤«ðŀ¤¶
Ġðŀ¤Ī ðŀ¤Ģðŀ¤Ĭ
Ġðŀ¤Ī ðŀ¤¢ðŀ¤¼ðŀ¤®
Ġðŀ¤Ī ðŀ¤Ģðŀ¤į
Ġðŀ¤Ī ðŀ¤Ģðŀ¤¡
Ġðŀ¤Ī ðŀ¤ĭðŀ¤ķ
Ġðŀ¤Ī ðŀ¤«ðŀ¤ºðŀ¤¢ðŀ¤²
Ġðŀ¤Ī ðŀ¤«ðŀ¤±ðŀ¤©ðŀ¤«
Ġðŀ¤Ģðŀ¤¬ ðŀ¤ºðŀ¤¢ðŀ¤²ðŀ¤Ń
Ġðŀ¤Ģðŀ¤¬ ðŀ¤ªðŀ¤³ðŀ¤Ń
ðŀ¤· ðŀ¤¢ðŀ¤¤ðŀ¤Ńðŀ¤§ðŀ¤®ðŀ¤²
Ġðŀ¤±ðŀ¤¢ðŀ¤¯ðŀ¤Ń ðŀ¤£ðŀ¤Ń
Ġðŀ¤±ðŀ¤¢ðŀ¤¯ðŀ¤Ń ðŀ¤ªðŀ¤«ðŀ¤²
Ġðŀ¤±ðŀ¤¢ ðŀ¤Ńðŀ¤¼ðŀ¤¢ðŀ¤²ðŀ¤Ń
Ġðŀ¤¥ðŀ¤¢ðŀ¤± ðŀ¤²ðŀ¤£ðŀ¤µ
Ġðŀ¤¥ðŀ¤¢ðŀ¤± ðŀ¤²ðŀ¤ºðŀ¤®ðŀ¤¤
Ġðŀ¤¥ðŀ¤¢ðŀ¤± ðŀ¤²ðŀ¤¢ðŀ¤²
Ġðŀ¤į ðŀ¤®ðŀ¤²
Ġðŀ¤į ðŀ¤¢ðŀ¤²ðŀ¤£ðŀ¤®ðŀ¤³ðŀ¤¢
Ġðŀ¤¸ðŀ¤µ ðŀ¤©ðŀ¤Ń
Ġðŀ¤Ģðŀ¤¤ ðŀ¤¬
Ġðŀ¤Ģðŀ¤¤ ðŀ¤¢ðŀ¤§ðŀ¤¢
Ġðŀ¤Ģðŀ¤¤ ðŀ¤¦ðŀ¤«ðŀ¤ª
Ġðŀ¤Ģðŀ¤¤ ðŀ¤¶ðŀ¤«ðŀ¤ªðŀ¤Ń
ðŀ¥ĳðŀ¥ ķ
ðŀ¥ĳðŀ¥ ĸ
Ġðŀ¤ķ ðŀ¤ª
Ġðŀ¤ķ ðŀ¤¢ðŀ¤¨
Ġðŀ¤ķ ðŀ¤µðŀ¤©ðŀ¤¤ðŀ¤«
Ġðŀ¤ķ ðŀ¤Įðŀ¤ı
ðŀ¤° ðŀ¤¢ðŀ¤´
ðŀ¤° ðŀ¤µðŀ¤²ðŀ¤®
ðŀ¤° ðŀ¤µðŀ¤£ðŀ¤«
ðŀ¤° ðŀ¤«ðŀ¤ªðŀ¤«
Ļðŀ¥ ĵ
ðŀ¤¢ðŀ¤§ ðŀ¤«
ðŀ¤¢ðŀ¤§ ðŀ¤Ńðŀ¤²ðŀ¤¢
ðŀ¤¢ðŀ¤§ ðŀ¤¢ðŀ¤²ðŀ¤¢
ðŀ¤¢ðŀ¤§ ðŀ¤Ńðŀ¤´ðŀ¤®ðŀ¤¤
ðŀ¤¢ðŀ¤§ ðŀ¤¢ðŀ¤±ðŀ¤Ńðŀ¤¤
Ġðŀ¤¥ðŀ¤¢ðŀ¤¤ ðŀ¤Ńðŀ¤²ðŀ¤¢
ðŀ¤ĭðŀ¤Ĳ ðŀ¥ĭðŀ¤ģðŀ¤ĭ
Ġðŀ¤° ðŀ¤µ
Ġðŀ¤° ðŀ¤¢ðŀ¤¯
Ġðŀ¤° ðŀ¤®ðŀ¤´
Ġðŀ¤° ðŀ¤Ńðŀ¤´ðŀ¤«
ðŀ¤µðŀ¤¼ ðŀ¤µðŀ¤²
Ġðŀ¤³ðŀ¤¢ðŀ¤»ðŀ¤µðŀ¤² ðŀ¤«
Ġðŀ¤´ðŀ¤Ń ðŀ¤¯ðŀ¤«
Ġðŀ¤´ðŀ¤Ń ðŀ¤µðŀ¤£ðŀ¤«
Ġðŀ¤´ðŀ¤Ń ðŀ¤¢ðŀ¤²ðŀ¤®
Ġðŀ¤´ðŀ¤Ń ðŀ¤«ðŀ¤¼ðŀ¤«
Ġðŀ¤´ðŀ¤Ń ðŀ¤¯ðŀ¤µðŀ¤©ðŀ¤«
Ġðŀ¤´ðŀ¤Ń ðŀ¤¯ðŀ¤¢ðŀ¤²
Ġðŀ¤´ðŀ¤Ń ðŀ¤¯ðŀ¤¢ðŀ¤²ðŀ¤®
Ġðŀ¤´ðŀ¤Ń ðŀ¤®ðŀ¤´ðŀ¤¢ðŀ¤´
Ġðŀ¤±ðŀ¤Ń ðŀ¤«
Ġðŀ¤±ðŀ¤Ń ðŀ¤µ
Ġðŀ¤±ðŀ¤Ń ðŀ¤¯ðŀ¤Ń
Ġðŀ¤±ðŀ¤Ń ðŀ¤¢ðŀ¤²ðŀ¤¢
Ġðŀ¤±ðŀ¤Ń ðŀ¤¯ðŀ¤®ðŀ¤¼ðŀ¤®
Ġðŀ¤±ðŀ¤Ń ðŀ¤«ðŀ¤¼ðŀ¤«ðŀ¤²ðŀ¤®
ðŀ¤ĸ ðŀ¤¢
ðŀ¤ĸ ðŀ¤®ðŀ¤¤
ðŀ¤ĸ ðŀ¤ĵ
ðŀ¤ĸ ðŀ¤Ģðŀ¤Ĥ
ðŀ¤ĸ ðŀ¤Ģðŀ¤ħ
ðŀ¤ĸ ðŀ¤Ńðŀ¤³
ðŀ¤ĸ ðŀ¤īðŀ¤ıðŀ¤ļðŀ¤ĭ
Ġðŀ¤²ðŀ¤£ðŀ¤µðŀ¤² ðŀ¤ºðŀ¤µ
Ġðŀ¤µ ðŀ¤¬ðŀ¤Ń
Ġðŀ¤µ ðŀ¤¼ðŀ¤µðŀ¤ª
Ġðŀ¤²ðŀ¤¢ ðŀ¤Ń
ðŀ¤«ðŀ¤§ ðŀ¤«
ðŀ¤«ðŀ¤§ ðŀ¤¼ðŀ¤¢
Ġðŀ¤£ðŀ¤¢ðŀ¤ª ðŀ¤¢ðŀ¤¤
Ġðŀ¤£ðŀ¤¢ðŀ¤ª ðŀ¤¢ðŀ¤²ðŀ¤£ðŀ¤«
Ġðŀ¤£ðŀ¤¢ðŀ¤ª ðŀ¤²ðŀ¤¢
Ġðŀ¤£ðŀ¤¢ðŀ¤ª ðŀ¤²ðŀ¤Ń
Ġðŀ¤£ðŀ¤¢ðŀ¤ª ðŀ¤¼ðŀ¤Ńðŀ¤²ðŀ¤ºðŀ¤®ðŀ¤¤
Ġðŀ¤£ðŀ¤¢ðŀ¤ª ðŀ¤²ðŀ¤µðŀ¤ºðŀ¤®ðŀ¤¤
Ġðŀ¤£ðŀ¤¢ðŀ¤ª ðŀ¤¼ðŀ¤¢ðŀ¤²
Ġðŀ¤£ðŀ¤¢ðŀ¤ª ðŀ¤®ðŀ¤ªðŀ¤¯ðŀ¤«
Ġðŀ¤£ðŀ¤¢ðŀ¤ª ðŀ¤¼ðŀ¤¢ðŀ¤²ðŀ¤¢
Ġðŀ¤£ðŀ¤¢ðŀ¤ª ðŀ¤®ðŀ¤¼ðŀ¤®ðŀ¤²ðŀ¤®
Ġðŀ¤³ðŀ¤Ń ðŀ¤¶ðŀ¤®
Ġðŀ¤³ðŀ¤Ń ðŀ¤±ðŀ¤¢ðŀ¤¤
Ġðŀ¤§ðŀ¤µðŀ¤© ðŀ¤µ
Ġðŀ¤§ðŀ¤µðŀ¤© ðŀ¤¢ðŀ¤´
ðŀ¤Ķ ðŀ¤®ðŀ¤²
ðŀ¤Ķ ðŀ¤Ģðŀ¤ĥ
ðŀ¤Ķ ðŀ¤«ðŀ¤¥
ðŀ¤Ķ ðŀ¤¢ðŀ¤²ðŀ¤ºðŀ¤®
ðŀ¤Ķ ðŀ¤īðŀ¤Ĩ
ðŀ¤³ðŀ¤µ ðŀ¤¦ðŀ¤¢
Ġðŀ¤¼ðŀ¤Ńðŀ¤¥ ðŀ¤¢ðŀ¤¼ðŀ¤¢
ðŀ¤Ĭ ðŀ¤µ
ðŀ¤Ĭ ðŀ¤ĭ
ðŀ¤Ĭ ðŀ¤Īðŀ¤ĭ
ðŀ¤Ĭ ðŀ¤Ħðŀ¤ĭ
ðŀ¤Ĭ ðŀ¤Įðŀ¤Ī
ðŀ¤Ĭ ðŀ¤ļðŀ¤īðŀ¤Īðŀ¤ī
ðŀ¤Ĭ ðŀ¤µðŀ¤¤ðŀ¤©ðŀ¤«
ðŀ¤Ĭ ðŀ¤Įðŀ¤Ĳðŀ¤ĭðŀ¤ĳðŀ¤ī
Ø§ Ø©
Ø§ ÙĪÙĬ
nðŀ¤Ĳ ðŀ¤ºðŀ¤¢
nðŀ¤Ĳ ðŀ¤¦ðŀ¤µ
nðŀ¤Ĳ ðŀ¤Ńðŀ¤¤
nðŀ¤Ĳ ðŀ¤ºðŀ¤¢ðŀ¤´ðŀ¤µ
nðŀ¤Ĳ ðŀ¤¶ðŀ¤«ðŀ¤ªðŀ¤«
nðŀ¤Ĳ ðŀ¤Ħðŀ¤¢ðŀ¤¼ðŀ¤µ
ðŀ¤Īðŀ¤ĭ ðŀ¤ģ
ðŀ¤Īðŀ¤ĭ ðŀ¤ĺðŀ¤Į
Ġðŀ¤¶ðŀ¤¢ðŀ¤²ðŀ¤º ðŀ¤µ
Ġðŀ¤¶ðŀ¤¢ðŀ¤²ðŀ¤º ðŀ¤¢ðŀ¤²ðŀ¤£ðŀ¤«
Ġðŀ¤¶ðŀ¤¢ðŀ¤²ðŀ¤º ðŀ¤Ńðŀ¤²ðŀ¤«
Ġðŀ¤¶ðŀ¤¢ðŀ¤²ðŀ¤º ðŀ¤²ðŀ¤¢
Ġðŀ¤¶ðŀ¤¢ðŀ¤²ðŀ¤º ðŀ¤µðŀ¤©ðŀ¤«
Ġðŀ¤¶ðŀ¤¢ðŀ¤²ðŀ¤º ðŀ¤Ńðŀ¤ªðŀ¤¢
Ġðŀ¤¶ðŀ¤¢ðŀ¤²ðŀ¤º ðŀ¤²ðŀ¤µðŀ¤ºðŀ¤®ðŀ¤¤
Ġðŀ¤¶ðŀ¤¢ðŀ¤²ðŀ¤º ðŀ¤Ńðŀ¤²ðŀ¤¢ðŀ¤´ðŀ¤²ðŀ¤®
Ġðŀ¤©ðŀ¤µ ðŀ¤ªðŀ¤«ðŀ¤¼ðŀ¤«
Ġðŀ¤©ðŀ¤µ ðŀ¤ªðŀ¤«ðŀ¤¼ðŀ¤«ðŀ¤²
Ġðŀ¤¸ðŀ¤¢ðŀ¤´ ðŀ¤ªðŀ¤«
Ġðŀ¤¸ðŀ¤¢ðŀ¤´ ðŀ¤²ðŀ¤¢
Ġðŀ¤¸ðŀ¤¢ðŀ¤´ ðŀ¤¬ðŀ¤Ńðŀ¤²ðŀ¤¢
Ġðŀ¤¸ðŀ¤¢ðŀ¤´ ðŀ¤¬ðŀ¤Ń
Ġðŀ¤¸ðŀ¤¢ðŀ¤´ ðŀ¤¬ðŀ¤¢ðŀ¤´
ðŀ¤ı ðŀ¤Ģðŀ¤Ĥ
ðŀ¤ı ðŀ¤Ģðŀ¤Ĳðŀ¤ģðŀ¤ī
ðŀ¤ı ðŀ¤Ĳðŀ¤ĺðŀ¤Ģðŀ¤Ĥ
ðŀ¤ı ðŀ¤®ðŀ¤¼ðŀ¤¢
Ġðŀ¤ĳðŀ¤®ðŀ¤² ðŀ¤«
Ġðŀ¤ĳðŀ¤®ðŀ¤² ðŀ¤¢ðŀ¤¼ðŀ¤«
ðŀ¤¬ðŀ¤¢ ðŀ¤Ńðŀ¤´
Ġðŀ¤¤ðŀ¤«ðŀ¤§ ðŀ¤©ðŀ¤«
Ġðŀ¤£ðŀ¤® ðŀ¤³
Ġðŀ¤£ðŀ¤® ðŀ¤¼ðŀ¤«
Ġðŀ¤£ðŀ¤® ðŀ¤¬ðŀ¤¼ðŀ¤®ðŀ¤ªðŀ¤¢
ĠÙ Ī
Ġðŀ¤´ðŀ¤« ðŀ¤¯
Ġðŀ¤´ðŀ¤« ðŀ¤¯ðŀ¤µ
ðŀ¤Įðŀ¤Ĳ ðŀ¤Ģ
Ġðŀ¤¶ðŀ¤µ ðŀ¤º
Ġðŀ¤¶ðŀ¤µ ðŀ¤¸
Ġðŀ¤¶ðŀ¤µ ðŀ¤¸ðŀ¤¢
Ġðŀ¤¶ðŀ¤µ ðŀ¤¸ðŀ¤µðŀ¤²ðŀ¤®
Ġðŀ¤¶ðŀ¤Ń ðŀ¤º
Ġðŀ¤¶ðŀ¤Ń ðŀ¤±
Ġðŀ¤¶ðŀ¤Ń ðŀ¤·
Ġðŀ¤¶ðŀ¤Ń ðŀ¤»
Ġðŀ¤¶ðŀ¤Ń ðŀ¤³ðŀ¤Ńðŀ¤ªðŀ¤Ń
ðŀ¤§ðŀ¤® ðŀ¤¬ðŀ¤¼
ðŀ¤¼ðŀ¤Ńðŀ¤²ðŀ¤® ðŀ¤³ðŀ¤«
ðŀ¤«ðŀ¤²ðŀ¤« ðŀ¤¥ðŀ¤«
Ġðŀ¤©ðŀ¤«ðŀ¤´ ðŀ¤£ðŀ¤Ńðŀ¤ªðŀ¤¢
ðŀ¤«ðŀ¤¬ ðŀ¤¢ðŀ¤²ðŀ¤¢ðŀ¤´ðŀ¤©ðŀ¤«
ðŀ¤» ðŀ¤¢ðŀ¤¤
ðŀ¤» ðŀ¤©ðŀ¤«
ðŀ¤» ðŀ¤µðŀ¤ºðŀ¤®ðŀ¤¤
ðŀ¤» ðŀ¤¢ðŀ¤¤ðŀ¤¯ðŀ¤Ń
ðŀ¤ĩ ðŀ¤Ģðŀ¤Ĥ
ðŀ¤ĩ ðŀ¤ĵðŀ¤Īðŀ¤ĭ
Ġðŀ¤²ðŀ¤ºðŀ¤® ðŀ¤´ðŀ¤¢
Ġðŀ¤²ðŀ¤ºðŀ¤® ðŀ¤°ðŀ¤®
ðŀ¥ĵ ðŀ¥Ķ
ðŀ¤¦ðŀ¤µ ðŀ¤¯ðŀ¤®
ðŀ¤¦ðŀ¤µ ðŀ¤ºðŀ¤¢ðŀ¤¤
nðŀ¤ī ðŀ¤º
nðŀ¤ī ðŀ¤³
nðŀ¤ī ðŀ¤ªðŀ¤£ðŀ¤®
ðŀ¤¾ ðŀ¤Ń
ðŀ¤¾ ðŀ¤¶ðŀ¤Ń
Ġðŀ¤¤ðŀ¤« ðŀ¤¥ðŀ¤Ń
Ġðŀ¤¤ðŀ¤¢ðŀ¤² ðŀ¤£ðŀ¤¢ðŀ¤²ðŀ¤Ń
Ġðŀ¤¤ðŀ¤¢ðŀ¤² ðŀ¤£ðŀ¤¢ðŀ¤ºðŀ¤®ðŀ¤¤
ðŀ¤µðŀ¤²ðŀ¥ĭðŀ¤£ðŀ¤« ðŀ¤±ðŀ¤¢ðŀ¤¤
ðŀ¤ģðŀ¤ī ðŀ¤Ħ
ðŀ¤ģðŀ¤ī ðŀ¤Īðŀ¤ī
ðŀ¤ģðŀ¤ī ðŀ¤Ĭðŀ¤ļðŀ¤īðŀ¤Īðŀ¤ī
Ġðŀ¤«ðŀ¤² ðŀ¤¼ðŀ¤¢
ðŀ¤¥ðŀ¤Ń ðŀ¤£ðŀ¤Ń
ÙĬ Ø¹
Ġðŀ¤´ðŀ¤¢ðŀ¤¸ ðŀ¤ªðŀ¤Ń
Ġðŀ¤´ðŀ¤¢ðŀ¤¸ ðŀ¤¢ðŀ¤¼ðŀ¤¢
Ġðŀ¤´ðŀ¤¢ðŀ¤¸ ðŀ¤Ńðŀ¤ªðŀ¤¢
Ġðŀ¤´ðŀ¤¢ðŀ¤¸ ðŀ¤¢ðŀ¤´ðŀ¤²ðŀ¤®
Ġðŀ¤´ðŀ¤¢ðŀ¤¸ ðŀ¤£ðŀ¤¢ðŀ¤¼ðŀ¤¢
Ġðŀ¤²ðŀ¤£ðŀ¤Ń ðŀ¤¥ðŀ¤¢ðŀ¤²
Ġðŀ¤§ðŀ¤¢ðŀ¤ª ðŀ¤µ
Ġðŀ¤§ðŀ¤¢ðŀ¤ª ðŀ¤¯ðŀ¤Ńðŀ¤²ðŀ¤Ń
Ġðŀ¤§ðŀ¤¢ðŀ¤ª ðŀ¤´ðŀ¤Ńðŀ¤ªðŀ¤£ðŀ¤µ
ðŀ¤Ńðŀ¤¤ ðŀ¤¢ðŀ¤£ðŀ¤«ðŀ¤§
Ġðŀ¤§ðŀ¤« ðŀ¤¼ðŀ¤®ðŀ¤£ðŀ¤¢
Ġðŀ¤¥ðŀ¤µðŀ¤² ðŀ¤·
ðŀ¤½ ðŀ¤Ńðŀ¤»ðŀ¤®
ðŁĩ §
ðŁĩ ¬
ðŁĩ ±
ðŁĩ ¾
ðŁĩ ¯ðŁĩµ
ðŀ¤į ðŀ¤µ
ðŀ¤į ðŀ¤ĭðŀ¤ĳðŀ¤ī
ðŀ¤į ðŀ¤ĵðŀ¤ĩðŀ¤ī
Ġðŀ¤²ðŀ¤¢ðŀ¤´ ðŀ¤©ðŀ¤¢ðŀ¤¤
Ġðŀ¤²ðŀ¤¢ðŀ¤´ ðŀ¤¢ðŀ¤©ðŀ¤«ðŀ¤ªðŀ¤«
Ġðŀ¤²ðŀ¤¢ðŀ¤´ ðŀ¤±ðŀ¤µðŀ¤£ðŀ¤«
Ġðŀ¤²ðŀ¤¢ðŀ¤´ ðŀ¤¢ðŀ¤©ðŀ¤Ńðŀ¤ªðŀ¤Ń
Ġðŀ¥ĵ ðŀ¥Ļ
Ġðŀ¥ĵ ðŀ¥ĵðŀ¥Ĳ
Ġðŀ¤²ðŀ¤¶ ðŀ¤µðŀ¤¤ðŀ¤¢
Ġðŀ¤ĵ ðŀ¤ºðŀ¤¢ðŀ¤²
Ġðŀ¤ĵ ðŀ¤¬ðŀ¤®ðŀ¤´
Ġðŀ¤»ðŀ¤¢ðŀ¤±ðŀ¤µ ðŀ¤¯ðŀ¤«
Ġðŀ¤»ðŀ¤¢ðŀ¤±ðŀ¤µ ðŀ¤¯ðŀ¤®
ðŀ¥ķ ðŀ¥Ĳðŀ¥Ĳðŀ¥Ĳ
Ġðŀ¤¶ðŀ¤«ðŀ¤´ ðŀ¤µðŀ¤²ðŀ¤®
Ġðŀ¤¶ðŀ¤«ðŀ¤´ ðŀ¤Ńðŀ¤ªðŀ¤¢
Ġðŀ¤¶ðŀ¤«ðŀ¤´ ðŀ¤¢ðŀ¤¯ðŀ¤®
Ġðŀ¤¢ðŀ¤£ ðŀ¤²ðŀ¤¢
âĢĿ ,
ðŀ¤Ńðŀ¤£ ðŀ¤¢ðŀ¤²ðŀ¤®
Ġðŀ¤¶ðŀ¤¢ðŀ¤² ðŀ¤¼ðŀ¤¢
Ġðŀ¤¶ðŀ¤¢ðŀ¤² ðŀ¤¢ðŀ¤¥ðŀ¤©ðŀ¤«
Ġðŀ¤¶ðŀ¤¢ðŀ¤² ðŀ¤¬ðŀ¤¢ðŀ¤ºðŀ¤®ðŀ¤¤
ðŀ¤¼ðŀ¤µ ðŀ¤¦ðŀ¤µ
ðŀ¤¼ðŀ¤µ ðŀ¤£ðŀ¤µðŀ¤£ðŀ¤«
Ġðŀ¤·ðŀ¤¢ðŀ¤¨ ðŀ¤¢
ðŀ¤²ðŀ¤£ðŀ¤Ń ðŀ¤¼ðŀ¤®ðŀ¤ªðŀ¤£ðŀ¤«
ðŀ¤²ðŀ¤£ðŀ¤Ń ðŀ¤¼ðŀ¤®ðŀ¤ªðŀ¤«
ðŀ¤²ðŀ¤£ðŀ¤µ ðŀ¤¯ðŀ¤®
Ġðŀ¤©ðŀ¤¢ðŀ¤¤ ðŀ¤«ðŀ¤¸ðŀ¤®ðŀ¤´
Ġðŀ¤ĳðŀ¤¢ðŀ¤¥ ðŀ¤¢
Ġðŀ¤ĳðŀ¤¢ðŀ¤¥ ðŀ¤¢ðŀ¤¤ðŀ¤¢
ðŀ¤£ðŀ¤Ńðŀ¤² ðŀ¤¼ðŀ¤Ńðŀ¤²ðŀ¤£ðŀ¤Ń
ðŀ¤µðŀ¤¥ðŀ¤¦ ðŀ¤«ðŀ¤ªðŀ¤º
Ġðŀ¤±ðŀ¤¢ðŀ¤´ ðŀ¤¼ðŀ¤¢ðŀ¤²ðŀ¤Ń
Ġðŀ¤¥ðŀ¤µðŀ¤ª ðŀ¤¼ðŀ¤µ
Ġðŀ¤¥ðŀ¤µðŀ¤ª ðŀ¤¼ðŀ¤Ńðŀ¤²ðŀ¤ºðŀ¤®ðŀ¤¤
Ġðŀ¤¥ðŀ¤µðŀ¤ª ðŀ¤¼ðŀ¤¢ðŀ¤²ðŀ¤Ń
Ġðŀ¤¥ðŀ¤µðŀ¤ª ðŀ¤¼ðŀ¤¢ðŀ¤²ðŀ¤£ðŀ¤«
Ġðŀ¤¥ðŀ¤µðŀ¤ª ðŀ¤¼ðŀ¤¢ðŀ¤¥ðŀ¤©ðŀ¤«
Ġðŀ¤ĸðŀ¤® ðŀ¤¥ðŀ¤®
ĠâĢľ \
Ġðŀ¤ħðŀ¤« ðŀ¤³
Ġðŀ¤ħðŀ¤« ðŀ¤ªðŀ¤Ń
Ġðŀ¤³ðŀ¤¢ðŀ¤² ðŀ¤§ðŀ¤¢
Ġðŀ¤³ðŀ¤¢ðŀ¤² ðŀ¤§ðŀ¤«
Ġðŀ¤³ðŀ¤¢ðŀ¤² ðŀ¤½ðŀ¤«
Ġðŀ¤³ðŀ¤¢ðŀ¤² ðŀ¤¢ðŀ¤£ðŀ¤¢
Ġðŀ¤¸ðŀ¤« ðŀ¤¯ðŀ¤«
Ġðŀ¤¸ðŀ¤« ðŀ¤¤ðŀ¤Ń
Ġðŀ¤ĳðŀ¤Į ðŀ¤įðŀ¤Į
ðŀ¤¤ðŀ¤®ðŀ¤¼ðŀ¤Ń ðŀ¤ªðŀ¤£ðŀ¤«
ðŀ¤¤ðŀ¤®ðŀ¤¼ðŀ¤Ń ðŀ¤ªðŀ¤¼ðŀ¤¢
nðŀ¤ĸ ðŀ¤«
nðŀ¤ĸ ðŀ¤¢ðŀ¤²
nðŀ¤ĸ ðŀ¤¢ðŀ¤ªðŀ¤«
nðŀ¤ĸ ðŀ¤«ðŀ¤§ðŀ¤¤ðŀ¤®
Ġðŀ¤²ðŀ¤¢ðŀ¤²ðŀ¤º ðŀ¤µðŀ¤²ðŀ¤®
Ġðŀ¤²ðŀ¤¢ðŀ¤²ðŀ¤º ðŀ¤Ńðŀ¤ªðŀ¤¢
Ġðŀ¤²ðŀ¤¢ðŀ¤²ðŀ¤º ðŀ¤Ńðŀ¤¼ðŀ¤¢
Ġðŀ¤²ðŀ¤¢ðŀ¤²ðŀ¤º ðŀ¤Ńðŀ¤¼ðŀ¤«
Ġðŀ¤²ðŀ¤¢ðŀ¤²ðŀ¤º ðŀ¤Ńðŀ¤¼ðŀ¤Ńðŀ¤ªðŀ¤¢
Ġðŀ¤²ðŀ¤¢ðŀ¤²ðŀ¤º ðŀ¤Ńðŀ¤£ðŀ¤¢ðŀ¤²ðŀ¤®
ðŀ¤¢ðŀ¤¸ðŀ¤® ðŀ¤´
ðŀ¤Ĩ ðŀ¤Į
ðŀ¤Ĩ ðŀ¤ĥ
ðŀ¤Ĩ ðŀ¤ļ
ðŀ¤Ĩ ðŀ¤Įðŀ¤Ĥ
ðŀ¤Ĩ ðŀ¤Įðŀ¤Īðŀ¤ļðŀ¤ĭðŀ¤ĺðŀ¤Ģðŀ¤Ĥ
ðŀ¤Ĩ ðŀ¤Įðŀ¤ļ
ðŀ¤Ĩ ðŀ¤Ģðŀ¤ħðŀ¤ļðŀ¤īðŀ¤Ĭ
ðŀ¤Ĩ ðŀ¤ģðŀ¤ģðŀ¤ĺ
Ġðŀ¤´ðŀ¤«ðŀ¤± ðŀ¤¼ðŀ¤µðŀ¤²ðŀ¤®
Ġðŀ¤±ðŀ¤Ńðŀ¤´ ðŀ¤«
Ġðŀ¤±ðŀ¤Ńðŀ¤´ ðŀ¤¢ðŀ¤²ðŀ¤¯ðŀ¤«
Ġðŀ¤±ðŀ¤Ńðŀ¤´ ðŀ¤¢ðŀ¤´ðŀ¤©ðŀ¤«
Ġðŀ¤¯ðŀ¤µðŀ¤² ðŀ¤¯ðŀ¤®
Ġðŀ¤¨ðŀ¤Ńðŀ¤´ ðŀ¤«
Ġðŀ¤¨ðŀ¤Ńðŀ¤´ ðŀ¤ªðŀ¤µ
Ġðŀ¤¨ðŀ¤Ńðŀ¤´ ðŀ¤Ńðŀ¤ªðŀ¤¢
Ġðŀ¤Ļ ðŀ¤ĭ
Ġðŀ¤Ļ ðŀ¤¢ðŀ¤±ðŀ¤µ
Ġðŀ¤±ðŀ¤Ńðŀ¤² ðŀ¤£ðŀ¤¢ðŀ¤²ðŀ¤®
ðŀ¤ģðŀ¤ĭ ðŀ¤ĳ
ðŀ¤ģðŀ¤ĭ ðŀ¤Ĥ
ðŀ¤ģðŀ¤ĭ ðŀ¤ĳðŀ¤ĭ
ðŀ¤ģðŀ¤ĭ ðŀ¤Īðŀ¤Ģðŀ¤Ĥ
ðŀ¤ģðŀ¤ĭ ðŀ¤Ĵðŀ¤ī
ðŀ¤¦ðŀ¤Ńðŀ¤ª ðŀ¤¢ðŀ¤²ðŀ¤Ń
Ġðŀ¤¬ðŀ¤Ńðŀ¤¶ ðŀ¤¢ðŀ¤²ðŀ¤Ń
Ġðŀ¤¬ðŀ¤Ńðŀ¤¶ ðŀ¤¢ðŀ¤²ðŀ¤ºðŀ¤®ðŀ¤¤
Ġðŀ¤Ķðŀ¤® ðŀ¤¯
Ġðŀ¤Ķðŀ¤® ðŀ¤³
Ġðŀ¤Ķðŀ¤® ðŀ¤¸ðŀ¤²
Ġðŀ¤¼ðŀ¤« ðŀ¤³
Ġðŀ¤¼ðŀ¤µ ðŀ¤¤ðŀ¤«
Ġðŀ¤¼ðŀ¤µ ðŀ¤¬ðŀ¤¢
Ġðŀ¤¼ðŀ¤µ ðŀ¤½ðŀ¤¢ðŀ¤ªðŀ¤¢ðŀ¤²ðŀ¤³ðŀ¤«
Ġðŀ¤´ðŀ¤¢ðŀ¤¥ ðŀ¤Ńðŀ¤ªðŀ¤£ðŀ¤«
nðŀ¤ħ ðŀ¤®ðŀ¤²
nðŀ¤ħ ðŀ¤ĵ
nðŀ¤ħ ðŀ¤¢ðŀ¤ºðŀ¤®
nðŀ¤ħ ðŀ¤µðŀ¤©ðŀ¤®
nðŀ¤ħ ðŀ¤Ńðŀ¤²ðŀ¤·
Ġðŀ¤©ðŀ¤µðŀ¤ª ðŀ¤¯ðŀ¤®
Ġðŀ¤©ðŀ¤µðŀ¤ª ðŀ¤²ðŀ¤®
Ġðŀ¤©ðŀ¤µðŀ¤ª ðŀ¤¢ðŀ¤²ðŀ¤Ń
Ġðŀ¤©ðŀ¤µðŀ¤ª ðŀ¤²ðŀ¤ºðŀ¤¢ðŀ¤¤
Ġðŀ¤ĥðŀ¤µ ðŀ¤ºðŀ¤¢ðŀ¤¦ðŀ¤«
Ġðŀ¤ĥðŀ¤µ ðŀ¤§ðŀ¤«ðŀ¤¾
Ġðŀ¤ĥðŀ¤µ ðŀ¤§ðŀ¤Ńðŀ¤£ðŀ¤¢ðŀ¤¤
an s
an cial
Ġðŀ¤ĺðŀ¤«ðŀ¤² ðŀ¤£ðŀ¤¢ðŀ¤¤
Ġðŀ¤¤ðŀ¤¢ðŀ¤¼ ðŀ¤¢ðŀ¤²ðŀ¤®
Ġðŀ¤¤ðŀ¤¢ðŀ¤¼ ðŀ¤Ńðŀ¤ªðŀ¤£ðŀ¤«
Ġðŀ¤¶ðŀ¤¢ðŀ¤© ðŀ¤Ńðŀ¤¼ðŀ¤¢
Ġðŀ¤¶ðŀ¤¢ðŀ¤© ðŀ¤¼ðŀ¤Ńðŀ¤ªðŀ¤¢
Ġðŀ¤¯ðŀ¤Ńðŀ¤¯ðŀ¤® ðŀ¤´
Ġðŀ¤¼ðŀ¤¢ðŀ¤¥ ðŀ¤¢ðŀ¤µ
Ġðŀ¤¼ðŀ¤¢ðŀ¤¥ ðŀ¤¦ðŀ¤Ńðŀ¤¼ðŀ¤¢ðŀ¤ºðŀ¤®ðŀ¤¤
ðŀ¤Ģðŀ¤ĳ ðŀ¤Ģ
Ġðŀ¤¯ðŀ¤Ńðŀ¤¯ ðŀ¤¥ðŀ¤®
Ġt al
Ġt am
Ġt ele
Ġt ire
Ġt rent
Ġt ea
Ġðŀ¤¥ðŀ¤µðŀ¤¤ ðŀ¤µ
Ġðŀ¤¥ðŀ¤µðŀ¤¤ ðŀ¤¼ðŀ¤®
nðŀ¤Ĭ ðŀ¤®
nðŀ¤Ĭ ðŀ¤®ðŀ¤ªðŀ¤§ðŀ¤µ
Ġðŀ¤ĥðŀ¤® ðŀ¥ģ
ðŀ¥ĺ ðŀ¥Ĵ
Ġðŀ¤±ðŀ¤¢ðŀ¤ª ðŀ¤µðŀ¤©ðŀ¤«
Ġðŀ¤±ðŀ¤¢ðŀ¤ª ðŀ¤¸ðŀ¤®
Ġðŀ¤±ðŀ¤¢ðŀ¤ª ðŀ¤¶ðŀ¤®ðŀ¤ªðŀ¤¢
Ġðŀ¤¥ðŀ¤«ðŀ¤² ðŀ¤«ðŀ¤²
Ġðŀ¤ĥðŀ¤¢ðŀ¤± ðŀ¤©ðŀ¤«
Ġðŀ¤ĥðŀ¤¢ðŀ¤± ðŀ¤³ðŀ¤¢
Ġðŀ¤ĥðŀ¤¢ðŀ¤± ðŀ¤²ðŀ¤ºðŀ¤¢ðŀ¤¤
Ġðŀ¤¤ðŀ¤®ðŀ¤² ðŀ¤¼ðŀ¤Ńðŀ¤²ðŀ¤®
Ġðŀ¤¤ðŀ¤®ðŀ¤² ðŀ¤¼ðŀ¤Ńðŀ¤²ðŀ¤ºðŀ¤®ðŀ¤¤
Ġðŀ¤¤ðŀ¤®ðŀ¤² ðŀ¤ºðŀ¤Ńðŀ¤²ðŀ¤Ń
ðŀ¤īðŀ¤Ī ðŀ¤ħ
ØŁ "
ØŁ âĢĿ\
er y
er ed
nðŀ¤ĺ ðŀ¤Ń
Ġðŀ¤±ðŀ¤µ ðŀ¤¤ðŀ¤¢
Ġðŀ¤¼ðŀ¤®ðŀ¤² ðŀ¤Ń
Ġðŀ¥ķ ðŀ¥Ķ
Ġðŀ¥ķ ðŀ¥ĵ
Ġðŀ¥ķ ðŀ¥Ļ
Ġðŀ¥ķ ðŀ¥Ĺðŀ¥Ĳ
Ġðŀ¥ĸ ðŀ¥ĳðŀ¥Ĳ
Ġðŀ¥ĸ ðŀ¥ĵðŀ¥Ĳ
Ġðŀ¤¸ðŀ¤¢ðŀ¤© ðŀ¤Ńðŀ¤ªðŀ¤¢
Ġðŀ¤¸ðŀ¤¢ðŀ¤© ðŀ¤µðŀ¤£ðŀ¤µðŀ¤£ðŀ¤«
nðŀ¤Ģ ðŀ¤¥
ðŀ¥ĥ ðŀ¤Ńðŀ¤¥
ðŀ¥ĥ ðŀ¤¸ðŀ¤¢ðŀ¤£
Ġðŀ¤¥ðŀ¤¢ðŀ¤ªðŀ¤Ń ðŀ¤ªðŀ¤Ń
nðŀ¤ĥ ðŀ¤¢ðŀ¤§ðŀ¤Ń
nðŀ¤ĥ ðŀ¤µðŀ¤²ðŀ¤£ðŀ¤®ðŀ¤¤
Ġðŀ¤¦ðŀ¤®ðŀ¤² ðŀ¤³ðŀ¤Ń
ðŀ¤ħðŀ¤ĭ ðŀ¤ĥ
Ġd Ã©
Ġd ho
Ġd oiv
Ġd ynam
ðŀ¤®ðŀ¤´ ðŀ¤¼ðŀ¤®
ðŀ¤Ńðŀ¤¼ðŀ¤® ðŀ¤¯ðŀ¤«ðŀ¤²
ðŀ¤Ńðŀ¤¼ðŀ¤® ðŀ¤´ðŀ¤¼ðŀ¤®
Ġðŀ¤ģðŀ¤µ ðŀ¤¶ðŀ¤µðŀ¤²ðŀ¤«
Ġðŀ¤ģðŀ¤µ ðŀ¤¦ðŀ¤«ðŀ¤ªðŀ¤«ðŀ¤³ðŀ¤¢
Ġðŀ¤ģðŀ¤µ ðŀ¤¦ðŀ¤¥ðŀ¤µ
on ie
Ġðŀ¤¸ðŀ¤«ðŀ¤± ðŀ¤¼ðŀ¤Ńðŀ¤²ðŀ¤Ń
Ġðŀ¤¸ðŀ¤«ðŀ¤± ðŀ¤¼ðŀ¤Ńðŀ¤²ðŀ¤«
Ġðŀ¤¸ðŀ¤«ðŀ¤± ðŀ¤¼ðŀ¤¢ðŀ¤´ðŀ¤²ðŀ¤®
ðŀ¤¢ðŀ¤²ðŀ¤³ ðŀ¤«ðŀ¤±ðŀ¤µ
Ġðŀ¤²ðŀ¤¦ ðŀ¤µðŀ¤¤
Ġðŀ¤²ðŀ¤¦ ðŀ¤¢ðŀ¤ªðŀ¤®
Ġðŀ¤²ðŀ¤¦ ðŀ¤¢ðŀ¤ªðŀ¤¶ðŀ¤¢
Ġðŀ¤¬ðŀ¤« ðŀ¤¤ðŀ¤Ń
Ġðŀ¤¬ðŀ¤« ðŀ¤¥ðŀ¤¦ðŀ¤µ
Ġðŀ¤¬ðŀ¤®ðŀ¤¼ ðŀ¤µðŀ¤²
in os
Ġðŀ¤²ðŀ¤¢ðŀ¤© ðŀ¤µðŀ¤ºðŀ¤®ðŀ¤¤
Ġðŀ¤²ðŀ¤¢ðŀ¤© ðŀ¤¢ðŀ¤²ðŀ¤®
Ġðŀ¤²ðŀ¤¢ðŀ¤© ðŀ¤¼ðŀ¤µðŀ¤ºðŀ¤®ðŀ¤¤
ðŀ¤Ģðŀ¤Ĵ ðŀ¤īðŀ¤Ĥ
ðŀ¤Ģðŀ¤Ĵ ðŀ¤Ħðŀ¤Ģ
ðŀ¤Ģðŀ¤Ĵ ðŀ¤Ģðŀ¤ĩðŀ¤Ģðŀ¤Ĥ
ðŀ¤¢ðŀ¤¥ðŀ¤¦ ðŀ¤µðŀ¤ª
Ġðŀ¤ĥðŀ¤¢ðŀ¤³ ðŀ¤®ðŀ¤²ðŀ¤«ðŀ¤¤
Ġðŀ¤ĥðŀ¤¢ðŀ¤³ ðŀ¤«ðŀ¤²ðŀ¤Ń
Ġðŀ¤ĥðŀ¤¢ðŀ¤³ ðŀ¤Ńðŀ¤²ðŀ¤¤ðŀ¤Ń
Ġðŀ¤ĸðŀ¤¢ðŀ¤´ ðŀ¤¢
Ġðŀ¤¶ðŀ¤®ðŀ¤º ðŀ¤®ðŀ¤²
Ġðŀ¤¶ðŀ¤®ðŀ¤º ðŀ¤²ðŀ¤µðŀ¤ºðŀ¤®ðŀ¤¤
Ġðŀ¥Ķ ðŀ¥Ĳðŀ¥Ĳ
Ġðŀ¥Ķ ðŀ¥ĺ
Ġðŀ¥Ķ ðŀ¥ĸ
nðŀ¤ĩ ðŀ¤«ðŀ¤²
nðŀ¤ĩ ðŀ¤¢ðŀ¤±ðŀ¤¼ðŀ¤Ń
nðŀ¤ĩ ðŀ¤¢ðŀ¤²ðŀ¤ºðŀ¤Ńðŀ¤²ðŀ¤¢
ar ds
Ġðŀ¤¬ðŀ¤¢ðŀ¤± ðŀ¤µðŀ¤£ðŀ¤«
Ġðŀ¤Ńðŀ¤± ðŀ¤¢ðŀ¤´ðŀ¤²ðŀ¤®
is e
is Ã©
ðŀ¤µðŀ¤³ ðŀ¤µðŀ¤²
ðŀ¤µðŀ¤³ ðŀ¤µðŀ¤ºðŀ¤®ðŀ¤¤
ðŀ¤µðŀ¤³ ðŀ¤¼ðŀ¤µ
Ġðŀ¤³ðŀ¤«ðŀ¤§ ðŀ¤¢
Ġðŀ¤¥ðŀ¤¢ðŀ¤´ ðŀ¤Ń
ðŀ¤ĳðŀ¤Į ðŀ¤Īðŀ¤Ģ
ðŀ¤ĳðŀ¤Į ðŀ¤Īðŀ¤Įðŀ¤ıðŀ¤Ģðŀ¤ħðŀ¤ĭ
re ter
Ġðŀ¤¼ðŀ¤®ðŀ¤½ ðŀ¤µðŀ¤£ðŀ¤«
Ġðŀ¤¼ðŀ¤®ðŀ¤½ ðŀ¤¼ðŀ¤¢ðŀ¤²ðŀ¤¢
ðŀ¤®ðŀ¤º ðŀ¤¦ðŀ¤¢
ðŀ¤ºðŀ¤¢ðŀ¤´ ðŀ¤¢ðŀ¤©ðŀ¤®
Ġðŀ¤±ðŀ¤«ðŀ¤¤ ðŀ¤¼ðŀ¤Ńðŀ¤²ðŀ¤®
Ġðŀ¤¬ðŀ¤«ðŀ¤¼ ðŀ¤¤ðŀ¤Ń
Ġðŀ¤¬ðŀ¤«ðŀ¤¼ ðŀ¤¤ðŀ¤µðŀ¤£ðŀ¤«
Ġðŀ¤¬ðŀ¤«ðŀ¤¼ ðŀ¤¤ðŀ¤¢ðŀ¤²ðŀ¤®
Ġðŀ¤¤ðŀ¤® ðŀ¤¥
Ġðŀ¤¤ðŀ¤® ðŀ¤µðŀ¤£ðŀ¤«
Ġðŀ¤¤ðŀ¤® ðŀ¤«ðŀ¤ªðŀ¤«
Ġðŀ¤¤ðŀ¤® ðŀ¤½
Ġðŀ¤¤ðŀ¤® ðŀ¤Ńðŀ¤²ðŀ¤£ðŀ¤«
ðŀ¤®ðŀ¤ªðŀ¤® ðŀ¤£ðŀ¤«
ðŀ¤®ðŀ¤ªðŀ¤® ðŀ¤¯ðŀ¤«ðŀ¤²
Ġðŀ¤©ðŀ¤«ðŀ¤´ðŀ¤£ðŀ¤Ń ðŀ¤¼ðŀ¤«
Ġðŀ¤©ðŀ¤«ðŀ¤´ðŀ¤£ðŀ¤Ń ðŀ¤¼ðŀ¤¢ðŀ¤ºðŀ¤®ðŀ¤¤
Ġðŀ¤©ðŀ¤«ðŀ¤´ðŀ¤£ðŀ¤Ń ðŀ¤¼ðŀ¤¢ðŀ¤²ðŀ¤¢
nðŀ¤Ĵ ðŀ¤¢
nðŀ¤Ĵ ðŀ¤«
nðŀ¤Ĵ ðŀ¤¢ðŀ¤¸ðŀ¤´ðŀ¤¢
ðŀ¤Ģðŀ¤Ĥðŀ¤ĭ ðŀ¤ħðŀ¤Įðŀ¤Ĳ
Ġðŀ¤§ðŀ¤Ńðŀ¤²ðŀ¤· ðŀ¤µðŀ¤ºðŀ¤®ðŀ¤¤
Ġðŀ¤§ðŀ¤Ńðŀ¤²ðŀ¤· ðŀ¤Ńðŀ¤ªðŀ¤¢
ðŀ¤ĵðŀ¤Ĥ ðŀ¤ĵ
ðŀ¤ĵðŀ¤Ĥ ðŀ¤ĭðŀ¤Ĳðŀ¤Į
Ġðŀ¤¢ðŀ¤ªðŀ¤¢ðŀ¤² ðŀ¤®ðŀ¤¤
Ġðŀ¤¢ðŀ¤ªðŀ¤¢ðŀ¤² ðŀ¤©ðŀ¤«
ðŀ¤¥ðŀ¤«ðŀ¤¯ ðŀ¤ªðŀ¤«
ĠðŁĩ ¸
ĠðŁĩ °ðŁĩ·
ĠðŁĩ «ðŁĩ·
ĠðŁĩ ·ðŁĩ¸
Ġðŀ¤²ðŀ¤¢ðŀ¤¬ ðŀ¤¢ðŀ¤´ðŀ¤¯ðŀ¤«
Ġðŀ¤ļðŀ¤µ ðŀ¤¬ðŀ¤µðŀ¤²ðŀ¤£ðŀ¤«
ðŀ¤¼ðŀ¤®ðŀ¤ª ðŀ¤ºðŀ¤®ðŀ¤¤
ðŀ¤¼ðŀ¤®ðŀ¤ª ðŀ¤¼ðŀ¤«
ðŀ¤¼ðŀ¤®ðŀ¤ª ðŀ¤£ðŀ¤µ
ðŀ¤¼ðŀ¤®ðŀ¤ª ðŀ¤²ðŀ¤®
Ġðŀ¤²ðŀ¤¢ðŀ¤² ðŀ¤¢ðŀ¤²ðŀ¤¢
Ġðŀ¤²ðŀ¤¢ðŀ¤² ðŀ¤¼ðŀ¤Ńðŀ¤²ðŀ¤¢
Ġðŀ¤²ðŀ¤¢ðŀ¤² ðŀ¤®ðŀ¤²ðŀ¥ĭðŀ¤£ðŀ¤Ńðŀ¤ªðŀ¤¢ðŀ¤¤
Ġðŀ¤²ðŀ¤¢ðŀ¤² ðŀ¤¼ðŀ¤®ðŀ¤²
Ġðŀ¤²ðŀ¤¢ðŀ¤² ðŀ¤®ðŀ¤²ðŀ¥ĭðŀ¤£ðŀ¤Ńðŀ¤ªðŀ¤²ðŀ¤®
Ġðŀ¤²ðŀ¤¢ðŀ¤² ðŀ¤ºðŀ¤®ðŀ¤´ðŀ¤Ń
Ġðŀ¤¼ðŀ¤µðŀ¤¥ðŀ¤¦ ðŀ¤®ðŀ¤²ðŀ¥ĭðŀ¤£ðŀ¤Ńðŀ¤ªðŀ¤²ðŀ¤®
Ġðŀ¥Ĺ ðŀ¥Ĵ
Ġðŀ¥Ĺ ðŀ¥ķ
Ġðŀ¥Ĺ ðŀ¥Ĺ
Ġðŀ¥Ĺ ðŀ¥ĸ
Ġðŀ¥Ĺ ðŀ¥Ļ
Ġðŀ¤¦ðŀ¤µ ðŀ¤º
Ġðŀ¤¦ðŀ¤µ ðŀ¤ªðŀ¤Ń
ou est
ou nd
Ġl ist
Ġl iv
Ġl ie
Ġl ittle
Ġp or
Ġp la
Ġðŀ¤±ðŀ¤µðŀ¤ª ðŀ¤¼ðŀ¤Ńðŀ¤²ðŀ¤¢
Ġðŀ¤±ðŀ¤µðŀ¤ª ðŀ¤²ðŀ¤µðŀ¤ºðŀ¤®ðŀ¤¤
Ġðŀ¤ĥðŀ¤¢ ðŀ¥ĥðŀ¤¸ðŀ¤¢ðŀ¤£
ðŀ¥ģ ðŀ¤«
ðŀ¥ģ ðŀ¤µ
ðŀ¥ģ ðŀ¤¦ðŀ¤µðŀ¤¤
Ġðŀ¤Ĭðŀ¤Ń ðŀ¤¬ðŀ¤Ń
Ġðŀ¤Ĭðŀ¤Ń ðŀ¤¶ðŀ¤Ńðŀ¤ªðŀ¤£ðŀ¤«
Ġðŀ¤ģðŀ¤® ðŀ¤§ðŀ¤®ðŀ¤²
Ġðŀ¤ģðŀ¤® ðŀ¤¥ðŀ¤Ńðŀ¤²
Ġðŀ¤´ðŀ¤¢ðŀ¤¤ðŀ¤¼ðŀ¤Ń ðŀ¤¼ðŀ¤Ń
Ġðŀ¤´ðŀ¤¢ðŀ¤¤ðŀ¤¼ðŀ¤Ń ðŀ¤ªðŀ¤¢
at ch
ðŀ¤Ńðŀ¤²ðŀ¥ĭ ðŀ¤£ðŀ¤Ń
ðŀ¤Ńðŀ¤²ðŀ¥ĭ ðŀ¤£ðŀ¤®
ðŀ¤Ńðŀ¤²ðŀ¥ĭ ðŀ¤£ðŀ¤Ńðŀ¤ªðŀ¤®
Ġðŀ¤±ðŀ¤µðŀ¤¤ ðŀ¤®
Ġðŀ¤±ðŀ¤µðŀ¤¤ ðŀ¤µ
Ġðŀ¤±ðŀ¤µðŀ¤¤ ðŀ¤µðŀ¤²
Ġðŀ¤»ðŀ¤Ń ðŀ¤©ðŀ¤ªðŀ¤«
Ġðŀ¤³ðŀ¤Ńðŀ¤§ ðŀ¤Ńðŀ¤´ðŀ¤«
ðŀ¤²ðŀ¤¢ðŀ¤´ ðŀ¤¢ðŀ¤²ðŀ¤³ðŀ¤®
Ġðŀ¤ªðŀ¤« ðŀ¤¥ðŀ¤«
Ġðŀ¤¸ðŀ¤¢ðŀ¤± ðŀ¤¼ðŀ¤¢
Ġðŀ¤¸ðŀ¤¢ðŀ¤± ðŀ¤¼ðŀ¤Ńðŀ¤²
Ġðŀ¤Ĳðŀ¤Ħ ðŀ¤Į
Ġðŀ¤Ĳðŀ¤Ħ ðŀ¤ĵ
Ġðŀ¤Ĳðŀ¤Ħ ðŀ¤Ģðŀ¤Ĩ
ĠA u
ĠA ssistant
ĠA PC
Ġa us
Ġa fri
Ġa cc
Ġa go
ðŀ¤Ńðŀ¤¼ðŀ¤« ðŀ¤¼ðŀ¤¢
Ġðŀ¤¬ðŀ¤«ðŀ¤± ðŀ¤ªðŀ¤«
Ġðŀ¤¬ðŀ¤«ðŀ¤± ðŀ¤£ðŀ¤Ń
Ġðŀ¤Ģðŀ¤Ĥ ðŀ¤ĥðŀ¤Ģ
Ġðŀ¤Ģðŀ¤Ĥ ðŀ¤īðŀ¤ĳ
Ġðŀ¤Ģðŀ¤Ĥ ðŀ¤ĥðŀ¤Ģðŀ¤Ĳ
Ġðŀ¤Ģðŀ¤Ĥ ðŀ¤ĸðŀ¤Ģðŀ¤Ķ
Ġðŀ¤Ģðŀ¤Ĥ ðŀ¤ĥðŀ¤Ģðŀ¤Ļ
Ġðŀ¤Ģðŀ¤Ĭ ðŀ¤ĥðŀ¤Ģðŀ¤ģðŀ¤ĵ
Ġðŀ¤Ĳðŀ¤ĺ ðŀ¤Ģðŀ¤Ĵðŀ¤ĵ
Ġðŀ¤Ĳðŀ¤ĺ ðŀ¤īðŀ¤ħðŀ¤ī
Ġðŀ¤ªðŀ¤«ðŀ¤± ðŀ¤Ń
Ġðŀ¤ªðŀ¤«ðŀ¤± ðŀ¤µðŀ¤²ðŀ¤®
Ġðŀ¤ªðŀ¤«ðŀ¤± ðŀ¤²ðŀ¤¢
Ġðŀ¤ªðŀ¤«ðŀ¤± ðŀ¤ªðŀ¤µðŀ¤£ðŀ¤«
Ġðŀ¤¼ðŀ¤«ðŀ¤² ðŀ¤¼ðŀ¤µðŀ¤£ðŀ¤«
Ġðŀ¤¼ðŀ¤«ðŀ¤² ðŀ¤¼ðŀ¤Ńðŀ¤²ðŀ¤£ðŀ¤«
Ġðŀ¤ħðŀ¤ĵ ðŀ¤ıðŀ¤Ģðŀ¤Ī
Ġðŀ¤Ģðŀ¤¦ ðŀ¤£ðŀ¤µðŀ¤ª
Ġðŀ¤Ģðŀ¤¦ ðŀ¤ªðŀ¤¢ðŀ¤¸ðŀ¤¢ðŀ¤¥
Ġðŀ¤Ģðŀ¤¦ ðŀ¤¢ðŀ¤§ðŀ¤Ńðŀ¤²ðŀ¤¢
Ġðŀ¤Ĳðŀ¤¦ ðŀ¤¢ðŀ¤¨
Ġðŀ¤Ĳðŀ¤¦ ðŀ¤¢ðŀ¤ªðŀ¤¤ðŀ¤«
Ġðŀ¤¦ðŀ¤« ðŀ¤¤ðŀ¤«
Ġðŀ¤ĳðŀ¤Įðŀ¤Ĳ ðŀ¤ī
Ġðŀ¥ĺ ðŀ¥Ĳðŀ¥Ĳ
Ġðŀ¤£ðŀ¤Ń ðŀ¤ºðŀ¤Ńðŀ¤¥
Ġðŀ¤£ðŀ¤¢ðŀ¤±ðŀ¤ªðŀ¤® ðŀ¤¼ðŀ¤®
Ġs a
Ġs on
Ġs im
Ġs oci
Ġs cre
Ġs kill
Ġs ans
nðŀ¤Ħ ðŀ¤Ńðŀ¤¥ðŀ¤¦ðŀ¤Ń
nðŀ¤Ħ ðŀ¤Īðŀ¤Ģðŀ¤ħðŀ¤ĭðŀ¤Ĥ
nðŀ¤Ħ ðŀ¤¢ðŀ¤²ðŀ¤½ðŀ¤«
nðŀ¤Ħ ðŀ¤¢ðŀ¤³ðŀ¤¢ðŀ¤´ðŀ¤®ðŀ¤³ðŀ¤®
Ġðŀ¤ħðŀ¤Į ðŀ¤Īðŀ¤ĭ
Ġðŀ¤ħðŀ¤Į ðŀ¤İ
Ġðŀ¤ħðŀ¤Į ðŀ¤ĳðŀ¤ī
Ġðŀ¤Ģðŀ¤ģ ðŀ¤īðŀ¤Ĳðŀ¤ĺ
Ġðŀ¤¨ðŀ¤Ń ðŀ¤¯
or g
or k
Ġðŀ¤¸ðŀ¤¢ðŀ¤¤ ðŀ¤£ðŀ¤Ń
Ġðŀ¤¸ðŀ¤¢ðŀ¤¤ ðŀ¤®ðŀ¤ªðŀ¤Ń
Ġðŀ¤¸ðŀ¤¢ðŀ¤¤ ðŀ¤®ðŀ¤ªðŀ¤²ðŀ¤®
Ġðŀ¤¸ðŀ¤¢ðŀ¤¯ ðŀ¤¢ðŀ¤²ðŀ¤®
Ġðŀ¤¸ðŀ¤¢ðŀ¤¯ ðŀ¤µðŀ¤¯ðŀ¤®
Ġðŀ¥Ĳ ðŀ¥ĳ
nðŀ¤Ķ ðŀ¤µðŀ¤²
nðŀ¤Ķ ðŀ¤Ńðŀ¤¦ðŀ¤ªðŀ¤Ń
nðŀ¤Ķ ðŀ¤®ðŀ¤²ðŀ¤¼ðŀ¤«
nðŀ¤Ķ ðŀ¤®ðŀ¤ªðŀ¤¶
ðŀ¤ľ ðŀ¤ĭ
ðŀ¤ľ ðŀ¤īðŀ¤Ī
ðŀ¤ľ ðŀ¤Įðŀ¤ĺðŀ¤ĭ
Ġðŀ¤³ðŀ¤¢ðŀ¤´ ðŀ¤ªðŀ¤Ń
Ġðŀ¤¸ðŀ¤«ðŀ¤² ðŀ¤¢ðŀ¤²ðŀ¤Ń
Ġðŀ¤¸ðŀ¤«ðŀ¤² ðŀ¤£ðŀ¤Ńðŀ¤²ðŀ¤®
Ġðŀ¤¸ðŀ¤«ðŀ¤² ðŀ¤¢ðŀ¤²ðŀ¤¢ðŀ¤²ðŀ¤®
ðŀ¤ĭðŀ¤Ĥ ðŀ¤Ģ
Ġðŀ¤»ðŀ¤¢ðŀ¤± ðŀ¤²ðŀ¤£ðŀ¤«
Ġðŀ¤»ðŀ¤¢ðŀ¤± ðŀ¤²ðŀ¤£ðŀ¤Ń
Ġðŀ¤©ðŀ¤¢ðŀ¤²ðŀ¤º ðŀ¤Ń
Ġðŀ¤©ðŀ¤¢ðŀ¤²ðŀ¤º ðŀ¤¢ðŀ¤²
Ġðŀ¤©ðŀ¤¢ðŀ¤²ðŀ¤º ðŀ¤¢ðŀ¤¼ðŀ¤¢
Ġðŀ¤©ðŀ¤¢ðŀ¤²ðŀ¤º ðŀ¤Ńðŀ¤²ðŀ¤£ðŀ¤«
Ġðŀ¤©ðŀ¤¢ðŀ¤²ðŀ¤º ðŀ¤Ńðŀ¤²ðŀ¤®ðŀ¤ªðŀ¤Ń
ĠP ro
ĠP rÃ©s
ĠP AI
ĠP UR
ðŀ¤ªðŀ¤¢ðŀ¤² ðŀ¤§ðŀ¤«ðŀ¤»ðŀ¤«ðŀ¤¥
Ġðŀ¤ĥðŀ¤Ń ðŀ¤·
Ġðŀ¤ĺðŀ¤® ðŀ¤ªðŀ¤«
Ġðŀ¤ĺðŀ¤® ðŀ¤¥ðŀ¤²ðŀ¤¢
Ġðŀ¤´ðŀ¤¢ðŀ¤¤ðŀ¤¼ðŀ¤Ńðŀ¤² ðŀ¤¢ðŀ¤´
ĠÙĦÙĦÙ ĤØ±
Ġðŀ¤¤ðŀ¤µðŀ¤¥ðŀ¤¦ ðŀ¤Ńðŀ¤ªðŀ¤¢
Ġðŀ¤ĳðŀ¤¢ðŀ¤¼ ðŀ¤µ
ðŀ¤©ðŀ¤¢ðŀ¤¤ ðŀ¤©ðŀ¤«
en us
en ir
en dl
en dar
Ġðŀ¤²ðŀ¤«ðŀ¤± ðŀ¤¢
Ġðŀ¤²ðŀ¤«ðŀ¤± ðŀ¤¢ðŀ¤²ðŀ¤Ń
Ġðŀ¤²ðŀ¤«ðŀ¤± ðŀ¤Ńðŀ¤²ðŀ¤ºðŀ¤®ðŀ¤¤
Ġðŀ¤²ðŀ¤«ðŀ¤± ðŀ¤Ńðŀ¤²ðŀ¤¢ðŀ¤²ðŀ¤¢
Ġðŀ¤²ðŀ¤«ðŀ¤± ðŀ¤Ńðŀ¤²ðŀ¤¢ðŀ¤²ðŀ¤Ń
Ġðŀ¤¸ðŀ¤µðŀ¤¥ðŀ¤¨ ðŀ¤¢
Ġðŀ¤¸ðŀ¤µðŀ¤¥ðŀ¤¨ ðŀ¤Ńðŀ¤¼ðŀ¤®
Ġðŀ¤¸ðŀ¤µðŀ¤¥ðŀ¤¨ ðŀ¤Ńðŀ¤¼ðŀ¤Ńðŀ¤²ðŀ¤®
nðŀ¤ı ðŀ¤¢
nðŀ¤ı ðŀ¤¢ðŀ¤¤
nðŀ¤ı ðŀ¤¢ðŀ¤¼ðŀ¤¢ðŀ¤ªðŀ¤¢
nðŀ¤ı ðŀ¤®ðŀ¤²ðŀ¤Ń
nðŀ¤ı ðŀ¤¢ðŀ¤¯ðŀ¤Ń
Ġðŀ¤ĥðŀ¤ĵ ðŀ¤ĵðŀ¤Ĳ
Ġðŀ¤ĥðŀ¤ĵ ðŀ¤Ĵðŀ¤Ĳðŀ¤Ģ
Ġðŀ¤ĥðŀ¤ĵ ðŀ¤ĳðŀ¤Ħðŀ¤Ģðŀ¤Ī
Ġðŀ¤ºðŀ¤®ðŀ¤¥ ðŀ¤¯ðŀ¤Ń
Ġðŀ¤ºðŀ¤®ðŀ¤¥ ðŀ¤¯ðŀ¤Ńðŀ¤²ðŀ¤¢ðŀ¤¤
Ġðŀ¤¼ðŀ¤®ðŀ¤© ðŀ¤®
ðŀ¤Īðŀ¤ĭðŀ¤ĳ ðŀ¤ī
Ġðŀ¤²ðŀ¤Ń ðŀ¤©ðŀ¤«
Ġðŀ¤§ðŀ¤¢ðŀ¤¤ ðŀ¤®
Ġðŀ¤§ðŀ¤¢ðŀ¤¤ ðŀ¤¥
Ġðŀ¤§ðŀ¤¢ðŀ¤¤ ðŀ¤¢ðŀ¤ºðŀ¤®ðŀ¤¤
Ġðŀ¤§ðŀ¤¢ðŀ¤¤ ðŀ¤¢ðŀ¤²ðŀ¤¢
et te
ĠU NP
ðŀ¤®ðŀ¤ªðŀ¤Ń ðŀ¤§
ðŀ¤£ðŀ¤Ńðŀ¤²ðŀ¤® ðŀ¤³ðŀ¤«
ðŀ¤£ðŀ¤Ńðŀ¤²ðŀ¤® ðŀ¤¯ðŀ¤«ðŀ¤²
Ġðŀ¤¤ðŀ¤Ńðŀ¤¥ ðŀ¤¼ðŀ¤«ðŀ¤¼ðŀ¤«
Ġðŀ¤¤ðŀ¤Ńðŀ¤¥ ðŀ¤¼ðŀ¤®ðŀ¤¼ðŀ¤¢
ðŀ¤§ðŀ¤µ ðŀ¤ªðŀ¤Ń
ðŀ¤§ðŀ¤µ ðŀ¤³ðŀ¤¢
ðŀ¤§ðŀ¤µ ðŀ¤§ðŀ¤®
Ġðŀ¤£ðŀ¤«ðŀ¤¬ ðŀ¤µðŀ¤ºðŀ¤®ðŀ¤¤
Ġðŀ¤¢ðŀ¤¤ ðŀ¤¯ðŀ¤Ń
Ġðŀ¤¢ðŀ¤¤ ðŀ¤¯ðŀ¤µðŀ¤²ðŀ¤®
Ġðŀ¤¢ðŀ¤¤ ðŀ¤¯ðŀ¤µðŀ¤¯ðŀ¤®
ðŀ¤¬ðŀ¤µ ðŀ¤´ðŀ¤«
Ġðŀ¤Ķðŀ¤µ ðŀ¤¤ðŀ¤Ńðŀ¤´ðŀ¤®
Ġðŀ¤¼ðŀ¤¢ðŀ¤¥ðŀ¤¨ ðŀ¤¢
Ġðŀ¤¼ðŀ¤¢ðŀ¤¥ðŀ¤¨ ðŀ¤Ńðŀ¤²ðŀ¤«
Ġth an
Ġth is
Ġth en
Ġth ir
Ġðŀ¤ľ ðŀ¤Ń
Ġðŀ¤ľ ðŀ¤īðŀ¤Ī
ðŀ¤ĭðŀ¤ĥ ðŀ¤īðŀ¤Īðŀ¤ī
Ġðŀ¤¢ðŀ¤´ ðŀ¤²ðŀ¤Ń
Ġðŀ¤¢ðŀ¤´ ðŀ¤²ðŀ¤µðŀ¤©ðŀ¤«
Ġðŀ¤¢ðŀ¤´ ðŀ¤³ðŀ¤Ńðŀ¤²ðŀ¤Ń
Ġðŀ¤Ģðŀ¤ª ðŀ¤£ðŀ¤Ńðŀ¤ºðŀ¤¢ðŀ¤¤
Ġðŀ¤ºðŀ¤« ðŀ¤¤ðŀ¤¢
Ġðŀ¤ºðŀ¤« ðŀ¤ªðŀ¤µ
Ġðŀ¤©ðŀ¤Ńðŀ¤¯ ðŀ¤¼ðŀ¤Ńðŀ¤ªðŀ¤¢ðŀ¤²ðŀ¤®
Ġðŀ¤Ł ðŀ¤«ðŀ¤²
Ġðŀ¤Ł ðŀ¤ī
Ġðŀ¤Ł ðŀ¤¢ðŀ¤¥
Ġðŀ¤Ł ðŀ¤¢ðŀ¤¥ðŀ¤¦ðŀ¤Ńðŀ¤´ðŀ¤¢
Ġðŀ¤ĸðŀ¤Į ðŀ¤ĥðŀ¤Ħðŀ¤Į
Ġðŀ¥ĳðŀ¥ĺ ðŀ¥ĵ
Ġðŀ¥ĳðŀ¥ĺ ðŀ¥ĺðŀ¥ĳ
Ġðŀ¥ĳðŀ¥ĺ ðŀ¥ĸðŀ¥ķ
Ġðŀ¤´ðŀ¤¢ðŀ¤¸ðŀ¤Ń ðŀ¤£ðŀ¤Ń
Ġðŀ¤±ðŀ¤¢ðŀ¤´ðŀ¤¤ ðŀ¤¢ðŀ¤²ðŀ¤®
Ġðŀ¤±ðŀ¤¢ðŀ¤´ðŀ¤¤ ðŀ¤Ńðŀ¤ªðŀ¤ºðŀ¤®ðŀ¤¤
Ġðŀ¤²ðŀ¤µðŀ¤² ðŀ¤¯ðŀ¤¢
ðŀ¤¯ðŀ¤Ńðŀ¤² ðŀ¤¼ðŀ¤Ńðŀ¤²
ðŀ¤¯ðŀ¤Ńðŀ¤² ðŀ¤Ńðŀ¤ªðŀ¤²ðŀ¤£ðŀ¤«
ðŀ¤īðŀ¤ħ ðŀ¤Ĩðŀ¤Ģðŀ¤Ļ
ðŀ¤īðŀ¤ħ ðŀ¤ļðŀ¤īðŀ¤Ĳ
Ġðŀ¤ħðŀ¤īðŀ¤Ĳðŀ¤īðŀ¤ĺðŀ¤Ģðŀ¤Ĥ ðŀ¤Ĳðŀ¤Ģ
Ġðŀ¤¬ðŀ¤®ðŀ¤± ðŀ¤¼ðŀ¤«ðŀ¤ªðŀ¤«
Ġðŀ¤¬ðŀ¤®ðŀ¤± ðŀ¤¼ðŀ¤¢ðŀ¤ºðŀ¤®ðŀ¤¤
Ġðŀ¤±ðŀ¤¢ðŀ¤´ðŀ¤¤ðŀ¤Ń ðŀ¤¼ðŀ¤µðŀ¤ºðŀ¤®ðŀ¤¤
Ġðŀ¤±ðŀ¤¢ðŀ¤´ðŀ¤¤ðŀ¤Ń ðŀ¤¼ðŀ¤Ńðŀ¤ªðŀ¤¢
Ġðŀ¤¬ðŀ¤µ ðŀ¤¼ðŀ¤Ń
Ġðŀ¤¬ðŀ¤µ ðŀ¤§ðŀ¤Ń
Ġðŀ¤¬ðŀ¤µ ðŀ¤ºðŀ¤¢ðŀ¤²
ðŀ¤§ðŀ¤Ńðŀ¤² ðŀ¤ºðŀ¤¦ðŀ¤«
Ġðŀ¤¼ðŀ¤¢ðŀ¤±ðŀ¤« ðŀ¤¼ðŀ¤¢
Ġðŀ¤£ðŀ¤µðŀ¤½ ðŀ¤¢
Ġðŀ¤£ðŀ¤µðŀ¤½ ðŀ¤¢ðŀ¤²ðŀ¤¢
Ġðŀ¤£ðŀ¤µðŀ¤½ ðŀ¤¢ðŀ¤²ðŀ¤«
Ġðŀ¤£ðŀ¤µðŀ¤½ ðŀ¤Ńðŀ¤²ðŀ¤¢ðŀ¤²ðŀ¤Ń
Ġðŀ¤£ðŀ¤µðŀ¤½ ðŀ¤Ńðŀ¤²ðŀ¤¢ðŀ¤²
Ġðŀ¤£ðŀ¤µðŀ¤½ ðŀ¤Ńðŀ¤²ðŀ¤¢ðŀ¤²ðŀ¤«
Ġðŀ¤¢ðŀ¤²ðŀ¤£ðŀ¤Ń ðŀ¤¼ðŀ¤¢
Ġðŀ¤¢ðŀ¤²ðŀ¤£ðŀ¤Ń ðŀ¤¼ðŀ¤¢ðŀ¤²ðŀ¤«
Ġðŀ¤¢ðŀ¤²ðŀ¤£ðŀ¤Ń ðŀ¤¼ðŀ¤Ńðŀ¤²ðŀ¤£ðŀ¤«
ĠF G
ĠF CFA
Ġðŀ¤ĥðŀ¤Į ðŀ¤Ķðŀ¤Įðŀ¤Ħðŀ¤īðŀ¤Īðŀ¤ī
Ġðŀ¤ĥðŀ¤Į ðŀ¤¡ðŀ¤Ģðŀ¤ĥðŀ¤Ħðŀ¤ĭðŀ¤ĳ
Ġðŀ¤ĥðŀ¤Į ðŀ¤ħðŀ¤Ģðŀ¤ĥðŀ¤Ħðŀ¤ĭðŀ¤ĳ
Ġðŀ¤Ĳðŀ¤ģ ðŀ¤Ģ
Ġðŀ¤Ĳðŀ¤ģ ðŀ¤īðŀ¤Ĳðŀ¤ĺðŀ¤ĸðŀ¤Ģ
ðŀ¤¤ðŀ¤Ńðŀ¤´ ðŀ¤¢ðŀ¤¥
Ġðŀ¤·ðŀ¤« ðŀ¤¤ðŀ¤«
Ġðŀ¤±ðŀ¤Ńðŀ¤²ðŀ¤£ðŀ¤Ń ðŀ¤ªðŀ¤«ðŀ¤²
ðŀ¤²ðŀ¤£ ðŀ¤¢ðŀ¤ªðŀ¤Ń
Ġðŀ¤¤ðŀ¤Ń ðŀ¤º
Ġðŀ¤¤ðŀ¤Ń ðŀ¤©ðŀ¤«
Ġðŀ¤¤ðŀ¤Ń ðŀ¤»ðŀ¤Ń
Ġðŀ¤¤ðŀ¤Ń ðŀ¤©ðŀ¤µðŀ¤£ðŀ¤«
Ġðŀ¤¤ðŀ¤Ń ðŀ¤©ðŀ¤¢ðŀ¤´
Ġðŀ¤¤ðŀ¤Ń ðŀ¤©ðŀ¤Ńðŀ¤ªðŀ¤¢
Ġðŀ¤¼ðŀ¤Ńðŀ¤² ðŀ¤£ðŀ¤Ńðŀ¤²ðŀ¤®
Ġðŀ¤´ðŀ¤®ðŀ¤² ðŀ¤£ðŀ¤Ńðŀ¤²
Ġðŀ¤´ðŀ¤®ðŀ¤² ðŀ¤ºðŀ¤Ńðŀ¤¼ðŀ¤¢
ðŀ¤Ħðŀ¤ĵ ðŀ¤Īðŀ¤ĳðŀ¤ĭðŀ¤Ĳðŀ¤Ģ
Ġðŀ¤³ðŀ¤Ńðŀ¤¯ ðŀ¤²ðŀ¤ºðŀ¤¢ðŀ¤¤
Ġðŀ¥ĳðŀ¥Ļðŀ¥ĺ ðŀ¥Ĺ
ĠT V
Ġðŀ¤¡ ðŀ¤¢
Ġðŀ¤¡ ðŀ¤Ń
Ġðŀ¤¡ ðŀ¤īðŀ¤Ĵ
Ġðŀ¤¡ ðŀ¤¢ðŀ¤¥ðŀ¤¦ðŀ¤¢
Ġðŀ¤£ðŀ¤¢ðŀ¤ªðŀ¤Ń ðŀ¤¼ðŀ¤¢
Ġðŀ¤¬ðŀ¤Ńðŀ¤ª ðŀ¤¼ðŀ¤¢
Ġðŀ¤¬ðŀ¤Ńðŀ¤ª ðŀ¤¼ðŀ¤®
Ġðŀ¤¬ðŀ¤Ńðŀ¤ª ðŀ¤¼ðŀ¤µðŀ¤£ðŀ¤«
Ġðŀ¥ĳðŀ¥ķ ðŀ¥Ĳðŀ¥Ĳ
ðŀ¤¯ðŀ¤®ðŀ¤² ðŀ¤£ðŀ¤Ńðŀ¤ªðŀ¤¢ðŀ¤¤
Ġðŀ¤§ðŀ¤¢ðŀ¤¯ ðŀ¤¢ðŀ¤´
Ġðŀ¤§ðŀ¤¢ðŀ¤¯ ðŀ¤¼ðŀ¤Ń
Ġðŀ¤§ðŀ¤¢ðŀ¤¯ ðŀ¤¼ðŀ¤«
Ġðŀ¤§ðŀ¤¢ðŀ¤¯ ðŀ¤²ðŀ¤¢
Ġðŀ¤§ðŀ¤¢ðŀ¤¯ ðŀ¤Ńðŀ¤ªðŀ¤Ń
Ġðŀ¤¶ðŀ¤¢ðŀ¤¥ ðŀ¤µ
Ġðŀ¤¶ðŀ¤¢ðŀ¤¥ ðŀ¤¤ðŀ¤«
Ġðŀ¤¶ðŀ¤¢ðŀ¤¥ ðŀ¤¦ðŀ¤¢
Ġðŀ¤¶ðŀ¤¢ðŀ¤¥ ðŀ¤¬ðŀ¤¢
Ġðŀ¤²ðŀ¤ºðŀ¤¢ðŀ¤´ ðŀ¤²ðŀ¤ºðŀ¤µ
ðŀ¤Įðŀ¤Ī ðŀ¤Įðŀ¤Ĳ
ðŀ¤Įðŀ¤Ī ðŀ¤ļðŀ¤Į
Ġðŀ¤©ðŀ¤¢ðŀ¤£ ðŀ¤Ńðŀ¤²ðŀ¤®
Ġðŀ¤¸ðŀ¤Ńðŀ¤± ðŀ¤Ńðŀ¤ªðŀ¤¢
Ġðŀ¤¸ðŀ¤Ńðŀ¤± ðŀ¤Ńðŀ¤ªðŀ¤¯ðŀ¤«
Ġðŀ¤¸ðŀ¤Ńðŀ¤± ðŀ¤Ńðŀ¤ªðŀ¤ºðŀ¤®ðŀ¤¤
Ġðŀ¤¸ðŀ¤Ńðŀ¤± ðŀ¤ªðŀ¤®ðŀ¤²
Ġðŀ¤¸ðŀ¤Ńðŀ¤± ðŀ¤ªðŀ¤®ðŀ¤²ðŀ¥ĭðŀ¤£ðŀ¤Ńðŀ¤ªðŀ¤¢
ðĿĻ ©
al ly
al th
ri ef
ri endl
ðŀ¤ķ ðŀ¤ĭ
ðŀ¤ķ ðŀ¤ĵðŀ¤Ĥðŀ¤ĭðŀ¤Ĳðŀ¤Į
Ġðŀ¤Ĺ ðŀ¤ĵðŀ¤ģ
Ġðŀ¤Ĺ ðŀ¤Ģðŀ¤Īðŀ¤ģðŀ¤Ģðŀ¤ı
Ġðŀ¤´ðŀ¤¢ðŀ¤² ðŀ¤µ
Ġðŀ¤´ðŀ¤¢ðŀ¤² ðŀ¤Ńðŀ¤ªðŀ¤¢
Ġðŀ¤ħðŀ¤«ðŀ¤¤ ðŀ¤«ðŀ¤²
Ġðŀ¤ºðŀ¤¢ðŀ¤¤ ðŀ¤£ðŀ¤¢
ðŀ¤¼ðŀ¤«ðŀ¤ª ðŀ¤²ðŀ¤¢ðŀ¤§
Ġðŀ¤¢ðŀ¤²ðŀ¤£ðŀ¤Ńðŀ¤² ðŀ¤¼ðŀ¤Ńðŀ¤²ðŀ¤«
Ġm an
Ġm us
Ġm atch
ðŀ¤Ńðŀ¤¦ ðŀ¤¤ðŀ¤Ńðŀ¤²
Ġðŀ¤§ðŀ¤µðŀ¤¥ ðŀ¤²ðŀ¤µðŀ¤ºðŀ¤®ðŀ¤¤
Ġðŀ¤´ðŀ¤¢ðŀ¤²ðŀ¤Ń ðŀ¤£ðŀ¤¢ðŀ¤´
Ġðŀ¤¯ðŀ¤®ðŀ¤± ðŀ¤Ńðŀ¤ªðŀ¤£ðŀ¤«
Ġðŀ¤¯ðŀ¤®ðŀ¤± ðŀ¤¼ðŀ¤µðŀ¤²ðŀ¤®
Ġðŀ¤¯ðŀ¤®ðŀ¤± ðŀ¤¼ðŀ¤µðŀ¤¯ðŀ¤®
ðŀ¤Ńðŀ¤¼ðŀ¤®ðŀ¤ª ðŀ¤µ
ðŀ¤Ńðŀ¤¼ðŀ¤®ðŀ¤ª ðŀ¤²ðŀ¤£ðŀ¤«
Ġðŀ¤¸ðŀ¤«ðŀ¤±ðŀ¤¼ðŀ¤Ń ðŀ¤ªðŀ¤Ń
Ġthe ir
Ġthe bri
il itÃ©
ĠC V
ĠC om
ĠC entral
Ġðŀ¤¤ðŀ¤¢ðŀ¤± ðŀ¤¤ðŀ¤¢
Ġðŀ¤¤ðŀ¤¢ðŀ¤± ðŀ¤¯ðŀ¤¢ðŀ¤±ðŀ¤¢ðŀ¤¤
Ġðŀ¤§ðŀ¤«ðŀ¤ª ðŀ¤²ðŀ¤£ðŀ¤®
nðŀ¤Ĥ ðŀ¤Ńðŀ¤£
ðŀ¤§ðŀ¤¢ðŀ¤² ðŀ¤¶ðŀ¤®
Ġðŀ¤ºðŀ¤¢ðŀ¤´ ðŀ¤¯ðŀ¤«
Ġðŀ¤ºðŀ¤¢ðŀ¤´ ðŀ¤²ðŀ¤ºðŀ¤µ
Ġðŀ¤ºðŀ¤¢ðŀ¤´ ðŀ¤²ðŀ¤¢ðŀ¤¼ðŀ¤¢
Ġðŀ¤Ĭðŀ¤¢ ðŀ¤¢ðŀ¤ªðŀ¤¢ðŀ¤²ðŀ¤§ðŀ¤Ń
Ġðŀ¤§ðŀ¤µðŀ¤©ðŀ¤Ń ðŀ¤³ðŀ¤«
Ġðŀ¤ĳðŀ¤Įðŀ¤ļðŀ¤ģðŀ¤ĭ ðŀ¤ıðŀ¤Ģ
ab ilitÃ©
ue d
ue ill
Ġðŀ¤¢ðŀ¤¥ ðŀ¤¦ðŀ¤¢
Ġðŀ¤¢ðŀ¤¥ ðŀ¤Ńðŀ¤ªðŀ¤£ðŀ¤µ
Ġðŀ¤ħðŀ¤¢ðŀ¤ª ðŀ¤£ðŀ¤Ń
Ġðŀ¤ħðŀ¤¢ðŀ¤ª ðŀ¤Ńðŀ¤´ðŀ¤¢
Ġðŀ¤ħðŀ¤¢ðŀ¤ª ðŀ¤´ðŀ¤Ńðŀ¤²ðŀ¤®
Ġðŀ¤ħðŀ¤¢ðŀ¤ª ðŀ¤´ðŀ¤Ńðŀ¤²ðŀ¤Ńðŀ¤ªðŀ¤£ðŀ¤µ
Ġðŀ¤ħðŀ¤¢ðŀ¤ª ðŀ¤§ðŀ¤¢ðŀ¤²ðŀ¤¶ðŀ¤®
Ġðŀ¤¦ðŀ¤¢ðŀ¤ª ðŀ¤³ðŀ¤Ń
Ġðŀ¤įðŀ¤«ðŀ¤² ðŀ¤ºðŀ¤¢ðŀ¤¤
Ġðŀ¥ĳðŀ¥Ļðŀ¥ĸ ðŀ¥Ķ
Ġðŀ¥ĳðŀ¥Ļðŀ¥ĸ ðŀ¥ķ
Ġðŀ¥ĳðŀ¥Ļðŀ¥ĸ ðŀ¥ĺ
ðŀ¤²ðŀ¤£ðŀ¤® ðŀ¤ªðŀ¤Ń
Ġðŀ¤ħðŀ¤¢ðŀ¤¤ ðŀ¤¥ðŀ¤¢
Ġðŀ¤ħðŀ¤¢ðŀ¤¤ ðŀ¤²ðŀ¤£ðŀ¤µ
Ġðŀ¥Ĵðŀ¥ķ ðŀ¥Ĳ
Ġðŀ¤¦ðŀ¤¢ðŀ¤² ðŀ¤¼ðŀ¤Ń
nðŀ¤ĸðŀ¤® ðŀ¤¶ðŀ¤®ðŀ¤¥ðŀ¤¢
nðŀ¤ĸðŀ¤® ðŀ¤¥ðŀ¤¦ðŀ¤®
Ġðŀ¤¼ðŀ¤¢ðŀ¤¥ðŀ¤° ðŀ¤Ńðŀ¤²ðŀ¤®
Ġðŀ¤¸ðŀ¤¢ðŀ¤¶ ðŀ¤¢ðŀ¤¥ðŀ¤«
ðŀ¤±ðŀ¤« ðŀ¤³ðŀ¤«
Ġðŀ¥ĳðŀ¥Ļ ðŀ¥Ĳðŀ¥ĳ
ðŀ¤ĥðŀ¤ĵ ðŀ¤ĸðŀ¤Ģðŀ¤ĥ
Ġðŀ¤Ģðŀ¤Ĭðŀ¤Īðŀ¤ĭðŀ¤ĳ ðŀ¤Ĳðŀ¤Ģ
Ġw as
Ġw ho
Ġw arm
Ġw ork
Ġðŀ¤Ŀ ðŀ¤Ģðŀ¤Ĥðŀ¤ĭ
Ġðŀ¤Ŀ ðŀ¤µðŀ¤±ðŀ¤¢ðŀ¤´
nðŀ¤ļ ðŀ¤®
nðŀ¤ļ ðŀ¤Ńðŀ¤¨
nðŀ¤ļ ðŀ¤µðŀ¤¥ðŀ¤¦ðŀ¤®ðŀ¤²ðŀ¥ĭðŀ¤£ðŀ¤Ńðŀ¤ªðŀ¤¢ðŀ¤¤
nðŀ¤ļ ðŀ¤«ðŀ¤¬ðŀ¤¢ðŀ¤²ðŀ¤¢ðŀ¤´ðŀ¤©ðŀ¤«
Ġðŀ¤¸ðŀ¤«ðŀ¤¦ ðŀ¤¤ðŀ¤¢
Ġðŀ¤¸ðŀ¤«ðŀ¤¦ ðŀ¤¤ðŀ¤¢ðŀ¤²ðŀ¤Ń
Ġðŀ¤¸ðŀ¤«ðŀ¤¦ ðŀ¤Ńðŀ¤¤ðŀ¤®
ðŀ¤Ģðŀ¤Ĳðŀ¤ģ ðŀ¤ĭðŀ¤Ĳðŀ¤Į
Ġðŀ¤©ðŀ¤¢ðŀ¤£ðŀ¤²ðŀ¤Ń ðŀ¤¼ðŀ¤¢ðŀ¤´
Ġc am
Ġc entre
Ġc ette
Ġf oc
Ġf riendl
Ġðŀ¤²ðŀ¤«ðŀ¤±ðŀ¤² ðŀ¤¢ðŀ¤²ðŀ¤®
Ġðŀ¤²ðŀ¤«ðŀ¤±ðŀ¤² ðŀ¤¢ðŀ¤²ðŀ¤«
Ġðŀ¤²ðŀ¤«ðŀ¤±ðŀ¤² ðŀ¤¢ðŀ¤²ðŀ¤¼ðŀ¤¢
Ġðŀ¤¸ðŀ¤µðŀ¤² ðŀ¤£ðŀ¤¢
Ġðŀ¤¬ðŀ¤¢ðŀ¤² ðŀ¤¼ðŀ¤Ńðŀ¤ªðŀ¤Ń
Ġðŀ¤¬ðŀ¤¢ðŀ¤² ðŀ¤¼ðŀ¤µðŀ¤¯ðŀ¤®
Ġðŀ¤¬ðŀ¤¢ðŀ¤² ðŀ¤¼ðŀ¤µðŀ¤²ðŀ¥ĭðŀ¤ºðŀ¤¢ðŀ¤¤
Ġðŀ¤´ðŀ¤µðŀ¤ª ðŀ¤¥ðŀ¤®ðŀ¤²
Ġðŀ¤Ħðŀ¤«ðŀ¤² ðŀ¤«ðŀ¤²
Ġðŀ¤Ħðŀ¤«ðŀ¤² ðŀ¤µðŀ¤±ðŀ¤«
Ġðŀ¤Ĭðŀ¤ĭ ðŀ¤Ķðŀ¤Į
Ġðŀ¤Ĭðŀ¤ĭ ðŀ¤ĩðŀ¤ĭ
Ġðŀ¤Ĭðŀ¤ĭ ðŀ¤ĩðŀ¤Ģ
Ġðŀ¤¼ðŀ¤¢ðŀ¤±ðŀ¤£ðŀ¤« ðŀ¤¼ðŀ¤«
Ġðŀ¤§ðŀ¤®ðŀ¤³ ðŀ¤Ńðŀ¤²ðŀ¤®
Ġðŀ¤§ðŀ¤®ðŀ¤³ ðŀ¤¼ðŀ¤¢ðŀ¤²ðŀ¤®
Ġðŀ¤¬ðŀ¤¢ðŀ¤ªðŀ¤¢ðŀ¤² ðŀ¤ªðŀ¤µ
Ġðŀ¤¬ðŀ¤¢ðŀ¤ªðŀ¤¢ðŀ¤² ðŀ¤§ðŀ¤¢
Ġðŀ¤¤ðŀ¤¢ðŀ¤¥ ðŀ¤Ńðŀ¤¼ðŀ¤®ðŀ¤ªðŀ¤£ðŀ¤«
Ġðŀ¤©ðŀ¤¢ðŀ¤¥ ðŀ¤¼ðŀ¤¢ðŀ¤¤
Ġðŀ¤©ðŀ¤¢ðŀ¤¥ ðŀ¤¼ðŀ¤Ńðŀ¤ªðŀ¤ºðŀ¤®ðŀ¤¤
Ġðŀ¤ģðŀ¤«ðŀ¤Ĳ ðŀ¤ĺðŀ¤Ĥðŀ¤¢ðŀ¤ĸðŀ¤Ģ
ðŀ¤ħðŀ¤Į ðŀ¤Īðŀ¤ĭ
Ġðŀ¤Ĵðŀ¤® ðŀ¤¥ðŀ¤¦ðŀ¤Ń
Ġðŀ¤Ĵðŀ¤µ ðŀ¤ģðŀ¤Ńðŀ¤Ĩðŀ¤Ń
Ġðŀ¤°ðŀ¤«ðŀ¤± ðŀ¤¤ðŀ¤Ń
ðŀ¤¹ ðŀ¤µðŀ¤¤
ðŀ¤¹ ðŀ¤¸ðŀ¤µ
Ġðŀ¤¸ðŀ¤µðŀ¤¥ ðŀ¤®
ðŀ¤Ńðŀ¤²ðŀ¤¢ðŀ¤´ ðŀ¤²ðŀ¤£ðŀ¤Ń
ðŀ¤®ðŀ¤¤ðŀ¤Ń ðŀ¤³ðŀ¤Ń
Ġðŀ¤Ħðŀ¤ĵ ðŀ¤ĸðŀ¤Ģ
Ġðŀ¤Ħðŀ¤ĵ ðŀ¤ĳðŀ¤ħ
ðŀ¤ģðŀ¤Į ðŀ¤ıðŀ¤Ģðŀ¤Ĳ
Ġðŀ¤¸ðŀ¤Ńðŀ¤¤ ðŀ¤²ðŀ¤¢
ðŀ¤Ģðŀ¤Ĳðŀ¤ģðŀ¤ī ðŀ¤Ī
Ġðŀ¤µðŀ¤§ ðŀ¤¼ðŀ¤®
Ġðŀ¤¬ðŀ¤¢ðŀ¤±ðŀ¤Ń ðŀ¤£ðŀ¤¢
Ġðŀ¤³ðŀ¤®ðŀ¤¤ ðŀ¤·ðŀ¤«
Ġðŀ¤³ðŀ¤µðŀ¤¤ ðŀ¤®
Ġðŀ¤³ðŀ¤µðŀ¤¤ ðŀ¤¦ðŀ¤®
nðŀ¤ģ ðŀ¤¢ðŀ¤¥ðŀ¤«
nðŀ¤ģ ðŀ¤µðŀ¤¶ðŀ¤µðŀ¤²ðŀ¤«ðŀ¤ªðŀ¤«
nðŀ¤ģ ðŀ¤®ðŀ¤§ðŀ¤¼ðŀ¤«ðŀ¤ªðŀ¤«
nðŀ¤ģ ðŀ¤µðŀ¤³ðŀ¤µðŀ¤ºðŀ¤®ðŀ¤¤
Ġðŀ¤¦ðŀ¤¢ðŀ¤¯ ðŀ¤¼ðŀ¤¢ðŀ¤¤
Ġðŀ¤¦ðŀ¤¢ðŀ¤¯ ðŀ¤¼ðŀ¤Ńðŀ¤²ðŀ¤£ðŀ¤«
Ġðŀ¤§ðŀ¤®ðŀ¤³ðŀ¤« ðŀ¤ºðŀ¤®ðŀ¤¤
Ġðŀ¤¯ðŀ¤Ńðŀ¤¯ðŀ¤¥ ðŀ¤¢ðŀ¤¤
Ġðŀ¤¯ðŀ¤Ńðŀ¤¯ðŀ¤¥ ðŀ¤«ðŀ¤ªðŀ¤«
Ġðŀ¤¼ðŀ¤µðŀ¤¥ðŀ¤¦ðŀ¤®ðŀ¤² ðŀ¤£ðŀ¤Ńðŀ¤ªðŀ¤«
Ġðŀ¤¼ðŀ¤¢ðŀ¤§ ðŀ¤³
Ġðŀ¤²ðŀ¤ºðŀ¤« ðŀ¤¯ðŀ¤µ
Ġðŀ¤Ĭðŀ¤® ðŀ¤£ðŀ¤«
Ġðŀ¤Ĭðŀ¤® ðŀ¤¼ðŀ¤Ń
Ġðŀ¤ģðŀ¤Ń ðŀ¤ºðŀ¤¢
Ġðŀ¤ģðŀ¤Ń ðŀ¤ªðŀ¤«ðŀ¤²ðŀ¤£
Ġðŀ¤§ðŀ¤®ðŀ¤³ðŀ¤Ń ðŀ¤£ðŀ¤¢ðŀ¤²ðŀ¤®
Ġðŀ¥ĳðŀ¥Ĵ ðŀ¥ĸ
Ġðŀ¤¸ðŀ¤«ðŀ¤©ðŀ¤¼ðŀ¤Ń ðŀ¤¼ðŀ¤Ń
Ġðŀ¤¸ðŀ¤«ðŀ¤©ðŀ¤¼ðŀ¤Ń ðŀ¤¼ðŀ¤¢
Ġðŀ¤¸ðŀ¤«ðŀ¤©ðŀ¤¼ðŀ¤Ń ðŀ¤¼ðŀ¤µðŀ¤ºðŀ¤®ðŀ¤¤
Ġðŀ¤¸ðŀ¤«ðŀ¤©ðŀ¤¼ðŀ¤Ń ðŀ¤¼ðŀ¤¢ðŀ¤´
ðŀ¤ĸðŀ¤® ðŀ¤¥ðŀ¤¦ðŀ¤®
Ġðŀ¤£ðŀ¤¢ðŀ¤ªðŀ¤® ðŀ¤´ðŀ¤Ń
Ġðŀ¤©ðŀ¤«ðŀ¤´ðŀ¤£ ðŀ¤¢ðŀ¤¼ðŀ¤¢
Ġðŀ¤©ðŀ¤«ðŀ¤´ðŀ¤£ ðŀ¤®ðŀ¤ªðŀ¤¢ðŀ¤´
Ġðŀ¤³ðŀ¤¢ðŀ¤¬ ðŀ¤Ń
Ġðŀ¤³ðŀ¤¢ðŀ¤¬ ðŀ¤¯ðŀ¤«
Ġðŀ¤³ðŀ¤¢ðŀ¤¬ ðŀ¤µðŀ¤¯ðŀ¤«ðŀ¤²
Ġðŀ¤¸ðŀ¤¢ðŀ¤² ðŀ¤£ðŀ¤Ńðŀ¤²ðŀ¤ºðŀ¤®ðŀ¤¤
Ġðŀ¤§ðŀ¤®ðŀ¤ª ðŀ¤¼ðŀ¤®ðŀ¤¼ðŀ¤®
Ġðŀ¤ħðŀ¤ī ðŀ¤ĳðŀ¤ĵ
Ġðŀ¤ĥðŀ¤¢ðŀ¤´ ðŀ¤³ðŀ¤®ðŀ¤¤
Ġðŀ¤Ĳðŀ¤Ķ ðŀ¤Ģðŀ¤Ĵ
Ġðŀ¥Ĵðŀ¥Ĺ ðŀ¥Ĺ
Ġðŀ¤ģðŀ¤« ðŀ¤¥ðŀ¤¦ðŀ¤«
Ġðŀ¤²ðŀ¤¶ðŀ¤¢ðŀ¤¥ ðŀ¤¯ðŀ¤Ń
Ġðŀ¤²ðŀ¤¶ðŀ¤¢ðŀ¤¥ ðŀ¤²ðŀ¤£ðŀ¤Ń
ic i
Ġre s
Ġre qu
Ġre lÃ
ðŀ¤¼ðŀ¤«ðŀ¤² ðŀ¤«ðŀ¤²
Ġðŀ¤¸ðŀ¤µðŀ¤¤ ðŀ¤¢ðŀ¤´
Ġðŀ¤¸ðŀ¤µðŀ¤¤ ðŀ¤µðŀ¤²ðŀ¤®
Ġðŀ¤¸ðŀ¤µðŀ¤¤ ðŀ¤¢ðŀ¤²ðŀ¤®
Ġðŀ¤´ðŀ¤Ńðŀ¤´ ðŀ¤Ń
Ġðŀ¤´ðŀ¤Ńðŀ¤´ ðŀ¤µðŀ¤ºðŀ¤®ðŀ¤¤
Ġðŀ¤´ðŀ¤Ńðŀ¤´ ðŀ¤¢ðŀ¤²ðŀ¤®
Ġðŀ¤´ðŀ¤Ńðŀ¤´ ðŀ¤¼ðŀ¤¢ðŀ¤²ðŀ¤£ðŀ¤«
Ġðŀ¤£ðŀ¤Ńðŀ¤ª ðŀ¤¼ðŀ¤Ńðŀ¤²ðŀ¤Ń
Ġðŀ¤»ðŀ¤«ðŀ¤¥ ðŀ¤¼ðŀ¤Ńðŀ¤²ðŀ¤¼ðŀ¤¢
ðŀ¤ĵðŀ¤ı ðŀ¤īðŀ¤Ĥ
Ġðŀ¤ĸðŀ¤Ń ðŀ¥ģðŀ¤¦ðŀ¤µðŀ¤¤
ðŀ¤Ĥðŀ¤ĭ ðŀ¤ģðŀ¤ĵ
Ġðŀ¥ĳðŀ¥Ļðŀ¥Ĺ ðŀ¥ĵ
Ġðŀ¥ĳðŀ¥Ļðŀ¥Ĺ ðŀ¥ķ
Ġðŀ¥ĳðŀ¥Ļðŀ¥Ĺ ðŀ¥Ĺ
Ġðŀ¤¶ðŀ¤®ðŀ¤ºðŀ¤²ðŀ¤Ń ðŀ¤¼ðŀ¤¢ðŀ¤©ðŀ¤«
Ġðŀ¤§ðŀ¤¢ðŀ¤¬ðŀ¤ª ðŀ¤®ðŀ¤ªðŀ¤®ðŀ¤£ðŀ¤«
ter ing
ter rorist
Ġun der
ðŀ¤¤ðŀ¤£ðŀ¤Ń ðŀ¤£ðŀ¤Ń
ðŀ¤¤ðŀ¤£ðŀ¤Ń ðŀ¤¤ðŀ¤«
ðŀ¤Ńðŀ¤²ðŀ¤º ðŀ¤«ðŀ¤¤
ðŀ¤ªðŀ¤Ńðŀ¤§ ðŀ¤Ńðŀ¤´ðŀ¤¢ðŀ¤²ðŀ¤³ðŀ¤®
Ġðŀ¤¬ðŀ¤Ńðŀ¤© ðŀ¤ªðŀ¤«
Ġðŀ¤Ħðŀ¤¢ðŀ¤ª ðŀ¤¥ðŀ¤µðŀ¤©ðŀ¤«
Ġðŀ¤Ħðŀ¤¢ðŀ¤ª ðŀ¤¦ðŀ¤¢ðŀ¤ªðŀ¤¢
Ġðŀ¤Ħðŀ¤¢ðŀ¤ª ðŀ¤§ðŀ¤«ðŀ¤¤ðŀ¤®
Ġðŀ¤Ĭðŀ¤Į ðŀ¤ķ
Ġðŀ¤ªðŀ¤«ðŀ¤² ðŀ¤¼ðŀ¤®ðŀ¤ªðŀ¤¯ðŀ¤«
ðŀ¤£ðŀ¤Ńðŀ¤ªðŀ¤® ðŀ¤´ðŀ¤¢
us ed
Ġco l
Ġðŀ¤¬ðŀ¤¢ðŀ¤¥ ðŀ¤¯ðŀ¤µðŀ¤£ðŀ¤«
Ġðŀ¥Ļ ðŀ¥Ĳ
Ġðŀ¥Ļ ðŀ¥Ĵ
ðŀ¤©ðŀ¤² ðŀ¤µ
ðŀ¤©ðŀ¤² ðŀ¤Ńðŀ¤ªðŀ¤¢
Ġðŀ¤¢ðŀ¤§ ðŀ¤µðŀ¤ºðŀ¤®ðŀ¤¤
Ġðŀ¤¢ðŀ¤§ ðŀ¤Ńðŀ¤ªðŀ¤¤ðŀ¤«
Ġðŀ¤´ðŀ¤Ńðŀ¤¤ ðŀ¤¼ðŀ¤Ńðŀ¤²ðŀ¥ĭ
ðŀ¤Ĭðŀ¤Ń ðŀ¤¶ðŀ¤®
ðŀ¤Ĭðŀ¤Ń ðŀ¤¹ðŀ¤¸ðŀ¤µ
Ġðŀ¥ĳðŀ¥Ļðŀ¥ķ ðŀ¥Ķ
Ġðŀ¥ĳðŀ¥Ļðŀ¥ķ ðŀ¥Ļ
iv ing
iv ant
ðŀ¤¡ ðŀ¤Ģ
ðŀ¤¡ ðŀ¤ĭ
ðŀ¤Ńðŀ¤¤ðŀ¤Ń ðŀ¤ªðŀ¤Ń
Ġðŀ¤²ðŀ¤¦ðŀ¤® ðŀ¤¼
ðŀ¤³ðŀ¤®ðŀ¤¤ ðŀ¤²
Ġðŀ¤§ðŀ¤«ðŀ¤¤ ðŀ¤¦ðŀ¤¢ðŀ¤²
Ġðŀ¤ĳðŀ¤ĭ ðŀ¤Ī
Ġðŀ¤Ĳðŀ¤º ðŀ¤µðŀ¤¥
Ġðŀ¤ĺðŀ¤µ ðŀ¤ªðŀ¤«
Ġðŀ¤ĺðŀ¤µ ðŀ¤±ðŀ¤«ðŀ¤³ðŀ¤«
ðŀ¤ĳðŀ¤ĭ ðŀ¤ĺðŀ¤Ģðŀ¤Ĥðŀ¤ĭ
Ġðŀ¤ļðŀ¤Į ðŀ¤Īðŀ¤ĭðŀ¤ĳðŀ¤ī
ðŀ¤ħðŀ¤ĵ ðŀ¤ĳðŀ¤Ģ
ðŀ¤ħðŀ¤ĵ ðŀ¤ĩðŀ¤Į
ðŀ¤ħðŀ¤ĵ ðŀ¤ģðŀ¤Ģðŀ¤Ĳ
Ġðŀ¤Īðŀ¤® ðŀ¤¦ðŀ¤«
Ġðŀ¤Īðŀ¤® ðŀ¤¸ðŀ¤Ńðŀ¤²
Ġðŀ¤¶ðŀ¤¢ðŀ¤²ðŀ¤ºðŀ¤Ń ðŀ¤ªðŀ¤«
Ġðŀ¤¤ðŀ¤µðŀ¤¥ðŀ¤¦ðŀ¤Ń ðŀ¤ªðŀ¤Ń
as tering
ðŀ¤±ðŀ¤¢ðŀ¤´ ðŀ¤¯ðŀ¤®
ðŀ¤«ðŀ¤²ðŀ¤«ðŀ¤² ðŀ¤ºðŀ¤¢ðŀ¤¤
Ġðŀ¤Ģðŀ¤¥ ðŀ¤Ńðŀ¤²
Ġðŀ¤Ģðŀ¤¥ ðŀ¤²ðŀ¤«ðŀ¤§ðŀ¤¼ðŀ¤Ń
Ġðŀ¤¸ðŀ¤®ðŀ¤´ ðŀ¤ªðŀ¤«
Ġðŀ¤¸ðŀ¤®ðŀ¤´ ðŀ¤²ðŀ¤Ń
Ġðŀ¤¸ðŀ¤®ðŀ¤´ ðŀ¤¢ðŀ¤²ðŀ¤¢
Ġðŀ¤ģðŀ¤Į ðŀ¤ħðŀ¤ļ
Ġðŀ¤ģðŀ¤Į ðŀ¤ĥðŀ¤ĭðŀ¤Ĳ
Ġðŀ¤¨ðŀ¤«ðŀ¤£ ðŀ¤¤
Ġðŀ¤Ķðŀ¤®ðŀ¤² ðŀ¤ºðŀ¤¤ðŀ¤¢
ðŀ¤©ðŀ¤Ńðŀ¤¼ðŀ¤Ń ðŀ¤ªðŀ¤«
ðŀ¤ĥðŀ¤Į ðŀ¤Ĵ
ðŀ¤ĥðŀ¤Į ðŀ¤Īðŀ¤ĭðŀ¤ļðŀ¤Ģðŀ¤Ĳðŀ¤ĭ
ðŀ¤ĥðŀ¤Į ðŀ¤Ķðŀ¤Įðŀ¤Ħðŀ¤īðŀ¤Īðŀ¤ī
Ġðŀ¤¢ðŀ¤²ðŀ¤£ ðŀ¤¢ðŀ¤¼ðŀ¤¢
ÂłĠÂłĠÂłĠÂłĠ Âł
Ġðŀ¤¸ðŀ¤¢ðŀ¤¼ðŀ¤®ðŀ¤²ðŀ¤¶ ðŀ¤Ńðŀ¤²ðŀ¤¢
ge l
oc casion
oc rat
ro fes
Ġðŀ¤³ðŀ¤¢ðŀ¤ª ðŀ¤¸ðŀ¤µðŀ¤²ðŀ¤®
Ġðŀ¤¥ðŀ¤«ðŀ¤¸ ðŀ¤®
Ġðŀ¤¥ðŀ¤«ðŀ¤¸ ðŀ¤¢ðŀ¤´
Ġðŀ¤§ðŀ¤¢ðŀ¤¤ðŀ¤Ń ðŀ¤³ðŀ¤«
ðŀ¤±ðŀ¤Ńðŀ¤²ðŀ¥ĭ ðŀ¤£ðŀ¤®ðŀ¤ªðŀ¤²ðŀ¤£ðŀ¤«
ðŀ¤©ðŀ¤²ðŀ¤Ń ðŀ¤¼ðŀ¤Ńðŀ¤ªðŀ¤ºðŀ¤®ðŀ¤¤
Ġðŀ¤£ðŀ¤¢ðŀ¤» ðŀ¤«
Ġðŀ¤£ðŀ¤¢ðŀ¤» ðŀ¤Ńðŀ¤£ðŀ¤Ń
Ġðŀ¤ĥðŀ¤¢ðŀ¤¤ ðŀ¤Ńðŀ¤²ðŀ¤³ðŀ¤®
Ġðŀ¤ºðŀ¤«ðŀ¤² ðŀ¤£ðŀ¤Ńðŀ¤²ðŀ¤³ðŀ¤®
Ġðŀ¤¨ðŀ¤¢ðŀ¤± ðŀ¤¤ðŀ¤«
Ġðŀ¤¨ðŀ¤¢ðŀ¤± ðŀ¤¤ðŀ¤®ðŀ¤´
Ġðŀ¤Ķðŀ¤Į ðŀ¤ĺ
Ġðŀ¤Ķðŀ¤Į ðŀ¤Ķ
Ġðŀ¤Ĥðŀ¤Ń ðŀ¤º
Ġðŀ¤Ĥðŀ¤Ń ðŀ¤³ðŀ¤µ
nðŀ¤Ģðŀ¤¤ ðŀ¤¶ðŀ¤¢ðŀ¤ªðŀ¤Ń
Ġðŀ¤¬ðŀ¤«ðŀ¤±ðŀ¤¶ðŀ¤® ðŀ¤£ðŀ¤«
Ġðŀ¤¬ðŀ¤«ðŀ¤±ðŀ¤¶ðŀ¤® ðŀ¤£ðŀ¤Ń
ir age
Ġv ery
Ġv enus
ðŀ¤²ðŀ¤£ðŀ¤Ńðŀ¤² ðŀ¤¢ðŀ¤´
ðŀ¤²ðŀ¤£ðŀ¤Ńðŀ¤² ðŀ¤ºðŀ¤®ðŀ¤¤
ðŀ¤²ðŀ¤£ðŀ¤Ńðŀ¤² ðŀ¤£ðŀ¤Ńðŀ¤ªðŀ¤¢
Ġðŀ¤²ðŀ¤«ðŀ¤¤ ðŀ¤£ðŀ¤µ
Ġðŀ¤²ðŀ¤«ðŀ¤¤ ðŀ¤£ðŀ¤¢
Ġðŀ¤«ðŀ¤¤ ðŀ¤¼ðŀ¤µðŀ¤ºðŀ¤®ðŀ¤¤
Ġðŀ¤«ðŀ¤¤ ðŀ¤¼ðŀ¤µðŀ¤£ðŀ¤«
Ġðŀ¤±ðŀ¤«ðŀ¤² ðŀ¤¶ðŀ¤«
Ġðŀ¤±ðŀ¤«ðŀ¤² ðŀ¤ºðŀ¤¢ðŀ¤²ðŀ¤£ðŀ¤«
Ġðŀ¤¼ðŀ¤µðŀ¤¥ ðŀ¤®ðŀ¤²ðŀ¥ĭðŀ¤£ðŀ¤Ńðŀ¤ªðŀ¤¢ðŀ¤¤
ðŀ¤±ðŀ¤²ðŀ¤Ń ðŀ¤ªðŀ¤Ń
ðŀ¤±ðŀ¤²ðŀ¤Ń ðŀ¤¼ðŀ¤µðŀ¤£ðŀ¤«
ðŀ¤Ģðŀ¤Ĭ ðŀ¤ĳðŀ¤Įðŀ¤Ĳ
ðŀ¤§ðŀ¤®ðŀ¤² ðŀ¤¢ðŀ¤ªðŀ¤®
Ġðŀ¤¢ðŀ¤¬ ðŀ¤ªðŀ¤Ńðŀ¤³
Ġðŀ¤¢ðŀ¤¬ ðŀ¤ªðŀ¤Ńðŀ¤³ðŀ¤Ń
Ġðŀ¤ħðŀ¤«ðŀ¤² ðŀ¥ģðŀ¤«ðŀ¤²
Ġðŀ¤Ģðŀ¤² ðŀ¤¢ðŀ¤²
Ġðŀ¤Ģðŀ¤² ðŀ¤ªðŀ¤Ń
Ġðŀ¤Ģðŀ¤² ðŀ¤£ðŀ¤Ńðŀ¤²ðŀ¤®ðŀ¤¯ðŀ¤«ðŀ¤²
Ġðŀ¤Ģðŀ¤¤ðŀ¤Ń ðŀ¤±
Ġðŀ¤ĥðŀ¤¢ðŀ¤ª ðŀ¤¸ðŀ¤µ
Ġðŀ¤ļðŀ¤¢ðŀ¤¦ ðŀ¤Ńðŀ¤¼ðŀ¤Ń
Ġðŀ¤Ĵðŀ¤Ģðŀ¤Ĥ ðŀ¤ļðŀ¤ĵðŀ¤Ĳðŀ¤Į
Ġðŀ¤¸ðŀ¤¢ðŀ¤±ðŀ¤ª ðŀ¤¢ðŀ¤´ðŀ¤²ðŀ¤®
Ġðŀ¤¸ðŀ¤¢ðŀ¤±ðŀ¤ª ðŀ¤®ðŀ¤²ðŀ¥ĭðŀ¤£ðŀ¤Ńðŀ¤ªðŀ¤Ń
Ġðŀ¤¦ðŀ¤¢ðŀ¤ªðŀ¤¥ ðŀ¤µðŀ¤²ðŀ¤®
Ġðŀ¤¦ðŀ¤¢ðŀ¤ªðŀ¤¥ ðŀ¤Ńðŀ¤²ðŀ¤Ńðŀ¤ªðŀ¤¢
Ġfor me
Ġðŀ¤½ðŀ¤Ńðŀ¤» ðŀ¤«
Ġðŀ¤½ðŀ¤Ńðŀ¤» ðŀ¤µðŀ¤ºðŀ¤®ðŀ¤¤
Ġðŀ¤½ðŀ¤Ńðŀ¤» ðŀ¤µðŀ¤²ðŀ¤®
Ġðŀ¤½ðŀ¤Ńðŀ¤» ðŀ¤¢ðŀ¤¼ðŀ¤¢
Ġðŀ¤½ðŀ¤Ńðŀ¤» ðŀ¤Ńðŀ¤ªðŀ¤£ðŀ¤«
ðŀ¤¢ðŀ¤¹ ðŀ¤¢
ðŀ¤ªðŀ¤²ðŀ¤Ń ðŀ¤£ðŀ¤Ń
ðŀ¤ªðŀ¤²ðŀ¤Ń ðŀ¤ªðŀ¤Ń
ðŀ¤ªðŀ¤²ðŀ¤Ń ðŀ¤¼ðŀ¤Ńðŀ¤ªðŀ¤ºðŀ¤®ðŀ¤¤
Ġðŀ¤²ðŀ¤¢ðŀ¤²ðŀ¤Ń ðŀ¤ªðŀ¤Ń
ðŀ¤¤ðŀ¤Ńðŀ¤²ðŀ¤® ðŀ¤ªðŀ¤Ń
Ġðŀ¤«ðŀ¤¤ðŀ¤¼ðŀ¤® ðŀ¤´ðŀ¤Ńðŀ¤²ðŀ¤®
Ġðŀ¤§ðŀ¤«ðŀ¤²ðŀ¤£ðŀ¤Ń ðŀ¤¼ðŀ¤Ń
Ġðŀ¤§ðŀ¤«ðŀ¤²ðŀ¤£ðŀ¤Ń ðŀ¤¼ðŀ¤«ðŀ¤¼ðŀ¤«
Ġðŀ¤ĳðŀ¤µðŀ¤² ðŀ¤¼ðŀ¤Ńðŀ¤´ðŀ¤¢
nðŀ¤ķ ðŀ¤¢
nðŀ¤ķ ðŀ¤®ðŀ¤º
nðŀ¤ķ ðŀ¤Ģðŀ¤Ĵðŀ¤Ħðŀ¤Ģ
Ġðŀ¤©ðŀ¤®ðŀ¤¤ ðŀ¤«ðŀ¤ªðŀ¤«
Ġðŀ¤¦ðŀ¤¢ðŀ¤¥ðŀ¤¦ ðŀ¤¢ðŀ¤²ðŀ¤¼ðŀ¤¢
ðŀ¤ĳðŀ¤Įðŀ¤Ĳ ðŀ¤ĺðŀ¤Į
Ġðŀ¤ªðŀ¤µ ðŀ¤¼ðŀ¤Ń
Ġðŀ¤¼ðŀ¤Ńðŀ¤º ðŀ¤µðŀ¤²ðŀ¤®
Ġðŀ¤¼ðŀ¤Ńðŀ¤º ðŀ¤Ńðŀ¤¼ðŀ¤Ńðŀ¤ºðŀ¤Ń
Ġðŀ¤ĺðŀ¤«ðŀ¤²ðŀ¤£ðŀ¤Ń ðŀ¤±ðŀ¤¢ðŀ¤¤
Ġðŀ¤²ðŀ¤¦ðŀ¤¢ðŀ¤¼ðŀ¤µ ðŀ¤¤ðŀ¤¢
Ġðŀ¤ĳðŀ¤®ðŀ¤¼ðŀ¤£ðŀ¤Ńðŀ¤±ðŀ¤¢ðŀ¤ª ðŀ¤²ðŀ¤¢
.âĢĿ "
In de
Ġ: âĢľ
ĠB ank
Ġðŀ¤¸ðŀ¤®ðŀ¤² ðŀ¤¼ðŀ¤®
Ġðŀ¤¤ðŀ¤µðŀ¤² ðŀ¤£ðŀ¤¢ðŀ¤ºðŀ¤®ðŀ¤¤
Ġðŀ¤ĳðŀ¤Ģðŀ¤Ĳ ðŀ¤Ģðŀ¤ģ
Ġðŀ¤¶ðŀ¤¢ðŀ¤¤ ðŀ¤¦ðŀ¤«
Ġðŀ¤¶ðŀ¤¢ðŀ¤¤ ðŀ¤²ðŀ¤®ðŀ¤ªðŀ¤Ń
Ġðŀ¤¢ðŀ¤¥ðŀ¤« ðŀ¤ªðŀ¤Ńðŀ¤³
Ġðŀ¤ħðŀ¤ĭ ðŀ¤ıðŀ¤Ģ
Ġðŀ¤ħðŀ¤ĭ ðŀ¤ģðŀ¤ĭðŀ¤Ĵðŀ¤Ģ
Ġðŀ¤ħðŀ¤ĭ ðŀ¤ģðŀ¤ĭðŀ¤ĳðŀ¤ĭ
Ġðŀ¤¬ðŀ¤Ńðŀ¤¶ðŀ¤Ń ðŀ¤ªðŀ¤Ń
Ġðŀ¤©ðŀ¤¢ðŀ¤½ ðŀ¤Ń
Ġðŀ¤©ðŀ¤¢ðŀ¤½ ðŀ¤¼ðŀ¤µðŀ¤ºðŀ¤®ðŀ¤¤
ðŀ¤Ńðŀ¤´ðŀ¤¢ðŀ¤²ðŀ¤³ðŀ¤® ðŀ¤±ðŀ¤µ
Ġðŀ¤ģðŀ¤¢ðŀ¤ª ðŀ¤¼ðŀ¤Ńðŀ¤²ðŀ¤ºðŀ¤®ðŀ¤¤
Ġðŀ¤¶ðŀ¤®ðŀ¤± ðŀ¤¢ðŀ¤©ðŀ¤µðŀ¤ªðŀ¤µ
Ġðŀ¤Ĥðŀ¤¢ðŀ¤¦ðŀ¤« ðŀ¤ªðŀ¤Ńðŀ¤´ðŀ¤¢
Ġðŀ¤§ðŀ¤µðŀ¤¥ðŀ¤® ðŀ¤¶ðŀ¤¢ðŀ¤¥
ant Ã©
nP ular
nP rofes
Ġb ot
Ġb rief
ðŀ¤¤ðŀ¤²ðŀ¤Ń ðŀ¤ªðŀ¤Ń
ðŀ¤¯ðŀ¤µ ðŀ¤³ðŀ¤¢
Ġðŀ¤¯ðŀ¤µðŀ¤¯ ðŀ¤µðŀ¤©ðŀ¤«
Ġðŀ¤ºðŀ¤«ðŀ¤ª ðŀ¤¢ðŀ¤´
Ġðŀ¤ºðŀ¤«ðŀ¤ª ðŀ¤£ðŀ¤«ðŀ¤¼ðŀ¤«
Ġðŀ¤²ðŀ¤£ðŀ¤¢ðŀ¤ª ðŀ¤¼ðŀ¤«
Ġðŀ¤¦ðŀ¤«ðŀ¤² ðŀ¤§ðŀ¤®
Ġðŀ¤¦ðŀ¤«ðŀ¤² ðŀ¤ºðŀ¤¢ðŀ¤¤ðŀ¤Ń
Ġðŀ¤¦ðŀ¤«ðŀ¤² ðŀ¤§ðŀ¤®ðŀ¤²ðŀ¥ĭðŀ¤£ðŀ¤Ńðŀ¤ªðŀ¤¢ðŀ¤¤
Ġðŀ¤Īðŀ¤Ń ðŀ¤·ðŀ¤¢ðŀ¤¤ðŀ¤Ńðŀ¤§ðŀ¤®ðŀ¤²
Ġðŀ¤įðŀ¤µðŀ¤² ðŀ¤¤ðŀ¤«
Ġðŀ¤£ðŀ¤®ðŀ¤º ðŀ¤µðŀ¤©ðŀ¤«
Ġðŀ¤±ðŀ¤Ńðŀ¤²ðŀ¤£ðŀ¤« ðŀ¤¼ðŀ¤«
Ġðŀ¤¸ðŀ¤«ðŀ¤±ðŀ¤¼ðŀ¤® ðŀ¤´ðŀ¤²ðŀ¤®
ĠðŁĩ¨ ðŁĩ·
ĠðŁĩ¨ ðŁĩ¦
Ġðŀ¤¼ðŀ¤¢ðŀ¤¦ðŀ¤Ńðŀ¤²ðŀ¤¼ðŀ¤Ńðŀ¤² ðŀ¤¢ðŀ¤¤
Ġðŀ¤¼ðŀ¤¢ðŀ¤¦ðŀ¤Ńðŀ¤²ðŀ¤¼ðŀ¤Ńðŀ¤² ðŀ¤¼ðŀ¤¢
Ġðŀ¤¼ðŀ¤¢ðŀ¤¦ðŀ¤Ńðŀ¤²ðŀ¤¼ðŀ¤Ńðŀ¤² ðŀ¤Ńðŀ¤ªðŀ¤Ń
Ġðŀ¤¬ðŀ¤«ðŀ¤±ðŀ¤¶ ðŀ¤«ðŀ¤ªðŀ¤«
Ġðŀ¤¬ðŀ¤«ðŀ¤±ðŀ¤¶ ðŀ¤¢ðŀ¤²ðŀ¤¢
Ġðŀ¤Ĺðŀ¤µðŀ¤ª ðŀ¤¢ðŀ¤´ðŀ¥ĥ
ĠL ear
ðŀ¤²ðŀ¤µ ðŀ¤£ðŀ¤µðŀ¤¯ðŀ¤«
ðŀ¤£ðŀ¤¢ðŀ¤¥ ðŀ¤¢ðŀ¤±ðŀ¤¢
ðŀ¤Ģðŀ¤¤ ðŀ¤¥ðŀ¤¢
Ġðŀ¤¼ðŀ¤®ðŀ¤ª ðŀ¤¢ðŀ¤ºðŀ¤®ðŀ¤¤
Ġðŀ¤²ðŀ¤ºðŀ¤«ðŀ¤²ðŀ¤£ðŀ¤Ń ðŀ¤´ðŀ¤¢ðŀ¤²ðŀ¤³ðŀ¤«
nðŀ¤ĭ ðŀ¤¼
nðŀ¤ĭ ðŀ¤¦
nðŀ¤ĭ ðŀ¤Ħðŀ¤Īðŀ¤Ģ
ðŀ¤ĭðŀ¤ļ ðŀ¤Įðŀ¤Ī
Ġðŀ¤£ðŀ¤¢ðŀ¤¥ ðŀ¤¨ðŀ¤«ðŀ¤ªðŀ¤«
Ġðŀ¤£ðŀ¤¢ðŀ¤¥ ðŀ¤¦ðŀ¤µðŀ¤ºðŀ¤¢ðŀ¤¤
Ġðŀ¤Ģðŀ¤ĸ ðŀ¤ĥðŀ¤īðŀ¤ģ
Ġðŀ¤ĺðŀ¤¢ðŀ¤¦ ðŀ¤Ńðŀ¤¼ðŀ¤®
Ġðŀ¤Ħðŀ¤¢ðŀ¤³ ðŀ¤ª
ðŀ¤¨ðŀ¤® ðŀ¤ºðŀ¤Ń
Ġðŀ¤īðŀ¤§ ðŀ¤¨ðŀ¤¢
Ġðŀ¤Ķðŀ¤¢ðŀ¤¥ ðŀ¤»ðŀ¤¢
Ġðŀ¤ıðŀ¤¢ðŀ¤º ðŀ¤«
Ġðŀ¤³ðŀ¤Ńðŀ¤¦ðŀ¤Ńðŀ¤ª ðŀ¤®
Ġðŀ¥ĳðŀ¥Ļðŀ¥Ķ ðŀ¥ķ
Ġðŀ¥ĳðŀ¥Ļðŀ¥Ķ ðŀ¥Ĺ
Ġðŀ¥ĳðŀ¥Ļðŀ¥Ķ ðŀ¥ĸ
Ġðŀ¤´ðŀ¤«ðŀ¤±ðŀ¤¼ðŀ¤Ń ðŀ¤£ðŀ¤Ń
Ġðŀ¤´ðŀ¤«ðŀ¤±ðŀ¤¼ðŀ¤Ń ðŀ¤£ðŀ¤¢
Ġðŀ¤¤ðŀ¤«ðŀ¤±ðŀ¤» ðŀ¤¢ðŀ¤²
Ġpar lÃ©e
Ġðŀ¤¼ðŀ¤Ńðŀ¤²ðŀ¤¼ðŀ¤Ń ðŀ¤£ðŀ¤Ń
Ġðŀ¤¼ðŀ¤Ńðŀ¤²ðŀ¤¼ðŀ¤Ń ðŀ¤£ðŀ¤®
Ġðŀ¤¼ðŀ¤Ńðŀ¤²ðŀ¤¼ðŀ¤Ń ðŀ¤£ðŀ¤¢
Ġðŀ¤Ĺðŀ¤¢ðŀ¤ª ðŀ¤£ðŀ¤¢ðŀ¤±ðŀ¤Ń
Ġðŀ¤īðŀ¤ħðŀ¤Ĩðŀ¤Ģðŀ¤Ļ ðŀ¤Ģ
av oir
Ġo ver
ðŀ¤²ðŀ¤º ðŀ¤«ðŀ¤´ðŀ¤¢ðŀ¤²ðŀ¤³ðŀ¤®ðŀ¤±ðŀ¤¢ðŀ¤¤
ðŀ¤²ðŀ¥ĭ ðŀ¤£ðŀ¤Ńðŀ¤ªðŀ¤Ń
ðŀ¤¤ðŀ¤Ńðŀ¤² ðŀ¤³ðŀ¤Ńðŀ¤²ðŀ¤«
ðŀ¤¥ðŀ¤®ðŀ¤ª ðŀ¤²ðŀ¤£ðŀ¤«
ðŀ¤Ńðŀ¤²ðŀ¤Ńðŀ¤ª ðŀ¤©ðŀ¤«
ðŀ¤Ńðŀ¤²ðŀ¤Ńðŀ¤ª ðŀ¤²ðŀ¤£ðŀ¤«
Ġðŀ¤¥ðŀ¤¢ðŀ¤² ðŀ¤¼ðŀ¤Ń
Ġðŀ¤¥ðŀ¤¢ðŀ¤² ðŀ¤¼ðŀ¤«
Ġðŀ¤¥ðŀ¤¢ðŀ¤² ðŀ¤¼ðŀ¤®ðŀ¤ªðŀ¤Ń
nðŀ¤Ī ðŀ¤«ðŀ¤²ðŀ¤¼ðŀ¤®
Ġðŀ¤ħðŀ¤īðŀ¤Ĥ ðŀ¤īðŀ¤ħðŀ¤ļðŀ¤īðŀ¤Ĳ
Ġðŀ¤ĥðŀ¤« ðŀ¤³ðŀ¤§ðŀ¤Ń
Ġðŀ¤ĥðŀ¤« ðŀ¤£ðŀ¤Ńðŀ¤¼ðŀ¤«ðŀ¤ª
Ġðŀ¤ºðŀ¤®ðŀ¤ª ðŀ¤®ðŀ¤´
Ġðŀ¤¸ðŀ¤®ðŀ¤¥ðŀ¤¦ ðŀ¤µðŀ¤ºðŀ¤®ðŀ¤¤
Ġðŀ¤Ħðŀ¤«ðŀ¤ª ðŀ¤²ðŀ¤¢
Ġðŀ¤ĸðŀ¤¢ðŀ¤ª ðŀ¤¼
Ġðŀ¤¢ðŀ¤ªðŀ¤¼ðŀ¤Ń ðŀ¤ºðŀ¤®ðŀ¤¤
Ġðŀ¤ĭðŀ¤² ðŀ¤¼ðŀ¤«ðŀ¤ªðŀ¤²ðŀ¤¢ðŀ¤§
Ġðŀ¤įðŀ¤Ń ðŀ¤¯
ðŀ¤¢ðŀ¤§ðŀ¤¢ðŀ¤² ðŀ¤¶ðŀ¤®
Ġðŀ¤Ńðŀ¤±ðŀ¤ª ðŀ¤µðŀ¤²ðŀ¤®
Ġðŀ¤Ńðŀ¤±ðŀ¤ª ðŀ¤µðŀ¤©ðŀ¤«
nðŀ¤įðŀ¤µðŀ¤² ðŀ¤¤ðŀ¤«
Ġðŀ¤ºðŀ¤«ðŀ¤²ðŀ¤£ðŀ¤Ńðŀ¤´ðŀ¤¢ðŀ¤²ðŀ¤³ðŀ¤® ðŀ¤±ðŀ¤¢ðŀ¤¤
ðŀ¤¾ðŀ¤«ðŀ¤ªðŀ¤¨ ðŀ¤µ
Ø¶ Ø§ÙĪÙĬ
Ġan s
ĠÃ© cri
ĠÃ© tait
ĠÃ© cla
ĠÃ© gale
ĠÃ© couter
Ġðŀ¤Ľ ðŀ¤ĭðŀ¤Ļðŀ¤ĭ
Ġðŀ¤¬ðŀ¤«ðŀ¤ª ðŀ¤µðŀ¤£ðŀ¤«
Ġðŀ¤¼ðŀ¤¢ðŀ¤º ðŀ¤«
Ġðŀ¤ĳðŀ¤ĵ ðŀ¤Ħðŀ¤Ģ
Ġðŀ¤ĳðŀ¤Ńðŀ¤§ ðŀ¤¢ðŀ¤²
Ġðŀ¤ĳðŀ¤¢ðŀ¤¦ðŀ¤® ðŀ¤ªðŀ¤«
Ġðŀ¤´ðŀ¤¢ðŀ¤ª ðŀ¤µðŀ¤ºðŀ¤®ðŀ¤¤
Ġðŀ¤´ðŀ¤¢ðŀ¤ª ðŀ¤¤ðŀ¤Ńðŀ¤²ðŀ¤Ń
Ġðŀ¤±ðŀ¤®ðŀ¤²ðŀ¤³ðŀ¤Ń ðŀ¤¸ðŀ¤Ń
ðŀ¤©ðŀ¤¼ðŀ¤Ńðŀ¤² ðŀ¤¢ðŀ¤´
Ġðŀ¤ĥðŀ¤®ðŀ¤ª ðŀ¤ºðŀ¤¢ðŀ¤²
Ġðŀ¤ĥðŀ¤®ðŀ¤ª ðŀ¤§ðŀ¤¢ðŀ¤²ðŀ¤£ðŀ¤¢
Ġðŀ¤ģðŀ¤ĵ ðŀ¤Ķðŀ¤ĵðŀ¤Ĳðŀ¤ī
Ġðŀ¤¨ðŀ¤µðŀ¤¤ ðŀ¤¢ðŀ¤ª
Ġðŀ¤§ðŀ¤®ðŀ¤¬ ðŀ¤¼ðŀ¤µðŀ¤©ðŀ¤«
Ġðŀ¤§ðŀ¤®ðŀ¤¬ ðŀ¤¼ðŀ¤µðŀ¤¯ðŀ¤®
Ġðŀ¤§ðŀ¤®ðŀ¤¬ ðŀ¤¼ðŀ¤µðŀ¤²ðŀ¥ĭðŀ¤£ðŀ¤Ń
Ġðŀ¤§ðŀ¤®ðŀ¤° ðŀ¤µðŀ¤²ðŀ¤®
Ġðŀ¤ªðŀ¤Ń ðŀ¤¦ðŀ¤¢
ðŀ¤Ĵðŀ¤Į ðŀ¤ĺðŀ¤Ģ
Ġðŀ¤°ðŀ¤¢ðŀ¤¥ ðŀ¤¢ðŀ¤¤
Ġðŀ¤±ðŀ¤Ńðŀ¤´ðŀ¤¢ðŀ¤´ ðŀ¤¥ðŀ¤¢
Ġðŀ¤±ðŀ¤«ðŀ¤¤ðŀ¤§ðŀ¤Ńðŀ¤² ðŀ¤£ðŀ¤Ń
Ġli gh
Ġli gn
Ġðŀ¤Ģðŀ¤ĥðŀ¤īðŀ¤Īðŀ¤ĭðŀ¤ĳ ðŀ¤Ģ
Ġðŀ¤īðŀ¤§ðŀ¤¨ðŀ¤¢ðŀ¤» ðŀ¤¢
nL yon
nL illy
Ġh is
Ġh osting
Ġon line
ðŀ¤¥ðŀ¤Ńðŀ¤² ðŀ¤¢ðŀ¤¼ðŀ¤¢
ðŀ¤¥ðŀ¤Ńðŀ¤² ðŀ¤³ðŀ¤Ńðŀ¤²ðŀ¤®
Ġðŀ¤¬ðŀ¤¢ðŀ¤¸ ðŀ¤¥ðŀ¤µðŀ¤£ðŀ¤«
Ġðŀ¤¬ðŀ¤¢ðŀ¤¸ ðŀ¤¥ðŀ¤Ńðŀ¤²ðŀ¤³ðŀ¤Ńðŀ¤²ðŀ¤®
Ġðŀ¤ĳðŀ¤¢ðŀ¤¬ ðŀ¤µ
Ġðŀ¤¶ðŀ¤Ńðŀ¤² ðŀ¤£ðŀ¤Ńðŀ¤²ðŀ¤¢
Ġðŀ¤¶ðŀ¤¢ðŀ¤ª ðŀ¤¢ðŀ¤¼ðŀ¤¢
Ġðŀ¤¶ðŀ¤¢ðŀ¤ª ðŀ¤²ðŀ¤µðŀ¤ºðŀ¤®ðŀ¤¤
Ġðŀ¤¶ðŀ¤¢ðŀ¤ª ðŀ¤²ðŀ¤«
ðŀ¤´ðŀ¤² ðŀ¤¯ðŀ¤«
ðŀ¤´ðŀ¤² ðŀ¤µðŀ¤²ðŀ¥ĭðŀ¤ºðŀ¤®ðŀ¤¤
Ġðŀ¤£ðŀ¤¢ðŀ¤ªðŀ¤¢ðŀ¤² ðŀ¤¢
Ġðŀ¤£ðŀ¤¢ðŀ¤ªðŀ¤¢ðŀ¤² ðŀ¤«
Ġðŀ¤Ķðŀ¤«ðŀ¤ª ðŀ¤¢ðŀ¤¤
Ġðŀ¤§ðŀ¤®ðŀ¤© ðŀ¤µðŀ¤²ðŀ¥ĭðŀ¤£ðŀ¤µ
Ġðŀ¤Ĩðŀ¤«ðŀ¤² ðŀ¤§
Ġðŀ¤įðŀ¤ĭ ðŀ¤ĺ
Ġðŀ¤įðŀ¤ĭ ðŀ¤įðŀ¤ĭ
Ġðŀ¤²ðŀ¤£ðŀ¤Ńðŀ¤´ ðŀ¤¢ðŀ¤¤
Ġðŀ¥ĵðŀ¥Ĵ ðŀ¥Ĳðŀ¥Ĳðŀ¥Ĳ
Ġðŀ¤Ļðŀ¤Ģðŀ¤ĥ ðŀ¤Ģ
Ġðŀ¤¯ðŀ¤Ńðŀ¤¯ðŀ¤¢ðŀ¤© ðŀ¤µðŀ¤²
Ġðŀ¥ĸðŀ¥Ĵ ðŀ¥Ĵ
Ġðŀ¤±ðŀ¤«ðŀ¤¤ðŀ¤£ðŀ¤Ń ðŀ¤¼ðŀ¤¢ðŀ¤¤
ĠUN AD
Ġðŀ¤Ħðŀ¤Ńðŀ¤§ðŀ¤Ń ðŀ¤ºðŀ¤Ń
mer ie
ut ion
ĠG rou
ĠG endar
ĠS antÃ©
Ġg ave
Ġg uest
Ġg iving
Ġðŀ¤³ðŀ¤«ðŀ¤¤ ðŀ¤¯ðŀ¤Ń
Ġðŀ¤³ðŀ¤«ðŀ¤¤ ðŀ¤¯ðŀ¤µðŀ¤©ðŀ¤«
Ġðŀ¤³ðŀ¤«ðŀ¤²ðŀ¤«ðŀ¤² ðŀ¤¼ðŀ¤Ń
ðŀ¤¶ðŀ¤¢ðŀ¤²ðŀ¤º ðŀ¤µ
Ġðŀ¤ĳðŀ¤ĭðŀ¤Ĳ ðŀ¤ĺ
ðŀ¤Ģðŀ¤į ðŀ¤ī
ðŀ¤§ðŀ¤«ðŀ¤² ðŀ¤«ðŀ¤ª
ðŀ¤§ðŀ¤«ðŀ¤² ðŀ¤¢ðŀ¤¼ðŀ¤®
Ġðŀ¤Ħðŀ¤Ģðŀ¤Ĵ ðŀ¤ģðŀ¤īðŀ¤Ĳ
ÂłÂł ÂłÂł
Ġðŀ¤ĸðŀ¤¢ðŀ¤¥ ðŀ¤£ðŀ¤®ðŀ¤³
Ġðŀ¤ģðŀ¤Ģðŀ¤Īðŀ¤Į ðŀ¤ļðŀ¤Ģ
les s
com e
Ġðŀ¤Ĩðŀ¤¢ðŀ¤§ ðŀ¤¼ðŀ¤«ðŀ¤¬
Ġðŀ¤Ĵðŀ¤ĵ ðŀ¤ħðŀ¤ĵðŀ¤Ĭ
Ġðŀ¥ĵðŀ¥Ķ ðŀ¥Ĳ
Ġðŀ¤ħðŀ¤µðŀ¤±ðŀ¤Ń ðŀ¤§ðŀ¤¢
Ġdes sous
Ġðŀ¤¸ðŀ¤¢ðŀ¤¤ðŀ¤¬ ðŀ¤¢ðŀ¤²ðŀ¤®
Ġðŀ¤¸ðŀ¤«ðŀ¤ªðŀ¤§ ðŀ¤Ńðŀ¤²ðŀ¤Ń
Ġðŀ¤¸ðŀ¤«ðŀ¤ªðŀ¤§ ðŀ¤Ńðŀ¤²ðŀ¤£ðŀ¤«
Ġðŀ¤¸ðŀ¤µðŀ¤¤ðŀ¤© ðŀ¤Ńðŀ¤²ðŀ¤«
Ġðŀ¤¸ðŀ¤µðŀ¤¤ðŀ¤© ðŀ¤Ńðŀ¤²ðŀ¤Ń
Ġðŀ¤¥ðŀ¤µðŀ¤§ðŀ¤Ńðŀ¤£ ðŀ¤¯ðŀ¤¢
Ġðŀ¤±ðŀ¤«ðŀ¤²ðŀ¤ºðŀ¤Ń ðŀ¤¤ðŀ¤Ń
ca in
ĠD ownload
ĠD hib
Ġn ous
ðŀ¤²ðŀ¤¢ðŀ¤² ðŀ¤®ðŀ¤²ðŀ¥ĭðŀ¤£ðŀ¤Ńðŀ¤ªðŀ¤¢ðŀ¤¤
ðŀ¤µðŀ¤£ðŀ¤µ ðŀ¤´ðŀ¤¢ðŀ¤²ðŀ¤³ðŀ¤«
Ġðŀ¤²ðŀ¤µ ðŀ¤µðŀ¤²
ðŀ¤¤ðŀ¤² ðŀ¤¢ðŀ¤²ðŀ¤®
Ġðŀ¤³ðŀ¤¢ðŀ¤¼ ðŀ¤¢ðŀ¤ª
Ġðŀ¤³ðŀ¤¢ðŀ¤¼ ðŀ¤®ðŀ¤¤ðŀ¤Ńðŀ¤³ðŀ¤Ń
Ġðŀ¤§ðŀ¤«ðŀ¤´ ðŀ¤£ðŀ¤Ńðŀ¤²ðŀ¤¢
Ġðŀ¤ĳðŀ¤¢ðŀ¤ª ðŀ¤¼ðŀ¤«
Ġðŀ¤ĳðŀ¤ī ðŀ¤ľ
Ġðŀ¥ĥ ðŀ¤¢
Ġðŀ¤ħðŀ¤¢ðŀ¤¬ ðŀ¤¼
Ġðŀ¤ħðŀ¤¢ðŀ¤¬ ðŀ¤¢ðŀ¤¤ðŀ¤©ðŀ¤«
Ġðŀ¤¬ðŀ¤Ńðŀ¤¼ ðŀ¤²ðŀ¤¢
Ġðŀ¤Ħðŀ¤¢ðŀ¤²ðŀ¤º ðŀ¤µðŀ¤ªðŀ¤¢
Ġðŀ¤Ħðŀ¤¢ðŀ¤²ðŀ¤º ðŀ¤¤ðŀ¤¢ðŀ¤£ðŀ¤«ðŀ¤§
Ġðŀ¤Ħðŀ¤¢ðŀ¤²ðŀ¤º ðŀ¤Ńðŀ¤¤ðŀ¤¢ðŀ¤£ðŀ¤«ðŀ¤§
Ġðŀ¤ļðŀ¤Īðŀ¤Į ðŀ¤Ĩðŀ¤ĥ
Ġðŀ¤Įðŀ¤¦ ðŀ¤¢ðŀ¤§ðŀ¤¢ðŀ¤²ðŀ¤¶ðŀ¤®
Ġðŀ¤¸ðŀ¤«ðŀ¤» ðŀ¤Ń
Ġðŀ¤Īðŀ¤ī ðŀ¤Ķðŀ¤īðŀ¤Ĩ
Ġðŀ¤Īðŀ¤ī ðŀ¤Ĭðŀ¤Ħðŀ¤ĭ
Ġðŀ¤Ģðŀ¤¬ðŀ¤ªðŀ¤Ń ðŀ¤³ðŀ¤Ń
ðŀ¤·ðŀ¤« ðŀ¤¤ðŀ¤«
Ġðŀ¤°ðŀ¤® ðŀ¤©ðŀ¤Ń
Ġðŀ¤¶ðŀ¤Ńðŀ¤© ðŀ¤¢ðŀ¤´ðŀ¤«
Ġðŀ¤©ðŀ¤«ðŀ¤´ðŀ¤£ðŀ¤® ðŀ¤ªðŀ¤«ðŀ¤²
Ġðŀ¤´ðŀ¤«ðŀ¤±ðŀ¤¼ðŀ¤µ ðŀ¤ºðŀ¤Ńðŀ¤¤
Ġðŀ¤ºðŀ¤®ðŀ¤¥ðŀ¤¯ðŀ¤Ńðŀ¤² ðŀ¤¼ðŀ¤¢
Ġðŀ¤¢ðŀ¤´ðŀ¤¦ ðŀ¤Ńðŀ¤²
Ġme ille
Ġwrit e
Ġwrit ing
Ġcon se
Ġðŀ¤Ĩðŀ¤«ðŀ¤²ðŀ¤§ðŀ¤Ńðŀ¤¤ ðŀ¤¾ðŀ¤¢ðŀ¤²
Ġðŀ¤»ðŀ¤¢ðŀ¤±ðŀ¤²ðŀ¤£ðŀ¤Ńðŀ¤ª ðŀ¤¯ðŀ¤«
Ġðŀ¤»ðŀ¤¢ðŀ¤±ðŀ¤²ðŀ¤£ðŀ¤Ńðŀ¤ª ðŀ¤³ðŀ¤Ń
ct ion
ct ob
je ct
se ure
ver n
Ġy ou
Ġy ear
ĠEn glish
ĠEn dang
ĠEn fin
Ġðŀ¤İ ðŀ¤īðŀ¤ļ
Ġðŀ¤İ ðŀ¤«ðŀ¤±ðŀ¤¤ðŀ¤µ
Ġðŀ¤¥ðŀ¤¢ðŀ¤¸ ðŀ¤¢ðŀ¤²ðŀ¤¢
Ġðŀ¤¥ðŀ¤¢ðŀ¤ªðŀ¤® ðŀ¤³
Ġðŀ¤¤ðŀ¤«ðŀ¤¤ ðŀ¤²ðŀ¤µðŀ¤ºðŀ¤®ðŀ¤¤
Ġðŀ¤§ðŀ¤¢ðŀ¤º ðŀ¤¢ðŀ¤ªðŀ¤¢
Ġðŀ¤§ðŀ¤¢ðŀ¤º ðŀ¤¢ðŀ¤ªðŀ¤¢ðŀ¤±ðŀ¤®ðŀ¤¤
Ġðŀ¤ĳðŀ¤®ðŀ¤¤ ðŀ¤®ðŀ¤ªðŀ¤¢ðŀ¤£ðŀ¤®
Ġðŀ¤´ðŀ¤¢ðŀ¤²ðŀ¤º ðŀ¤Ń
Ġðŀ¤´ðŀ¤¢ðŀ¤²ðŀ¤º ðŀ¤¢ðŀ¤²ðŀ¤Ń
Ġðŀ¤¶ðŀ¤®ðŀ¤¤ ðŀ¤³ðŀ¤µ
ðŀ¤±ðŀ¤«ðŀ¤² ðŀ¤¼ðŀ¤Ńðŀ¤§
ðŀ¤¢ðŀ¤´ðŀ¤² ðŀ¤¢ðŀ¤²ðŀ¤³ðŀ¤®
Ġðŀ¤ĥðŀ¤Ģðŀ¤Ĳ ðŀ¤ĵðŀ¤ıðŀ¤īðŀ¤Ĥ
Ġðŀ¤Ĳðŀ¤Ģðŀ¤Ĳ ðŀ¤ĺðŀ¤ĭ
Ġðŀ¤©ðŀ¤®ðŀ¤ª ðŀ¤²ðŀ¤Ń
ðŀ¤¯ðŀ¤Ńðŀ¤¯ ðŀ¤¢ðŀ¤©ðŀ¤®
ðŀ¤¯ðŀ¤Ńðŀ¤¯ ðŀ¤¢ðŀ¤©ðŀ¤«ðŀ¤ªðŀ¤«
Ġðŀ¤¦ðŀ¤Ń ðŀ¤®ðŀ¤¤
Ġðŀ¤¦ðŀ¤Ń ðŀ¤¤ðŀ¤Ńðŀ¤´ðŀ¤®ðŀ¤²
Ġðŀ¤Ĭðŀ¤īðŀ¤Ĥ ðŀ¤Ĳðŀ¤ĺðŀ¤Į
Ġðŀ¤¼ðŀ¤¢ðŀ¤±ðŀ¤² ðŀ¤®ðŀ¤ªðŀ¤£ðŀ¤«
Ġðŀ¤ĸðŀ¤¢ðŀ¤¤ ðŀ¤¬ðŀ¤Ńðŀ¤²ðŀ¤¢
Ġðŀ¤ĸðŀ¤¢ðŀ¤± ðŀ¤¼ðŀ¤¢
ðŀ¤ĳðŀ¤Ģðŀ¤ĥ ðŀ¤īðŀ¤Īðŀ¤ĵðŀ¤Ĳ
Ġðŀ¤Ķðŀ¤¢ðŀ¤± ðŀ¤¯ðŀ¤Ńðŀ¤²ðŀ¤®
Ġðŀ¤£ðŀ¤µðŀ¤» ðŀ¤µðŀ¤£ðŀ¤«
Ġðŀ¤£ðŀ¤µðŀ¤» ðŀ¤Ńðŀ¤¼ðŀ¤Ńðŀ¤ªðŀ¤Ń
Ġðŀ¤Īðŀ¤Į ðŀ¤ĳ
Ġðŀ¤Īðŀ¤Į ðŀ¤ĥ
Ġðŀ¤Īðŀ¤®ðŀ¤³ ðŀ¤Ńðŀ¤´ðŀ¤¢
Ġðŀ¤¤ðŀ¤¢ðŀ¤²ðŀ¤£ðŀ¤® ðŀ¤ªðŀ¤«
Ġðŀ¥ĵðŀ¥ĸ ðŀ¥ķ
Ġðŀ¤²ðŀ¤¶ðŀ¤®ðŀ¤ª ðŀ¤£ðŀ¤Ń
Ġðŀ¤¥ðŀ¤µðŀ¤ªðŀ¤¼ðŀ¤¢ðŀ¤² ðŀ¤ºðŀ¤®ðŀ¤¤
ðŀ¤Ĩðŀ¤ī ðŀ¤İ
Ġðŀ¤¬ðŀ¤Ńðŀ¤¶ðŀ¤¢ðŀ¤² ðŀ¤¢ðŀ¤´ðŀ¤²ðŀ¤®
Ġðŀ¥ĸðŀ¥ĵ ðŀ¥Ĵ
oni ous
Ġsu bd
Ġsu ite
Ġsu ivant
ÂłĠÂłĠÂłĠÂłĠÂłĠÂłĠÂłĠÂłĠ ÂłĠÂłĠÂłĠÂłĠÂłĠÂłĠÂłĠÂłĠ
Ġðŀ¤Ģðŀ¤²ðŀ¤¼ðŀ¤®ðŀ¤² ðŀ¤Ńðŀ¤´ðŀ¤®
ĠtÃ©lÃ© vision
Ġphot o
nH e
nM y
ĠrÃ© da
ðŀ¤²ðŀ¤¢ðŀ¤± ðŀ¤¤ðŀ¤Ń
ðŀ¤¤ðŀ¤Ńðŀ¤ª ðŀ¤¢ðŀ¤²ðŀ¤¢
Ġðŀ¤¸ðŀ¤Ńðŀ¤ª ðŀ¤§ðŀ¤Ń
Ġðŀ¤¸ðŀ¤Ńðŀ¤²ðŀ¥ĭ ðŀ¤£ðŀ¤µ
Ġðŀ¤§ðŀ¤µðŀ¤² ðŀ¤Ńðŀ¤²ðŀ¤Ń
Ġðŀ¤ĳðŀ¤¢ðŀ¤§ ðŀ¤¥ðŀ¤Ń
Ġðŀ¤´ðŀ¤¢ðŀ¤± ðŀ¤¼ðŀ¤Ńðŀ¤²ðŀ¤Ń
Ġðŀ¤²ðŀ¤ºðŀ¤µðŀ¤ª ðŀ¤£ðŀ¤¢ðŀ¤²
ðŀ¤´ðŀ¤Ńðŀ¤ª ðŀ¤¢ðŀ¤²ðŀ¤¢ðŀ¤²ðŀ¤®
ðŀ¤´ðŀ¤Ńðŀ¤ª ðŀ¤¦ðŀ¤µðŀ¤ºðŀ¤®ðŀ¤¤
Ġðŀ¤±ðŀ¤®ðŀ¤²ðŀ¤£ðŀ¤µ ðŀ¤©ðŀ¤«
Ġðŀ¤ħðŀ¤Ģðŀ¤Ĳ ðŀ¤ĳ
Ġðŀ¤ħðŀ¤Ģðŀ¤ĥ ðŀ¤ĵðŀ¤Īðŀ¤Ģ
Ġðŀ¤ħðŀ¤®ðŀ¤ªðŀ¤® ðŀ¤¨ðŀ¤®ðŀ¤ºðŀ¤Ń
Ġðŀ¤ħðŀ¤¢ðŀ¤¸ðŀ¤ªðŀ¤« ðŀ¤³ðŀ¤¢ðŀ¤¤ðŀ¤Ń
Ġðŀ¤Ħðŀ¤® ðŀ¤³ðŀ¤«
Ġðŀ¤ĸðŀ¤«ðŀ¤§ ðŀ¤µðŀ¤ªðŀ¤µ
Ġðŀ¤ģðŀ¤Ģðŀ¤Ī ðŀ¤Ĭðŀ¤ĵ
Ġðŀ¤¨ðŀ¤®ðŀ¤ª ðŀ¤¯ðŀ¤Ńðŀ¤²ðŀ¤¢ðŀ¤´
Ġðŀ¤¶ðŀ¤®ðŀ¤¥ðŀ¤¦ ðŀ¤Ńðŀ¤²ðŀ¥ĭðŀ¤£ðŀ¤Ńðŀ¤ªðŀ¤Ń
Ġðŀ¤¶ðŀ¤®ðŀ¤¥ðŀ¤¦ ðŀ¤Ńðŀ¤²ðŀ¤£ðŀ¤Ńðŀ¤ªðŀ¤¢
Ġðŀ¤ļðŀ¤µðŀ¤¥ ðŀ¤¦ðŀ¤®
Ġðŀ¤¸ðŀ¤«ðŀ¤° ðŀ¤µðŀ¤ºðŀ¤®ðŀ¤¤
Ġðŀ¤ıðŀ¤Ń ðŀ¤ºðŀ¤µ
Ġðŀ¤ıðŀ¤Ń ðŀ¤¤ðŀ¤Ńðŀ¤´ðŀ¤¢ðŀ¤¥
Ġðŀ¤¯ðŀ¤®ðŀ¤¬ ðŀ¤¼ðŀ¤Ń
Ġðŀ¤¯ðŀ¤®ðŀ¤¬ ðŀ¤¼ðŀ¤¢
Ġðŀ¤Ĥðŀ¤ĵ ðŀ¤ĳ
Ġðŀ¤Ĥðŀ¤Įðŀ¤Ĳ ðŀ¤ļðŀ¤Į
Ġðŀ¤Ĥðŀ¤Įðŀ¤Ĳ ðŀ¤ļðŀ¤Įðŀ¤Ĳ
Ġðŀ¤Ĵðŀ¤ĭ ðŀ¤Ģ
Ġðŀ¤ĭðŀ¤¦ ðŀ¤µðŀ¤ªðŀ¤¢
Ġðŀ¤Ģðŀ¤¤ðŀ¤¹ ðŀ¤µðŀ¤ª
Ġðŀ¤ķðŀ¤®ðŀ¤º ðŀ¤«ðŀ¤¤
Ġðŀ¥ĳðŀ¥Ļðŀ¥ĵ ðŀ¥ĵ
Ġðŀ¤©ðŀ¤«ðŀ¤´ðŀ¤£ðŀ¤¢ðŀ¤² ðŀ¤¢ðŀ¤´
nðŀ¤ħðŀ¤«ðŀ¤¤ ðŀ¤«ðŀ¤²
Ġðŀ¤ĥðŀ¤µðŀ¤§ðŀ¤¤ ðŀ¤Ńðŀ¤¥ðŀ¤¢
Ġðŀ¤Ŀðŀ¤¢ðŀ¤ª ðŀ¤¦ðŀ¤Ńðŀ¤´ðŀ¤¢
Ġðŀ¤¸ðŀ¤µðŀ¤²ðŀ¤¶ðŀ¤Ń ðŀ¤³ðŀ¤«
Ġðŀ¤¸ðŀ¤µðŀ¤©ðŀ¤Ńðŀ¤²ðŀ¥ĭ ðŀ¤£ðŀ¤¢ðŀ¤¤
Ġðŀ¤¸ðŀ¤µðŀ¤©ðŀ¤Ńðŀ¤²ðŀ¥ĭ ðŀ¤£ðŀ¤¢ðŀ¤ºðŀ¤®ðŀ¤¤
Ġðŀ¤ĥðŀ¤¢ðŀ¤´ðŀ¤³ðŀ¤®ðŀ¤ªðŀ¤® ðŀ¤§ðŀ¤®ðŀ¤¬ðŀ¤¼
Ġðŀ¤²ðŀ¤£ðŀ¤¢ðŀ¤´ðŀ¤º ðŀ¤Ńðŀ¤²ðŀ¤Ń
Ġðŀ¤²ðŀ¤£ðŀ¤¢ðŀ¤´ðŀ¤º ðŀ¤Ńðŀ¤²ðŀ¤Ńðŀ¤ªðŀ¤Ń
Ġðŀ¤»ðŀ¤«ðŀ¤¥ðŀ¤¦ ðŀ¤«ðŀ¤¼ðŀ¤«
.Â» \
CI FD
CI GU
gh tnes
nA ssistant
pon s
ĠðĿĻ ıðĿĻĸðĿĻ
Ġoc casion
Ġoc tob
ðŀ¤®ðŀ¤¥ðŀ¤« ðŀ¤³ðŀ¤¢
ðŀ¤²ðŀ¤¶ðŀ¤® ðŀ¤±ðŀ¤®
ðŀ¤²ðŀ¤¶ðŀ¤® ðŀ¤±ðŀ¤¢ðŀ¤©ðŀ¤®
ðŀ¥ħðŀ¥ħ ðŀ¥ħ
Ġðŀ¤²ðŀ¤Ńðŀ¤¥ ðŀ¤§ðŀ¤Ń
Ġðŀ¤²ðŀ¤¶ðŀ¤«ðŀ¤ª ðŀ¤¼ðŀ¤Ńðŀ¤²ðŀ¤Ńðŀ¤ªðŀ¤Ń
Ġðŀ¤³ðŀ¤«ðŀ¤ª ðŀ¤²ðŀ¤µðŀ¤£ðŀ¤µðŀ¤¯ðŀ¤«
Ġðŀ¤¥ðŀ¤®ðŀ¤²ðŀ¤® ðŀ¤¨ðŀ¤®ðŀ¤¤ðŀ¤¢
Ġðŀ¤¬ðŀ¤¢ðŀ¤¤ ðŀ¤¶ðŀ¤«ðŀ¤ªðŀ¤«
Ġðŀ¤ĳðŀ¤µðŀ¤¥ðŀ¤¨ ðŀ¤Ńðŀ¤¼ðŀ¤¢ðŀ¤¤
Ġðŀ¤´ðŀ¤«ðŀ¤° ðŀ¤µðŀ¤£ðŀ¤«
ðŀ¤§ðŀ¤Ńðŀ¤´ ðŀ¤¢ðŀ¤²ðŀ¤¢
Ġðŀ¤ħðŀ¤Ńðŀ¤¥ ðŀ¤®ðŀ¤²
Ġðŀ¤ħðŀ¤īðŀ¤Ĳ ðŀ¤īðŀ¤Ĳðŀ¤ĺðŀ¤Ģðŀ¤Ĥ
Ġðŀ¤ħðŀ¤ĭðŀ¤ĥ ðŀ¤Įðŀ¤Ĳ
Ġðŀ¤ĥðŀ¤Ģðŀ¤Ī ðŀ¤ļðŀ¤īðŀ¤Ĳ
ðŀ¤Ĳðŀ¤Ħ ðŀ¤¢ðŀ¤¼ðŀ¤µ
ðŀ¤Ĳðŀ¤Ħ ðŀ¤Ģðŀ¤ļðŀ¤ĵ
Ġðŀ¤Ĳðŀ¤£ ðŀ¤¢ðŀ¤³ðŀ¤¢ðŀ¤ª
Ġðŀ¤Ĳðŀ¤£ ðŀ¤¢ðŀ¤³ðŀ¤¢
Ġðŀ¤Ħðŀ¤®ðŀ¤ª ðŀ¤£ðŀ¤®
Ġðŀ¤Ħðŀ¤«ðŀ¤´ ðŀ¤¶ðŀ¤Ńðŀ¤²ðŀ¤º
Ġðŀ¤Ĭðŀ¤¢ðŀ¤² ðŀ¤¼
Ġðŀ¤Ĭðŀ¤¢ðŀ¤² ðŀ¤¢ðŀ¤§ðŀ¤Ńðŀ¤´ðŀ¤®ðŀ¤¤
ðŀ¤¨ðŀ¤«ðŀ¤¼ ðŀ¤®ðŀ¤ªðŀ¤¢ðŀ¤²
Ġðŀ¤īðŀ¤¼ðŀ¤Ń ðŀ¤´ðŀ¤«
Ġðŀ¤īðŀ¤¼ðŀ¤Ń ðŀ¤´ðŀ¤«ðŀ¤²
Ġðŀ¤īðŀ¤Ī ðŀ¤ģðŀ¤Įðŀ¤ıðŀ¤Ģðŀ¤Ĳ
Ġðŀ¤īðŀ¤ĥ ðŀ¤ĭðŀ¤Ĥðŀ¤ĭðŀ¤Ĵ
Ġðŀ¤Ķðŀ¤¢ðŀ¤² ðŀ¤¢ðŀ¤²ðŀ¤Ńðŀ¤ªðŀ¤Ń
Ġðŀ¤ªðŀ¤¢ðŀ¤¯ ðŀ¤Ńðŀ¤³ðŀ¤«
Ġðŀ¤ªðŀ¤®ðŀ¤± ðŀ¤¼ðŀ¤Ńðŀ¤ªðŀ¤¢
Ġðŀ¤ªðŀ¤¢ðŀ¤½ ðŀ¤¢ðŀ¤¥ðŀ¤«
Ġðŀ¤ªðŀ¤¢ðŀ¤½ ðŀ¤¢ðŀ¤¥ðŀ¤«ðŀ¤ªðŀ¤«
ðŀ¥ĭðŀ¤ģðŀ¤ĭ ðŀ¤Īðŀ¤Ģðŀ¤Ĥ
Ġðŀ¤´ðŀ¤®ðŀ¤© ðŀ¤¼ðŀ¤¢ðŀ¤ºðŀ¤®ðŀ¤¤
ðŀ¤ĥðŀ¤Ģðŀ¤ĳ ðŀ¤Įðŀ¤Īðŀ¤Įðŀ¤Ĳ
ðŀ¤ļðŀ¤Ģðŀ¤Ĳ ðŀ¤ĳðŀ¤ī
Ġðŀ¤ıðŀ¤ĭðŀ¤Ĳ ðŀ¤ģðŀ¤ĭ
Ġðŀ¤ıðŀ¤ĭðŀ¤Ĳ ðŀ¤Ĭðŀ¤Īðŀ¤ĭ
Ġðŀ¤Ĥðŀ¤Ńðŀ¤² ðŀ¤³ðŀ¤®ðŀ¤¤ðŀ¤²
Ġðŀ¤Ĥðŀ¤Ńðŀ¤´ ðŀ¤®ðŀ¤²
Ġðŀ¤Ĥðŀ¤Ńðŀ¤´ ðŀ¤®ðŀ¤²ðŀ¤«ðŀ¤¤
Ġðŀ¤Ĥðŀ¤Ģðŀ¤ĥ ðŀ¤Ģðŀ¤Īðŀ¤Ģ
Ġðŀ¤ĭðŀ¤ª ðŀ¤¢ðŀ¤³
Ġðŀ¤ĭðŀ¤ª ðŀ¤¢ðŀ¤Ĳ
Ġðŀ¤ĭðŀ¤Ĳ ðŀ¤Ģðŀ¤ģ
Ġðŀ¤ĭðŀ¤Ĳ ðŀ¤įðŀ¤ī
Ġðŀ¤¸ðŀ¤¢ðŀ¤³ðŀ¤Ńðŀ¤² ðŀ¤£ðŀ¤Ńðŀ¤²ðŀ¤¢
Ġðŀ¤¼ðŀ¤¢ðŀ¤¼ðŀ¤¥ ðŀ¤Ńðŀ¤¼ðŀ¤¢ðŀ¤²ðŀ¤Ń
nðŀ¤Ĳðŀ¤£ðŀ¤Ń ðŀ¤ºðŀ¤¢
Ġðŀ¤¤ðŀ¤¢ðŀ¤²ðŀ¤£ ðŀ¤®ðŀ¤²ðŀ¥ĭðŀ¤£ðŀ¤Ńðŀ¤ªðŀ¤£ðŀ¤«
Ġðŀ¤¸ðŀ¤«ðŀ¤¯ðŀ¤Ń ðŀ¤¼ðŀ¤®
Ġðŀ¤¸ðŀ¤«ðŀ¤¯ðŀ¤Ń ðŀ¤¼ðŀ¤«
nðŀ¤ĸðŀ¤µ ðŀ¤§ðŀ¤«ðŀ¤´ðŀ¤²
nðŀ¤ħðŀ¤¢ðŀ¤ª ðŀ¤´ðŀ¤Ńðŀ¤²ðŀ¤®
Ã©c ran
Ġdonn er
Ġdonn Ã©
ĠðŁĩ¬ðŁĩ Ń
Ġlum iÃ¨
Ġlum inos
Ġpe u
Ġpe op
ĠAlphabet s
Ġsal le
Ġspok e
Ġspok en
Ġðŀ¤¸ðŀ¤«ðŀ¤²ðŀ¤£ðŀ¤Ńðŀ¤² ðŀ¤¼ðŀ¤¢
Ġðŀ¤Īðŀ¤µðŀ¤¹ ðŀ¤¢ðŀ¤´
nðŀ¤Įðŀ¤² ðŀ¤¼ðŀ¤µðŀ¤¥ðŀ¤¢
Ġðŀ¤¢ðŀ¤´ðŀ¤²ðŀ¤Ńðŀ¤ª ðŀ¤¼ðŀ¤«
Ġðŀ¤¢ðŀ¤´ðŀ¤²ðŀ¤Ńðŀ¤ª ðŀ¤¢ðŀ¤©ðŀ¤«
ĠMus Ã©e
ĠMus eum
ĠFin ancial
ĠFin ally
Ġðŀ¤§ðŀ¤¢ðŀ¤¯ðŀ¤¼ðŀ¤µ ðŀ¤¯ðŀ¤Ń
Ġðŀ¤§ðŀ¤¢ðŀ¤¯ðŀ¤¼ðŀ¤µ ðŀ¤³ðŀ¤µðŀ¤²
Ġðŀ¤´ðŀ¤®ðŀ¤±ðŀ¤®ðŀ¤² ðŀ¤£ðŀ¤Ńðŀ¤ªðŀ¤Ń
Ġwel l
Ġwel come
Ġðŀ¤¸ðŀ¤«ðŀ¤¦ðŀ¤Ńðŀ¤¤ ðŀ¤¢ðŀ¤²ðŀ¤¢
Ġðŀ¤°ðŀ¤«ðŀ¤±ðŀ¤¤ðŀ¤® ðŀ¤±ðŀ¤¢ðŀ¤¤
nðŀ¤ģðŀ¤µ ðŀ¤¦ðŀ¤µðŀ¤²ðŀ¤«ðŀ¤ªðŀ¤«
Ġethn ic
Ġethn ique
Ġðŀ¤¼ðŀ¤¢ðŀ¤§ðŀ¤³ðŀ¤Ń ðŀ¤³ðŀ¤«
Ġrepor ter
Ġðŀ¤Ģðŀ¤£ðŀ¤µðŀ¤²ðŀ¤¢ðŀ¤´ ðŀ¤¢ðŀ¤²ðŀ¤³ðŀ¤®
Ġcour s
Ġcour te
Ġðŀ¤¶ðŀ¤¢ðŀ¤¤ðŀ¤³ðŀ¤Ń ðŀ¤¼ðŀ¤Ń
Ġðŀ¤Ľðŀ¤¢ðŀ¤¤ ðŀ¤¢ðŀ¤±ðŀ¤µ
Ġðŀ¤Ľðŀ¤¢ðŀ¤¤ ðŀ¤¯ðŀ¤Ńðŀ¤²ðŀ¤Ń
Ġðŀ¤Ľðŀ¤Ģðŀ¤Ĥ ðŀ¤Ģðŀ¤ı
Ġðŀ¤Ľðŀ¤Ģðŀ¤Ĥ ðŀ¤Ģðŀ¤ıðŀ¤ĵ
ðŀ¤©ðŀ¤¼ðŀ¤Ńðŀ¤²ðŀ¥ĭ ðŀ¤£ðŀ¤Ńðŀ¤ªðŀ¤¯ðŀ¤Ń
Ġharm onie
Ġharm onious
Ġðŀ¤¬ðŀ¤¢ðŀ¤¸ðŀ¤¥ðŀ¤® ðŀ¤´ðŀ¤¢ðŀ¤´
Ġconviv es
Ġconviv ial
Ġminor ity
Ġminor itÃ©
Educ ational
Educ ative
Interp rÃ¨
Interp reter
ĠØ§ÙĦØ ´Ø±
ĠØ§ÙĦØ ŃÙĬ
ĠNeen e
ĠNeen Ã©
Ġmillion s
di a
lic ations
nF ranÃ§ais
nBe ing
tt ps
ĠO ctob
ĠðŁ ı´ółģ§ółģ
ðŀ¥ħâĢĿ âĢľ
ðŀ¤ªðŀ¤£ ðŀ¤¢ðŀ¤ªðŀ¤Ń
Ġðŀ¤²ðŀ¤«ðŀ¤© ðŀ¤¼ðŀ¤¢
Ġðŀ¤³ðŀ¤¢ðŀ¤±ðŀ¤¼ðŀ¤Ń ðŀ¤¼ðŀ¤¢ðŀ¤¤
Ġðŀ¤³ðŀ¤¢ðŀ¤¥ðŀ¤¦ ðŀ¤¢ðŀ¤²ðŀ¤Ń
Ġðŀ¤¬ðŀ¤¢ðŀ¤¦ ðŀ¤¼ðŀ¤Ńðŀ¤²ðŀ¤¢ðŀ¤²ðŀ¤¼ðŀ¤®
Ġðŀ¤¬ðŀ¤µðŀ¤ª ðŀ¤¼ðŀ¤Ńðŀ¤²ðŀ¤ºðŀ¤®ðŀ¤¤
ðŀ¤Ģðŀ¤² ðŀ¤£ðŀ¤Ńðŀ¤²ðŀ¤®
Ġðŀ¤¼ðŀ¤µðŀ¤¯ðŀ¤¢ðŀ¤² ðŀ¤Ńðŀ¤²ðŀ¤®
Ġðŀ¤ĳðŀ¤Ńðŀ¤² ðŀ¤§ðŀ¤¢ðŀ¤§ðŀ¤¢
Ġðŀ¤ĳðŀ¤¢ðŀ¤´ ðŀ¤ªðŀ¤¢ðŀ¤¦ðŀ¤¢
Ġðŀ¤ĳðŀ¤µðŀ¤¤ ðŀ¤¼ðŀ¤µ
Ġðŀ¤ĳðŀ¤µðŀ¤ªðŀ¤µðŀ¤² ðŀ¤§ðŀ¤Ńðŀ¤§ðŀ¤¢
Ġðŀ¤¶ðŀ¤«ðŀ¤² ðŀ¤¼ðŀ¤¢ðŀ¤ºðŀ¤®ðŀ¤¤
Ġðŀ¤£ðŀ¤¢ðŀ¤²ðŀ¤³ ðŀ¤¢ðŀ¤ºðŀ¤®ðŀ¤¤
Ġðŀ¤£ðŀ¤µðŀ¤¥ðŀ¤¦ðŀ¤µ ðŀ¤ºðŀ¤¢ðŀ¤¤
ðŀ¤īðŀ¤ªðŀ¤£ðŀ¤® ðŀ¤ºðŀ¤¢
Ġðŀ¤¢ðŀ¤¸ ðŀ¤¥ðŀ¤¢ðŀ¤£ðŀ¤µ
Ġðŀ¤ħðŀ¤¢ðŀ¤²ðŀ¤º ðŀ¤¢ðŀ¤ªðŀ¤«
Ġðŀ¤ħðŀ¤ĵðŀ¤Ĳ ðŀ¤Ģðŀ¤ĳ
Ġðŀ¤Ģðŀ¤¶ ðŀ¤¢ðŀ¤ªðŀ¤¦ðŀ¤¢ðŀ¤´
Ġðŀ¤Ģðŀ¤ħ ðŀ¤ĳðŀ¤Ģðŀ¤Ĳ
Ġðŀ¤Ģðŀ¤ªðŀ¤¢ðŀ¤² ðŀ¤µðŀ¤ªðŀ¤µ
Ġðŀ¤Ģðŀ¤¡ ðŀ¤Īðŀ¤Ģðŀ¤Ĭ
Ġðŀ¤ĥðŀ¤Ģðŀ¤ģ ðŀ¤Īðŀ¤ĭðŀ¤ģ
Ġðŀ¤ĥðŀ¤Ģðŀ¤Īðŀ¤ĭ ðŀ¤Ĵðŀ¤Ģðŀ¤ĥ
Ġðŀ¤ºðŀ¤¢ðŀ¤¦ ðŀ¤Ńðŀ¤¼ðŀ¤®
Ġðŀ¤ºðŀ¤«ðŀ¤´ ðŀ¤²ðŀ¤ºðŀ¤®ðŀ¤¤
ðŀ¤Ĳðŀ¤Ķ ðŀ¤īðŀ¤Īðŀ¤ī
ðŀ¤¯ðŀ¤Ńðŀ¤ª ðŀ¤²ðŀ¤®
Ġðŀ¤ĺðŀ¤Ń ðŀ¤¯ðŀ¤®
Ġðŀ¤ĺðŀ¤¢ðŀ¤ª ðŀ¤¬ðŀ¤Ńðŀ¤¤ðŀ¤£
Ġðŀ¤Ħðŀ¤¤ ðŀ¤µðŀ¤¥ðŀ¤¦ðŀ¤«ðŀ¤ªðŀ¤º
Ġðŀ¤Ħðŀ¤®ðŀ¤¤ ðŀ¤§ðŀ¤®ðŀ¤²ðŀ¤¢ðŀ¤ªðŀ¤®
Ġðŀ¤Ħðŀ¤Ģðŀ¤ĥ ðŀ¤Ģðŀ¤ĳðŀ¤Į
Ġðŀ¤Ħðŀ¤Įðŀ¤Ĥ ðŀ¤Ģ
Ġðŀ¤Ħðŀ¤Ģðŀ¤ĳ ðŀ¤Ģðŀ¤Īðŀ¤ĭ
Ġðŀ¤¬ðŀ¤®ðŀ¤´ ðŀ¤ºðŀ¤Ńðŀ¤¼ðŀ¤µ
Ġðŀ¤¦ðŀ¤¢ðŀ¤¥ ðŀ¤¦ðŀ¤µðŀ¤¯ðŀ¤®
Ġðŀ¤¦ðŀ¤µðŀ¤¥ ðŀ¤©ðŀ¤«
Ġðŀ¤Ĭðŀ¤ªðŀ¤Ń ðŀ¤¼ðŀ¤®ðŀ¤²
Ġðŀ¤Ĭðŀ¤®ðŀ¤ª ðŀ¤£
Ġðŀ¤Ĭðŀ¤Ģðŀ¤ı ðŀ¤ĭ
Ġðŀ¤ĸðŀ¤īðŀ¤ħ ðŀ¤īðŀ¤Īðŀ¤ī
Ġðŀ¤ĸðŀ¤Ģðŀ¤ľ ðŀ¤Ģ
Ġðŀ¤īðŀ¤¤ðŀ¤Ńðŀ¤§ ðŀ¤¢ðŀ¤¦ðŀ¤«ðŀ¤¼
Ġðŀ¤·ðŀ¤Ń ðŀ¤±ðŀ¤¼ðŀ¤®
Ġðŀ¤·ðŀ¤®ðŀ¤² ðŀ¤·ðŀ¤Ń
Ġðŀ¤ªðŀ¤«ðŀ¤ª ðŀ¤¯ðŀ¤¢ðŀ¤²ðŀ¤¢
Ġðŀ¤£ðŀ¤µðŀ¤³ ðŀ¤¢ðŀ¤²ðŀ¤¢
Ġðŀ¤ļðŀ¤ĭðŀ¤Ĳ ðŀ¤ĵðŀ¤Ħðŀ¤ĵ
Ġðŀ¤§ðŀ¤µðŀ¤±ðŀ¤Ń ðŀ¤§ðŀ¤¢
Ġðŀ¤±ðŀ¤®ðŀ¤¯ðŀ¤Ń ðŀ¤³ðŀ¤«
Ġðŀ¥ĳðŀ¥ĳðŀ¥ ĺ
Ġðŀ¤ıðŀ¤®ðŀ¤² ðŀ¤£ðŀ¤µðŀ¤£ðŀ¤«
Ġðŀ¤ıðŀ¤¢ðŀ¤ª ðŀ¤¢ðŀ¤¹ðŀ¤¢
Ġðŀ¤ıðŀ¤«ðŀ¤ª ðŀ¤¤ðŀ¤¢ðŀ¤¤
Ġðŀ¤ıðŀ¤Ńðŀ¤²ðŀ¤£ðŀ¤« ðŀ¤ªðŀ¤«
Ġðŀ¤Ĩðŀ¤«ðŀ¤£ ðŀ¤ªðŀ¤®
Ġðŀ¤ĩðŀ¤Ńðŀ¤¯ ðŀ¤¼ðŀ¤Ńðŀ¤²ðŀ¤®
ðŀ¤Ĵðŀ¤Įðŀ¤Ĳ ðŀ¤ĳðŀ¤īðŀ¤ı
Ġðŀ¤Ĥðŀ¤«ðŀ¤ ģ
Ġðŀ¤Ĥðŀ¤īðŀ¤Ĵ ðŀ¤įðŀ¤ī
Ġðŀ¤Ĵðŀ¤Įðŀ¤Ĳ ðŀ¤ļðŀ¤īðŀ¤Īðŀ¤ī
Ġðŀ¤ħðŀ¤Ńðŀ¤³ ðŀ¤¢ðŀ¤ºðŀ¤®
Ġðŀ¤Īðŀ¤«ðŀ¤¨ ðŀ¤Ńðŀ¤¦ðŀ¤¤ðŀ¤Ńðŀ¤²
ðŀ¥ĳðŀ¥Ļðŀ¥ Ļðŀ¥ĵ
Ġðŀ¤ķðŀ¤ĵ ðŀ¤ĩðŀ¤Ģðŀ¤Ĥ
ðŀ¤ĸðŀ¤¢ðŀ¤ª ðŀ¤³ðŀ¤µ
ðŀ¤Ģðŀ¤ĥðŀ¤īðŀ¤Īðŀ¤ĭðŀ¤ĳ ðŀ¤Ģ
ĠØŁ \
ðŀ¤Ĩðŀ¤ĵ ðŀ¤ĺðŀ¤Įðŀ¤Ĳ
Ġðŀ¤´ðŀ¤«ðŀ¤±ðŀ¤¼ðŀ¤« ðŀ¤¼ðŀ¤«ðŀ¤²
Ġtrav ail
Ġðŀ¤¤ðŀ¤®ðŀ¤²ðŀ¤¼ðŀ¤Ńðŀ¤²ðŀ¤Ń ðŀ¤ªðŀ¤«
nðŀ¤Ģðŀ¤² ðŀ¤¼ðŀ¤µðŀ¤©ðŀ¤«
ren ch
ĠðŁĩ¦ ðŁĩ·
ĠðŁĩ© ðŁĩª
ĠðŁĩº ðŁĩ¾
Ġpos ition
Ġðŀ¤¼ðŀ¤«ðŀ¤²ðŀ¤¼ðŀ¤Ńðŀ¤² ðŀ¤®ðŀ¤¤
nðŀ¤Ħðŀ¤ª ðŀ¤¢ðŀ¤§ðŀ¤Ńðŀ¤¤
Ġðŀ¤ħðŀ¤Įðŀ¤Ī ðŀ¤ļðŀ¤ĭðŀ¤ĳðŀ¤ī
Ġðŀ¤ľðŀ¤«ðŀ¤² ðŀ¤§ðŀ¤¢ðŀ¤²
ðĿĻĺðĿĻ ¤ðĿĻ¢
Ġðŀ¤´ðŀ¤¢ðŀ¤²ðŀ¤ºðŀ¤® ðŀ¤£ðŀ¤Ńðŀ¤²ðŀ¤®ðŀ¤³ðŀ¤«
Ġmo re
Ġðŀ¤¸ðŀ¤«ðŀ¤±ðŀ¤¼ðŀ¤Ńðŀ¤¼ðŀ¤® ðŀ¤´ðŀ¤¼ðŀ¤®
Ġðŀ¤¸ðŀ¤«ðŀ¤¦ðŀ¤¤ðŀ¤® ðŀ¤¼ðŀ¤®ðŀ¤²ðŀ¤®
Ġðŀ¤Ĭðŀ¤ĭðŀ¤Ī ðŀ¤ļðŀ¤ĭ
Ġðŀ¤Ĵðŀ¤µðŀ¤¾ðŀ¤«ðŀ¤² ðŀ¤¼ðŀ¤Ńðŀ¤§
nðŀ¤ģðŀ¤«ðŀ¤² ðŀ¤¼ðŀ¤«
Ġreg ards
Ġðŀ¤ģðŀ¤Įðŀ¤Ĵðŀ¤ħ ðŀ¤Ĥðŀ¤īðŀ¤Ĵðŀ¤ģðŀ¤ĭ
Ġðŀ¤±ðŀ¤«ðŀ¤²ðŀ¤¶ ðŀ¤®ðŀ¤²ðŀ¥ĭðŀ¤£ðŀ¤Ńðŀ¤ªðŀ¤®
Ġðŀ¤ıðŀ¤¢ðŀ¥ĥ ðŀ¤Ńðŀ¤²ðŀ¤¼ðŀ¤®ðŀ¤²
Ġðŀ¤ħðŀ¤¢ðŀ¤¬ðŀ¤ª ðŀ¤®ðŀ¤ªðŀ¤£ðŀ¤«
Ġðŀ¤ıðŀ¤Ģðŀ¤Ĵðŀ¤Ĥ ðŀ¤ĵðŀ¤ĺðŀ¤Įðŀ¤Ĥ
Ġðŀ¤¨ðŀ¤¢ðŀ¤¥ðŀ¤¢ðŀ¤ª ðŀ¤®ðŀ¤¤
ðŁİĪ ðŁİĪ
Ġcompt es
Ġðŀ¤¦ðŀ¤¢ðŀ¤ªðŀ¤Ńðŀ¤¤ ðŀ¤¶ðŀ¤Ń
Ġpersonn es
ðŀ¤ĺðŀ¤ĭðŀ¤Ĳðŀ¤īðŀ¤Ĳ ðŀ¤Ģ
At lant
Ala a
BI CIGU
CR IEF
Gu ine
Ha ut
He alth
Vist a
ew s
for m
mand ement
nðŀ¤´ ðŀ¤¢ðŀ¤±ðŀ¤¼ðŀ¤Ń
nApp lications
nEn glish
nDur ing
pli fiÃ©e
¡ðĿĻ ĻðĿĻļ
Ġent itled
Ġro om
ĠIn dia
Ġho mme
Ġiss u
Ġqu i
ĠHP X
Ġint itul
ĹðĿĻĸðĿĻ ¡ðĿĻĻðĿĻļ
ðŀ¤²ðŀ¤ºðŀ¤®ðŀ¤ª ðŀ¤ºðŀ¤µ
ðŀ¤²ðŀ¤¶ðŀ¤¢ðŀ¤¥ ðŀ¤µ
Ġðŀ¤³ðŀ¤¢ðŀ¤© ðŀ¤¢ðŀ¤²ðŀ¤®
Ġðŀ¤³ðŀ¤£ðŀ¤¢ ðŀ¤Ń
ðŀ¤¥ðŀ¤«ðŀ¤¼ ðŀ¤¢ðŀ¤¦ðŀ¤®ðŀ¤¤ðŀ¤¢
ðŀ¤¥ðŀ¤¢ðŀ¤ĳ ðŀ¤®
Ġðŀ¤±ðŀ¤µðŀ¤¥ðŀ¤¦ ðŀ¤¢ðŀ¤¤ðŀ¤£ðŀ¤µ
Ġðŀ¤¥ðŀ¤«ðŀ¤§ ðŀ¤«ðŀ¤¤
Ġðŀ¤¬ðŀ¤«ðŀ¤¼ðŀ¤« ðŀ¤¤
Ġðŀ¤¤ðŀ¤«ðŀ¤² ðŀ¤ºðŀ¤µ
Ġðŀ¤¤ðŀ¤µðŀ¤²ðŀ¤£ðŀ¤® ðŀ¤¼ðŀ¤¢
Ġðŀ¤¼ðŀ¤īðŀ¤¬ ðŀ¤¢ðŀ¤²ðŀ¤®
Ġðŀ¤§ðŀ¤¢ðŀ¤§ ðŀ¤Ńðŀ¤²ðŀ¤«
Ġðŀ¤§ðŀ¤«ðŀ¤¸ ðŀ¤Ńðŀ¤¤ðŀ¤¢
Ġðŀ¤§ðŀ¤«ðŀ¤´ðŀ¤£ðŀ¤Ń ðŀ¤´ðŀ¤¢
Ġðŀ¤ĳðŀ¤Ńðŀ¤´ ðŀ¤«ðŀ¤¬
Ġðŀ¤ĳðŀ¤Ģðŀ¤Ĥ ðŀ¤ĵðŀ¤ĥ
Ġðŀ¤ĳðŀ¤ªðŀ¤µ ðŀ¤³ðŀ¤§
Ġðŀ¤ĳðŀ¤«ðŀ¤²ðŀ¤« ðŀ¤£ðŀ¤Ń
Ġðŀ¤ĳðŀ¤Ģðŀ¤Ĥðŀ¤ĭ ðŀ¤Ĭðŀ¤Ģ
Ġðŀ¤ĳðŀ¤Ģðŀ¤Īðŀ¤Į ðŀ¤ļ
Ġðŀ¤ĳðŀ¤ĭðŀ¤ħ ðŀ¤Ģðŀ¤Ĥ
Ġðŀ¤ĳðŀ¤«ðŀ¤¥ ðŀ¤¢ðŀ¤¤
Ġðŀ¤ĳðŀ¤Ģðŀ¤ĺ ðŀ¤Ģðŀ¤ĥðŀ¤ī
Ġðŀ¤ĳðŀ¤Ĥðŀ¤Į ðŀ¤ģ
Ġðŀ¤ĳðŀ¤īðŀ¤Ĳðŀ¤ĭ ðŀ¤Ĵðŀ¤Ģ
Ġðŀ¤´ðŀ¤¢ðŀ¤´ ðŀ¤¤ðŀ¤Ń
Ġðŀ¤´ðŀ¤«ðŀ¤© ðŀ¤ªðŀ¤«
Ġðŀ¤´ðŀ¤¤ðŀ¤¢ðŀ¤¼ ðŀ¤Ńðŀ¤²ðŀ¤«
Ġðŀ¤¶ðŀ¤¢ðŀ¤´ ðŀ¤²ðŀ¤ºðŀ¤«
Ġðŀ¤¶ðŀ¤«ðŀ¤¤ ðŀ¤µ
Ġðŀ¤¶ðŀ¤¢ðŀ¤©ðŀ¤« ðŀ¤¼ðŀ¤¢
Ġðŀ¤³ðŀ¤®ðŀ¤¬ ðŀ¤¤ðŀ¤«
ðŀ¤±ðŀ¤¼ðŀ¤«ðŀ¤ª ðŀ¤¼ðŀ¤«
ðŀ¤ĭðŀ¤¿ ðŀ¤±ðŀ¤¢
ðŀ¤§ðŀ¤Ńðŀ¤²ðŀ¤« ðŀ¤¼ðŀ¤«
ðŀ¤©ðŀ¤Ńðŀ¤´ ðŀ¤¢ðŀ¤²ðŀ¤³ðŀ¤«
ðŀ¤©ðŀ¤µðŀ¤¯ ðŀ¤¢ðŀ¤¥
ðŀ¤©ðŀ¤Ńðŀ¤²ðŀ¤³ ðŀ¤Ńðŀ¤²ðŀ¤¢ðŀ¤ºðŀ¤®ðŀ¤¤
Ġðŀ¤£ðŀ¤µðŀ¤¥ðŀ¤¦ ðŀ¤«
Ġðŀ¤ħðŀ¤¢ðŀ¤²ðŀ¤³ ðŀ¤¢ðŀ¤ªðŀ¤¢
Ġðŀ¤ħðŀ¤µðŀ¤¤ðŀ¤µ ðŀ¤¸ðŀ¤µ
Ġðŀ¤ħðŀ¤Ģðŀ¤Ĭ ðŀ¤Īðŀ¤Į
Ġðŀ¤ħðŀ¤Ģðŀ¤Īðŀ¤Ĥ ðŀ¤Įðŀ¤Ĳ
Ġðŀ¤ħðŀ¤¢ðŀ¤²ðŀ¤µ ðŀ¤§ðŀ¤Ń
ðŀ¤Įðŀ¤³ðŀ¤§ðŀ¤Ń ðŀ¤£ðŀ¤¢ðŀ¤²
Ġðŀ¤Ģðŀ¤¨ ðŀ¤«ðŀ¤±
Ġðŀ¤Ģðŀ¤³ðŀ¤µ ðŀ¤¬ðŀ¤®
Ġðŀ¤Ģðŀ¤Ħðŀ¤ĭ ðŀ¤Ķðŀ¤Ģðŀ¤Ĳ
Ġðŀ¤Ģðŀ¤²ðŀ¤£ ðŀ¤ªðŀ¤«
Ġðŀ¤ĥðŀ¤Ńðŀ¤¼ ðŀ¤·ðŀ¤®ðŀ¤¤
Ġðŀ¤ĥðŀ¤¢ðŀ¤§ ðŀ¤¢ðŀ¤²ðŀ¤¼ðŀ¤¢
Ġðŀ¤ĥðŀ¤ĭðŀ¤Ĳ ðŀ¤ĭðŀ¤ħðŀ¤ĥðŀ¤Ģ
Ġðŀ¤ĥðŀ¤¾ ðŀ¤®ðŀ¤¥ðŀ¤«ðŀ¤³ðŀ¤¢
Ġðŀ¤ĥðŀ¤µðŀ¤²ðŀ¤£ðŀ¤®ðŀ¤¤ ðŀ¤Ńðŀ¤²ðŀ¤ºðŀ¤¢
Ġðŀ¤ºðŀ¤«ðŀ¤¤ ðŀ¤£ðŀ¤Ńðŀ¤²ðŀ¤Ń
Ġðŀ¤ºðŀ¤µðŀ¤¥ðŀ¤¦ ðŀ¤¢ðŀ¤¤ðŀ¤¯ðŀ¤Ń
ðŀ¤Ĳðŀ¤Ģðŀ¤ľ ðŀ¤ĭðŀ¤Īðŀ¤ĭ
Ġðŀ¤Ĳðŀ¤īðŀ¤Ĵ ðŀ¤ĥðŀ¤Ģðŀ¤Ī
Ġðŀ¤Ĳðŀ¤¢ðŀ¤¥ðŀ¤Ńðŀ¤¦ ðŀ¤Ńðŀ¤´ðŀ¤¢
Ġðŀ¤ĺðŀ¤«ðŀ¤´ ðŀ¤Ń
Ġðŀ¤ĺðŀ¤ªðŀ¤µ ðŀ¤¨
Ġðŀ¤ĺðŀ¤Ńðŀ¤¼ðŀ¤« ðŀ¤ªðŀ¤«ðŀ¤§
Ġðŀ¤ĳðŀ¤®ðŀ¤±ðŀ¤Ń ðŀ¤£
Ġðŀ¤Ħðŀ¤Ńðŀ¤´ ðŀ¤«ðŀ¤²ðŀ¤«ðŀ¤¥ðŀ¤«
Ġðŀ¤Ħðŀ¤®ðŀ¤¼ ðŀ¤¤ðŀ¤«
Ġðŀ¤Ħðŀ¤µðŀ¤ªðŀ¤µðŀ¤² ðŀ¤£ðŀ¤Ń
Ġðŀ¤Ħðŀ¤ĭðŀ¤Ĥðŀ¤ĭ ðŀ¤ľðŀ¤Įðŀ¤ĺðŀ¤ĭ
Ġðŀ¤Ħðŀ¤Įðŀ¤ļ ðŀ¤ħðŀ¤ıðŀ¤Ģðŀ¤Ĳðŀ¤Ģ
Ġðŀ¤Ħðŀ¤¢ðŀ¤²ðŀ¤¢ðŀ¤²ðŀ¤³ðŀ¤®ðŀ¤ªðŀ¤® ðŀ¤£ðŀ¤¢
ðŀ¤¬ðŀ¤«ðŀ¤ª ðŀ¤©ðŀ¤«
Ġðŀ¤¦ðŀ¤¢ðŀ¤§ ðŀ¤¢ðŀ¤¤
Ġðŀ¤Ĭðŀ¤µðŀ¤¤ðŀ¤« ðŀ¤ª
Ġðŀ¤Ĭðŀ¤®ðŀ¤²ðŀ¤ºðŀ¤® ðŀ¤´ðŀ¤¢ðŀ¤²ðŀ¤³ðŀ¤«
Ġðŀ¤Ĭðŀ¤¢ðŀ¤ªðŀ¤¢ðŀ¤²ðŀ¤³ðŀ¤® ðŀ¤¬ðŀ¤®ðŀ¤²ðŀ¤Ń
Ġðŀ¤Ĭðŀ¤«ðŀ¤±ðŀ¤¶ðŀ¤® ðŀ¤£ðŀ¤«ðŀ¤ºðŀ¤®ðŀ¤¤
Ġðŀ¤Ĭðŀ¤¢ðŀ¤¤ðŀ¤¼ðŀ¤Ńðŀ¤² ðŀ¤³ðŀ¤®ðŀ¤±ðŀ¤¢ðŀ¤¤
Ġðŀ¤ĸðŀ¤Ńðŀ¤´ ðŀ¤¢ðŀ¤²ðŀ¤§ðŀ¤Ńðŀ¤²
Ġðŀ¤ĸðŀ¤«ðŀ¤´ ðŀ¤ªðŀ¤«
Ġðŀ¤ĸðŀ¤¢ðŀ¤¾ ðŀ¤¢
ðŀ¤ĳðŀ¤Ģðŀ¤Ĥðŀ¤ĭ ðŀ¤Ħðŀ¤Ģ
ðŀ¤ĳðŀ¤¢ðŀ¤ªðŀ¤®ðŀ¤¼ ðŀ¤¶ðŀ¤«
ðŀ¤«ðŀ¤±ðŀ¤«ðŀ¤¤ ðŀ¤¼
ðŀ¤Ńðŀ¤´ðŀ¤«ðŀ¤¦ ðŀ¤¢
Ġðŀ¤ģðŀ¤«ðŀ¤¤ ðŀ¤¼ðŀ¤¢
Ġðŀ¤ģðŀ¤¢ðŀ¤±ðŀ¤µ ðŀ¤³ðŀ¤ªðŀ¤®
Ġðŀ¤īðŀ¤Ķðŀ¤ĭ ðŀ¤Ĩðŀ¤ļ
Ġðŀ¤¨ðŀ¤µðŀ¤´ ðŀ¤²ðŀ¤£ðŀ¤¢ðŀ¤²
Ġðŀ¤Ķðŀ¤Ģðŀ¤Ħ ðŀ¤Ģðŀ¤Ĥðŀ¤Ģðŀ¤Ĥ
Ġðŀ¤Ķðŀ¤ĭðŀ¤Ħðŀ¤ĵ ðŀ¤ļðŀ¤ĭ
Ġðŀ¤¶ðŀ¤®ðŀ¤ºðŀ¤®ðŀ¤ª ðŀ¤¢ðŀ¤²ðŀ¤®
Ġðŀ¤ªðŀ¤«ðŀ¤±ðŀ¤² ðŀ¤«
Ġðŀ¤ªðŀ¤µðŀ¤³ ðŀ¤µðŀ¤²ðŀ¤®
Ġðŀ¤ªðŀ¤®ðŀ¥ģ ðŀ¤«ðŀ¤±ðŀ¤«ðŀ¤¤ðŀ¤¼
ðŀ¤Ĥðŀ¤īðŀ¤ı ðŀ¤Īðŀ¤ĵ
Ġðŀ¤ļðŀ¤Ńðŀ¤§ ðŀ¤«
Ġðŀ¤ļðŀ¤Ģðŀ¤Ĵ ðŀ¤ĭðŀ¤Ĩ
Ġðŀ¤ļðŀ¤¢ðŀ¤³ðŀ¤µ ðŀ¤¦ðŀ¤¢
ðŀ¤ħðŀ¤µðŀ¤¼ ðŀ¤µðŀ¤ªðŀ¤¢
ðŀ¤ħðŀ¤ĵðŀ¤ı ðŀ¤ĭðŀ¤ħ
nðŀ¤ĳðŀ¤µðŀ¤¥ðŀ¤¨ ðŀ¤Ńðŀ¤¼ðŀ¤¢ðŀ¤¤
ðŀ¤ĥðŀ¤Ńðŀ¤§ ðŀ¤Ńðŀ¤ªðŀ¤¢
Ġðŀ¤Įðŀ¤¬ðŀ¤µ ðŀ¤±ðŀ¤«ðŀ¤¼
Ġðŀ¤Įðŀ¤¤ðŀ¤«ðŀ¤§ ðŀ¤«ðŀ¤ºðŀ¤µðŀ¤²
ðŀ¤Ģðŀ¤Ĥðŀ¤į ðŀ¤ĭðŀ¤ĥðŀ¤īðŀ¤Īðŀ¤ī
ðŀ¤ļðŀ¤Ģðŀ¤ļ ðŀ¤Ģðŀ¤ĩðŀ¤Ģðŀ¤Ĥ
ðŀ¤ļðŀ¤Īðŀ¤Į ðŀ¤ĥðŀ¤Ĩ
Ġðŀ¤ıðŀ¤¢ðŀ¤§ ðŀ¤Ńðŀ¤²ðŀ¤ºðŀ¤¼ðŀ¤®ðŀ¤²
Ġðŀ¤Ĩðŀ¤®ðŀ¤¼ðŀ¤® ðŀ¤¥ðŀ¤¢ðŀ¤³
Ġðŀ¤Ĩðŀ¤Ģðŀ¤Ĥðŀ¤īðŀ¤ħ ðŀ¤ļðŀ¤ĭ
ðŀ¤§ðŀ¤Ńðŀ¤±ðŀ¤Ńðŀ¤¤ ðŀ¤¶ðŀ¤®
ðŀ¤Ħðŀ¤Įðŀ¤Ĳ ðŀ¥ĭðŀ¤ģðŀ¤ĭðŀ¤Īðŀ¤Ģðŀ¤Ĥ
ðŀ¤Ħðŀ¤īðŀ¤Ĥ ðŀ¤ħðŀ¤ĭðŀ¤ĳ
Ġðŀ¤ĩðŀ¤®ðŀ¤´ ðŀ¤¯ðŀ¤®
ðŀ¤Ĵðŀ¤«ðŀ¤±ðŀ¤¼ðŀ¤Ń ðŀ¤£ðŀ¤¢ðŀ¤¤
Ġðŀ¤Ĥðŀ¤ĵðŀ¤ı ðŀ¤ĭ
Ġðŀ¤Ĥðŀ¤ĵðŀ¤ĥðŀ¤Ħðŀ¤ĵ ðŀ¤ģðŀ¤ī
Ġðŀ¤Ĵðŀ¤µðŀ¤²ðŀ¤¢ðŀ¤µ ðŀ¤¼ðŀ¤«ðŀ¤£
Ġðŀ¤¸ðŀ¤«ðŀ¤©ðŀ¤®ðŀ¤ªðŀ¤¢ðŀ¤´ ðŀ¤²ðŀ¤ºðŀ¤µ
Ġðŀ¤ĭðŀ¤ľ ðŀ¤Ģðŀ¤Ĳ
Ġðŀ¤Īðŀ¤®ðŀ¤± ðŀ¤¢ðŀ¤´ðŀ¤¢ðŀ¤¤
Ġðŀ¤Īðŀ¤īðŀ¤ı ðŀ¤ĩðŀ¤ī
Ġðŀ¤Īðŀ¤«ðŀ¤¶ ðŀ¤«ðŀ¤¨
Ġðŀ¤Īðŀ¤Ģðŀ¤Ĭ ðŀ¤Ģðŀ¤Ĵðŀ¤īðŀ¤Ĥ
Ġðŀ¤Īðŀ¤Ģðŀ¤¡ ðŀ¤Ĭðŀ¤Įðŀ¤Ī
Ġðŀ¤Īðŀ¤ĭðŀ¤ķ ðŀ¤Ģðŀ¤Ĥðŀ¤ĭðŀ¤ħðŀ¤Įðŀ¤Ĳ
Ġðŀ¤Ģðŀ¤¬ðŀ¤ªðŀ¤³ðŀ¤Ń ðŀ¤³
ðŀ¤ĭðŀ¤Ĳðŀ¥ĭðŀ¤ģðŀ¤ĭ ðŀ¤Īðŀ¤Į
Ġðŀ¤°ðŀ¤®ðŀ¤´ ðŀ¤ªðŀ¤«
Ġðŀ¤´ðŀ¤Ńðŀ¤¯ðŀ¤¢ðŀ¤² ðŀ¤¯ðŀ¤®
Ġðŀ¤£ðŀ¤¢ðŀ¤ªðŀ¤¼ðŀ¤¢ðŀ¤² ðŀ¤¢ðŀ¤ºðŀ¤®ðŀ¤¤
Ġðŀ¤©ðŀ¤µðŀ¤ªðŀ¤«ðŀ¤¼ðŀ¤«ðŀ¤² ðŀ¤®
ðŀ¤»ðŀ¤¢ðŀ¤¤ðŀ¤¯ðŀ¤Ń ðŀ¤¥ðŀ¤«ðŀ¤ªðŀ¤«
ÙĬØ¹ Ø©
Ġðŀ¤²ðŀ¤£ðŀ¤Ńðŀ¤¥ðŀ¤¢ðŀ¤² ðŀ¤³ðŀ¤¢
Ġðŀ¤ĵðŀ¤ºðŀ¤¢ðŀ¤² ðŀ¤£ðŀ¤¢
Ġðŀ¤ĥðŀ¤µðŀ¤§ðŀ¤«ðŀ¤¾ ðŀ¤«ðŀ¤²ðŀ¤Ń
Ġtal k
Ġtam isÃ©
Ġtele vision
Ġtire less
Ġtrent e
Ġtea cher
Ġdho o
Ġdoiv ent
Ġðŀ¤ģðŀ¤µðŀ¤¦ðŀ¤¥ðŀ¤µ ðŀ¤´ðŀ¤¢
Ġðŀ¤¬ðŀ¤«ðŀ¤¥ðŀ¤¦ðŀ¤µ ðŀ¤¤ðŀ¤«
Ġlist en
Ġliv re
Ġlie u
Ġpor tait
Ġpla ce
Ġðŀ¤ģðŀ¤®ðŀ¤§ðŀ¤®ðŀ¤² ðŀ¤ºðŀ¤Ń
Ġðŀ¤ģðŀ¤®ðŀ¤¥ðŀ¤Ńðŀ¤² ðŀ¤ºðŀ¤®
Ġaus si
Ġafri cain
Ġacc ueill
Ġsim plifiÃ©e
Ġscre en
Ġskill s
Ġðŀ¤Ģðŀ¤ģðŀ¤īðŀ¤Ĳðŀ¤ĺ ðŀ¤Īðŀ¤Ģ
ĠPro ject
ĠPAI GC
ðŀ¤ªðŀ¤¢ðŀ¤²ðŀ¤§ðŀ¤«ðŀ¤»ðŀ¤«ðŀ¤¥ ðŀ¤¢ðŀ¤²
ĠÙĦÙĦÙĤØ± Ø¶Ø§ÙĪÙĬ
Ġthir ty
Ġðŀ¤¡ðŀ¤īðŀ¤Ĵ ðŀ¤ĳ
ðŀ¤Įðŀ¤Īðŀ¤ļðŀ¤Į ðŀ¤ĺðŀ¤Ģðŀ¤Ĥ
Ġðŀ¤Ĺðŀ¤Ģðŀ¤Īðŀ¤ģðŀ¤Ģðŀ¤ı ðŀ¤ĭðŀ¤Ĵ
Ġmus t
Ġmatch ed
Ġthebri ghtnes
ĠCom mandement
Ġðŀ¤Ŀðŀ¤µðŀ¤±ðŀ¤¢ðŀ¤´ ðŀ¤¤ðŀ¤Ńðŀ¤£
Ġcam e
Ġfoc used
Ġfriendl y
Ġðŀ¤´ðŀ¤µðŀ¤ªðŀ¤¥ðŀ¤®ðŀ¤² ðŀ¤£ðŀ¤Ńðŀ¤ªðŀ¤¢ðŀ¤¤
Ġðŀ¤ģðŀ¤Ńðŀ¤ªðŀ¤«ðŀ¤²ðŀ¤£ ðŀ¤¢ðŀ¤ªðŀ¤¢ðŀ¤²ðŀ¤¢ðŀ¤¬
Ġðŀ¤ģðŀ¤«ðŀ¤¥ðŀ¤¦ðŀ¤« ðŀ¤¤ðŀ¤«
Ġrequ ire
ĠrelÃ ¢che
terrorist es
Ġðŀ¤´ðŀ¤Ńðŀ¤¤ðŀ¤¼ðŀ¤Ńðŀ¤²ðŀ¥ĭ ðŀ¤£ðŀ¤Ńðŀ¤ªðŀ¤¢
Ġðŀ¤ģðŀ¤Įðŀ¤ħðŀ¤ļ ðŀ¤Ģðŀ¤Ĳðŀ¤ĳðŀ¤Į
Ġðŀ¤ģðŀ¤Įðŀ¤ĥðŀ¤ĭðŀ¤Ĳ ðŀ¤ĺðŀ¤Į
nProfes seure
Ġbot h
Ġbrief ly
ĠLear ning
Ġðŀ¤ĥðŀ¤«ðŀ¤£ðŀ¤Ńðŀ¤¼ðŀ¤«ðŀ¤ª ðŀ¤¢ðŀ¤²ðŀ¤«
Ġðŀ¤ĭðŀ¤²ðŀ¤¼ðŀ¤«ðŀ¤ªðŀ¤²ðŀ¤¢ðŀ¤§ ðŀ¤Ńðŀ¤´ðŀ¤®ðŀ¤²ðŀ¤¢ðŀ¤¤
ĠÃ©cri re
ĠÃ©cla irage
ĠÃ©gale ment
Ġligh ting
Ġlign e
ĠGrou p
ĠGendar merie
Ġguest s
ĠDhib bu
Ġðŀ¤Īðŀ¤īðŀ¤Ĭðŀ¤Ħðŀ¤ĭ ðŀ¤Ī
Ġmeille ure
Ġconse il
Ġðŀ¤Ĩðŀ¤«ðŀ¤²ðŀ¤§ðŀ¤Ńðŀ¤¤ðŀ¤¾ðŀ¤¢ðŀ¤² ðŀ¤Ńðŀ¤´ðŀ¤¢
Ġyear s
ĠEndang ered
Ġsubd ued
ĠrÃ©da ction
nAssistant e
ĠðĿĻıðĿĻĸðĿĻ ĹðĿĻĸðĿĻ¡ðĿĻĻðĿĻļ
Ġoctob re
Ġðŀ¤īðŀ¤ĥðŀ¤ĭðŀ¤Ĥðŀ¤ĭðŀ¤Ĵ ðŀ¤Į
ĠlumiÃ¨ re
Ġluminos itÃ©
Ġpeop le
Ġharmonie ux
InterprÃ¨ te
ĠØ§ÙĦØ´Ø± ÙĬØ¹Ø©
ĠØ§ÙĦØŃÙĬ Ø§Ø©
ĠOctob er
ĠðŁı´ółģ§ółģ ¢ółģ
Ġðŀ¤Ģðŀ¤¶ðŀ¤¢ðŀ¤ªðŀ¤¦ðŀ¤¢ðŀ¤´ ðŀ¤¶ðŀ¤¢ðŀ¤²
ðŀ¤Ĵðŀ¤Įðŀ¤Ĳðŀ¤ĳðŀ¤īðŀ¤ı ðŀ¤Ģðŀ¤Ĥ
Ġðŀ¤Īðŀ¤«ðŀ¤¨ðŀ¤Ńðŀ¤¦ðŀ¤¤ðŀ¤Ńðŀ¤² ðŀ¤³ðŀ¤®
Atlant ic
BICIGU I
Ġintitul Ã©e
Ġðŀ¤Īðŀ¤Ģðŀ¤¡ðŀ¤Ĭðŀ¤Įðŀ¤Ī ðŀ¤ģ
Ġaccueill i
Ġthebrightnes s
